{"<pad>":0,"<eos>":1,"<|endoftext|>":2,"<|sep|>":3,"!":4,"\"":5,"#":6,"$":7,"%":8,"&":9,"'":10,"(":11,")":12,"*":13,"+":14,",":15,"-":16,".":17,"/":18,"0":19,"1":20,"2":21,"3":22,"4":23,"5":24,"6":25,"7":26,"8":27,"9":28,":":29,";":30,"<":31,"=":32,">":33,"?":34,"@":35,"A":36,"B":37,"C":38,"D":39,"E":40,"F":41,"G":42,"H":43,"I":44,"J":45,"K":46,"L":47,"M":48,"N":49,"O":50,"P":51,"Q":52,"R":53,"S":54,"T":55,"U":56,"V":57,"W":58,"X":59,"Y":60,"Z":61,"[":62,"\\":63,"]":64,"^":65,"_":66,"`":67,"a":68,"b":69,"c":70,"d":71,"e":72,"f":73,"g":74,"h":75,"i":76,"j":77,"k":78,"l":79,"m":80,"n":81,"o":82,"p":83,"q":84,"r":85,"s":86,"t":87,"u":88,"v":89,"w":90,"x":91,"y":92,"z":93,"{":94,"|":95,"}":96,"~":97,"¡":98,"¢":99,"£":100,"¤":101,"¥":102,"¦":103,"§":104,"¨":105,"©":106,"ª":107,"«":108,"¬":109,"®":110,"¯":111,"°":112,"±":113,"²":114,"³":115,"´":116,"µ":117,"¶":118,"·":119,"¸":120,"¹":121,"º":122,"»":123,"¼":124,"½":125,"¾":126,"¿":127,"À":128,"Á":129,"Â":130,"Ã":131,"Ä":132,"Å":133,"Æ":134,"Ç":135,"È":136,"É":137,"Ê":138,"Ë":139,"Ì":140,"Í":141,"Î":142,"Ï":143,"Ð":144,"Ñ":145,"Ò":146,"Ó":147,"Ô":148,"Õ":149,"Ö":150,"×":151,"Ø":152,"Ù":153,"Ú":154,"Û":155,"Ü":156,"Ý":157,"Þ":158,"ß":159,"à":160,"á":161,"â":162,"ã":163,"ä":164,"å":165,"æ":166,"ç":167,"è":168,"é":169,"ê":170,"ë":171,"ì":172,"í":173,"î":174,"ï":175,"ð":176,"ñ":177,"ò":178,"ó":179,"ô":180,"õ":181,"ö":182,"÷":183,"ø":184,"ù":185,"ú":186,"û":187,"ü":188,"ý":189,"þ":190,"ÿ":191,"Ā":192,"ā":193,"Ă":194,"ă":195,"Ą":196,"ą":197,"Ć":198,"ć":199,"Ĉ":200,"ĉ":201,"Ċ":202,"ċ":203,"Č":204,"č":205,"Ď":206,"ď":207,"Đ":208,"đ":209,"Ē":210,"ē":211,"Ĕ":212,"ĕ":213,"Ė":214,"ė":215,"Ę":216,"ę":217,"Ě":218,"ě":219,"Ĝ":220,"ĝ":221,"Ğ":222,"ğ":223,"Ġ":224,"ġ":225,"Ģ":226,"ģ":227,"Ĥ":228,"ĥ":229,"Ħ":230,"ħ":231,"Ĩ":232,"ĩ":233,"Ī":234,"ī":235,"Ĭ":236,"ĭ":237,"Į":238,"į":239,"İ":240,"ı":241,"Ĳ":242,"ĳ":243,"Ĵ":244,"ĵ":245,"Ķ":246,"ķ":247,"ĸ":248,"Ĺ":249,"ĺ":250,"Ļ":251,"ļ":252,"Ľ":253,"ľ":254,"Ŀ":255,"ŀ":256,"Ł":257,"ł":258,"Ń":259,"Ġì":260,"Ġë":261,"ìĿ":262,"Ġê":263,"íķ":264,"ëĭ":265,"ìĹ":266,"ëĭ¤":267,"ê³":268,"Ġí":269,"ìĿ´":270,"ëĬ":271,"ëĬĶ":272,"ê°":273,"ìĹĲ":274,"ìĦ":275,"ìĿĦ":276,"ìł":277,"ìŀ":278,"ì§":279,"ĠìĿ":280,"ë¡":281,"Ġìŀ":282,"ê³ł":283,"íķĺ":284,"ìĿĺ":285,"ë¡ľ":286,"ë¥":287,"íķľ":288,"ëı":289,"ìľ":290,"ìĭ":291,"¸°":292,"ê°Ģ":293,"Ġìł":294,"ì§Ģ":295,"ìĿĢ":296,"ìķ":297,"ĮĢ":298,"Ĥ¬":299,"âĢ":300,"ë¥¼":301,"ë¦":302,"ê²":303,"ìļ":304,"Ġê°":305,"ìĦľ":306,"ĠìĿ´":307,"Ġìķ":308,"ëıĦ":309,"íķ´":310,"ëĤ":311,"Ġê²":312,"Ġë°":313,"ëĵ":314,"êµ":315,"ê¸°":316,"ìĽ":317,"ë§":318,"ìĸ":319,"Īĺ":320,"Ġë§":321,"Ġì§":322,"ëł":323,"íĸ":324,"ë©":325,"ĠìĹ":326,"ĠìŀĪ":327,"ìľ¼":328,"Ġìĭ":329,"ë¦¬":330,"ë¶":331,"Ġê·":332,"ìĿ¸":333,"ìĬ":334,"ĠìĦ":335,"Ġê³":336,"ëĿ":337,"ĠëĤ":338,"ìľ¼ë¡ľ":339,"ë³":340,"ìŀĲ":341,"Ġìĺ":342,"ë°":343,"ìĭľ":344,"ĥģ":345,"ëĿ¼":346,"ìĤ¬":347,"ìĸ´":348,"ìŀ¥":349,"£¼":350,"ĠëĮĢ":351,"ìĽĲ":352,"Ġê·¸":353,"ë¬":354,"ëĵ¤":355,"Ġëĭ":356,"íĸĪ":357,"ì²":358,"ê³¼":359,"ëĮĢ":360,"Ġì§Ģ":361,"íĻ":362,"ìĹĲìĦľ":363,"ìĺ":364,"ĠìĪĺ":365,"ĠâĢ":366,"Ġë¶":367,"Ġëĵ":368,"ëŁ":369,"Ġêµ":370,"ìłķ":371,"Ġë³":372,"ëŀ":373,"ĠìĤ¬":374,"íĺ":375,"Ġ1":376,"ë¶Ģ":377,"ë©´":378,"ê²Į":379,"ë§Į":380,"Ġìľ":381,"ìĻ":382,"ëħ":383,"ëª":384,"Ġëª":385,"ëį":386,"ìĬ¤":387,"Ġê²ĥ":388,"ëĲ":389,"ĠìłĦ":390,"ìĨ":391,"ëĤĺ":392,"ìĿ¼":393,"Ġíķľ":394,"ļĮ":395,"¹Ħ":396,"ëĭĪ":397,"ìĥģ":398,"ìķĦ":399,"ìłľ":400,"Ġ2":401,"ì¹":402,"´Ģ":403,"Ġê¸°":404,"¡°":405,"Ġëı":406,"ìłģ":407,"Ġìĸ":408,"Ġê°Ģ":409,"ê¸":410,"ĠìķĦ":411,"ë²":412,"¤ĳ":413,"Ġìĭľ":414,"êµŃ":415,"ĥĿ":416,"ìĦ±":417,"Ġíķ":418,"ìĪĺ":419,"ìĹħ":420,"Ġë¬":421,"Ġ<":422,"Ġíķĺ":423,"ì£¼":424,"êµ¬":425,"se":426,"ë¯":427,"ĠíĻ":428,"sep":429,"|>":430,"Ġ<|":431,"Ġìļ":432,"Ġëĵ±":433,"íĻĶ":434,"±°":435,"ë³´":436,"íļĮ":437,"ìłĦ":438,"Ġìłķ":439,"ëħĦ":440,"ìĻĢ":441,"ì°":442,"Ĥ°":443,"ê·":444,"ìļĶ":445,"Ġë³´":446,"Ġíĺ":447,"ĠìĨ":448,"Ĩµ":449,"ìĹĪ":450,"ëıĻ":451,"Ġì°":452,"ë©°":453,"ĠìŀĲ":454,"ê¹":455,"âĢĿ":456,"ĠâĢľ":457,"Ġì£¼":458,"Ġê²½":459,"íĬ":460,"ë¬¸":461,"ĠëĤĺ":462,"ìļ©":463,"ê³Ħ":464,"âĢĻ":465,"ìĤ°":466,"ì¶":467,"Ġì¶":468,"Ġì¤ĳ":469,"íĦ":470,"ĠâĢĺ":471,"Ġê³µ":472,"ì§Ħ":473,"ëªħ":474,"Ġì²":475,"Ġëĭ¤":476,"ĠìĿ¼":477,"ĠìĿ¸":478,"íĥ":479,"Ġìłľ":480,"ì¹ĺ":481,"íķł":482,"ìĨĮ":483,"ĠìľĦ":484,"íĬ¸":485,"ê¹Į":486,"Ġë¶Ģ":487,"ëŁ¬":488,"ìķ¼":489,"Ġ\"":490,"ìĦł":491,"ë¹Ħ":492,"íĦ°":493,"ê°Ħ":494,"00":495,"ëł¤":496,"Ġíĸ":497,"Ġìĥģ":498,"Ġë¯":499,"ìľĦ":500,"Ġìĸ´":501,"Ġë§Ĳ":502,"ĠëĤ´":503,"ê³µ":504,"ĠëĲ":505,"ìĭł":506,"Ġë²":507,"íĸī":508,"ĠêµŃ":509,"ì¡°":510,"ĽĦ":511,"ëĵľ":512,"ë£":513,"Ġ'":514,"ê¸Ī":515,"ëį°":516,"íĮ":517,"±´":518,"ëĭ¹":519,"ìĹ¬":520,"Ġê´Ģ":521,"ê´Ģ":522,"Ġëª¨":523,"Ġ3":524,"Â·":525,"µľ":526,"íŀ":527,"ì²´":528,"ë¬´":529,"íĶ":530,"ëĤľ":531,"ìķĪ":532,"ê°ľ":533,"Ġì¡°":534,"ìļ°":535,"ĠìķĬ":536,"Ġëį":537,"Ġíı":538,"ëĭ¨":539,"Ġìĺ¤":540,"ĠìĦł":541,"ë¯¼":542,"Ġê³ł":543,"ĠìĨĮ":544,"ĳľ":545,"ë§Ī":546,"Ġíķ´":547,"ê±°":548,"íķĻ":549,"ĠìĹĨ":550,"ëĲľ":551,"ìĦ¸":552,"íı":553,"ĠìĿĺ":554,"Ġë§Ī":555,"ĠìĽ":556,"ķĮ":557,"ìŀ¬":558,"ëł¥":559,"Ġìľł":560,"ìĽĶ":561,"ê²½":562,"Ġë¹Ħ":563,"íŀĪ":564,"ĠìĹ¬":565,"ĠìĺĪ":566,"ĠëĦ":567,"ìĹŃ":568,"ìļ´":569,"Ġìµľ":570,"ĳĲ":571,"ĠíĮ":572,"ĠìĹ°":573,"ëĤ´":574,"ìĥĿ":575,"Ġê¸":576,"ìĺģ":577,"Ġê¹":578,"Ġê°ľ":579,"ĠìĻ":580,"Ġìĭł":581,"Ġë§Į":582,"ìĹ°":583,"ì§Ģë§Į":584,"ìĭĿ":585,"ĠëķĮ":586,"ì¡":587,"Ġê±°":588,"Ġëħ":589,"ëĭ¤ëĬĶ":590,"ë¥´":591,"ĠìĬ":592,"ìĭ¤":593,"êµĲ":594,"Ġìļ°":595,"ĠìķĪ":596,"íĨµ":597,"ë¶Ħ":598,"ĠìĦľ":599,"¶Į":600,"Ġë¯¸":601,"ìĪ":602,"ë¯¸":603,"ĠëĶ":604,"ëĲĺ":605,"ëįĺ":606,"ĠíĨµ":607,"ìľł":608,"ì°¨":609,"íĳľ":610,"ĠìĥĿ":611,"Ġë°©":612,"Ġì¹":613,"Ġë°ľ":614,"ĠëıĦ":615,"Ġêµ¬":616,"ê¹Įì§Ģ":617,"Ġì¢":618,"ëŀĺ":619,"ëĦ":620,"ĠíĶ":621,"ìķĺ":622,"ëĭĪëĭ¤":623,"íĴ":624,"ëĿ¼ê³ł":625,"Ġì´":626,"ĠëĨ":627,"¤Ģ":628,"Ġë¬¸":629,"ì¦":630,"Ġê°ķ":631,"Ġì§ĢëĤľ":632,"ë©´ìĦľ":633,"Ġë¬´":634,"ĠìĦ¸":635,"ĠëıĻ":636,"ìĬµ":637,"ìĺ¤":638,"ìĿĮ":639,"ë°ľ":640,"Ġë°Ķ":641,"Ġ4":642,"ĠíĺĦ":643,"íģ":644,"ĠíĬ":645,"ê°ģ":646,"ìĭ¬":647,"Ġ5":648,"ìĸĳ":649,"ë°©":650,"ĠìĤ":651,"ë¬¼":652,"ì¤ĳ":653,"Ġì§Ħ":654,"ì²ľ":655,"ê¶Į":656,"Ġê¹Ģ":657,"ĥĪ":658,"ì¶ľ":659,"íķľëĭ¤":660,"ìĨį":661,"ĠíĸĪ":662,"Ġìĭ¤":663,"ìŀħ":664,"ĠêµĲ":665,"ìĹĲê²Į":666,"íĴĪ":667,"ìłĲ":668,"Ġë¶Ħ":669,"ë¡Ŀ":670,"íĺ¸":671,"ĠìĦ±":672,"ê±´":673,"Ġìĺģ":674,"ĠìĽĲ":675,"íİ":676,"ëª¨":677,"Ġ20":678,"Ġìŀ¥":679,"Ġë¶Ī":680,"ì²Ń":681,"ëĭ¤ê³ł":682,"ëŀĮ":683,"ë¶ĢíĦ°":684,"ê²ł":685,"Ġê²°":686,"ĠíĻķ":687,"Ī¬":688,"íĥĢ":689,"íĹ":690,"Ġíĥ":691,"ëŁ°":692,"Ġìĺ¬":693,"íĽĦ":694,"ìĦ¤":695,"±ħ":696,"Ġëĺ":697,"ê·¸":698,"ìļ¸":699,"ĠëĶ°":700,"Ġëĭ¹":701,"Ġê³Ħ":702,"ìŀĳ":703,"ë¥¸":704,"Ġëĵ¤":705,"Ġìŀ¬":706,"ìĸµ":707,"Ġì¶Ķ":708,"Ġê°Ĳ":709,"ë°ĺ":710,"ì¢":711,"ë²ķ":712,"ìĦĿ":713,"ëĶ":714,"ĠëįĶ":715,"ĠìĬ¤":716,"Ġë°ĺ":717,"ìŀĦ":718,"Ġë°Ľ":719,"ì´":720,"ĠëĺĲ":721,"Ġëħ¸":722,"ì§ģ":723,"ë£Į":724,"ê¸ī":725,"ĠíĽĦ":726,"´ĳ":727,"Ġì°¨":728,"½Ķ":729,"íķ©":730,"ì¤Ģ":731,"ë²Ī":732,"ë¦°":733,"Ġê°Ļ":734,"ê²©":735,"ìĶ":736,"ĠíĬ¹":737,"ëĬ¥":738,"ëł¨":739,"ĠëĲĺ":740,"ĠëĮĢíķľ":741,"ëĭ¬":742,"íħ":743,"Ġíģ":744,"Ġìŀħ":745,"ĠìľĦíķ´":746,"íĺķ":747,"ê°Ĳ":748,"ê·¼":749,"Ġë§İ":750,"Ġë§¤":751,"ëĳĲ":752,"ĠëĤ¨":753,"ì¢ħ":754,"ìĪł":755,"Ĩł":756,"Ġê±´":757,"ĠëĬ":758,"ìĺĢ":759,"Ġ6":760,"Ġìłģ":761,"ë³¸":762,"Ġì¶ľ":763,"íĶĦ":764,"ĠëĪ":765,"ìľ¡":766,"ê»":767,"ĠìķĮ":768,"ĠìķĦëĭĪ":769,"ì²ĺ":770,"ëĤ¨":771,"ëł¹":772,"Ġë¹":773,"Ġì¦":774,"ĠìĦ¤":775,"ĠíļĮ":776,"Ġë©":777,"ĠìłĢ":778,"ìķ½":779,"Ġëĭ¨":780,"ì¸":781,"ĠíķĻ":782,"ëĿ¼ëĬĶ":783,"íĥľ":784,"ĠìĹ´":785,"Ġíİ":786,"íı¬":787,"Ġëĭ¬":788,"íļ":789,"ĠìĤ¬ëŀĮ":790,"íģ¬":791,"ëłĪ":792,"ĠëĦ¤":793,"ëĵł":794,"íĺĦ":795,"ì§Ī":796,"ĠëĳĲ":797,"íĤ":798,"ëĲĲ":799,"Ġë¬¼":800,"ë¡ł":801,"Ġë°Ŀ":802,"ĠíķľêµŃ":803,"Ġâ":804,"ë§¤":805,"Ġë°°":806,"ëĤł":807,"ìħ":808,"âĢ¦":809,"ĠìĪ":810,"íĭ":811,"íĮĮ":812,"Ġë°ķ":813,"Ġê³¼":814,"ê»ĺ":815,"¤Ħ":816,"ëłĩ":817,"ĠëķĮë¬¸":818,"Ġëª»":819,"íĹĺ":820,"ĠìĹŃ":821,"ëŀĢ":822,"Ġíķł":823,"êµ°":824,"Ġì°¸":825,"ìĬ¹":826,"ìĬµëĭĪëĭ¤":827,"ìłĢ":828,"ëĬĶëį°":829,"ĠíĿ":830,"Ġ7":831,"ĠíĨµíķ´":832,"Ġíıī":833,"Ġìŀĳ":834,"ëĶĶ":835,"ê°ķ":836,"Ġ10":837,"Ġìķŀ":838,"ê²°":839,"ì±ħ":840,"íĿ":841,"Ġì§ģ":842,"Ġì§ĳ":843,"Ġíı¬":844,"íĻĺ":845,"Ġíĸī":846,"Ġíķ¨":847,"Ġìļ°ë¦¬":848,"Ġê¸Ī":849,"ëŁī":850,"Ġìļ´":851,"ë³µ":852,"±Ħ":853,"ĠíĪ¬":854,"ë§Ŀ":855,"ĠìļĶ":856,"Ġëģ":857,"ĠìĥĪ":858,"ì¡Į":859,"ĠíĻľ":860,"ì¼":861,"Ġì§ĢìĹŃ":862,"Ġë°Ŀíĺ":863,"Ġ201":864,"ì¦Ŀ":865,"ì°°":866,"ë£¨":867,"ëŁ¼":868,"Ġ8":869,"Ġì²Ń":870,"ìĶ¨":871,"ìĻ¸":872,"Ġíķľëĭ¤":873,"ë³Ħ":874,"Ġê·¸ëŁ¬":875,"ë²Ħ":876,"ë°Ķ":877,"ĠëĨĴ":878,"ĠëĮĢíķ´":879,"Ġìĸ´ë":880,"ĠíĶ¼":881,"ĠìĻ¸":882,"Ġë¨":883,"íļį":884,"Ġëªħ":885,"ë³´ëĭ¤":886,"íĮĲ":887,"Ġì´Ŀ":888,"ì£":889,"±¸":890,"íĻ©":891,"íİ¸":892,"ĠìĥĿê°ģ":893,"ĠëĴ":894,"·¨":895,"íĨł":896,"Ġë¯¼":897,"¸Į":898,"ĠíĶĦ":899,"Ġë°ĿíĺĶ":900,"Ġë§ŀ":901,"íĥĿ":902,"Ġë°ı":903,"Ġê²Į":904,"ìĺĪ":905,"ĠìłĲ":906,"ëĭ´":907,"Ġíķ¨ê»ĺ":908,"Ġì¢ĭ":909,"Ġì¦Ŀ":910,"ĠíĹ":911,"ë¶ģ":912,"ë¦½":913,"ĠíĮĲ":914,"Ġê²Ģ":915,"Ĩį":916,"ĠìĤ¬ìĹħ":917,"ĠìĤ´":918,"ëª©":919,"ëĲľëĭ¤":920,"Ġì´Ī":921,"ĠíĮĮ":922,"Ġ9":923,"ĠëĮĢíĳľ":924,"ĠìĤ°":925,"Ġìĸĳ":926,"ëĥ":927,"ì¶ķ":928,"íĶ¼":929,"íĸ¥":930,"ë°ķ":931,"ì¡±":932,"ĠìĦľìļ¸":933,"Ġìłķë¶Ģ":934,"ëįĶ":935,"ë¦Ħ":936,"ĠíķĦ":937,"ĠíĻĶ":938,"Ġë¬¸ìłľ":939,"íķŃ":940,"íĤ¤":941,"ë°°":942,"ê´ĳ":943,"ëŀĳ":944,"ì³":945,"ĠëĴ¤":946,"ĠëĲľ":947,"ìĽĮ":948,"Ġëĸ":949,"ìĺ¨":950,"Ġëª©":951,"Ġì²ĺ":952,"íķ¨":953,"ëıĦë¡Ŀ":954,"Ġê²½ìļ°":955,"ĠìĿ´ë²Ī":956,"Ġìĭ¬":957,"ĠìĿ´ìĥģ":958,"Ġê°ģ":959,"ìĨ¡":960,"000":961,"Ġë³¸":962,"ĠìŀĦ":963,"íĨµëł¹":964,"Ġê°Ħ":965,"ĠìĨĲ":966,"Ġì§ĢìĽĲ":967,"ëĵ±":968,"íĻľ":969,"ìł¸":970,"Ġëį°":971,"ì´Ī":972,"íĭ°":973,"Ġê´Ģê³Ħ":974,"Ġì½Ķ":975,"ĠìĿĮ":976,"ëħ¸":977,"ëĦ¤":978,"ë³ĳ":979,"ì¹´":980,"ì§ĳ":981,"ĠëıĮ":982,"ĠìĤ¼":983,"ìľ¨":984,"ë¥ĺ":985,"Ġâĸ":986,"Ġìĸ´ëĸ":987,"Ġì»":988,"ë¨":989,"Ġë³Ģ":990,"ì½Ķ":991,"ĠìľĦíķľ":992,"ĠëĮĢíĨµëł¹":993,"ë¦¼":994,"ëĭĪê¹Į":995,"ĥī":996,"Ġê°ĢëĬ¥":997,"ëıħ":998,"ëł¸":999,"ĠíĻĺ":1000,"Ġê´Ģëł¨":1001,"ë¹":1002,"ëģ":1003,"Ġë¯¸êµŃ":1004,"Ġì¹ĺ":1005,"Ġê·¸ëŁ°":1006,"ìľĦìĽĲ":1007,"Ġë²ķ":1008,"Ġì²´":1009,"Ġìŀĺ":1010,"Łģ":1011,"ĠìĹħ":1012,"Ġê´ĳ":1013,"ĠìĨį":1014,"Ġê²½ê¸°":1015,"Ġìĭľìŀĳ":1016,"íĺĳ":1017,"Ġê±¸":1018,"ìĿ´ëĤĺ":1019,"ë§Ĳ":1020,"ĠëŃ":1021,"ĠëĪĪ":1022,"ìłĪ":1023,"Ġ19":1024,"ê°Ŀ":1025,"ĠëĶ°ëĿ¼":1026,"ë¡Ģ":1027,"ìĤ":1028,"Ġì§ĢëĤľíķ´":1029,"ë´":1030,"Ġëĵľ":1031,"Ġê·¼":1032,"Ġì¤Ħ":1033,"ìĸ¸":1034,"Ġê¸°ìĹħ":1035,"ĠíĴ":1036,"Ġê·ľ":1037,"Ġíĺĳ":1038,"Ġíŀ":1039,"ìŁģ":1040,"ì»":1041,"ìľ¼ë©°":1042,"ê·ľ":1043,"Ġì°¾":1044,"Ġì·¨":1045,"Ġì§Ħíĸī":1046,"Ġíķ©":1047,"Ġì§Ģê¸Ī":1048,"ëĦĪ":1049,"ĠìŀĲìĭł":1050,"ëħĢ":1051,"Ġì¢ħ":1052,"ĠíĥĢ":1053,"Ġíĺ¸":1054,"ê²¬":1055,"Ġì±Ħ":1056,"íĪ¬":1057,"íķ´ìķ¼":1058,"ĠìĿĺìĽĲ":1059,"ëĿ½":1060,"ëłĩê²Į":1061,"ĠíķĦìļĶ":1062,"Ġê°Ģìŀ¥":1063,"Ġìķ½":1064,"ê¸¸":1065,"Ġì¤ĳêµŃ":1066,"Ġë¶ģ":1067,"Ġìĺ¬íķ´":1068,"Ġìĭľìŀ¥":1069,"Ġ200":1070,"ĠìĿ´íĽĦ":1071,"Ġì°½":1072,"ĠìķĦìĿ´":1073,"ìĽĢ":1074,"Ġë§Įëĵ¤":1075,"ĠìĦ¸ê³Ħ":1076,"ëı¼":1077,"ë³Ģ":1078,"ì£ł":1079,"ĠêµŃëĤ´":1080,"íıī":1081,"ì²ĺëŁ¼":1082,"Ġíģ¬":1083,"ĠìĥģíĻ©":1084,"ê·¹":1085,"ĠëĬĺ":1086,"Ġë²Ī":1087,"ìĻĶ":1088,"Ġì¶©":1089,"ê¸°ìĹħ":1090,"ãĨį":1091,"ĠìĿ´ëĤł":1092,"Ġë¡":1093,"ìľµ":1094,"ìķħ":1095,"ëĥĲ":1096,"ĠìĤ¬ìĭ¤":1097,"ĠëĪĦ":1098,"20":1099,"ĠëĦĺ":1100,"Ġì¤Ģ":1101,"ìĿµ":1102,"ĠìĿ´ëŁ°":1103,"Ġëĭ´":1104,"Ġê³Ħíļį":1105,"Ġë¦":1106,"Ġíģ°":1107,"Ġëĭ¤ë¥¸":1108,"Ġëĵ¤ìĸ´":1109,"ì¦Ī":1110,"ëĭĺ":1111,"Ġëª¨ëĳĲ":1112,"ĠìĪľ":1113,"Ġíĳľ":1114,"Ġìµľê·¼":1115,"ĠíĶĦë¡ľ":1116,"ì²ł":1117,"Ġê·¸ë¦¬":1118,"ì¶Ķ":1119,"Ġê´Ģê³ĦìŀĲ":1120,"ëĪ":1121,"íħĮ":1122,"ìĦ¼":1123,"ĠêµĲìľ¡":1124,"ëĿ¼ë©°":1125,"íĿ¬":1126,"ĠìĹĲ":1127,"ëĵĿ":1128,"ìĤ¬ìĹħ":1129,"Ġíİ¸":1130,"ìłĳ":1131,"Ġ11":1132,"Ġë´":1133,"ëĨ":1134,"ĠíĽĦë³´":1135,"ĠìłķëıĦ":1136,"ë°Ľ":1137,"ì³Ĳ":1138,"Ġìĸ¸":1139,"Ġíļ":1140,"Ġìĵ":1141,"į¼":1142,"Ġëħ¼":1143,"ëĲł":1144,"ĠíĬ¹íŀĪ":1145,"Ġíķĺì§Ģë§Į":1146,"ì¡´":1147,"Ġìĺ¨":1148,"Ġë³µ":1149,"ĠìĶ":1150,"ìħĺ":1151,"ĠìĺĪìłķ":1152,"ëŀľ":1153,"ì°½":1154,"ĠëĨį":1155,"Ġíŀĺ":1156,"ëĬĲ":1157,"Ġ12":1158,"Ġë¦¬":1159,"ĠìĻĦ":1160,"Ġìĸ¼":1161,"ĠëŃĲ":1162,"Ġìļ´ìĺģ":1163,"ë²Į":1164,"ìĪľ":1165,"Ġê²½ìłľ":1166,"ĠíĺĦìŀ¬":1167,"ĠìĬ¹":1168,"Ġëıħ":1169,"ìĭľìŀ¥":1170,"ĠìłĪ":1171,"ë¹ĦìĬ¤":1172,"ìĸ´ìļĶ":1173,"ë¸Į":1174,"ëĮĢë¡ľ":1175,"ĠS":1176,"ìĥī":1177,"ĠëĤł":1178,"ĠìĤ¬íļĮ":1179,"ĠëĲł":1180,"ì¹¨":1181,"ĠêµŃë¯¼":1182,"ìķ¡":1183,"ê²¨":1184,"Ġìĭľê°Ħ":1185,"Ġëĭ¤ìĸĳ":1186,"19":1187,"Ġì¶Ķì§Ħ":1188,"ĠëĿ":1189,"Ġíĺķ":1190,"ĠìĿ¼ë³¸":1191,"ì¸µ":1192,"ìĿĳ":1193,"Ġì±ħ":1194,"ë²Ķ":1195,"ĠíķĺëĤĺ":1196,"Ġê·¸ëŀĺ":1197,"ë¶Ī":1198,"Ġêµ°":1199,"Ġì¹ľ":1200,"ëŁ½":1201,"ìĺ¬":1202,"ĠìĤ¬ìļ©":1203,"ĠìĿ´ìłľ":1204,"Ġê°ĸ":1205,"ëĤ¬":1206,"ª½":1207,"Ġëĭ¤ìĭľ":1208,"ë¥ł":1209,"íİĺ":1210,"Ġê²°ê³¼":1211,"ìķł":1212,"Ġì¹´":1213,"ê³³":1214,"ĠíĪ¬ìŀĲ":1215,"ĠëĮĢìĥģ":1216,"Ġíĸ¥":1217,"ĠìĭĿ":1218,"Ġìĭ¶":1219,"ĠëĲĲ":1220,"ãĢ":1221,"ìĹĶ":1222,"ĠíĹĪ":1223,"Ġë²Į":1224,"Ġíĥľ":1225,"ë°±":1226,"¸Ķ":1227,"ê²Ģ":1228,"ĠK":1229,"Ġ30":1230,"ãİ":1231,"ë§ī":1232,"ìĹ´":1233,"¿Ĳ":1234,"ĠìĶ¨":1235,"ì¸ł":1236,"Ġê³³":1237,"ĠìłĦë¬¸":1238,"íĶĮ":1239,"ìµľ":1240,"Ġê°ľë°ľ":1241,"ì§¸":1242,"Ġë©Ķ":1243,"ĠëĶ°ë¥´":1244,"ĠëĬĲ":1245,"ĠíĨł":1246,"Ġë§ī":1247,"íģ¼":1248,"ëĬĶëĭ¤":1249,"ĠìĿ´ìļ©":1250,"ĠìĦ¤ëªħ":1251,"Ġê·¸ëŁ¬ëĤĺ":1252,"ìľ¼ë©´":1253,"Ġë°±":1254,"Ġê¶Į":1255,"ľ´":1256,"ĠíķĻìĥĿ":1257,"ĠëĦĪ":1258,"ê²ĥ":1259,"ìĭŃ":1260,"Ġì²«":1261,"Ġìķ¼":1262,"Ġì¸":1263,"Ġìłĳ":1264,"ĠëĲľëĭ¤":1265,"ì§ĢìĹŃ":1266,"ëĬĺ":1267,"%)":1268,"Ġ15":1269,"ìĬ¤íĬ¸":1270,"ĠíĻį":1271,"Ġê¸Ģ":1272,"Ġê·¸ë¦¬ê³ł":1273,"ĠëģĿ":1274,"ë¨¸":1275,"ë¡ľìļ´":1276,"Ġì¢Ģ":1277,"ĠêµŃê°Ģ":1278,"Ġìŀ¡":1279,"ì¹ľ":1280,"ê±°ëĤĺ":1281,"ĽĪ":1282,"Ġì°¸ìĹ¬":1283,"ìĭľê°Ħ":1284,"Ġê¸°ë¡Ŀ":1285,"Ġë§İìĿ´":1286,"Ġì§Ī":1287,"Ġê¼":1288,"Ġë²Ħ":1289,"ĠìĹ°êµ¬":1290,"Ġê·¸ëłĩ":1291,"ê·ł":1292,"ì¼Ģ":1293,"ìĦ¼íĦ°":1294,"ë¡ľëĤĺ":1295,"ìļ´ëį°":1296,"Ġìķł":1297,"Ġíļ¨":1298,"ëĿ¼ëıĦ":1299,"ĠA":1300,"Ġë¸Į":1301,"Ġíħ":1302,"ëĭ¤ê°Ģ":1303,"Ġì¡°ìĤ¬":1304,"íķĻêµĲ":1305,"Ġì¡":1306,"ĠíĬ¸":1307,"Ġëª¨ìĬµ":1308,"ĠìĤ¼ìĦ±":1309,"ì´Ŀ":1310,"ĠL":1311,"ìĸ´ìĦľ":1312,"êµĲìľ¡":1313,"ĠíķŃ":1314,"Ġìļ©":1315,"Ġì¸¡":1316,"ī´":1317,"ì½":1318,"ìĹĨ":1319,"ĠëĶĶ":1320,"Ġê¸°ëĮĢ":1321,"ĠëĿ¼":1322,"Ġìº":1323,"ĠêµŃíļĮ":1324,"Ġë§ĪìĿĮ":1325,"Ġì»¤":1326,"Ġëľ":1327,"Ġê°Ģìļ´ëį°":1328,"Ġë§Īëł¨":1329,"Ġë¨¹":1330,"ìľĦìĽĲíļĮ":1331,"Ġë¶ĢìĤ°":1332,"Ġì²ľ":1333,"ê°Ī":1334,"Ġê¸°ìĪł":1335,"Ġë¹ł":1336,"ì±Ħ":1337,"Ġíıīê°Ģ":1338,"êµ´":1339,"ĠìķĦëĭ":1340,"¾¸":1341,"Ġìłķì¹ĺ":1342,"Ġê¸¸":1343,"Ġì²ł":1344,"ĠíıŃ":1345,"Ġì£":1346,"ĠëĤĺíĥĢ":1347,"Ġìµľê³ł":1348,"ë©Ķ":1349,"ĠìĿ´ìĸ´":1350,"íĮ¨":1351,"ĠìĿ´ëłĩê²Į":1352,"Ġì¶ķ":1353,"Ġê¸Īìľµ":1354,"ìĭľìķĦ":1355,"Ġë°ľíĳľ":1356,"Ġë¬¸íĻĶ":1357,"Ġë°ľìĥĿ":1358,"Ġë³ĳ":1359,"ëŀ¨":1360,"Ġìłľê³µ":1361,"ĠìĿ´ìľł":1362,"Ġëĳ":1363,"Ġê¸ī":1364,"Ġìĵ°":1365,"íĮĢ":1366,"ĠìŀĲë¦¬":1367,"ìļ±":1368,"íķ´ìĦľ":1369,"ĠìłĦêµŃ":1370,"Ġëĸł":1371,"Ġê°Ī":1372,"Ġìī":1373,"¨ìĸ´":1374,"Ġâĸ³":1375,"ĠìĤ¬ìĿ´":1376,"Ġê²°ìłķ":1377,"ë¦´":1378,"ĠìĦłìĪĺ":1379,"ëĭ¤ë©´":1380,"ĠíĻķëĮĢ":1381,"Ġìĸ´ëĸ¤":1382,"ëĬĶì§Ģ":1383,"Ġê°Ģì§Ģ":1384,"Ġë¯¼ì£¼":1385,"ìĹ¼":1386,"ê¸´":1387,"Ġì²ĺìĿĮ":1388,"Ġë³¼":1389,"ĠëĮĢêµ¬":1390,"ëłĪìĿ´":1391,"Ġëª¨ëĵł":1392,"Ġì£¼ìŀ¥":1393,"ëŀľëĵľ":1394,"Ġê¸°ì¤Ģ":1395,"ĠìłľíĴĪ":1396,"ĠâĹ":1397,"ĠëĤ´ìļ©":1398,"Ġì¦Ŀê°Ģ":1399,"ĠíĮĲë§¤":1400,"ĩ´":1401,"Ġë³´ìĿ´":1402,"ĠíĻķìĿ¸":1403,"ĠìĿ´ë¯¸":1404,"ëĳ":1405,"ìĤ´":1406,"ĠìĿĢ":1407,"Ġìĸ´ëł¤":1408,"ĠëıĻìķĪ":1409,"ìķ¼ê¸°":1410,"ìĿĢíĸī":1411,"íĥĦ":1412,"ĠêµĲìĪĺ":1413,"ĠìĦľë¹ĦìĬ¤":1414,"ĠìµľëĮĢ":1415,"ê·¸ëŀ¨":1416,"Ġìĭľë¯¼":1417,"Ġê³¨":1418,"Ġë¶ģíķľ":1419,"ìĿ´ëĿ¼ê³ł":1420,"ĠíĦ":1421,"ìĤ°ìĹħ":1422,"Ġëĭ¹ìĭľ":1423,"ĠíļĮìŀ¥":1424,"Ġìļ¸":1425,"Ġìŀł":1426,"Ġìĸĺ":1427,"ĠëĮĢíķĻ":1428,"ë§ĪíĬ¸":1429,"Ġê²½ì°°":1430,"Ġìłķì±ħ":1431,"ĠíĮ¨":1432,"Ġì¤ĳìļĶ":1433,"ìŀĪ":1434,"Ġì½":1435,"ĠìłĦë§Ŀ":1436,"ĠíĺĦëĮĢ":1437,"íĺľ":1438,"ëŀµ":1439,"ì°©":1440,"ìŀħëĭĪëĭ¤":1441,"ĠC":1442,"íĺģ":1443,"Ġë¡ľ":1444,"ë£¹":1445,"ĠíĻľëıĻ":1446,"ĠìķĮëł¤":1447,"Ġëª¸":1448,"ë´ī":1449,"Ġì§Ģìłģ":1450,"Ġê·ľëª¨":1451,"ìĿ¸ëĭ¤":1452,"ĠìĿ´ìķ¼ê¸°":1453,"Ġì£¼ë¯¼":1454,"Ġì§ģìłĳ":1455,"ĠëıĮìķĦ":1456,"Ġëª°":1457,"Ġê³¼ìłķ":1458,"Ġë©´":1459,"ëĨĵ":1460,"ĠíĶ¼íķ´":1461,"Ġëĭ¤ìĿĮ":1462,"Ġìĸ´ëĸ»":1463,"ĠíķĻêµĲ":1464,"ëĪĦ":1465,"Ġ100":1466,"ë¬¸íĻĶ":1467,"Ġê°Ĳëıħ":1468,"Ġê°ķì¡°":1469,"ì¼ľ":1470,"Ġê°ķíĻĶ":1471,"Ġì¤Ģë¹Ħ":1472,"ìª½":1473,"Ġëł":1474,"ëħĲ":1475,"ìķĻ":1476,"ëĭµ":1477,"Ġë²ł":1478,"Ġê´Ģìĭ¬":1479,"Ġê²½ìŁģ":1480,"íħľ":1481,"ĠìĤ°ìĹħ":1482,"Ġ13":1483,"Ġíķľíİ¸":1484,"Ġíı¬íķ¨":1485,"Ġìĸĺê¸°":1486,"ì°¬":1487,"ĠìĹ¬ìĦ±":1488,"ĠìĹĦ":1489,"Ġìŀħìŀ¥":1490,"ĠëĨĵ":1491,"íį¼":1492,"ĠíĸīìĤ¬":1493,"ë¡¯":1494,"ĠíĻľìļ©":1495,"Ġë¶ĦìĦĿ":1496,"ĠìĹĨìĿ´":1497,"ê¸Ģ":1498,"ĠìĪĺì¤Ģ":1499,"ĠëĤľ":1500,"Ġë¨¸":1501,"ìłĦìŀĲ":1502,"į¨":1503,"ĠìĺģíĻĶ":1504,"ĠìĿ¼ë¶Ģ":1505,"Ġê·¹":1506,"ê¹Ģ":1507,"ĠìĿ´ë":1508,"Ġ16":1509,"Ġê·¸ëŀĺìĦľ":1510,"ĠìĻľ":1511,"ĠìĽĶ":1512,"Ġ18":1513,"ĠìĤ¬ê±´":1514,"ê¸°ê´Ģ":1515,"Ġê³ĦìĨį":1516,"ĠìłĦì²´":1517,"ĠìĦ±ìŀ¥":1518,"Ġ14":1519,"Ġì½Ķë¡ľëĤĺ":1520,"ê³¡":1521,"ĠìĥĿìĤ°":1522,"ĠëĺĲíķľ":1523,"ì¸¡":1524,"Ġëª»íķĺ":1525,"ĠìĥĪë¡ľìļ´":1526,"Ġì£½":1527,"ê°Ķ":1528,"Ġìĺ¤íĽĦ":1529,"Ġë¬¼ë¡ł":1530,"Ġì¤ĳìĭ¬":1531,"íĻķ":1532,"ĠëĤĺìĺ¤":1533,"Ġê³µê°ľ":1534,"ê±°ë¦¬":1535,"ëĤĺëĿ¼":1536,"ì¦Į":1537,"ĠíĤ":1538,"ĠìļĶêµ¬":1539,"ë°Ģ":1540,"ìĸ´ëĤĺ":1541,"íıŃ":1542,"ĠëĤ®":1543,"Ġêµ¬ìĦ±":1544,"ìĨĮë¦¬":1545,"ĠêµŃìłľ":1546,"ĠíĻĺê²½":1547,"ĠìĺĪìĥģ":1548,"ìĭľìĦ¤":1549,"íĺ¼":1550,"ëŀĲ":1551,"ìĤ¬íļĮ":1552,"ĠìĹ¬ëŁ¬":1553,"Ġë°©ìĨ¡":1554,"ëıĮ":1555,"íĽĪ":1556,"Ġìľ¤":1557,"Ġê´Ģë¦¬":1558,"Ġê³łê°Ŀ":1559,"ëĥĪ":1560,"Ġê°Ģê²©":1561,"ĠìĹ¬ê¸°":1562,"Ġì¶Ķê°Ģ":1563,"ìĹ°êµ¬":1564,"íĮħ":1565,"ê²½ìłľ":1566,"ë²ł":1567,"ìĬ¨":1568,"ìĥĪ":1569,"Ġë§Įíģ¼":1570,"Ġê·¸ëħĢ":1571,"ë¸Ķ":1572,"ìłķë¶Ģ":1573,"Ġëĸ¨ìĸ´":1574,"Ġíķµ":1575,"ĠìĨ¡":1576,"ĠìķĦëĭĮ":1577,"ìĩ":1578,"Ġìľ¡":1579,"ĠìĹŃìĭľ":1580,"Ġíĭ":1581,"ĠíĻ©":1582,"ĠëĮĢë¹Ħ":1583,"ëĦĲ":1584,"Ġ(":1585,"ê³¨":1586,"Ġê´ĳì£¼":1587,"ì§ķ":1588,"ìķĦìļĶ":1589,"ĠìĿĳ":1590,"ĠëĦĪë¬´":1591,"Ġê²Ģì°°":1592,"íĺĢ":1593,"íı°":1594,"ëĿ¼ìĿ¸":1595,"íħĶ":1596,"Ġ25":1597,"ĠëłĪ":1598,"ëľ":1599,"ĠíĶĦë¡ľê·¸ëŀ¨":1600,"Ġëħ¸ëł¥":1601,"íĬ¹":1602,"ìĤ¼":1603,"ĠìĨĮë¹Ħ":1604,"ëĨį":1605,"ĠëıĦìĭľ":1606,"Ġê³µëıĻ":1607,"Ġ50":1608,"ĠìĹ´ë¦°":1609,"Ġìłķë³´":1610,"Ġë³Ħ":1611,"Ġì§Ģë°©":1612,"Ġì¡°ìĦ±":1613,"ĠìĿ¸ì²ľ":1614,"Ġë³´ìĹ¬":1615,"ĠíħĮ":1616,"Ġë°Ķë¡ľ":1617,"ì³¤":1618,"ìŀĲë¦¬":1619,"ìľ¼ëĤĺ":1620,"ĠíĿ¬":1621,"ìĹħì²´":1622,"ĠíļĮìĤ¬":1623,"ĠìķĪìłĦ":1624,"ì§ĢìĽĲ":1625,"ĠëĮĢíķ´ìĦľ":1626,"Ġëı¼":1627,"ĠëįĶìļ±":1628,"Ġ17":1629,"Ġíķ´ìĻ¸":1630,"ĠíıĲ":1631,"ëıĻìķĪ":1632,"ĠìĦłê±°":1633,"ĠëıĪ":1634,"ê´Ģë¦¬":1635,"ĠìĤ¬ëŀĳ":1636,"ĠìĦłìłķ":1637,"Ġëĵ¯":1638,"ĠíĤ¤":1639,"ĠìĥģëĮĢ":1640,"Ġìĥģíĥľ":1641,"Ġë²Ķ":1642,"Ġê¸°ì¡´":1643,"ì·¨":1644,"íĮĮíĬ¸":1645,"Ġíľ´":1646,"ĠìķĦë¬´":1647,"Ġë°©ë¬¸":1648,"Ġë¶Ģë¶Ħ":1649,"ĠìĿ¸ìĤ¬":1650,"ìľĦê¸°":1651,"ëıĦìĭľ":1652,"ĠëĽ":1653,"Ġë¹Ħë¡¯":1654,"ê°ľìĽĶ":1655,"Ġë¶Ħìķ¼":1656,"Ġìłģê·¹":1657,"ëıĻì°¨":1658,"ë°ĸ":1659,"Ġê°ľìĦł":1660,"ìĬ¤íħľ":1661,"Ġìĸ´ëĸ»ê²Į":1662,"ĠM":1663,"ê°Ģì§Ģ":1664,"Ġë¨¼":1665,"Ġë§¡":1666,"ĠìĥĿíĻľ":1667,"Ġì§ĢìĨį":1668,"ĠìĪĺìĤ¬":1669,"ĠíĶĮ":1670,"ìŀ¡":1671,"ĠíĺĦìŀ¥":1672,"ĠëĤ´ëħĦ":1673,"ê³µìĤ¬":1674,"ëĮĢíĳľ":1675,"Ġì¹¨":1676,"ĠìĦ±ê³µ":1677,"Ġë°Ģ":1678,"íļ¨":1679,"ì¶©":1680,"ĢìĿ´":1681,"íĥģ":1682,"ì¡°ìĤ¬":1683,"ëģ¼":1684,"ë¡ľë²Į":1685,"Ġíļ¨ê³¼":1686,"Ġê·Ģ":1687,"ìĨĲ":1688,"Ġì£¼ìļĶ":1689,"ĠíĮĢ":1690,"ëĭ¨ì²´":1691,"Ġê°ľìĿ¸":1692,"ê°ľë°ľ":1693,"Ġìħ":1694,"Ġìĭ¤ìłľ":1695,"Ġê°Ģì¡±":1696,"ëĤ¸":1697,"ìĪĻ":1698,"ĠíĻķë³´":1699,"ĠíĬ¹ë³Ħ":1700,"Ġë¯¸ëŀĺ":1701,"Ġìłģìļ©":1702,"ìĭľíĤ¤":1703,"íĻĺê²½":1704,"ì£Ħ":1705,"ìĸ´ìķ¼":1706,"Ġìķħ":1707,"Ġë¿Ĳ":1708,"ĠI":1709,"ĠìĦ¤ì¹ĺ":1710,"ĠìķĦì§ģ":1711,"ĠëĽ°":1712,"íĿ¥":1713,"ë§ģ":1714,"ĠìĿ¸íĦ°":1715,"ĠíĦ°":1716,"ĠíĥĦ":1717,"ìĽĲìŀ¥":1718,"ìĿ´íĬ¸":1719,"Ġê¸°ìŀĲ":1720,"Ġìĺģíĸ¥":1721,"ĠìĥģìĬ¹":1722,"Ġìĸ»":1723,"ëĦĪì§Ģ":1724,"Ġê¸°ê°Ħ":1725,"ĠíĮĶ":1726,"Ġë³´ìĿ¸ëĭ¤":1727,"10":1728,"Ġê·¸ê²ĥ":1729,"ëķĮ":1730,"ì»¤":1731,"Ġì¦Ĳ":1732,"Ġì¡´":1733,"ê²½ê¸°":1734,"ëįķ":1735,"ê±¸":1736,"ì¿":1737,"íķĳ":1738,"Ġ0":1739,"Ġíİ¼":1740,"ĠìĺĪìĤ°":1741,"ĠìĹŃíķł":1742,"Ġê¿":1743,"íĺ¹":1744,"ĠìĿ´ë¤Ħ":1745,"ĠíĻĪ":1746,"Ġìļ°ëł¤":1747,"ĠìŀĳíĴĪ":1748,"ĠìĹ¬ìŀĲ":1749,"ĠëĤĺìĺ¨":1750,"ìĶ©":1751,"ìĽł":1752,"Ġëĳĺ":1753,"ĠìĿ¼ë°ĺ":1754,"Ġì§ĢëĤľëĭ¬":1755,"ĠìĿ´ë¦Ħ":1756,"ĠìĨĮë¦¬":1757,"ê¸°ìĪł":1758,"ľĺ":1759,"íļĮìĿĺ":1760,"Ġìĸ¼êµ´":1761,"ë¦¬ìķĦ":1762,"Ġìŀ¥ê´Ģ":1763,"Ġì§ģìĽĲ":1764,"ì§Ħëĭ¤":1765,"ê·¸ë£¹":1766,"ìĿ¸ëį°":1767,"Ġìĭ¤ìĭľ":1768,"ìħ¨":1769,"Ġíĺ¼":1770,"Ġê´Ģê´ĳ":1771,"ĠìĥģíĴĪ":1772,"Ġë§ĮëĤĺ":1773,"ĠìĻĶ":1774,"Ġë°ľìłĦ":1775,"íĥĪ":1776,"Ġê¸´":1777,"ìĿ´ìĬ¤":1778,"ì§ľ":1779,"Ġ24":1780,"Ġì±ħìŀĦ":1781,"íĨ":1782,"ë³¼":1783,"Ġì§ĳì¤ĳ":1784,"Ġíķ´ëĭ¹":1785,"ĠìĹŃìĤ¬":1786,"Ġëľ»":1787,"ëį¸":1788,"¶ģ":1789,"Ġìī½":1790,"ĠìķŀìĦľ":1791,"Ġê·¸ëŁ°ëį°":1792,"Ġê±´ê°ķ":1793,"ìĹĨìĿ´":1794,"ĠT":1795,"ê°Ļ":1796,"ĠìĿĺë¯¸":1797,"ìĿ¸ì§Ģ":1798,"ĠëģĮ":1799,"ĠìĽĥ":1800,"ìĻķ":1801,"Ġê°ľìµľ":1802,"Ġìľłì§Ģ":1803,"ĠíĴį":1804,"Ġëª»íĸĪ":1805,"ĠìŀĲê¸°":1806,"Ġë§¤ì¶ľ":1807,"ìĦ°":1808,"ìĿĺìĽĲ":1809,"Ġê·¸ëłĩê²Į":1810,"Ġíģ´":1811,"ìį¨":1812,"30":1813,"Ġëª¨ë¥´":1814,"ì¹ł":1815,"ĠíĽ":1816,"íĴį":1817,"Ġê±´ìĦ¤":1818,"íĹĪ":1819,"Ġë°©ìĭĿ":1820,"ĠëĵľëŁ¬":1821,"ĠìĬ¤íĥĢ":1822,"ĠìĻ¸êµŃ":1823,"Ġìı":1824,"ĠìĹħì²´":1825,"Ġìłķìĥģ":1826,"ì¤":1827,"Ġê¸Ģë¡ľë²Į":1828,"ĠìĪĺì¶ľ":1829,"ĠíĥĪ":1830,"Ġëī´":1831,"Ġìĺ¤ëĬĺ":1832,"ë¶Ģë¶Ħ":1833,"Ġíķ´ê²°":1834,"ë§Īëĭ¤":1835,"Ġê±":1836,"ëłµ":1837,"ëĭ¬ëŁ¬":1838,"Ġìĸ´ëĬĲ":1839,"ë¶Ļ":1840,"íŀĮ":1841,"Ġë³ĢíĻĶ":1842,"ĠìĿĺê²¬":1843,"ĠãĢ":1844,"ĠíĴĢ":1845,"ë¿Ĳ":1846,"Ġ40":1847,"ë¡Ń":1848,"Ġ21":1849,"ĠíĺĲ":1850,"Ġê²½ìĺģ":1851,"ĠìķĦíĮĮíĬ¸":1852,"ìĹĩ":1853,"ìŀĸ":1854,"ë²Ħì§Ģ":1855,"ĠB":1856,"Ġê°ģê°ģ":1857,"ìĿĺíļĮ":1858,"Ġë¯¼ì£¼ëĭ¹":1859,"ëĥ¥":1860,"Ġíİĺ":1861,"ĠìľĦíķ´ìĦľ":1862,"Ġë¶Ģëĭ´":1863,"ĠìŀĲì²´":1864,"Ġëĭµ":1865,"Ġìĭľíĸī":1866,"íķľëĭ¤ëĬĶ":1867,"Ġë¨¼ìłĢ":1868,"ì°¸":1869,"Ġëªĩ":1870,"Ġìĸ´ë¦°":1871,"Ġíıīê·ł":1872,"Ġê³µê¸ī":1873,"Ġê²°êµŃ":1874,"ê²¼":1875,"Ġì°¸ìĦĿ":1876,"ĠìŀĲìľł":1877,"ĠìĬ¤ë§ĪíĬ¸":1878,"Ġì½ĺ":1879,"ĠìĹħë¬´":1880,"Ġìĺ¤ìłĦ":1881,"Ġíķĺë£¨":1882,"ì´Į":1883,"ë°ĸìĹĲ":1884,"Ġëķ":1885,"ëŁ¬ìĬ¤":1886,"ì¤Ħ":1887,"ĠìłĦë¬¸ê°Ģ":1888,"ëĦ·":1889,"ĠíĮĲëĭ¨":1890,"Ġë°©ë²ķ":1891,"Ġì°¾ìķĦ":1892,"íķĦ":1893,"Ġìĺ¬ëĿ¼":1894,"Ġë°©ìķĪ":1895,"ìłĦíŀĪ":1896,"ë¨¼":1897,"Ġ22":1898,"ãİ¡":1899,"ì¶ĺ":1900,"ë¯¼ì£¼":1901,"ĠìĻĢ":1902,"Ġê¸°íļĮ":1903,"ĠíĺĲìĿĺ":1904,"ĠìĦłë³´":1905,"ĠëıĦìŀħ":1906,"Ġëª©íĳľ":1907,"ì£¼ìĿĺ":1908,"ë·":1909,"ĳ¸":1910,"Ġìłķë§Ĳ":1911,"ĠìĦłíĥĿ":1912,"Ġìĸ¼ë§Ī":1913,"ĠëĶ°ë¥¸":1914,"íĶ½":1915,"Ġë¸Įëŀľëĵľ":1916,"ìĻĢëĮĢ":1917,"Ġëħ¸ëıĻ":1918,"ĠëŁ":1919,"Ġê³µìĹ°":1920,"ìº":1921,"Ġì¡°ê¸Ī":1922,"Ī¼":1923,"ĠìĤ¶":1924,"Ġëª©ìĨĮë¦¬":1925,"Ġìĭľì¦Į":1926,"íĩ´":1927,"ëĮĢíļĮ":1928,"Ġ23":1929,"ĠëĬĲëĤ":1930,"ĠëĤ¨ìŀĲ":1931,"ĠìłĦíĸĪ":1932,"ìĿĦê¹Į":1933,"ìĦ¸ìļĶ":1934,"ĠLG":1935,"50":1936,"Ġë¬´ìĹĩ":1937,"ĠëĮĢíļĮ":1938,"ì¶°":1939,"ĠP":1940,"Ġê³łëł¤":1941,"½ĥ":1942,"Ġìķķ":1943,"ë²½":1944,"ìģ":1945,"Ġíķ´ìķ¼":1946,"ĠìĤ¬ìŀ¥":1947,"Ġë´ī":1948,"ĠíĴĪ":1949,"ĠìłĦëŀµ":1950,"Ġì¼":1951,"ĠëĤ´ëł¤":1952,"ê¾¸":1953,"ìķĶ":1954,"Ġìĭłì²Ń":1955,"ë²¤":1956,"ëĬĲëĥĲ":1957,"ë°ĺê¸°":1958,"íģ´":1959,"Ġì¤ĳìĨĮ":1960,"Ġêµ¬ì¶ķ":1961,"ĠìĿ¸ìłķ":1962,"ĠìĪ¨":1963,"ëĵ¯":1964,"ìĹĲìĦł":1965,"Ġê¾¸":1966,"íĪ¬ìŀĲ":1967,"Ġì¶ľìĭľ":1968,"Ġ-":1969,"ĠëĮĢë¶Ģë¶Ħ":1970,"ëł¤ê³ł":1971,"íķľêµŃ":1972,"Ġíĸīìłķ":1973,"Ġì°¨ì§Ģ":1974,"ĠìŀĲìĹ°":1975,"Ġì§ĢëĤĺ":1976,"íĦ´":1977,"ĠìĦĿ":1978,"ĠìĿ´íķ´":1979,"ĠëıĦìĽĢ":1980,"íĭĢ":1981,"ĠìĤ¬ê³ł":1982,"ĠëĤĺìĻĶ":1983,"Ġëħ¼ìĿĺ":1984,"Ġë¹ĦíĮĲ":1985,"Ġê²©":1986,"Ġì°©":1987,"íĥķ":1988,"Ġë³´ëıĦ":1989,"ĠëĮĢìĿĳ":1990,"Ġê¿Ī":1991,"Ġë¡¯":1992,"ì§Ģë§ī":1993,"Ġìĥģëĭ¹":1994,"íĹĮ":1995,"%,":1996,"íĤ¨":1997,"Ġë¸Ķ":1998,"ê¸Īìľµ":1999,"Ġë°°ìļ°":2000,"Ġë°ĺëĮĢ":2001,"Ġ27":2002,"Ġê²¨":2003,"Ġíĺģ":2004,"ĠìºĲ":2005,"ê´":2006,"Ġìłľìŀĳ":2007,"Ġë¡¯ëį°":2008,"ĠSK":2009,"ê·Ģ":2010,"Ġì²ŃìĻĢëĮĢ":2011,"Ġê°ĲìĨĮ":2012,"Ġìłľê¸°":2013,"ìļķ":2014,"ĠìĿ¸ê¸°":2015,"ëĿ¼ë©´":2016,"ìĬ¤íĥĢ":2017,"ìĻĦ":2018,"Ġë§Ľ":2019,"ĠG":2020,"Ġìļ°ìĦł":2021,"Ġ26":2022,"Ġê³µê³µ":2023,"ìī":2024,"Ġë³´ìĺĢ":2025,"ĠìĿ´ìłĦ":2026,"Ġëħ¼ëŀĢ":2027,"ĠìĤ¬ì§Ħ":2028,"ìĿ¸íĬ¸":2029,"Ġê²½íĹĺ":2030,"Ġê°ĲìĤ¬":2031,"íĻľëıĻ":2032,"ĠíĻĺìŀĲ":2033,"Ġíĺĳëł¥":2034,"Ġíķµìĭ¬":2035,"ĠëĤĺê°Ģ":2036,"ìĿ´íĦ°":2037,"Ġì¹ĺë£Į":2038,"ìľ¤":2039,"ìĹĦ":2040,"ĠëĪĦêµ¬":2041,"Ġâĸ²":2042,"ë¡ľë¶ĢíĦ°":2043,"ĠìĺģìĹħ":2044,"ĠëĤĺíĥĢëĤ¬":2045,"Ġë°¤":2046,"ĠíĨµíķ©":2047,"ë¡ľìĦľ":2048,"ìĬ¬":2049,"Ġìĩ":2050,"Ġì¤ĳìķĻ":2051,"Ġ28":2052,"Ģëĵľ":2053,"Ġê¸°ëĬ¥":2054,"¨ë¦¬":2055,"ìłķë³´":2056,"íļĮìĤ¬":2057,"ìļ°ë¦¬":2058,"âĪ¼":2059,"ëĭ¥":2060,"Ġêµ¬ì¡°":2061,"ì£¼íĥĿ":2062,"ĠìĮ":2063,"ëł¤ëĬĶ":2064,"ĠìĭľëĮĢ":2065,"Ġë¶Ļ":2066,"ĠìĽĢ":2067,"ĠëĨĢ":2068,"ìĸ´ëĤľ":2069,"Ġì§Ģì§Ģ":2070,"ĠìĨĮë¹ĦìŀĲ":2071,"Ġíķľëĭ¤ëĬĶ":2072,"ëıĻìĤ°":2073,"ëĿ¼ìĿ´":2074,"Ġì£¼ë³Ģ":2075,"Ġì£¼íĥĿ":2076,"ë³ĳìĽĲ":2077,"ë³¸ë¶Ģ":2078,"Ġì¶ľìĭł":2079,"ê¼":2080,"Ġì¹ľêµ¬":2081,"ĠíĺĦìĭ¤":2082,"Ġê³Ħìķ½":2083,"ĠìŀĲëıĻì°¨":2084,"ë¶Ħê¸°":2085,"Ġë§Īì§Ģë§ī":2086,"ë¬´ìĽĲ":2087,"ì¹Ļ":2088,"ìļ´ëıĻ":2089,"Ġë°ĺë©´":2090,"ĠìĻķ":2091,"Ġìµľì´Ī":2092,"ìĵ":2093,"ìľĦìĽĲìŀ¥":2094,"íıĲ":2095,"Ġë¶ĦìľĦê¸°":2096,"Ġìª½":2097,"Ġìĸ´ëłµ":2098,"Ġìĥ":2099,"íļĮìŀ¥":2100,"âĢĺ":2101,"ì©":2102,"Ġê±°ëŀĺ":2103,"Ġê³µê°Ħ":2104,"201":2105,"Ġë¶Ģì¡±":2106,"Ġë³¸ê²©":2107,"Ġê²½ê¸°ëıĦ":2108,"ìħĶ":2109,"Ġë°ĶëĿ¼":2110,"ìłķì±ħ":2111,"ĠìĭľìĬ¤íħľ":2112,"íľ´":2113,"ì²Ļ":2114,"Ġìĸ¸ë¡ł":2115,"Ġìĸ´ëĶĶ":2116,"ĠìĪĺìĿµ":2117,"Ġëĭ¬ë¦¬":2118,"ĠìĿ´ëģ":2119,"ìĿ¸ê°Ģ":2120,"ìĨĮëħĦ":2121,"Ġë°©ì¹¨":2122,"Ġì°¸ê°Ģ":2123,"ĠìķĪìłķ":2124,"Ġìłľì£¼":2125,"ĠíĿĶ":2126,"ĠëĤĺëĿ¼":2127,"BS":2128,"ĠëĨĴìĿ´":2129,"ĠìłľëĮĢë¡ľ":2130,"ĠíĻľìĦ±":2131,"íĦ¸":2132,"Ġê²ĢíĨł":2133,"Ġíį¼":2134,"ìķĦìķ¼":2135,"íķ©ëĭĪëĭ¤":2136,"Ġê±°ë¦¬":2137,"Ġê°Ģê¹Į":2138,"Ġìĭ¸":2139,"Ġë°ĸ":2140,"Ġì¡°ìĦł":2141,"Ġì°¨ëŁī":2142,"Ġê¹¨":2143,"ĠâĹĨ":2144,"Ġëĵ£":2145,"Ġë°ĺìĺģ":2146,"Ġ199":2147,"Ġëħ¹":2148,"ìĸ¼":2149,"ĠìĿĺë£Į":2150,"ëłĮ":2151,"Ġê°ĳ":2152,"Ġê°ģì¢ħ":2153,"Ġìłľìĭľ":2154,"ĠëĮĢìĭł":2155,"Ġê¸°ë³¸":2156,"íħĲ":2157,"ĠìĪĺìļĶ":2158,"ĠëıĻìĭľ":2159,"ĠìłľëıĦ":2160,"Ġê´":2161,"ĠìľĦê¸°":2162,"ë¹ł":2163,"ĠìłĦìĭľ":2164,"Ġê¹Ĭ":2165,"Ġê°ľìłķ":2166,"ĠëĮĢì±ħ":2167,"ĠëĮĢíĺķ":2168,"ëī´":2169,"Ġì£¼ëª©":2170,"ìĥĿíĻľ":2171,"Ġì¡°ì¹ĺ":2172,"Ġì¡°ì§ģ":2173,"ëĭ¨ì§Ģ":2174,"Ġë°ĶëŀĮ":2175,"âĢĻ,":2176,"Ġê³µê²©":2177,"ĠíĻķìĤ°":2178,"º¼":2179,"ìĬ¤ëŁ¬":2180,"ìĬ¤ëŁ½":2181,"ë¦¬ê·¸":2182,"Ġê²ª":2183,"¢°":2184,"ĠìĭľìĦ¤":2185,"Ġìľłì¹ĺ":2186,"ĠìĹ°ê¸°":2187,"ĠìķĮëł¤ì¡Į":2188,"Ġì´ī":2189,"ìĤ¬ìŀ¥":2190,"Ġì§Ģê¸ī":2191,"Ġê°ĻìĿ´":2192,"ê±°ëĵł":2193,"ìĽĥ":2194,"Ġê°Ģì¹ĺ":2195,"ë¦Ń":2196,"ĠìľłëŁ½":2197,"Ġë¶Ħìĸĳ":2198,"Ġì²ĺë¦¬":2199,"ìĬ¤íģ¬":2200,"Ġìŀĳê°Ģ":2201,"Ġì±":2202,"ê³Ħíļį":2203,"ĠìĿĮìķħ":2204,"ìŀĲìĿ¸":2205,"ĠìķĦë²Ħì§Ģ":2206,"ë¦°ëĭ¤":2207,"ĠìľĦìĽĲìŀ¥":2208,"ĠìĦ¸ìĥģ":2209,"ĠëĬ¥":2210,"Ġëį§":2211,"ê¿":2212,"ĠìĹ¬íĸī":2213,"Ġìĺ¨ëĿ¼ìĿ¸":2214,"Ġíķ©ìĿĺ":2215,"ë¦¼íĶ½":2216,"íķľëĭ¤ê³ł":2217,"ĠF":2218,"ëĶĶìĸ´":2219,"ĠìĿ¼ìŀĲë¦¬":2220,"Ġê²¬":2221,"ĠëĦ£":2222,"Ġìļ°ìĬ¹":2223,"ĠìŀĶ":2224,"Ġìļ¸ìĤ°":2225,"ìĺ¥":2226,"Ġíĩ´":2227,"Ġë³´ëĤ´":2228,"ĠE":2229,"ë§¹":2230,"Ġë¨¸ë¦¬":2231,"ìĶĢ":2232,"ë¢°":2233,"Ġê²½ëĤ¨":2234,"ĠíĳľíĺĦ":2235,"ĠìŀĳìĹħ":2236,"ê°ĳ":2237,"Ġìļ´ëıĻ":2238,"Ġíķ´ìĦľ":2239,"ëª»":2240,"ìĿ´ì§Ģ":2241,"ëĿ¼ë§Ī":2242,"ëĪĦë¦¬":2243,"íı¬ì¸ł":2244,"Ġ29":2245,"ĠìĿ¸ìłľ":2246,"ĠìĽĢì§ģ":2247,"ĠìĪĺëıĦ":2248,"ì¢Į":2249,"ĠìĿ¼ìłķ":2250,"Ġëĵ¤ìĸ´ê°Ģ":2251,"Ġìµľì¢ħ":2252,"Ġíĺģìĭł":2253,"ìĺĪìļĶ":2254,"ì§Ŀ":2255,"ĠìĤ¬ë¬´":2256,"ë³µì§Ģ":2257,"Ġì²ŃëħĦ":2258,"ĠëĺĲëĬĶ":2259,"ê±´ìĦ¤":2260,"ë°ľìłĦ":2261,"ĠìłĦíĻĶ":2262,"®¤":2263,"Ġë§ĲìĶĢ":2264,"Ġì§Ħì¶ľ":2265,"ĠìľĦíĹĺ":2266,"ì¦ĺ":2267,"ĠíĿĲ":2268,"íķĻìĥĿ":2269,"ë¨¸ëĭĪ":2270,"ĠìĤ¬ë¡Ģ":2271,"ê³¤":2272,"Ġìļ°ìĪĺ":2273,"ĠìĦľë¡ľ":2274,"ĠìľĦì¹ĺ":2275,"ĠíĹ¤":2276,"Ġì§Ģìłķ":2277,"ĠìłĦê¸°":2278,"Ġë°ĶìĿ´":2279,"ĠìĿ¸ìĥģ":2280,"ĠìĿĺíĺ¹":2281,"ĠìĪĻ":2282,"ĠêµĲíĨµ":2283,"ìĦ¸ê³Ħ":2284,"ëįĶëĿ¼ëıĦ":2285,"Ġê¸°ê´Ģ":2286,"ĠìĨĮê°ľ":2287,"ìĦ¸ëĮĢ":2288,"Ġê¸°ë°ĺ":2289,"Ġë¯¿":2290,"Ġ60":2291,"ĠìĿ¸ê°Ħ":2292,"Ġë´Ĳ":2293,"25":2294,"Ġì¦ī":2295,"ĠìĿĢíĸī":2296,"íĻį":2297,"Ġê³µìĭĿ":2298,"Ġëª¨ëį¸":2299,"ìĬ¤ë¡ľ":2300,"Ġì»¨":2301,"ìĦłê±°":2302,"Ġë¹Ħíķ´":2303,"Ġëį§ë¶Ļ":2304,"ëŁ´":2305,"ĠD":2306,"Ġë§Įëĵł":2307,"ëª°":2308,"ĠíļĮìĿĺ":2309,"ê·ľëª¨":2310,"ĠëĤĻ":2311,"18":2312,"Ġê³¼ê±°":2313,"ìĦŃ":2314,"ĠìĿĺìĤ¬":2315,"ë§Įíģ¼":2316,"Ġíķ´ëıĦ":2317,"ĠìĹ¬ë¶Ģ":2318,"Ġë²Ĺ":2319,"Ġê³łìļ©":2320,"Ġì§ķ":2321,"Ġê²ĢìĤ¬":2322,"ë³´íĹĺ":2323,"Ġëª»íķľ":2324,"Ġìŀ¥ê¸°":2325,"Ġë³ĳìĽĲ":2326,"ĠìĿ½":2327,"ĠìłĬ":2328,"Ġì§ĢëıĦ":2329,"Ġë¶ĢëıĻìĤ°":2330,"Ġë¬´ìĬ¨":2331,"¨¸":2332,"ĠëĮĢìłĦ":2333,"Ġìĸ´ë¨¸":2334,"ĠíĮ¬":2335,"ë¦¬ìĬ¤":2336,"Ġì²´íĹĺ":2337,"ê°Ģêµ¬":2338,"ĠìłĦëĭ¬":2339,"Ġìłķìĭł":2340,"ìķĦìĦľ":2341,"ĠìķĶ":2342,"ë°ĶìĿ´":2343,"ĠìĦ¤ë¦½":2344,"ĠìĿ´ëıĻ":2345,"ĠìĨĮìĨį":2346,"Ġíĺľ":2347,"ĠìĦ±ê³¼":2348,"ëĮĢíķĻ":2349,"ëłĢ":2350,"ĠíĿ¬ë§Ŀ":2351,"ĠëĤĺëĪ":2352,"ĠìĿĮìĭĿ":2353,"ĠêµŃìłķ":2354,"Ġë§ĪìĿĦ":2355,"Ġê°ĲìĹ¼":2356,"ĠìļĶì²Ń":2357,"íľĺ":2358,"íĶĪ":2359,"Ġê³§":2360,"ĠëĮĢìĦł":2361,"ĠìĿ´ëŁ¬":2362,"íķľíħĮ":2363,"íĺĳíļĮ":2364,"ìĬĪ":2365,"ĠìłĦíĻĺ":2366,"ï¼":2367,"ë¯¼êµŃ":2368,"Ġê³µìĤ¬":2369,"ĠíķĺëĿ½":2370,"Ġìķī":2371,"Ġê·ľìłľ":2372,"Ġì¢ħíķ©":2373,"Ġë°ľê²¬":2374,"Ġìºł":2375,"Ġê¸°íļį":2376,"ì¼°":2377,"Ġë³´íĺ¸":2378,"ĠìĦłë°ľ":2379,"Ġë¬´ëĮĢ":2380,"Ġíĸīë³µ":2381,"Ġë¯¼ê°Ħ":2382,"Ġê²ĮìŀĦ":2383,"Ġì¶ľìĹ°":2384,"ãĢį":2385,"ĠëŁ¬":2386,"Ġê³łë¯¼":2387,"Ġê¼½":2388,"Ġê°Ģìŀħ":2389,"Ġë¬»":2390,"ì¹Ń":2391,"ĠìłľìĻ¸":2392,"15":2393,"ĠìĤ¬íĥľ":2394,"ĠìĪľê°Ħ":2395,"ìĩ¼":2396,"ì¹´ëĵľ":2397,"ĠìĿ´ë¥´":2398,"Ġë¹ĦêµĲ":2399,"ëĶ°":2400,"ìļ´ëĵľ":2401,"ĠëĤĺìĦľ":2402,"Ġì¶©ë¶Ħ":2403,"ĠìĽĮ":2404,"ë¹Ī":2405,"ĠìĿ´ê²Į":2406,"ê´Ģê³Ħ":2407,"Ġìŀĩ":2408,"ê·¼íĺľ":2409,"ĠìĤ¼ìĦ±ìłĦìŀĲ":2410,"Ġëį§ë¶ĻìĺĢ":2411,"ĠíĻķì§Ħ":2412,"Ġìŀ¬íĮĲ":2413,"ì¦Ŀê¶Į":2414,"Ġì¢Į":2415,"ĠíĨµíķľ":2416,"Ġê·¼ëį°":2417,"ĠëħĦ":2418,"íĤ¹":2419,"ì¯":2420,"Ġìĭłê·ľ":2421,"ĠìĦłìĥĿ":2422,"er":2423,"ëŀ«":2424,"ĠëĤ´ëĨĵ":2425,"ĠN":2426,"ìķķ":2427,"ĠìĹħê³Ħ":2428,"ĩĮ":2429,"ĠìĬ¤ìĬ¤ë¡ľ":2430,"ĠìĹĦë§Ī":2431,"Ġê·¸ëķĮ":2432,"Ġê·¸ëĮĢë¡ľ":2433,"ê±°ëĵłìļĶ":2434,"Ġì¤ĳìĨĮê¸°ìĹħ":2435,"±ìłķ":2436,"ĠëĤ´ë¶Ģ":2437,"Ġì§Īë¬¸":2438,"ĠëĮĢì¶ľ":2439,"Ġê±°ìĿĺ":2440,"ĠìłĦíĨµ":2441,"Ġì£¼ìĿ¸":2442,"íŀĪëł¤":2443,"Ġê²°íĺ¼":2444,"ĠìĻ¸êµŃìĿ¸":2445,"Ġê¸°ìĸµ":2446,"ìĬ´":2447,"ĠíĽĪ":2448,"Ġìĸ´ë¦°ìĿ´":2449,"Ġê¸°ëĭ¤":2450,"Ġêµ¬ë§¤":2451,"Ġìĸ´ëł¤ìļ´":2452,"íĺ¸ìĤ¬":2453,"Ġë¹Ħìļ©":2454,"ĠìĿ¸íķ´":2455,"ëĶ©":2456,"ĠìķĦëĵ¤":2457,"ìķĦëĵ¤":2458,"ê±°ëŀĺ":2459,"ì´ī":2460,"ĠìŀĲë£Į":2461,"ê³łìĦľ":2462,"íıīê°Ģ":2463,"âĢĻ(":2464,"ë¹Ľ":2465,"Ġëĭ¤ë§Į":2466,"Ġì¡´ìŀ¬":2467,"ĠìĿ¸íĦ°ëĦ·":2468,"Ģë¡ľ":2469,"ê³µìĽĲ":2470,"Ġìĺģìĥģ":2471,"Ġì§Ģì¼ľ":2472,"Ġì´Ŀë¦¬":2473,"ìĦľë¹ĦìĬ¤":2474,"ĠìķĦìĭľìķĦ":2475,"11":2476,"ĠìĹ°ê²°":2477,"Ġê³µìłķ":2478,"in":2479,"ìĸ´ëĵ¤":2480,"ëŁ¼íĶĦ":2481,"ĠëįĶë¶Ī":2482,"Ġë£":2483,"ê°Ĵ":2484,"Ġë³´íĹĺ":2485,"ìĬ¤ì½Ķ":2486,"íħĲì¸ł":2487,"ĠãĢĮ":2488,"ë·°":2489,"ĠíĹĮ":2490,"Ġë³´ìľł":2491,"ĠíĻįë³´":2492,"Ġìĺ¤íŀĪëł¤":2493,"ĠìĬ¬":2494,"Ġë½":2495,"Ġì£¼ìłľ":2496,"Ġê±°ì³Ĳ":2497,"ëĭĿ":2498,"Ġì°¬":2499,"ĠìĪł":2500,"Ġë¶Īê³¼":2501,"Ġê·¸ëĥ¥":2502,"ĠìĿ´ëģĮ":2503,"ĠìĬ¹ë¦¬":2504,"Ġë¥":2505,"íķ´ì¡Į":2506,"Ġíŀĺëĵ¤":2507,"ĠìķĦì£¼":2508,"ĠìłľìķĪ":2509,"íĨµìĭł":2510,"ĠìĪĺìĥģ":2511,"ĠìĹ´ë¦¬":2512,"ĠëĶĶìŀĲìĿ¸":2513,"Ġëħ¸ëŀĺ":2514,"ĠìĿ¸ê·¼":2515,"Ġê±±ìłķ":2516,"Ġ70":2517,"ĠëĤĺìĦ°":2518,"Ġìĺ¤ë¥¸":2519,"ìĬµëĭĪê¹Į":2520,"Ġíĸ¥íĽĦ":2521,"íķµ":2522,"ĠìĹ°ìĨį":2523,"Ġê¼Ń":2524,"ëįĶëĭĪ":2525,"Ġë¹¼":2526,"Ġíĭ°":2527,"ì¯¤":2528,"ĠìĿ´ë£¨":2529,"ëł´":2530,"ĠëĮĢíĻĶ":2531,"ĠìĺģêµŃ":2532,"Ġì¡¸":2533,"ìĿ´ìĿµ":2534,"Ġë°©íĸ¥":2535,"Ġë¹Ī":2536,"Ġìĸ´ë¨¸ëĭĪ":2537,"ĠìµľìĨĮ":2538,"Ġì°¨ìĿ´":2539,"BC":2540,"Ġëĭ¨ì²´":2541,"Ġìĭľì²Ń":2542,"ĠíļĮë³µ":2543,"ĠëĤĺìĺ¨ëĭ¤":2544,"Ġìłľì¶ľ":2545,"ĠìĪĺìŀħ":2546,"ĠíĿĺ":2547,"ìĥ":2548,"ĠìķŀëĳĲ":2549,"12":2550,"Ġì¤ĳëĭ¨":2551,"ĠëĤ©":2552,"Ġë¶Īë²ķ":2553,"ĠìĨĮìŀ¬":2554,"ìĸ´ëıĦ":2555,"ìľ¼ëĭĪ":2556,"ëĸ":2557,"ĠëģĬ":2558,"ìŀĲê¸°":2559,"Ġë§¤ìļ°":2560,"ìĿ´ë²Ī":2561,"íĶĦë¡ľ":2562,"ĠíĶ¼ë¶Ģ":2563,"Ġë§Īì¹ĺ":2564,"ë¬´ë¦¬":2565,"Ġìĭ¤ìłģ":2566,"ĠíĿ¥":2567,"ĠíĻķìłķ":2568,"%),":2569,"ĠìĹĶ":2570,"ìĹ°íķ©":2571,"Ġëĭ¹ìĭł":2572,"ê³łìŀĲ":2573,"Ġìĸ¸ìłľ":2574,"Ġë¹Į":2575,"Ġëįķ":2576,"Ġê¶ģ":2577,"ë´¤":2578,"ëĬĶê°Ģ":2579,"ĠìŀĲê¸Ī":2580,"Ġê°Ģì§Ħ":2581,"íĤ¬":2582,"Ġíĺ¹":2583,"ĠìĹ¬ìłĦíŀĪ":2584,"Ġëķħ":2585,"ĠëĶ¸":2586,"Ġì·¨ìĹħ":2587,"ì»µ":2588,"ë¨¹":2589,"ìĭ¸":2590,"íĸĪìľ¼ë©°":2591,"Ġê±´ë¬¼":2592,"ìĭľë¯¼":2593,"ĠìĹĲëĦĪì§Ģ":2594,"ĠìĿ´ê³³":2595,"Ġìĭľê¸°":2596,"ìĬ¤íĦ°":2597,"ì¶¤":2598,"ìľ¼ë¡ľìĦľ":2599,"on":2600,"íķĻëħĦ":2601,"ĠìĤ¬ìłĦ":2602,"ëłĪìĬ¤":2603,"ëł¤ë©´":2604,"ĠìŀĳëħĦ":2605,"īìŀ¥":2606,"Ġìľłëªħ":2607,"ê³µíķŃ":2608,"ĠìĹ¼":2609,"Ġìŀ¥ìķł":2610,"ëĢ":2611,"ì¿ł":2612,"Ġì£¼ìĭĿ":2613,"ìķŀ":2614,"Ġì¡°ìłķ":2615,"ĠíĨµê³¼":2616,"Ġìŀĥ":2617,"Ġë°ĺìĿĳ":2618,"âĢľ":2619,"200":2620,"40":2621,"ĠìłĦëħĦ":2622,"ì§Ģêµ¬":2623,"Ġì§Ģíķĺ":2624,"êµŃë¯¼":2625,"íĻĢ":2626,"ê²½ì°°":2627,"Ġë¶Ģëª¨":2628,"Ġê²½ë¶ģ":2629,"Ġë§Ŀ":2630,"..":2631,"ìĭľì¼ľ":2632,"ìķĦê°Ģ":2633,"Ġê¸°ëħĲ":2634,"ĠíĮĮìķħ":2635,"Ġìĸ¼ë§ĪëĤĺ":2636,"ìĨĮëĵĿ":2637,"Ġìĥī":2638,"Ġìĺ¬ëŀĲ":2639,"ĠìĺĨ":2640,"Ġê³µë¬´ìĽĲ":2641,"Ġê·ľìłķ":2642,"Ġêµ¬ì²´":2643,"ìķĮ":2644,"ê¸°ê°Ħ":2645,"ìłĿ":2646,"Ġìłľíķľ":2647,"Ġê²ģ":2648,"ĠìĤ¬ë§Ŀ":2649,"ĠìĿ¸ìĭĿ":2650,"Ġì°¨ë¡Ģ":2651,"Ġë³´ëĭ¤":2652,"¬ìĺģ":2653,"Ġê³¼íķĻ":2654,"Ġëĭ´ëĭ¹":2655,"ĠíĪ¬ìŀħ":2656,"Ġëĵ±ìŀ¥":2657,"ìĬ·":2658,"ĠìłĦíĺĢ":2659,"Ġë¶Ģë¬¸":2660,"Ġìŀĺëª»":2661,"Ġëĭ¨ê³Ħ":2662,"Ġë°ľìĸ¸":2663,"Ġì°į":2664,"ĠìħĪ":2665,"Ġìĺ®":2666,"60":2667,"ĠëĤĺìĦł":2668,"ĠìĨĶ":2669,"Ġë¶Ħëªħ":2670,"ĠëĬĲëĤĮ":2671,"ĠìĦ¼":2672,"ìĽ¨":2673,"ĠìĦľìļ¸ìĭľ":2674,"Ġ2012":2675,"ì½ĺ":2676,"ë´Ĳ":2677,"Ġìĩ¼":2678,"Ġê°ķìĽĲ":2679,"ìľ¼ë©´ìĦľ":2680,"ì§ĵ":2681,"ìĪĺë¡Ŀ":2682,"Ġê·¸ëıĻìķĪ":2683,"Ġëŀ":2684,"Ġê³µìŀ¥":2685,"ĠëĵľëĿ¼ë§Ī":2686,"ì§ĢìĤ¬":2687,"Ġê²½ìŁģëł¥":2688,"Ġë³µì§Ģ":2689,"Ġ2010":2690,"ĠëĤ¨ìĦ±":2691,"Ġë°ĶëĢ":2692,"ë§ĪìĿĦ":2693,"ë¦¿":2694,"Ġëĵ±ë¡Ŀ":2695,"80":2696,"ĠìĦ±ìłģ":2697,"ìŀĲì²´":2698,"Ġëľ¨":2699,"Ġ2015":2700,"ìĦľìļ¸":2701,"ĠëıĦë¡ľ":2702,"ĠìıŁ":2703,"ĠìĺĪìĪł":2704,"ĠTV":2705,"ê³¼ìłķ":2706,"21":2707,"Ġê´Ģíķľ":2708,"ĠìĿ´ëĭ¬":2709,"ìłĿíĬ¸":2710,"ëĮĢì±ħ":2711,"Ġëĭ¨ì§Ģ":2712,"Ġê³µë¶Ģ":2713,"ĠìĭľìłĪ":2714,"ĠìĺĪë°©":2715,"ëŀĳìĬ¤":2716,"ĠëıħìĿ¼":2717,"ĠëĬ¥ëł¥":2718,"Ġ31":2719,"ìī¬":2720,"Ġì°½ìĹħ":2721,"Ġì½ĶìĬ¤":2722,"ĠìłĦëĤ¨":2723,"ìĭ±":2724,"ìķĦìĿ´":2725,"ĠìĤ¬ëĿ¼":2726,"ĠìĬ¤ë§ĪíĬ¸íı°":2727,"ìĩĦ":2728,"Ġë¹ĦìĬ·":2729,"êµĲíĨµ":2730,"ìĸ´ì§Ģ":2731,"Ġì°¨ìĽĲ":2732,"ìĹĲìļĶ":2733,"ìĿ´ìħĺ":2734,"ì§ĢìļĶ":2735,"ĠíĺĦì§Ģ":2736,"ĠíĥĿ":2737,"Ġê·¼ë¬´":2738,"íĺĪ":2739,"Ġ2014":2740,"ĠëĤ¨ë¶ģ":2741,"ê°ĢëĬ¥":2742,"ĠíĬ¸ëŁ¼íĶĦ":2743,"Ġì§ĵ":2744,"Ġëĭ¤ê°Ģ":2745,"Ġìŀ¬ìłķ":2746,"Ġêµīìŀ¥":2747,"Ġëļ":2748,"ĠíļĮìĽĲ":2749,"ì¼ĵ":2750,"Ġë¹Ľ":2751,"Ġë©Ģ":2752,"Ġã":2753,"Ġëĭ¤ë¥´":2754,"ë¥¸ëĭ¤":2755,"Ġê·¸ëŁ¼":2756,"Ġì¿":2757,"ĠìłķíĻķ":2758,"ĠìĽĲìĿ¸":2759,"Ġë¹Ħì¤ĳ":2760,"ìĤ¬ê³ł":2761,"ĠíĺĳìĿĺ":2762,"ë°ĶìĿ¼":2763,"ĠìľłíĨµ":2764,"ĠìĹ¬ë¡ł":2765,"Ġë§Īë¬´ë¦¬":2766,"ìķĪìłĦ":2767,"Ġìķ½ìĨį":2768,"ëĳĶ":2769,"ëıĪ":2770,"Ġê°Ģìłķ":2771,"Ġìĭłê³ł":2772,"ĠìĽĲëĤ´":2773,"Ġìłľì¡°":2774,"ĠëĮĢíķľë¯¼êµŃ":2775,"íİĺìĿ¸":2776,"ĠìķĦë¦Ħ":2777,"ìĵ°":2778,"Ġê°Ķ":2779,"ĠìĦ¬":2780,"Ġê°Ģìł¸":2781,"ê³łìļĶ":2782,"ĠìĦłë¬¼":2783,"ì»¬":2784,"ìĦľê´Ģ":2785,"Ġëĥī":2786,"ìłľíĴĪ":2787,"ĠíĶĦë¦¬":2788,"ê°ĻìĿ´":2789,"Ġë¬¸ìŀ¬":2790,"ëŀĻ":2791,"ãİŀ":2792,"ĠëĬ¦":2793,"Ġê³Ħê¸°":2794,"ĠìĪĺìĽĲ":2795,"Ġë´¤":2796,"ĠíĺľíĥĿ":2797,"Ġê½ĥ":2798,"ë²¤íĬ¸":2799,"ĠìĿ¼ëĭ¨":2800,"Ġê°Īëĵ±":2801,"Ġíķ©ëĭĪëĭ¤":2802,"Ġê°ĢìĬ´":2803,"Ġì£¼ëıĦ":2804,"ìĹ°êµ¬ìĽĲ":2805,"ì²´ìľ¡":2806,"Ġëĭ¹ìĦł":2807,"íİĺìĿ´ì§Ģ":2808,"Ġê·¸ë£¹":2809,"Ġìī¬":2810,"ëĶĶìĺ¤":2811,"ìĺĪìĪł":2812,"ĠâĹĩ":2813,"Ġë°ķê·¼íĺľ":2814,"ĠìĿµ":2815,"Ġê·¼ë¡ľ":2816,"íı¼":2817,"an":2818,"Ġíĳ¸":2819,"ĠìĮĵ":2820,"ë¯¼ì£¼ëĭ¹":2821,"ĠìłĪì°¨":2822,"ĠìĿ¸ë¬¼":2823,"22":2824,"Ġìĸ´ëł¤ìĽĢ":2825,"ĠêµŃíĨł":2826,"íı¬ìĿ¸íĬ¸":2827,"Ġë§Įëĵľ":2828,"Ġìŀħì£¼":2829,"ĠìĹ¬ë¦Ħ":2830,"Ġíĺķíĥľ":2831,"ĠìĿ¸ëıĦ":2832,"Ġë°Ķíĥķ":2833,"ìľ¼ë¡ľë¶ĢíĦ°":2834,"Ġêµīìŀ¥íŀĪ":2835,"Ġ2011":2836,"ëŁŃ":2837,"ĠëĦĵ":2838,"ê¶ģ":2839,"ĠêµĲìĤ¬":2840,"Ġê·¸ë¦¼":2841,"ĠìĨĮíĨµ":2842,"Ġëįĺ":2843,"ĠìŀĲìĦ¸":2844,"ĠìķĦëŀĺ":2845,"ìŀĲê¸Ī":2846,"Ġìĭ¤ìłľë¡ľ":2847,"ìľ¼ë¡ľìį¨":2848,"ìŀĸìķĦìļĶ":2849,"Ġëħ¸ìĿ¸":2850,"ĠëĤĺìĻĢ":2851,"Ġê°ķëł¥":2852,"ĠëĦĺìĸ´":2853,"ĠëĤĺìĿ´":2854,"ê³¼íķĻ":2855,"ĠìĨĮìĭĿ":2856,"ê´Ģê´ĳ":2857,"Ġìĺ¤ë¥´":2858,"Â´":2859,"ĠíĸīëıĻ":2860,"¾Į":2861,"ì§Ģë°©":2862,"ĠëĳĺëŁ¬":2863,"ëıĦë¡ľ":2864,"Ġë¶ĪìķĪ":2865,"ĠìĭľëıĦ":2866,"ĠìĻ¸êµĲ":2867,"Ġëª©ìłģ":2868,"ëħ¸ëıĻ":2869,"Ġìĺ¬ë¦¬":2870,"êµŃìłľ":2871,"ì¼ĢíĮħ":2872,"ĠìĨįëıĦ":2873,"Ġê±°ê¸°":2874,"ĠìĿ¸ìĪĺ":2875,"Ġë¿":2876,"íķŃê³µ":2877,"Ġ2013":2878,"ĠìĿ´ê²ĥ":2879,"ĠìľĦë°ĺ":2880,"Ġ2008":2881,"Ġë§¤ëħĦ":2882,"ĠìĹ°ê³Ħ":2883,"ëĭ¨ê³Ħ":2884,"Ġíİ¼ì³Ĳ":2885,"ĠëĸłëĤĺ":2886,"Ġì²´ê²°":2887,"ĠìĭľíĹĺ":2888,"Ġ80":2889,"ìŀ¬ëĭ¨":2890,"Ġ2009":2891,"ĠíĽĪëł¨":2892,"Ġ1000":2893,"ì°Į":2894,"Ġì´¬ìĺģ":2895,"Ġëĭ¬ëŁ¬":2896,"Ġêº¼":2897,"Ġ2000":2898,"Ġìļķ":2899,"Ġìľ¡ìĦ±":2900,"ëĤĺë¬´":2901,"Ġê¸°ì´Ī":2902,"ìłķì¹ĺ":2903,"Ġìĸµ":2904,"ĠíķłìĿ¸":2905,"ĠìĨĮëĵĿ":2906,"Ġë¶Ģìłķ":2907,"ĠìĬĪ":2908,"Ġì¹´ëĵľ":2909,"Ġíĺĳìĥģ":2910,"ìĦ±ìŀ¥":2911,"24":2912,"Ġì½ĺíħĲì¸ł":2913,"70":2914,"Ġíķľëĭ¤ê³ł":2915,"íĻĶìłĲ":2916,"ĠìłĦìŀĲ":2917,"Ġì²ŃìĨĮëħĦ":2918,"ĠKT":2919,"Ġëª¨ìĸĳ":2920,"Ġëĭ¬ìĦ±":2921,"Ġê·¸ê²Į":2922,"ë§¨":2923,"ĠìĿ¸êµ¬":2924,"13":2925,"ĠíĪ¬íĳľ":2926,"Ġë¹Ħìľ¨":2927,"ìĬ¤ëŁ¬ìļ´":2928,"ĠíıīíĻĶ":2929,"ĠíĶĦë¡ľìłĿíĬ¸":2930,"Ġê³łê°ľ":2931,"ì¡°ìłķ":2932,"ëĭĪìĬ¤":2933,"ĠìĿ¸íķľ":2934,"Ġëģ¼":2935,"ìłĦë¬¸":2936,"ìĦłìĪĺ":2937,"Ġë³´ìĪĺ":2938,"Ġê´ĳê³ł":2939,"Ġê¸°ìĤ¬":2940,"ĠëĳĶ":2941,"ĠëĤ¨íİ¸":2942,"Ġë½ĳ":2943,"ë°©ìĨ¡":2944,"ìŀĲìĽĲ":2945,"ĠìķĦë§Ī":2946,"ĠìłĦìļ©":2947,"Ġìĺ¤ëŀĺ":2948,"ĠëĬĲëģ¼":2949,"ĠíĶĦëŀĳìĬ¤":2950,"Ġëħ¸ì¡°":2951,"TV":2952,"Ġëĭ¬ëĿ¼":2953,"ĠëıĦìłĦ":2954,"Ġë°ĶëĿ¼ë³´":2955,"ĠíĻĪíİĺìĿ´ì§Ģ":2956,"Ġì±Ħìļ©":2957,"Ġìĸ¸ê¸ī":2958,"or":2959,"ìĿ´ëĵľ":2960,"ì»¨":2961,"ì§ģìĽĲ":2962,"Ġìłķëĭ¹":2963,"ĠíĭĢ":2964,"Ġ2016":2965,"Ġìĭ¬ê°ģ":2966,"ë¶Ģëª¨":2967,"ĠìĬ¤íı¬ì¸ł":2968,"Ġ2018":2969,"Ġê¹Ģìłķ":2970,"Ġë³Ģíĺ¸ìĤ¬":2971,"ëĤ©":2972,"Ġìłķê¶Į":2973,"ëĭ¤ìļ´":2974,"Ġì°½ì¶ľ":2975,"ì§Ĳ":2976,"ìĹĺ":2977,"ĠíĨłë¡ł":2978,"Ġì³":2979,"ĠëŁ¬ìĭľìķĦ":2980,"Ġìĺ·":2981,"ì¤Ģëĭ¤":2982,"ìĿ´íģ¬":2983,"ê²½ìĺģ":2984,"ì¤¬":2985,"ìĦ¯":2986,"Ġë¶ĢìĿ¸":2987,"ìļĶìĿ¼":2988,"ì§ĢíĦ¸":2989,"êµ¬ëĤĺ":2990,"Ġì´ĿìĦł":2991,"ì¤ĳìķĻ":2992,"Ġì§ĢíĤ¤":2993,"ìłł":2994,"Ġìĭ¬ìĤ¬":2995,"íĳ¸":2996,"ìĶ¬":2997,"Ġë£¨":2998,"ìĭľìĬ¤íħľ":2999,"Ġë³¸ìĿ¸":3000,"ĠìłĦìŁģ":3001,"ĠìŀĦëĮĢ":3002,"Įë¦¬":3003,"Ġë§¥":3004,"Ġ2017":3005,"ìĹħê³Ħ":3006,"ìĥģíĴĪ":3007,"íĶĦëĿ¼":3008,"ëŀĢëĭ¤":3009,"Ġê·¸ëŁ¬ëĭĪê¹Į":3010,"ìŀĲì¹ĺ":3011,"êµ¬ìĹŃ":3012,"ëĦ¤ìļĶ":3013,"ëĵľìĭľ":3014,"ĠìĭŃ":3015,"ĠëĴ·":3016,"ë²ĦìĬ¤":3017,"Ġë§ŀì¶°":3018,"ĠíĸīìľĦ":3019,"Ġì¹¼":3020,"ëĭ¤ë©°":3021,"Ġê¾¸ì¤Ģ":3022,"ìĤ°ë¬¼":3023,"ĠìĿ¸ëł¥":3024,"ê¹¨":3025,"ĠìĿ´ë¯¸ì§Ģ":3026,"Ġì¡¸ìĹħ":3027,"ĠìĹ°ìŀ¥":3028,"Ġìĺģìĸ´":3029,"íĮĶ":3030,"ê¸Īë¦¬":3031,"ĠìķĦëĤ´":3032,"Ġë°ĽìķĦëĵ¤":3033,"Ġê¸Īë¦¬":3034,"Ġíľĺ":3035,"ĠìĿ´ìĸ´ì§Ģ":3036,"Ġê²¨ìļ¸":3037,"Ġìĺ¥":3038,"16":3039,"Ġê³µìľł":3040,"ëĤ¼":3041,"',":3042,"Ġëĭ¨ìĪľ":3043,"ĠìĿ´ê±°":3044,"ìłľëıĦ":3045,"Ġì¶Ķì²ľ":3046,"Ġ500":3047,"ĠëĮĢì¤ĳ":3048,"Ġëª¨ë°ĶìĿ¼":3049,"Ġíĳľìłķ":3050,"Ġë³´ìŀ¥":3051,"ì½Ķë¡ľëĤĺ":3052,"ĠíĶ¼íķ´ìŀĲ":3053,"ĠíĺĪ":3054,"Ġê³µëª¨":3055,"ĠìĪĺìĪł":3056,"ĠìķĦì¹¨":3057,"ë°ĺëıĦ":3058,"ìĺģíĻĶ":3059,"ĠO":3060,"ĠìĿ¸íĦ°ë·°":3061,"íĶĦíĬ¸":3062,"ìĿ´ìĸ´":3063,"ww":3064,"Ġìĭłë¢°":3065,"Ġë¶ĪëŁ¬":3066,"ĠìĺĪë¹Ħ":3067,"ĠìłĦë°ĺ":3068,"ĠR":3069,"ì§ĢìĪĺ":3070,"ì¡°ì°¨":3071,"ĠëĮ":3072,"Ġêµ¬ìĨį":3073,"ë²¨":3074,"ĠìłĦëł¥":3075,"Ġê¹Į":3076,"Ġê°ķëĤ¨":3077,"íĺĳëł¥":3078,"ĠìĪĺíĸī":3079,"Ġë°ĺëĵľìĭľ":3080,"ĠìĪĺìĹħ":3081,"23":3082,"íĿ¡":3083,"íİ´":3084,"ĠíİĢëĵľ":3085,"ĠëĮĢì²´":3086,"Ġë§¤ìŀ¥":3087,"Ġë¹łìł¸":3088,"ê´´":3089,"ĠìļĶì¦ĺ":3090,"êµ¬ìļĶ":3091,"Ġì§ĢìŀĲì²´":3092,"ìļ°ìĬ¤":3093,"ëŀ¬":3094,"ëľ»":3095,"ĠìĦłìĸ¸":3096,"êµĲìľ¡ì²Ń":3097,"ìĪ¨":3098,"Ġíĺ¸íħĶ":3099,"ĠìĻĦìĦ±":3100,"ĠëĩĮ":3101,"ëĭ¤ë¥¸":3102,"ĠíĿĳ":3103,"ëĮ":3104,"Ġ300":3105,"ì°¨ë¡Ģ":3106,"ĠíķŃê³µ":3107,"ë§ŀ":3108,"ĠíĻĶìŀ¥":3109,"Ġê°Ģêµ¬":3110,"ëļ":3111,"Ġì¡°íķ©":3112,"Ġì¶ķìłľ":3113,"Ġìĭłê²½":3114,"ì¡°ìĦł":3115,"ĠëĤ´ë¦¬":3116,"ìĽħ":3117,"ĠìĿ¼ìľ¼":3118,"ĠìĦ¤ê³Ħ":3119,"ìĤ¬ìŀĲ":3120,"ë¯Ģë¡ľ":3121,"ê³µëĭ¨":3122,"ĠìŀĲìĤ°":3123,"ĠíĺĦìĥģ":3124,"ĠìĿ´íķĺ":3125,"Ġì¤":3126,"500":3127,"Ġë¬´ë£Į":3128,"ĠìĬ¤íĥĢìĿ¼":3129,"ìĭľì§Ģ":3130,"Ġâĸł":3131,"Ġì¡°ê±´":3132,"Ġì¶ķêµ¬":3133,"Ġìĵ´":3134,"ĠìµľìĦł":3135,"Ġìķ¼ëĭ¹":3136,"ê¾":3137,"ëĬĶëį°ìļĶ":3138,"ĠêµŃë°©":3139,"ê½ĥ":3140,"ĠìľłìĿ¼":3141,"Ġìĸ´ì©":3142,"Ġìĭłìļ©":3143,"ĠêµŃíļĮìĿĺìĽĲ":3144,"ìĭĿíĴĪ":3145,"Ġë°ĺë°ľ":3146,"Ġì´Ŀìŀ¥":3147,"ì½¤":3148,"ëłī":3149,"Ġë¶Īíİ¸":3150,"Ġë°ĿíĺĢ":3151,"Ġíķ´ìĨĮ":3152,"íĸīìĤ¬":3153,"Ġë°Ķê¿":3154,"ìŀĲëĬĶ":3155,"Ġì¶ľë§Ī":3156,"ĠU":3157,"17":3158,"Ġì§ģìŀ¥":3159,"Ġê³¨íĶĦ":3160,"Ġíĸ¥ìĥģ":3161,"Ġë²Ķì£Ħ":3162,"ì°®":3163,"íĺĶ":3164,"ĠìķĮë¦¬":3165,"14":3166,"Ġë³´ê±´":3167,"Ġì§Ħì§ľ":3168,"Ġê°Ĳìłķ":3169,"ĠìłĲê²Ģ":3170,"Ġì¶ľìłĦ":3171,"Ġì¶ľë°ľ":3172,"Ġì¼ĢìĿ´":3173,"íĨ¤":3174,"Ġë§Īì°¬":3175,"ĠìĤ¬ê³¼":3176,"Ġìŀ¬ë¯¸":3177,"Ġëĵ¤ìĹ¬":3178,"ĠìľĦìĽĲ":3179,"Ġë¹łë¥´":3180,"ëĳĺ":3181,"Ġë§º":3182,"ëĤĺëĿ¼ëĭ¹":3183,"ĠìĽĲìŀ¥":3184,"ì£¼ìĭľ":3185,"Ġê°ĳìŀĲê¸°":3186,"Ġì¤ĦìĿ´":3187,"Ġê±´ì¶ķ":3188,"Ġì§Ħëĭ¨":3189,"ìĿĺë£Į":3190,"ìŀĲëıĻì°¨":3191,"ĠìĺĽ":3192,"Ġíĺ¼ìŀĲ":3193,"ĠíĥĲ":3194,"Ġê³¡":3195,"ĠëĮĢë³Ģ":3196,"ĠëĤĺíĥĢëĤĺ":3197,"ëĮĢìĥģ":3198,"Ġë§Īì°¬ê°Ģì§Ģ":3199,"ìĿĢëį°":3200,"Ġê¸°ìĹ¬":3201,"ĠìĻ¸ë¶Ģ":3202,"ĠíĬ¹ìĦ±":3203,"íĬ¼":3204,"ê°Ģê²©":3205,"ĠìĤ´íİ´":3206,"Ġë³Ģê²½":3207,"Ġê±·":3208,"Ġíĸ¥íķ´":3209,"Ġìľłë¦¬":3210,"ĠëĭĪ":3211,"íļĮëĭ´":3212,"Ġìĭ¤íĮ¨":3213,"ì§ĢëĤľ":3214,"ìĽĮíģ¬":3215,"ĠìłĢíĿ¬":3216,"ê°ĢëŁī":3217,"ëŃ":3218,"ì¤ĺ":3219,"ĠëĤĺë¬´":3220,"Ġë§¤ìĿ¼":3221,"ë¨¸ì§Ģ":3222,"íĽĦë³´":3223,"ê¾¼":3224,"Ġê¸Īì§Ģ":3225,"Ġì´īêµ¬":3226,"ĠìĹ°ê°Ħ":3227,"Ġë¶Īêµ¬":3228,"Ġì°¨ë³Ħ":3229,"ì£½":3230,"ĠìłĦëĤł":3231,"ĠìĥĿëªħ":3232,"ĠìŀĲëħĢ":3233,"ĠìĹĺ":3234,"ëĵľë¦¬":3235,"ë©´ìĿĢ":3236,"ê»ĺìĦľ":3237,"ê±°ìļ´":3238,"Ġì¶©ëĤ¨":3239,"Ġë¹ļ":3240,"ëĭ¤ë³´":3241,"ĠìłĪë°ĺ":3242,"íĶĦë¦¬":3243,"íķ´ëıĦ":3244,"Ġëª¨ì§ĳ":3245,"Ġë¥ĺ":3246,"Ġë¶Īë¦¬":3247,"ar":3248,"Ġë°ľêµ´":3249,"Ġì´Īëĵ±":3250,"ëł¬":3251,"Ġì£¼ë¬¸":3252,"ìŀĶ":3253,"Ġìį¨":3254,"Ġë²¤":3255,"Ġìłĳê·¼":3256,"ìĸ´ëĤ¬":3257,"ìĭľì¼°":3258,"ĠëŃĶ":3259,"ĠìĨĮìĦ¤":3260,"ê²ĢìĤ¬":3261,"ĠìĤ¬ìĥģ":3262,"ĠìĿ´ë²¤íĬ¸":3263,"Ġìĥģë°ĺê¸°":3264,"Ġìłķë¦¬":3265,"ĠêµŃë¦½":3266,"ê»´":3267,"Ġìķ¡":3268,"Ġì£¼ê°Ģ":3269,"Ġìĭľê°ģ":3270,"Ġëıħë¦½":3271,"ĠìĿĺì§Ģ":3272,"Ġë¶Ģìĥģ":3273,"Ġë°°ì¹ĺ":3274,"ëĳ¥":3275,"ĠëĤ¸":3276,"ĠíĨµìĭł":3277,"ë¬¸ìłľ":3278,"íļĮê²¬":3279,"Ġê½":3280,"Ġì¹ľíĻĺê²½":3281,"Ġìĵ¸":3282,"ëģĶ":3283,"ë§¥":3284,"íĶĮëłĪìĿ´":3285,"ìĿ´ìĤ¬":3286,"Ġë§Īì¼ĢíĮħ":3287,"ë²ķìĽĲ":3288,"íĨµíķ©":3289,"ĠëĤĺë¨¸ì§Ģ":3290,"ì½©":3291,"Ġì²¨":3292,"Ġëį°ìĿ´íĦ°":3293,"Ġìĥģëĭ´":3294,"Ġë¹¨ë¦¬":3295,"ë¦¬ì¦Ī":3296,"Ġìĭ±":3297,"Ġë§¤ëł¥":3298,"ìĨĶ":3299,"ê³Ħìķ½":3300,"íİĢëĵľ":3301,"Ġê±°ë¶Ģ":3302,"ĠíĽ¨":3303,"ëħģ":3304,"Ġë§Įì¡±":3305,"Ġì±Ļ":3306,"ëĤĺê°Ģ":3307,"ì¡°íķ©":3308,"ĠìĽĲëĤ´ëĮĢíĳľ":3309,"įìłķ":3310,"ëĵŃ":3311,"27":3312,"ĠëĿ¼ìĿ´":3313,"ä¸":3314,"êµ¬ì¡°":3315,"ì¤ĳêµŃ":3316,"ĠìµľìłĢ":3317,"ĠìĦ¸ìĽĶ":3318,"ê´Ħ":3319,"ë£¡":3320,"ê°Ģì¡±":3321,"ĠëĶ°ëĿ¼ìĦľ":3322,"ĠëıĮìķĦê°Ģ":3323,"ì£¼ëħĦ":3324,"ĠãĨį":3325,"ĠìĹ°ì¶ľ":3326,"Ġë¹Ħìĥģ":3327,"al":3328,"êµŃê°Ģ":3329,"ĠíĬ¹ì§ķ":3330,"Ġì£¼ë¡ľ":3331,"ĠëĬĺìĸ´ëĤĺ":3332,"ĠíĨ":3333,"íķ´ì§Ħ":3334,"Ġë´Ħ":3335,"ìĭľíĤ¨":3336,"ĠíĿĶëĵ¤":3337,"Ġíľ´ëĮĢ":3338,"28":3339,"Ġíĥĵ":3340,"ëĭ´íļĮ":3341,"ĠíĽ¨ìĶ¬":3342,"Ġë²ķìĽĲ":3343,"Ġìŀłìĭľ":3344,"Ġ2007":3345,"ĠìĽĶëĵľ":3346,"ĠìŀĬ":3347,"Ġëĸ¨ìĸ´ì§Ģ":3348,"Ġì§ĳíĸī":3349,"ìĭľëĮĢ":3350,"ĠêµŃë¬´":3351,"Ġíı¬ê¸°":3352,"Ġê´Ģê´ĳê°Ŀ":3353,"en":3354,"ì²Ńìŀ¥":3355,"ĠíĬ¹ìłķ":3356,"Ġêµ°ìĤ¬":3357,"Ġíİ¸ìĿĺ":3358,"ìģľ":3359,"Ġì§Ħìłķ":3360,"Ġë°ĳ":3361,"Ġì²łìłĢ":3362,"29":3363,"ìľ¼ëĭĪê¹Į":3364,"26":3365,"ĠìŀĲìĽĲ":3366,"Ġê°ķíķľ":3367,"ĠìĿ¼ìĥģ":3368,"êµ°ìļĶ":3369,"ĠëĥĪ":3370,"ëĤĻ":3371,"Ġê´´":3372,"Ġëĭ¹ìĹ°":3373,"Ġíĥĳ":3374,"ĠìŀĦê¸Ī":3375,"ëĺ":3376,"ì²¨":3377,"ĠìĬ¤íĬ¸":3378,"Ġê³¼ìłľ":3379,"ìĿ¼ë³´":3380,"ĠëĪĪë¬¼":3381,"ĠíķĺëĬĺ":3382,"Ġíļ¨ìľ¨":3383,"Ġê²ģëĭĪëĭ¤":3384,"Ġë°ĶëĢĮ":3385,"ĠìĿ¼ìĸ´ëĤĺ":3386,"Ġë²½":3387,"Ġê·¹ë³µ":3388,"Ġë¹¨":3389,"Ġì°½ìĽĲ":3390,"ĠëĮĢëĭµ":3391,"Ġëĵł":3392,"ĵ¨":3393,"Ġì£Ħ":3394,"Ġëĭ¤ëĭĪ":3395,"ìģĺ":3396,"Ġë°Ķëĭ¤":3397,"ĠíŀĪ":3398,"Ġë®¤":3399,"ë¦ī":3400,"íĮĮíģ¬":3401,"ĠíķľëĤĺëĿ¼ëĭ¹":3402,"Ġìŀ¥ìĨĮ":3403,"ĠìĻĦíĻĶ":3404,"Ġì¿ł":3405,"Ġê°ľíĺģ":3406,"íĭ±":3407,"Ġì²´ê³Ħ":3408,"ĠíĺķìĦ±":3409,"ê·ľì§ģ":3410,"ê³µìŀ¥":3411,"ë¹Ļ":3412,"ê°Ĳëıħ":3413,"Ġì»´":3414,"Ġë°©ìĹŃ":3415,"ĠH":3416,"Ġê¼¬":3417,"ĠíĮĲê²°":3418,"ĠìłĦë¶ģ":3419,"ëĭ¤ëĭĪ":3420,"ĠíķĻìĬµ":3421,"ëħķ":3422,"ĠìĭľìĦł":3423,"Ġêµ³":3424,"Ġì§ĢìĤ¬":3425,"ĠíıīìĨĮ":3426,"Ġê¸°ë¶Ģ":3427,"íĬľ":3428,"ë²ķìĿ¸":3429,"NS":3430,"Ġë¶Ģì§Ģ":3431,"at":3432,"Ġì¸¡ë©´":3433,"Ġíķ´ìĦĿ":3434,"ĠìŀĲì£¼":3435,"Ġëĺĳ":3436,"ĠìĨĮìĨ¡":3437,"Ġê´Ģê°Ŀ":3438,"ìŀ¥ê´Ģ":3439,"ĠìĭľìłĲ":3440,"ìĺ¬ë¦¼íĶ½":3441,"ìĸ´ì§Ħ":3442,"Ġë²ĦìĬ¤":3443,"ìĿĦì§Ģ":3444,"ĠìŀĲê²©":3445,"ë¬¸íķĻ":3446,"Ġì¶ľë²Ķ":3447,"Ġíķĺë°ĺê¸°":3448,"ĠëĶĶì§ĢíĦ¸":3449,"Ġë°¥":3450,"ì½ľ":3451,"ê²ģ":3452,"ĠìĿ´ë¥¸":3453,"Ġë¶Ģë¥´":3454,"Ġì¶©ë¶ĦíŀĪ":3455,"Ġì§ĢìĭĿ":3456,"ìĭ¼":3457,"¥Ĳ":3458,"ĠíĪ¬ìŀĲìŀĲ":3459,"Ġê³µìķ½":3460,"Ġê·¼ê±°":3461,"ë¡±":3462,"Ġëĭ¬ëł¤":3463,"íĴĢ":3464,"ĠìĿ¸ìĥĿ":3465,"Ġ35":3466,"ĠíĺĦëĮĢì°¨":3467,"ê°ĢìĬ¤":3468,"Ġìĺ¬ë¦¼íĶ½":3469,"ĠíĨµíĻĶ":3470,"ĠìĹ¬ìķ¼":3471,"Ġë°ĶëŀĢëĭ¤":3472,"ëľ¨":3473,"ê¸°ì¤Ģ":3474,"Ġë°°ê²½":3475,"ì¹¼":3476,"Ġë¬¸ìŀ¬ìĿ¸":3477,"ê²ĮìŀĦ":3478,"ëĭī":3479,"Ġë§ĮëĤľ":3480,"Ġë¶Ģë¶Ģ":3481,"ĠíĨµìĿ¼":3482,"ëĵłì§Ģ":3483,"Ġë»":3484,"Ġìŀ¥ë©´":3485,"ĠíĻķìĭ¤":3486,"Ġë³ĦëıĦ":3487,"ìĹ°ê¸Ī":3488,"ì²ľë§Į":3489,"ĠíĹĪìļ©":3490,"5000":3491,"ìķ¤":3492,"ëķ":3493,"ĠìķĮìķĦ":3494,"Ġ90":3495,"Ġì«":3496,"Ġê¸°ë¶Ħ":3497,"Ġê²¸":3498,"Ġê³łíĨµ":3499,"íħį":3500,"ĠìłĳìĪĺ":3501,"Ġê±´ë¦½":3502,"ĠëĪĪê¸¸":3503,"Ġì·¨ì§Ģ":3504,"Ġê³ĦìĹ´":3505,"ìĿ¼ê¹Į":3506,"ìĹ°êµ¬ìĨĮ":3507,"ĠëĤĺëĪĦ":3508,"Ġê±¸ì³Ĳ":3509,"ê¸°êµ¬":3510,"ĠìĥĪë¡ľ":3511,"ë¯¸êµŃ":3512,"ìĿ´ëĦĪ":3513,"íķľëĭ¤ë©´":3514,"Ġì¹ł":3515,"Ġì§§":3516,"ĠìĽĲì¹Ļ":3517,"ìŀĲìĤ°":3518,"ì´Ŀë¦¬":3519,"Ġì»¬":3520,"Ġì£¼ìĿ¸ê³µ":3521,"ĠìłĢëħģ":3522,"Ġêµ¬ìŀħ":3523,"ê³µê°Ħ":3524,"ĠìĹŃëŁī":3525,"ĠìŀĲëŀĳ":3526,"Ġê·¸ëŀ¬":3527,"ëĵ±ê¸ī":3528,"ĠìłĦë©´":3529,"íĬ¸ëĤ¨":3530,"ëĮĢêµ¬":3531,"Ġê³µê°Ĳ":3532,"ĠëĶ±":3533,"íĶ¼ìĬ¤":3534,"Ġê¸´ê¸ī":3535,"Ġì§ĳëĭ¨":3536,"ĠìķĦìļ¸":3537,"ĠëıĻìĿĺ":3538,"ĠìĥĿê¸°":3539,"ìĭľì¦Į":3540,"ìĤ¼ìĦ±":3541,"Ġê°ĢëĵĿ":3542,"Ġì¡°ê¸°":3543,"Ġ198":3544,"ìĭ¬íŀĪ":3545,"ëĴ":3546,"Ġëıķ":3547,"ĠêµĲì²´":3548,"Ġê°ĲìķĪ":3549,"Ġë²ĮìĿ´":3550,"ëĵ¬":3551,"ĠìĤ´ìķĦ":3552,"Ġì¶Ķìłķ":3553,"ĠëĬĲê»´":3554,"ëĮĢì¶ľ":3555,"ì£¼ë¯¼":3556,"ĠìĦ¸ëĮĢ":3557,"Ġë²ķë¥ł":3558,"ĠíĬ¹ìĪĺ":3559,"Ġì§Ģë¶Ħ":3560,"ĠíĮ¨ìħĺ":3561,"Ġê¸įìłķ":3562,"ĠìĿ´ë¤Ħì§Ģ":3563,"ĠìĭłìĦ¤":3564,"Ġë¶ĢíļĮìŀ¥":3565,"ĠëĪĦê°Ģ":3566,"ë®¤":3567,"ìºĲ":3568,"Ġê¸°ëĭ¤ë¦¬":3569,"Ġë°ĿíŀĪ":3570,"ĠìĥĿíĥľ":3571,"íŀĲ":3572,"ĠíĶĮëŀ«":3573,"Ġë§¤ê°ģ":3574,"Ġê´ĢëŀĮ":3575,"Ġë¹ħ":3576,"Ġ2020":3577,"Ġìĺ¬ëł¸":3578,"ĠìķĦëıĻ":3579,"ĠìĪĺìĦĿ":3580,"ë¥Ļ":3581,"Ġë°Ķê¾¸":3582,"ìĹĲëĦĪì§Ģ":3583,"Ġê¸°ìļ¸":3584,"Ġê¸Īìķ¡":3585,"ë¶Ģìŀ¥":3586,"ĠìĽĥìĿĮ":3587,"Ġìłķê¸°":3588,"ëªħë°ķ":3589,"ê³µìĹħ":3590,"Ġìĭłë¬¸":3591,"ì´Ŀìŀ¥":3592,"Ġê±°ëĵŃ":3593,"ê·¸ëŀĺ":3594,"ĠìķĪíĥĢ":3595,"ĠëĤĺê°Ī":3596,"Ġëħ¸ëıĻìŀĲ":3597,"ìĭłë¬¸":3598,"Ġëĭ¹ìŀ¥":3599,"ĠëģĮìĸ´":3600,"ĠìŀĳìĦ±":3601,"Ġì£¼ë§Ĳ":3602,"íĨłë¦¬":3603,"ìĤ¬ëŀĳ":3604,"Ġì¶©ê²©":3605,"Ġê·¸ë¦°":3606,"ĠìłķìĿĺ":3607,"ĠìĿ¸ì¦Ŀ":3608,"Ġê·ł":3609,"Ġê¾¸ì¤ĢíŀĪ":3610,"ë³´íĺ¸":3611,"Ġê°Ģê¹ĮìĿ´":3612,"ê²Ĳ":3613,"Ġë°°ì¶ľ":3614,"Ġë²ķë¬´":3615,"Ġì³Ĳ":3616,"ë·Ķ":3617,"ĠìłĪëĮĢ":3618,"íĬ¸ìĽĮíģ¬":3619,"ë´ĩ":3620,"'(":3621,"¤ë²Ħ":3622,"ĠìĦłê³ł":3623,"ĠêµĲê³¼":3624,"ë©ĶëĿ¼":3625,"ìħĢ":3626,"ë¶ĢìĤ°":3627,"Ġt":3628,"Ġë¯¸ì¹ĺ":3629,"Ġë¶Īê°Ģ":3630,"ëĭ¹êµŃ":3631,"Ġì£¼ì°¨":3632,"Ġë©Ī":3633,"Ġì§Ģìĭľ":3634,"Ġê¸´ìŀ¥":3635,"Ġë¬¸íķĻ":3636,"Ġìķ±":3637,"Ġì£¼ê±°":3638,"Ġë²ķìķĪ":3639,"ĠìŀĲìľ¨":3640,"íĦ°ë¦¬":3641,"Ġìĭ¤ì²ľ":3642,"Ġêµ´":3643,"íĸīìľĦ":3644,"ë°¥":3645,"ĠíĶĦë¦¬ë¯¸":3646,"%(":3647,"ê³łê¸°":3648,"ìħľ":3649,"ĠíķĻë¶Ģëª¨":3650,"íĺģìĭł":3651,"ëģĦ":3652,"ê°Ħëĭ¤":3653,"ë§İ":3654,"ĠëıĦì°©":3655,"Ġìĺ¤ëŀľ":3656,"Ġì¢ħëª©":3657,"íĸĪìľ¼ëĤĺ":3658,"ĠV":3659,"ìŀ¥ìķł":3660,"ì§Ģê¸Ī":3661,"ìºł":3662,"ĠìĿ´ìĿµ":3663,"Ġì»¤íĶ¼":3664,"Ġê°ľë§ī":3665,"ĠíĻķìŀ¥":3666,"ê±´ì¶ķ":3667,"©ëĭĪëĭ¤":3668,"ĠìķĦìļ¸ëŁ¬":3669,"Ġ`":3670,"ĠìĪĺë¦½":3671,"Ġê°ľìłķìķĪ":3672,"ĠìĻĦìłĦíŀĪ":3673,"Ġìŀ¬ìĤ°":3674,"Ġê°ĢìĪĺ":3675,"ìĥĿëªħ":3676,"ĠìĥĪë¡Ń":3677,"ĠíķĺìĿ´":3678,"ĠëĨįìĹħ":3679,"Ġê°Ģë¥´":3680,"Ġë§ŀì¶¤":3681,"Ġíķłë¨¸ëĭĪ":3682,"ìĺģìĥģ":3683,"Ġì¦Ŀê¶Į":3684,"ë¬µ":3685,"ĠìĿĺìŀ¥":3686,"ê°ľêµŃ":3687,"Ġê´ľ":3688,"Ġëĭ¹êµŃ":3689,"Ġì·¨ìĨĮ":3690,"Ġì½ľ":3691,"ĠKBS":3692,"ëĭĮ":3693,"ì§ĢëıĦ":3694,"Ġë°ĿíŀĮ":3695,"ì¢ħíķ©":3696,"ĠìŀĦìĭľ":3697,"ë§ĪìłĢ":3698,"íı´":3699,"ĠìĿĺíķ´":3700,"Ġê³µì²ľ":3701,"ìłĦëŀµ":3702,"ĠìĿ¸ê¶Į":3703,"ĠìķłíĶĮ":3704,"Ġì·¨ìŀĦ":3705,"íĸīìłķ":3706,"íĻĶíķĻ":3707,"íĻĪ":3708,"ĠìĻĦë£Į":3709,"ëĿ¼ìļ´ëĵľ":3710,"ĠìĿĳëĭµ":3711,"Ġìķ¼êµ¬":3712,"Ġì´Īê¸°":3713,"ìĭ¤ìŀ¥":3714,"Ġë´īìĤ¬":3715,"Ġê¶ģê¸Ī":3716,"Ġëĭ¤ìĨĮ":3717,"ìĿį":3718,"ĠìĹŃëĮĢ":3719,"ĠíĻľìķ½":3720,"Ġëĵ¤ìĸ´ê°Ķ":3721,"Ġê¸°ìĨĮ":3722,"ĠëĨĢëĿ¼":3723,"Ġê±°ì£¼":3724,"íĵ¨":3725,"ìĭľíĹĺ":3726,"ì¶ķìłľ":3727,"Ġì²ĺë²Į":3728,"ĠìĤ¬ìĭ¤ìĥģ":3729,"ê°Ģì¹ĺ":3730,"ì»´":3731,"ĠìĸĳìĦ±":3732,"Ġë§¨":3733,"ĠìĨĮìľł":3734,"Ġë¯¸ë¦¬":3735,"Ġëĸłìĺ¬":3736,"ĠìĿĺìĭ¬":3737,"ĠëĮĢë¡ľ":3738,"Ġìłķë¹Ħ":3739,"Ġëī´ìļķ":3740,"ìļ´ìĺģ":3741,"ìĽ¨ìĿ´":3742,"ĠíĥĢìĿ´":3743,"Ġì§Ģêµ¬":3744,"Ġë²Ĺìĸ´ëĤĺ":3745,"Ġë°ķìĤ¬":3746,"ĠíķľíĻĶ":3747,"ìłĦê±°":3748,"ĠìĿ´ìŀ¬":3749,"ìķĦëıĦ":3750,"ĠìľĦíĺĳ":3751,"ìĪĺìĤ¬":3752,"ëĭ¤ìĭľ":3753,"ĠìĭĿíĴĪ":3754,"ĠëĮĢë³ĢìĿ¸":3755,"ĠìĪĺìļ©":3756,"ĠìķĪëĤ´":3757,"ìķ¼êµ¬":3758,"ĠMBC":3759,"Ġê¶Įëł¥":3760,"ĠëıĮíĮĮ":3761,"ë©Ķëĭ¬":3762,"Ġëĭ¹ì´Ī":3763,"ĠëĵĿ":3764,"Ġìĭ¤íĺĦ":3765,"ë¦ŃíĦ°":3766,"ĠìŀĩëĶ°":3767,"Ġë³´ìĥģ":3768,"ì²ĺë¦¬":3769,"Ġëĭ¹ë¶Ģ":3770,"ĠKB":3771,"Ġëī´ìĬ¤":3772,"íĨ¡":3773,"âĨ":3774,"ĠìĹ¬ëŁ¬ë¶Ħ":3775,"ì²´ê³Ħ":3776,"Ġëįľ":3777,"Ġìķ½ê°Ħ":3778,"ĠíĿ¡":3779,"Ġê³łìľĦ":3780,"ĠëĤĺëĪł":3781,"Ġíı¬íķŃ":3782,"Ġë°©ì§Ģ":3783,"ì°į":3784,"ĠìĺģìĹŃ":3785,"íķĺëĤĺ":3786,"ĠëıĻìķĦ":3787,"ì¹´ìĺ¤":3788,"ĠíĦ¸":3789,"Ġìĺ¬ëł¤":3790,"Ġê·¸ëŀĺëıĦ":3791,"ĠW":3792,"Ġë³´ê³łìĦľ":3793,"Ġì¤ĳê°Ħ":3794,"Ġë©Ķìĭľì§Ģ":3795,"Ġë©¤ë²Ħ":3796,"Ġë¯¸ìĪł":3797,"Ġ2019":3798,"ëª¬":3799,"ë§Ľ":3800,"ĠìŀĲëıĻ":3801,"ĠíĥľëıĦ":3802,"ë¬¼ê´Ģ":3803,"Ġì§ĳê³Ħ":3804,"ĠëĤĺìĺ¬":3805,"ìĭľíĭ°":3806,"Ġìĭ¬ë¦¬":3807,"Ġë³´íĨµ":3808,"Ġì¦Ĳê¸¸":3809,"Ġâĸ·":3810,"Ġì¦Ŀê±°":3811,"Ġë²łíĬ¸ëĤ¨":3812,"31":3813,"Ġ36":3814,"íĭ´":3815,"Ġì¦Ĳê¸°":3816,"Ġê°ĸì¶ĺ":3817,"Ġë¹łë¥¸":3818,"Ġìĭ«":3819,"Ġê·¸ë§Į":3820,"ì²ľìĭľ":3821,"Ġê·¼ë¡ľìŀĲ":3822,"Ġì§ģíĽĦ":3823,"ë²Ħë¦¬":3824,"ìŀĦê¸Ī":3825,"Ġì§ľ":3826,"ĠìĽĢì§ģìŀĦ":3827,"ĠíıĲì§Ģ":3828,"ĠìĿ¸íķĺ":3829,"íħĮíģ¬":3830,"Ġê¹Ģìĺģ":3831,"ìĭľíĤ¬":3832,"ĠìĬ¹ë¶Ģ":3833,"Ġíĥľìĸĳ":3834,"Ġìĩ¼íķĳ":3835,"ĠëıĮëł¤":3836,"ìĤ¬íķŃ":3837,"Ġìĭ¤ì§Ī":3838,"ĠíĽĦìĽĲ":3839,"ĠìĬµ":3840,"ëĬ¥ëł¥":3841,"Ġì²´ìłľ":3842,"ĶíĶ¼":3843,"ĠíĴĪì§Ī":3844,"ĠìĹ´ìĭ¬íŀĪ":3845,"Ġê³łëĵ±":3846,"ĠìķħíĻĶ":3847,"ĠëıĻë¬¼":3848,"Ġë¬ĺ":3849,"ĠìŀĲë³¸":3850,"ĠìĪĺëĬ¥":3851,"Ġíļį":3852,"Ġíķ´ìĸĳ":3853,"ëĮĢíķĻêµĲ":3854,"co":3855,"Ġì§Ħìŀħ":3856,"Ġê°Ģê¹Įìļ´":3857,"ĠëŃĶê°Ģ":3858,"Ġëª¨ìķĦ":3859,"Ġê³³ê³³":3860,"ë©ĺ":3861,"ìĦ¬":3862,"Ġëĭ¤ë¦¬":3863,"st":3864,"Ġë¶ĢìĹ¬":3865,"Ġê³¤":3866,"íĺĦì§Ģ":3867,"Ġì£¼ëł¥":3868,"ì¡°ê±´":3869,"35":3870,"Ġì§Ĳ":3871,"ĠëªħìĺĪ":3872,"ĠìºĲë¦ŃíĦ°":3873,"Ġìĺ¤íĶĪ":3874,"Ġëį°ë·Ķ":3875,"Ġë°ĺë³µ":3876,"ëłģ":3877,"ĠìłľìĿ¼":3878,"ĠìĿ¸ê³µ":3879,"Ġë¬¼ëŁī":3880,"Ġë§Įìķ½":3881,"ĠìĿĺë¬´":3882,"it":3883,"Ġëª¨ìĹ¬":3884,"¼ìĨĲ":3885,"íĺĦëĮĢ":3886,"ĠìĹ°ë§Ĳ":3887,"ì§ģìŀĲ":3888,"íĢ":3889,"Ġê·¸ëŁ´":3890,"ê°ľíĺģ":3891,"ê¶":3892,"ëĿ¼ìĬ¤":3893,"ĠìĪ²":3894,"ĠìĹ°êµ¬ìĽĲ":3895,"Ġìĭłì¢ħ":3896,"Ġìŀ¥ìłĲ":3897,"êµŃìŀ¥":3898,"Ġíķľë°ĺëıĦ":3899,"ĠíĿĲë¦Ħ":3900,"Ġë¹ĦëĤľ":3901,"Ġìļ´ìłĦ":3902,"Ġê°ĢëıĻ":3903,"Ġìľµ":3904,"Ġëħ¸ìĦł":3905,"ĠìĦłì§Ħ":3906,"Ġë§Īìĭľ":3907,"Ġê°ĢìĿĦ":3908,"ëħ¸ì¡°":3909,"Ġê°ĸì¶Ķ":3910,"ĠìĿ¸íĶĦëĿ¼":3911,"ĠëĤ´ëł¸":3912,"ĠëĶ°ëľ»":3913,"Ġíı¬ìĬ¤ì½Ķ":3914,"ĠíķŃìĥģ":3915,"Ġë¶Ģì§Ħ":3916,"ê²½ë¶ģ":3917,"ĠIT":3918,"Ġë¬´ìĹŃ":3919,"Ġë§ĪìĬ¤íģ¬":3920,"ë¶Ģë¬¸":3921,"ĠìłĦìĦ¸":3922,"TA":3923,"ë¹Ħìļ©":3924,"Ġíķľê³Ħ":3925,"íķ´ìļĶ":3926,"Ġì£½ìĿĮ":3927,"ĠìĿĺìĭĿ":3928,"íĺĳìĿĺíļĮ":3929,"ìłĦíĻĶ":3930,"Ġíİ¼ì¹ĺ":3931,"ĠìĬ¹ìĿ¸":3932,"ìĸ´ëĤł":3933,"ĠìĦ±ê²©":3934,"ĠíĻĶìłľ":3935,"ĠëĬĺìĸ´ëĤľ":3936,"Ġìĥģì§ķ":3937,"Ġê°Ŀ":3938,"ĠJ":3939,"Ġì»¤ì§Ģ":3940,"Ġê°¤":3941,"Ġìŀĳìļ©":3942,"Ġì²Ļ":3943,"Ġìį¼":3944,"Ġë¸ĮëĿ¼":3945,"ĠìķĦëĭĮê°Ģ":3946,"ĠìĦ¸ê¸Ī":3947,"Ġë²ķìĿ¸":3948,"ĠíĺķìĤ¬":3949,"ì·":3950,"Ġ33":3951,"Ġìĭ¤ëł¥":3952,"Ġêµ¬ê°Ħ":3953,"ĠìĦ¼íĦ°":3954,"ìĤ¬ìĿ¼":3955,"Ġë¯¸ìĦ¸":3956,"íĥĳ":3957,"Ġíı´":3958,"ĠìĹĦì²Ń":3959,"Ġìĥģìŀ¥":3960,"Ġëĭ¬íķĺ":3961,"íĬ¸ë¦¬":3962,"ĠëĤ´ìĦ¸":3963,"ì£¼ìĿ¼":3964,"Ġ2006":3965,"ĠìĦľìļ¸ëĮĢ":3966,"ëŀĦ":3967,"ĠìĤ¬íķŃ":3968,"ĠíİĺìĿ´ìĬ¤":3969,"ìĤ¬ë¬´":3970,"ĠëıĻê¸°":3971,"Ġìķķë°ķ":3972,"Ġíŀĺëĵł":3973,"Ġë©ĭ":3974,"ĠìļĶë¦¬":3975,"Ġëĸ¨ìĸ´ì§Ħ":3976,"Ġì¹ĺìĹ´":3977,"ĠìĿ´ìĤ¬":3978,"Ġìĸ´ê¹¨":3979,"Ġë°ľíĸī":3980,"Ġê·¸ê±°":3981,"Ġì¶ĺ":3982,"ĠìĺĪì¸¡":3983,"Ġê²Ģì¦Ŀ":3984,"ĠìłĦíķ´":3985,"Ġì§ģìĹħ":3986,"ë¨¼ì§Ģ":3987,"45":3988,"ì¶ķêµ¬":3989,"Ġë°ĺëıĦ":3990,"Ġì¶ķìĨĮ":3991,"Ġë¶ĢíĴĪ":3992,"ëĦĺ":3993,"ìĹ½":3994,"Ġë¶Ģíĥģ":3995,"ìĿ¼ë³¸":3996,"ĠìķĦë¦Ħëĭ¤ìļ´":3997,"Ġì¦Ŀìĥģ":3998,"Ġë¦¬ëįĶ":3999,"íģĲ":4000,"ĠëĿ¼ìĿ¸":4001,"Ġê°ķìłľ":4002,"ĠìĪĺìĪĺ":4003,"íĶĮëŁ¬ìĬ¤":4004,"ë°Ķë¡ľ":4005,"ëĭĪìķĦ":4006,"ĠëĿĦ":4007,"ìĪĺìĽĲ":4008,"ĠíĤ¤ìļ°":4009,"Ġë³¸ëĭ¤":4010,"ĠìĿ´íĥĪ":4011,"ĠëıĦìĻĢ":4012,"90":4013,"CC":4014,"ëħ¼":4015,"ìĩ¼íķĳ":4016,"ê»ı":4017,"ì¹ĺë£Į":4018,"Ġëįķë¶Ħ":4019,"Ġê·¸ê±¸":4020,"Ġê°ľíİ¸":4021,"êº¼":4022,"Ġ45":4023,"Ġì°¨ëĭ¨":4024,"Ġìłľìŀ¬":4025,"ê·¸ëŁ¬":4026,"ëĨ¨":4027,"Ġì²Ńêµ¬":4028,"Ġë©ĶìĿ´":4029,"ìĺ¤ë¥´":4030,"ĠìĮį":4031,"ĠëĽ°ìĸ´":4032,"ãĢı":4033,"ìĪĺìĪĺ":4034,"ìĺĪìĤ°":4035,"ĠìĦłë³´ìĿ´":4036,"IA":4037,"Ġë³µíķ©":4038,"Ġë°Ķëĭ¥":4039,"Ġë¬´ë¦¬":4040,"ìĿ´ë²Ħ":4041,"Ġì¼Ģ":4042,"Ġë³µê·Ģ":4043,"Ġë²łìĿ´":4044,"ìŀĲë£Į":4045,"ĠìļĶìĿ¸":4046,"ĠìĹ°ì£¼":4047,"ĠëĦ¤ëĦ¤":4048,"ĠìĭłìĨį":4049,"ìĽĶëĵľ":4050,"ĠìĤ¬ëĤ´":4051,"ì²´íĹĺ":4052,"Ġìŀ¥ë¹Ħ":4053,"íĺĦìŀ¬":4054,"ĠëĮĢêµ¬ìĭľ":4055,"Ġíľ":4056,"íĭ°ë¸Į":4057,"Ġë§Īë¦¬":4058,"ëĪĪ":4059,"Ġê³µê¸°":4060,"Ġê²½ìĦł":4061,"íıŃëł¥":4062,"Ġìĥģìĥģ":4063,"33":4064,"re":4065,"ëĿ¼ë©´ìĦľ":4066,"ĠëĨĪ":4067,"Ġíı¬ìĿ¸íĬ¸":4068,"Ġë¨¸ë¬¼":4069,"ĠìĹ¬ëĭ¹":4070,"ĠëĮĢíıŃ":4071,"ëı¼ìķ¼":4072,"ĠëĬĺë¦¬":4073,"ëĬĶëĭ¤ëĬĶ":4074,"ìĺ¬íķ´":4075,"ĠëĮĢê¸°":4076,"ìĦľíĬ¸":4077,"ê°ĢëĿ½":4078,"Ġê°Ģë¡ľ":4079,"ĠìĭľìľĦ":4080,"ì½Ķë¦¬ìķĦ":4081,"Ġë°ĺëıĦì²´":4082,"Ġëĸ¨":4083,"ĠíĽĦë°ĺ":4084,"ìĥĿìĤ°":4085,"Ġíĥģ":4086,"ĠìłĦíĺķ":4087,"ì·Ħ":4088,"100":4089,"ĠìĿ´ëªħë°ķ":4090,"ĠìĪĺìłķ":4091,"ĠëĮĢìķĪ":4092,"Ġê¸īì¦Ŀ":4093,"ĠìıŁìķĦ":4094,"ĠíĿĺëŁ¬":4095,"Ġì´Īì²Ń":4096,"ë¶Ħìķ¼":4097,"ìŀī":4098,"ĠìĮĢ":4099,"ĠìĤ¬ìłķ":4100,"Ġì¤Ħìĸ´ëĵ¤":4101,"ë£¬":4102,"íķ´ìĸĳ":4103,"ĠëĪĦêµ°":4104,"ĠìĨĮë°©":4105,"íĽĪëł¨":4106,"ìķĦë²Ħì§Ģ":4107,"ì©į":4108,"ĠìĹ°ëĿ½":4109,"Ġê³łìĸĳ":4110,"ëĶľ":4111,"ĠìĤŃ":4112,"ĠìĿ¸ìŀ¬":4113,"Ġìĥģëĭ¹íŀĪ":4114,"ĠãĦ":4115,"ì¾Į":4116,"ĠíķĦìĪĺ":4117,"Ġíĺ¸ìĨĮ":4118,"ĠìĺĪê³ł":4119,"ĠíĹĮë²ķ":4120,"ĠìķĦë¹ł":4121,"Ġìĥģì²ĺ":4122,"Ġë¬¼ëŁ¬":4123,"Ġëĭ¤ìĪĺ":4124,"ë©´ìłģ":4125,"ëŀį":4126,"ĠëĳĲìĤ°":4127,"ĠìļĶê¸Ī":4128,"ìĹ¬íĸī":4129,"Ġì¶©ë¶ģ":4130,"íķĢ":4131,"ëĭ¤ìĿĮ":4132,"EO":4133,"ê²°ê³¼":4134,"ĠíħĲ":4135,"ĠìĥģìŀĦ":4136,"ĠëģĿëĤĺ":4137,"ĠìŀĦëªħ":4138,"ĠìµľëĮĢíķľ":4139,"íİľ":4140,"Ġì§Ģìĥģ":4141,"Ġê±°ë¡ł":4142,"íĵ¨íĦ°":4143,"ĠìĪĺíķĻ":4144,"Ġì¶ĶìĦ¸":4145,"ĳìĬ¤":4146,"íĬ¹ë³Ħ":4147,"ìĿ´íķĺ":4148,"ê¹Ĳ":4149,"Ġê³¼ìĹ°":4150,"Ġë²Įìį¨":4151,"ĠìľłëıĦ":4152,"ìĿĺìŀ¥":4153,"Ġë¬´ê¸°":4154,"Ġê¹Ķ":4155,"ĠìłĲìłĲ":4156,"ìĿ´ìĥģ":4157,"Ġëĭ¨ëıħ":4158,"ë¦ĩ":4159,"ĠíĨµê³Ħ":4160,"Ġë¶Ģìŀ¥":4161,"Ġì¡°ë¡Ģ":4162,"ĠìĭĿìĤ¬":4163,"ê¹Ŀ":4164,"ë°±íĻĶìłĲ":4165,"ĠìĿ¸ìłķë°Ľ":4166,"ë¯¸ëŀĺ":4167,"ĠíĪ¬ìĪĺ":4168,"Ġë³´ì¡°":4169,"Ġë¶Ģê³¼":4170,"ê³µëıĻ":4171,"ĠëĪĦë¦¬":4172,"Ġê°Ģë¦¬":4173,"ĠìĪĺë¹Ħ":4174,"ë±ħ":4175,"ëĥĲëĬĶ":4176,"ĠíĶĦë¦¬ë¯¸ìĹĦ":4177,"Ġì´Īë°ĺ":4178,"Ġëĵ¤ëł¤":4179,"ĠìĻĦë²½":4180,"ĠìķĦëĭĲ":4181,"Ġê°ķìĽĲëıĦ":4182,"ĠíĶĮëłĪìĿ´":4183,"ĠìŀĲìłĦê±°":4184,"ED":4185,"Ġì¹´ë©ĶëĿ¼":4186,"ĠìłĦíķ´ì¡Į":4187,"ĠâĹĭ":4188,"ìĭľì²Ń":4189,"ìĹ°ëĮĢ":4190,"ĠëıĻë°ĺ":4191,"Ġíĺ¹ìĿĢ":4192,"Ġëĵ¤ìĸ´ìĺ¤":4193,"ĠëıĻìĽĲ":4194,"Ġê´ľì°®":4195,"ìį":4196,"Ġë¬µ":4197,"ì²łëıĦ":4198,"ìĪĺëıĦ":4199,"ĠêµĲë¥ĺ":4200,"Ġê°ķíķĺ":4201,"Īľ":4202,"ĠìĦ¤ìłķ":4203,"ĠìĥĪë²½":4204,"ĠíĻĢ":4205,"Ġì²´ìľ¡":4206,"Ġì§ĳíļĮ":4207,"íĤ¤ë¡ľ":4208,"Ġìłĳì´ī":4209,"ĠëĮĢìļ°":4210,"Ġê°ķìĿĺ":4211,"Ġê´ĳìĹŃ":4212,"Ġê³łê¸ī":4213,"ĠëıħìŀĲ":4214,"ĠëģĦ":4215,"Ġì§Ģë°°":4216,"ĠìĽĲëŀĺ":4217,"ĠìķĦìī¬":4218,"íķĺìĿ´":4219,"Ġë¸ĶëŀĻ":4220,"ĠíıŃë°ľ":4221,"ĠíĨłì§Ģ":4222,"Ġë¹Ħë°Ģ":4223,"Ġê°Ģì¡Į":4224,"Ġìĭľë²Ķ":4225,"ĠìłĲìĪĺ":4226,"Ġê²½ê³ł":4227,"Ġ34":4228,"ë£©":4229,"ĠìĿĺëıĦ":4230,"Ġê´Ģì¸¡":4231,"ĠíĺĦê¸Ī":4232,"ëĵ¯ìĿ´":4233,"íļ¨ê³¼":4234,"Ġê°ľëħĲ":4235,"íħĶëłĪ":4236,"ĠíĻľë°ľ":4237,"Ġëĸ¨ìĸ´ì¡Į":4238,"Ġê²°ë¡ł":4239,"ĠìĿ¼ìłľ":4240,"ë¶ģíķľ":4241,"Ġë²ĶìľĦ":4242,"ìĺģìĹħ":4243,"ĠìŀĦìĽĲ":4244,"ĠìĽĲìłĦ":4245,"ĠìĿ´ëĤ´":4246,"ì²łìĪĺ":4247,"Ġì·¨ìķ½":4248,"ĠëĮĢë¶ģ":4249,"ĠëĤ³":4250,"Ġì£¼ê´Ģ":4251,"ĠíĨµíķ´ìĦľ":4252,"Ġëĭµë³Ģ":4253,"ìļ°ëĵľ":4254,"ìķī":4255,"ë¬ĺ":4256,"ĠëģĪ":4257,"Ġê³łíĸ¥":4258,"Ġìĭľì²ŃìŀĲ":4259,"Ġë¶Īë§Į":4260,"ic":4261,"Ġêµ¬ëĭ¨":4262,"ê±´ê°ķ":4263,"ê°ĲìĤ¬":4264,"ĠìŀħíķĻ":4265,"ĠìĽĶëĵľì»µ":4266,"Ġê¹ľ":4267,"36":4268,"Ġë¯¸ë§Į":4269,"¨ë²Ķ":4270,"Ġê³ĦìĹ´ìĤ¬":4271,"Ġì§Ħë³´":4272,"ĠíĺĦìķĪ":4273,"Ġì±Ħê¶Į":4274,"Ġê·¸ëŁ¬ë©´":4275,"ĠíĿ¬ìĥĿ":4276,"ĠìŀĲì¹ĺ":4277,"ĠìĹ´ë¦°ëĭ¤":4278,"ĠìĦłíĺ¸":4279,"Ġëĭ¨ìĿ¼":4280,"Ġì²¨ëĭ¨":4281,"Ġ38":4282,"Ġìļ´ìļ©":4283,"ëª½":4284,"íĿĺ":4285,"íĺĦìŀ¥":4286,"ê¸°ìĹĲ":4287,"Ġìĭłíķľ":4288,"Ġê·¸ëĭĪê¹Į":4289,"ĠíĹ¬":4290,"ĠëĤ¬":4291,"ĠìĤ¬íĩ´":4292,"ë¯¸ìĪł":4293,"ĠíĻĶëł¤":4294,"Ġë¬¼ê±´":4295,"íķĺê³ł":4296,"ëŁ¬ë¦¬":4297,"Ġë³´ëĥĪ":4298,"ìĬ¤íĭ°":4299,"ì¼ĢìĿ´":4300,"Ġ5000":4301,"ĠëĤ¼":4302,"ìĤ¬ê±´":4303,"âĨĴ":4304,"ë¦¬ìĺ¤":4305,"ìĥģíĻ©":4306,"Ġì±ĦëĦĲ":4307,"ìĦ¸ê¸°":4308,"ĠëĮĢìĤ¬":4309,"ĠìĿĳìĽĲ":4310,"ìĹ¬ìĦ±":4311,"ĠAI":4312,"ĠìĿ¼ëĮĢ":4313,"Ġë¯¸ìĨĮ":4314,"Ġì²Ńìķ½":4315,"ë¬¼ì§Ī":4316,"Ġë®¤ì§Ģ":4317,"ĠìłģìłĪ":4318,"ĠìĽĢì§ģìĿ´":4319,"Ġì§Ħìĭ¤":4320,"ë£¸":4321,"íĺ¸íħĶ":4322,"ìĿ¸íĦ°":4323,"ì¤ĳê³µìĹħ":4324,"ëįĶëĿ¼":4325,"Ġì¹´íİĺ":4326,"Ġì¦Ŀìĭľ":4327,"Ġëĥ":4328,"ìĤ¬ìĭ¤":4329,"ĠìĭľìĿ¸":4330,"Ġë¯¼ìĽĲ":4331,"Ġë§¹":4332,"Ġíķ©ê²©":4333,"ĠìĹħì¢ħ":4334,"ìĤ¬ëŀĮ":4335,"ĠãĢİ":4336,"Ġì±ĶíĶ¼":4337,"ë¹Į":4338,"ĠìĿ´íĭĢ":4339,"ĠíĤ¤ìĽĮ":4340,"ë°ĶìĿ´ëŁ¬ìĬ¤":4341,"ĠìĿ´ìĽĥ":4342,"ĠêµŃëĤ´ìĻ¸":4343,"ĠìĨĲíķ´":4344,"Ġíĺĳìķ½":4345,"Ġëª¨ìŀĦ":4346,"ê¸°ë¡Ŀ":4347,"ĠìĦłë°ķ":4348,"ĠìºłíİĺìĿ¸":4349,"ĠìĹ°ìĬµ":4350,"ĠìĦłìŀĦ":4351,"ë¦¬íĬ¸":4352,"íĪ¬íĳľ":4353,"ì¦ĪëĭĪìĬ¤":4354,"ĠìłĦíķĺ":4355,"Ġì¡°ìĸ¸":4356,"ìĤ°ìĭľ":4357,"ëĭ·":4358,"ĠëıĻë£Į":4359,"Ġìłķì²´":4360,"Ġ:":4361,"Ġíĺĳì¡°":4362,"ëŀĢíŀĪ":4363,"ĠíĻįì½©":4364,"ĠìłĦê°ľ":4365,"êµĲìĤ¬":4366,"Ġëª»íķ´":4367,"íĻĺìŀĲ":4368,"Ġë°Ķê¿Ķ":4369,"êµŃëĭ¹":4370,"ĠìĤ¬ìķĪ":4371,"ĠìĦłëıĦ":4372,"ĠìĦ¸ìļ°":4373,"ĠìĪĺì£¼":4374,"ĠìĭĿëĭ¹":4375,"ìĬ¤íı¬ì¸ł":4376,"ĠíĥĦìĥĿ":4377,"Ġìļ´íĸī":4378,"ĠëıĻìĿ¼":4379,"ĠìĪĺìĭľ":4380,"Ġë¹ĦëĮĢ":4381,"Ġë²ķë¬´ë¶Ģ":4382,"ĠìĨĮìŀ¥":4383,"ĠìĥĿê¸´":4384,"Ġì²ľìķĪ":4385,"Ġê·¸ê±´":4386,"Ġ37":4387,"Ġë¬´ìĥģ":4388,"ëĤĺìļĶ":4389,"ĠìĤ¬ë¬´ìĭ¤":4390,"ìĤ¬ì§Ħ":4391,"Ġ150":4392,"ìĹ°ë§¹":4393,"ĠìĨĮíĻĶ":4394,"34":4395,"ĠëĤŃ":4396,"ĠíĮĲìłķ":4397,"ĠìķĦê¹Į":4398,"Ġë³¸ìĤ¬":4399,"Ġê²°ìĬ¹":4400,"Ġì¢ģ":4401,"55":4402,"Ġê³µíķŃ":4403,"ì§ľë¦¬":4404,"Ġìĸ´ìļ¸":4405,"ĠìĤ´íİ´ë³´":4406,"Ġë§Īê°Ĳ":4407,"Ġë¿Įë¦¬":4408,"ĠìķĦë¬´ë¦¬":4409,"ĠìŀĦì§ģìĽĲ":4410,"Ġë§¤ìŀħ":4411,"Ġë§ĮëĤ¬":4412,"Ġê·¸ë§Įíģ¼":4413,"ĠëıĦìĭ¬":4414,"ĠìķĦìĿ´ëĶĶìĸ´":4415,"ë°Ń":4416,"ëĵľëŁ¬":4417,"ëª¸":4418,"ĠìļĶìĨĮ":4419,"ìĽ¨ìĸ´":4420,"ĠìĦŃ":4421,"ĠëĵľëŁ¬ëĤ¬":4422,"Ġìĥģê´Ģ":4423,"Ġå":4424,"ĠíĽĮ":4425,"ë»":4426,"ĠëłĪìĿ´":4427,"IS":4428,"ë°¤":4429,"37":4430,"Ġë²ķìłķ":4431,"Ġê²½ì£¼":4432,"Ġë°Ł":4433,"ĠìĥģìĥĿ":4434,"ì§ĢëĮĢ":4435,"ĠíıīìĥĿ":4436,"Ġë©°":4437,"ê²½ìŁģ":4438,"Ġì§Ģíľĺ":4439,"ĠíĥĢê²©":4440,"Ġê³łìĨį":4441,"ĠÂ´":4442,"Ġê²°ìłľ":4443,"ìłķìĥģ":4444,"Ġìłľê±°":4445,"ĠìĥģìľĦ":4446,"km":4447,"íħĶëłĪì½¤":4448,"¼Ī":4449,"Ġìłľìłķ":4450,"íŀĺ":4451,"ë¦¬ìĸ´":4452,"ĠìĤ¬ìĹħìŀĲ":4453,"le":4454,"Ġë²Ħë¦¬":4455,"Ġê¶Įë¦¬":4456,"Ġ32":4457,"ĠìĪĺë§İ":4458,"ĠíĥĿìĭľ":4459,"ìµľê·¼":4460,"ê°ľìĦł":4461,"ĠìľĦì£¼":4462,"ĠìĽ¨":4463,"Ġìĭ¤ìĪĺ":4464,"íĮĲë§¤":4465,"Ġì¡°ìļ©":4466,"Ġì·¨ìŀ¬":4467,"ĠëĲ©ëĭĪëĭ¤":4468,"Ġìĭ¤íĹĺ":4469,"ë°Ķë§Ī":4470,"PG":4471,"Ġëħ¸ì¶ľ":4472,"Ġíİ¸ìĦ±":4473,"ĠíİĺìĿ´ìĬ¤ë¶ģ":4474,"Ġê·łíĺķ":4475,"Ġì£¼ìµľ":4476,"38":4477,"Ġìĭ¸ìĽĢ":4478,"Ġ2005":4479,"ëģĹ":4480,"ëĭĲ":4481,"ĠìĤ´ë¦¬":4482,"ìĭ¬ìĤ¬":4483,"ìŀĲìľł":4484,"ĠìĦ±ëĤ¨":4485,"Ġ400":4486,"Ġë³´ìķĪ":4487,"IC":4488,"Ġìĥ¤":4489,"Ġì¥Ĳ":4490,"Ġì¶ĶìĦĿ":4491,"Ġê¶Įíķľ":4492,"2000":4493,"Ġâĸ¶":4494,"ëłĪê¸°":4495,"Ġë¹Ħíĸī":4496,"ëŁŃìĭľ":4497,"ìł¤":4498,"Ġê·¸ëł¤":4499,"ë¡¤":4500,"ìķĦìĭľìķĦ":4501,"ê¹ĮìļĶ":4502,"ĠíĬ¹íĹĪ":4503,"ĠìĦ¸ëł¥":4504,"Ġíģ¬ë¦¬ìĬ¤":4505,"ĠëĮĢíķĻìĥĿ":4506,"ìĨĮë¹Ħ":4507,"Ġë¯¸ëĶĶìĸ´":4508,"ëĭĪìĸ´":4509,"ë©¸":4510,"48":4511,"íĶĦë¦¬ì¹´":4512,"ĠìĹ¬ìĪĺ":4513,"ĠíĺķìĭĿ":4514,"ĠìķĦìĺĪ":4515,"ĠìľłìĹĶ":4516,"Ġê±°ì§ĵ":4517,"ĠëĶ°ë¡ľ":4518,"íĺģëªħ":4519,"ê¸°ëĬ¥":4520,"íĶĶ":4521,"Ġê²½ê³Ħ":4522,"ë²Ķì£Ħ":4523,"ĠìĿ´ìĻ¸":4524,"Ġ3000":4525,"Ġìłľëª©":4526,"Ġë¬´ìĭľ":4527,"ĠëĪĦêµ°ê°Ģ":4528,"Ġë¬¸ìŀĲ":4529,"Ġë¬¶":4530,"Ġë¶Īê°ĢíĶ¼":4531,"ì¡°ì¹ĺ":4532,"ìĿ¸ëł¥":4533,"ê³µìĹ°":4534,"Ġíģ¬ê¸°":4535,"Ġê°ľë°©":4536,"ĠìĿ´ìĬĪ":4537,"ĠìĿ´ë¥¸ë°Ķ":4538,"ĠíĹĪë¦¬":4539,"Ġëĭ¨ìĨį":4540,"ing":4541,"ĠêµĲìľ¡ë¶Ģ":4542,"ĠìĺĪìłĦ":4543,"Ġìĺ®ê²¨":4544,"ĠìĦľë¯¼":4545,"ìĺµ":4546,"ë¬´ìĹŃ":4547,"Ġê°ľë³Ħ":4548,"ĠìĿ´ê±´":4549,"ëĨĪ":4550,"ĠìĨĲìĭ¤":4551,"ìĬ¤íĨł":4552,"Ġì¤Ħìĸ´":4553,"Ġê°ľìŀħ":4554,"Ġì§ĦìĪł":4555,"ĠíĬ¸ëłĮ":4556,"Ġíİ¸ì§Ģ":4557,"ĠìłĦë¶Ģ":4558,"ĠSNS":4559,"ëĮĢìłĦ":4560,"ĠëĦ¤íĬ¸ìĽĮíģ¬":4561,"Ġë¶ĢëĮĢ":4562,"íĶĦë¡ľê·¸ëŀ¨":4563,"ĠìłĢëł´":4564,"íĭ¸":4565,"ëŀĮíļĮ":4566,"Ġê°ľìĦ±":4567,"Ġíĳľìĭľ":4568,"he":4569,"ĠCJ":4570,"ìķĹ":4571,"Ġìŀ¬íĮĲë¶Ģ":4572,"Ġì¹´ì¹´ìĺ¤":4573,"ê¸°ê¸Ī":4574,"ĠíıŃëł¥":4575,"ĠìłĦê³µ":4576,"Ġë¶Ģìĭ¤":4577,"ëĳĳ":4578,"ëĤĺìĿ´":4579,"ĠìŀĲê·¹":4580,"ë´Ĳìķ¼":4581,"Ġê°ľìĦ¤":4582,"ĠíķľêµŃìĿ¸":4583,"Ġíļ¡":4584,"ìĸ´ì¡Į":4585,"Ġìŀ¬ëĤľ":4586,"ĠìłĦìĽĲ":4587,"ìĺ¤ëĬĺ":4588,"ĠìĹī":4589,"ìļ´ìļ©":4590,"Ġìĭ¤ëĤ´":4591,"ĠìĤ¬ìĿ´íĬ¸":4592,"ìŀł":4593,"íĹ¤":4594,"Ġëª°ëŀĲ":4595,"Ġìĥģíĺ¸":4596,"Ġìĸ¸ìĸ´":4597,"Ġë¶Ħë¦¬":4598,"ĠëĬĲëĤĦ":4599,"ĠìķĦëĭĻ":4600,"ĠìĿ´ìļ©ìŀĲ":4601,"ê¼Ī":4602,"Ġì«ĵ":4603,"Ġì»¬ëŁ¬":4604,"Ġê³µìĽĲ":4605,"ĠìĪĺìĭŃ":4606,"Ġì°¾ìķĦê°Ģ":4607,"ì¡¸":4608,"Ġëħ¸ìĤ¬":4609,"ìĹ¬ìķ¼":4610,"Ġíĺ¸íĿ¡":4611,"39":4612,"Ġì´ĪëĮĢ":4613,"Ġíĺ¸ì£¼":4614,"Ġë°ľíľĺ":4615,"ĠìĿ´ëŀĺ":4616,"íĺĳìķ½":4617,"ìī½":4618,"Ġì»´íĵ¨íĦ°":4619,"Ġë¶Ģì²ĺ":4620,"ê¸°íļį":4621,"Ġì¶ľìŀħ":4622,"ĠíĹĪê°Ģ":4623,"Ġì§ĢìłĲ":4624,"ĠìĻĢìĦľ":4625,"ìĿ¸ì²ľ":4626,"Ġíķ´ëªħ":4627,"Ġëĵľë¦¬":4628,"ìłķê·ľì§ģ":4629,"ĠíĴįë¶Ģ":4630,"Ġë¶ĦëªħíŀĪ":4631,"Ġëļľ":4632,"Ġê°Ħëĭ´íļĮ":4633,"íĮİ":4634,"ĠìĦłëĳĲ":4635,"Ġìµľìļ°":4636,"Ġê·¸ì³¤":4637,"ìĸĢ":4638,"Ġë³´ìĻĦ":4639,"Ġìŀ¬ê°ľ":4640,"Ġê¹Ģì¢ħ":4641,"ëĩ":4642,"ë§Ĳë¡ľ":4643,"Ġìĭľë¦¬ì¦Ī":4644,"ìĻľ":4645,"ĠìĿ¸ìĽĲ":4646,"ĠìĦ¸ì¢ħ":4647,"ĠìĦłìĤ¬":4648,"íĮĲìĤ¬":4649,"ëłĪìĿ´ëĵľ":4650,"ĠìŀĦê¸°":4651,"ëįľ":4652,"ĠìĽĲìŀĲ":4653,"ĠìĿ´íĸī":4654,"Ġëĭ¤ëħĢ":4655,"ĠìĪľìľĦ":4656,"ĠìĿ´ìĬ¹":4657,"Ġêº":4658,"ìŀĲê³ł":4659,"ĠìĿĮìĦ±":4660,"ëŀĢëĵľ":4661,"ĠêµŃë°©ë¶Ģ":4662,"ĠìĨĮëħĢ":4663,"Ġê´ĳì£¼ìĭľ":4664,"ë¬¸íļĮ":4665,"Ġë¶Ħë¥ĺ":4666,"ĠìĦłë°°":4667,"ë²¼":4668,"ĠëĳĲëł¤":4669,"ìĪľìľĦ":4670,"ĠëĨįê°Ģ":4671,"www":4672,"ĠëĤĺìĦ¤":4673,"Ġë°±ìĭł":4674,"ĠìķĪíĮİ":4675,"Ġì§ķìĹŃ":4676,"Ġë³´ëĤ¸":4677,"ìĿĺìĭĿ":4678,"Ġì¤Ģëĭ¤":4679,"ê³µê°ľ":4680,"íķĻìĽĲ":4681,"ìķĦì°¨":4682,"ìĬ¤íĶĮëłĪìĿ´":4683,"ĠíŀĲ":4684,"Ġìıł":4685,"Ġì§Ħë£Į":4686,"ĠìķĪë³´":4687,"ì¢ħìĭľ":4688,"ê´ĳì£¼":4689,"ë³´ê±´":4690,"Ġì»¸":4691,"íŀĮëĭ¤":4692,"Ġë¬´ëł¤":4693,"ë°į":4694,"Ġìĸ´ì©Į":4695,"ĠíĨµë³´":4696,"Ġë¶ĢìĤ°ìĭľ":4697,"Ġëĸ¼":4698,"ĠíĻĶë©´":4699,"Ġê³łêµĲ":4700,"ìĹł":4701,"Ġ39":4702,"ĠëĮĢëĭ¨":4703,"ì§ĢëĬ¥":4704,"ĠìĹ¬ìľł":4705,"ìłĦìŁģ":4706,"ìħĭ":4707,"Ġê¸°ê³Ħ":4708,"49":4709,"Ġë°ľìĤ¬":4710,"Ġìĺ¬ëĿ¼ê°Ģ":4711,"íķĻìĬµ":4712,"íĥĢìļ´":4713,"ìķĪìłķ":4714,"Ġíİ¸ë¦¬":4715,"ë¬´íĺĦ":4716,"ë¨¸ë¦¬":4717,"ĠìłķìĽĲ":4718,"Ġê¹ĢìĦ±":4719,"Ġìĭ¤ë¬´":4720,"Ġê¸°ëĮĢê°Ĳ":4721,"ĠìłĢìŀĲ":4722,"Ġëĸ¨ìĸ´ìł¸":4723,"Ġê²Įëĭ¤ê°Ģ":4724,"Ġ197":4725,"Ġë§¤ëĭ¬":4726,"ĠëĤĺìķĦê°Ģ":4727,"Ġìĸ´ëł¤ìĽĮ":4728,"ê³µìłķ":4729,"ĠëĦĲ":4730,"ĠëŁ°":4731,"ĠìĦľë¥ĺ":4732,"ëį°ìĿ´íĦ°":4733,"Ġëª¨ìľ¼":4734,"Ġì§ķê³Ħ":4735,"ìĦ¸íĬ¸":4736,"47":4737,"ĠíĻĶìŀ¬":4738,"ĠíĨłëĮĢ":4739,"ìŀĳìĹħ":4740,"32":4741,"ì²©":4742,"ëķħ":4743,"Ġìĭ¬ìĿĺ":4744,"ĠìĦĿìľł":4745,"ë¦¬ìĬ¤íĬ¸":4746,"ĠëŃĺ":4747,"Ġê³łë°ľ":4748,"Ġë°°ìłľ":4749,"ĠÂ·":4750,"ĠìĿ´ìĸ´ì¡Į":4751,"Ġëħ¹ìĥī":4752,"Ġë¶Ģëĭ¹":4753,"ion":4754,"Ġë¬´ë¦":4755,"íĨ±":4756,"Ġì§Īë³ĳ":4757,"ê³¼ìŀ¥":4758,"ĠíĺĦíĸī":4759,"ì¹ľëĭ¤":4760,"ê³łìĨį":4761,"ë£¨ìħĺ":4762,"Ġê²½ëł¥":4763,"ĠìĿ´ëķĮ":4764,"ìķĦëĭĪ":4765,"ìĮ":4766,"ĠìķĦë¥´":4767,"ĠëıĻìĥĿ":4768,"ĠíĻķì¶©":4769,"ĠëĤłìĶ¨":4770,"ĠìķĮëł¤ì§Ħ":4771,"ĠëĽ°ìĸ´ëĤľ":4772,"Ġê³łëł¹":4773,"ĠGS":4774,"Ġ65":4775,"ĠìĥĿê²¼":4776,"ë®¤ëĭĪ":4777,"Ġê¹Ģíĥľ":4778,"ĠìķĦìĿ´íħľ":4779,"íĿĲ":4780,"ìŀĸìķĦ":4781,"Ġë³´ê³ł":4782,"Ġìıĺ":4783,"Ġê¼¼":4784,"ë³µíķ©":4785,"Ġê°Ħëĭ¨":4786,"Ġìļ°ì£¼":4787,"ĠëĤĺì¤ĳ":4788,"Ġëĭ´ê¸´":4789,"ĠìĦ¸ìĽĮ":4790,"ìĵ¸":4791,"Ġì§ģìłĦ":4792,"ëģĪ":4793,"Ġì¡°ìĭ¬":4794,"íĮ¬":4795,"Ġê°Ĵ":4796,"ĠìĺĪìķ½":4797,"ë²Ħë¦°":4798,"ĠìĸĳêµŃ":4799,"ĠëĤ´ë¦°":4800,"Ġê·¸ê³³":4801,"Ġê°ĲëıĻ":4802,"ĠëĦ¥":4803,"ĦìĥĪ":4804,"Ġëĭ¨ìľĦ":4805,"46":4806,"Ġë§Īì£¼":4807,"ĠëģĿëĤľ":4808,"ì²´ìłľ":4809,"êµĲìĪĺ":4810,"Ġíĺ¼ëŀĢ":4811,"ĠëĨįì´Į":4812,"ĠìĥĿì¡´":4813,"ĠìĹ°ìĺĪ":4814,"íļĮê´Ģ":4815,"ĠëıĻëĦ¤":4816,"Ġìłķê·ľ":4817,"Ġëıĭ":4818,"Ġë¶ī":4819,"ĠëĪĦìłģ":4820,"Ġêº¾":4821,"Ġëĵ¤ìĸ´ìĦľ":4822,"ĠíıĲê¸°":4823,"ĠìĭľëĤ´":4824,"ìķ¼ë§Ĳë¡ľ":4825,"ĠëĲľëĭ¤ëĬĶ":4826,"Ġíĺ¸ëĤ¨":4827,"Ġëĭ¤íĸī":4828,"Ġìłľì£¼ëıĦ":4829,"Ġëª°ëł¤":4830,"ĠíĻĶíķĻ":4831,"ĠìĿ´ìłķ":4832,"Ġì¢ħë£Į":4833,"Ġìŀħì§Ģ":4834,"Ġë°Ķë¥¸":4835,"Ġìķŀìŀ¥":4836,"ĠìĬĪíį¼":4837,"Ġì´Īê³¼":4838,"ë¸Įë¦¬":4839,"ìĹ¬ìĦľ":4840,"ë°©ìķĪ":4841,"Ġëº":4842,"Ġë°±íĻĶìłĲ":4843,"ì¡°ì§ģ":4844,"ĠìĿĺíķľ":4845,"FC":4846,"--":4847,"ìĺģìŀ¥":4848,"ê²Ģì°°":4849,"ĠìŀĲìĭĿ":4850,"Ġíĺ¹ìĭľ":4851,"Ġì¹¨ì²´":4852,"ĠíĭĪ":4853,"ĠíĢ":4854,"Ġëĭ¤ìĦ¯":4855,"ĠëĤ´ìĿ¼":4856,"ç¾":4857,"ëĭĪíĦ°":4858,"ĠìĹ´ìłķ":4859,"Ġìŀ¬ë¬´":4860,"Ġì²ĺë¶Ħ":4861,"ĠìķĦìļ°":4862,"Ġíİ´":4863,"ĠëĮĢë¦¬":4864,"Ġìľ¼":4865,"Ġê²°íķ©":4866,"ìł¸ìķ¼":4867,"ë¹ĦìķĦ":4868,"Ġë°ĶìĿ´ìĺ¤":4869,"íıīê·ł":4870,"ëį´":4871,"Ġìĺ¬ë¦°":4872,"Ġì·¨ëĵĿ":4873,"ĠëĮĢì²ĺ":4874,"Ġì¾Į":4875,"ĠìľĦìķĪ":4876,"ĠìłĪê°Ĳ":4877,"Ġêµ¬ë¶Ħ":4878,"Ġì¤ĳêµ¬":4879,"ĠíĨµìłľ":4880,"ìĦ¤íĮħ":4881,"TE":4882,"ëī´ìĬ¤":4883,"Ġì°©ìļ©":4884,"Ġìķ¨ë²Ķ":4885,"Ġëį®":4886,"Ġì²łëıĦ":4887,"CD":4888,"Ġëĵ±ê¸ī":4889,"Ġ48":4890,"Ġê²Ģìĥī":4891,"ìĭľìĺ¤":4892,"ĠìĿ´ê¸°":4893,"Ġì¶Ķêµ¬":4894,"ĠëĨĴìĺĢ":4895,"ĠíĪ¬ëªħ":4896,"ĠíĮĮíĬ¸":4897,"ì§Ģë²ķ":4898,"Ġì°¬ìĦ±":4899,"ë§Īë¦¬":4900,"65":4901,"ë³´ìĿ´":4902,"ê¹Ķ":4903,"Ġì±ĦíĥĿ":4904,"kr":4905,"êµŃíļĮ":4906,"ĠíĻĶìŀ¥íĴĪ":4907,"ëĮĢìĤ¬":4908,"Ġì°½ì¡°":4909,"Ġìĺģìĸĳ":4910,"Ġë§ŀì¶Ķ":4911,"ĠìłĦíĪ¬":4912,"ìķĦëĤ´":4913,"ìłĦìĭľ":4914,"ëĩ¨":4915,"ìĦ¼íĬ¸":4916,"ou":4917,"Ġê±´ëĦĪ":4918,"Ġìĺ¤ë°Ķë§Ī":4919,"íĶ¼íķ´":4920,"Ġë¶Ħëħ¸":4921,"Ġë¸Įë¦¬":4922,"ì¶Ķì§Ħ":4923,"Ġìľłì¶ľ":4924,"Ġëĭ«":4925,"Ġêº¼ëĤ´":4926,"Ġê±°ëĮĢ":4927,"Ġëħ¸íĽĦ":4928,"Ġëĭ´ë°°":4929,"ĠìĦ¤ëĵĿ":4930,"ĠìĿ´ìĤ¬ìŀ¥":4931,"ìĹħìŀĲ":4932,"ë²Ħëł¸":4933,"íķĺìļ°ìĬ¤":4934,"ê¼¬":4935,"ìĿ¸ìĤ¬":4936,"ëĭ¤ë¦¬":4937,"ìŀ¥ì¹ĺ":4938,"ĠìºłíĶĦ":4939,"ë°©ìĭĿ":4940,"Ġë°ĶìĿ´ëŁ¬ìĬ¤":4941,"Ġëª»íķł":4942,"ĠìłĢì§Ģ":4943,"Ġì£¼ìĿĺ":4944,"Ġëª¨ìĥī":4945,"ê³¨íĶĦ":4946,"ĠìĨĮì¤ĳ":4947,"Ġê·¼ë³¸":4948,"Ġëª½":4949,"ëĵ±ë¡Ŀ":4950,"äº":4951,"Ġê³ģ":4952,"ĠìĪĺìĪĺë£Į":4953,"Ġê³ĦìĤ°":4954,"Ġë§¤ë§¤":4955,"ĠëıĮìķĦìĺ¤":4956,"ĠíĻĪëŁ°":4957,"Ġìĭ¤ìĭľê°Ħ":4958,"ĠìĽ¹":4959,"ĠìĿĺë¬¸":4960,"ìľĦíĦ°":4961,"ëĴĢ":4962,"Ġë§Īì¹¨":4963,"Ġê²°ì½Ķ":4964,"ëĮĢíķľ":4965,"ìŀĺ":4966,"Ġêµ¬íĺĦ":4967,"Ġë³´ê¸ī":4968,"ìĹĲìĬ¤":4969,"Ġì¹Ń":4970,"ĠíķĻìĽĲ":4971,"ĠíĶ¼íķĺ":4972,"ëĤĺë§Ī":4973,"ìĿĺìŀĲ":4974,"Ġìĺģìŀħ":4975,"íķłì§Ģ":4976,"Ġì§ĪíĻĺ":4977,"Ġë§ĮëĤ¨":4978,"ĠìĹ´ëł¸":4979,"ĠíĴĪëª©":4980,"ĠëĮĢê²°":4981,"ë´īìĤ¬":4982,"ëĩĮ":4983,"Ġìĸ´ì°Į":4984,"ìłķìĭł":4985,"´ëĵľ":4986,"ìĿĮìķħ":4987,"ĠíĪ¬ìĸ´":4988,"Ġë¬¸ìłľìłĲ":4989,"Ġë°°íĦ°ë¦¬":4990,"Ġíİ¸ìķĪ":4991,"å¤":4992,"Ġê³µíı¬":4993,"Ġëľ¨ê±°ìļ´":4994,"Ġì±ĶíĶ¼ìĸ¸":4995,"ë¡ľëĵľ":4996,"Ġì¢ħêµĲ":4997,"Ġê¸Īë©Ķëĭ¬":4998,"Ġìķ¼ê¶Į":4999,"Ġë¯¸ìĦ¸ë¨¼ì§Ģ":5000,"44":5001,"ĠìĹ°ê·¹":5002,"Ġì°¸ê°ĢìŀĲ":5003,"ĠíıĲìĩĦ":5004,"ĠëĮĢê±°":5005,"ìłĦíĺķ":5006,"ĠíħĲëį°":5007,"Ġë¹łì§Ģ":5008,"Ġë¯¼ì¡±":5009,"Ġë¹Ħë¦¬":5010,"ĠíļĮëĭ´":5011,"ëį©":5012,"ì¿¨":5013,"ìłĦê¸°":5014,"Ġíķ©ë¦¬":5015,"ë¥´ìĭł":5016,"ĠìķŀëĳĶ":5017,"Ġë¶ĢìĦľ":5018,"ëĦ£":5019,"Ġìĸ´ìłľ":5020,"ĠìĿĺíļĮ":5021,"ìļ©íĴĪ":5022,"ìķĪíĥĢ":5023,"ĠìĻ¼":5024,"ë¶Ħìĸĳ":5025,"Ġëªħëł¹":5026,"ĠìķĦë¬´ëŁ°":5027,"ĠìłĲìľł":5028,"Ġ55":5029,"Ġë¬¼ë¦¬":5030,"íĪ¬ìĸ´":5031,"ëĺĲ":5032,"ĠëĵľëŁ¬ëĤĺ":5033,"ê¶ĮìŀĲ":5034,"Ġë§¤ì¶ľìķ¡":5035,"Ġê¹Ģíķ´":5036,"ĠìķĮëł¤ìł¸":5037,"ĠìħĢ":5038,"íĥĢìŀĦ":5039,"Ġë®¤ì§Ģì»¬":5040,"íķľëį°":5041,"ĠëĤ¨ëħĢ":5042,"ë³´ì¦Ŀ":5043,"Ġíıīì°½":5044,"ĠëĵľëŁ¬ëĤ´":5045,"ë§ĪëĶĶ":5046,"ì¿Ħ":5047,"ìŀĳìļ©":5048,"ëģ¼ë¦¬":5049,"ĠëªħíĻķ":5050,"ĠìłĦì£¼":5051,"ìłķëĭ¹":5052,"Ġì§ģë¬´":5053,"Ġê±¸ë¦¬":5054,"ĠëģĿëĤ´":5055,"ĠëıĻë¶Ģ":5056,"Ġë©´ìłĳ":5057,"Ġë¡ľë´ĩ":5058,"ĠìĹ¬ê±´":5059,"ĠìĥģìĬ¹ìĦ¸":5060,"Ġì£¼ì£¼":5061,"ë³ĢíĻĶ":5062,"Ġë¦¬ê·¸":5063,"Ġê°ľíĨµ":5064,"Ġëª©ìĪ¨":5065,"ìĺ¤íĶĦ":5066,"ëĤĺëĭ¤":5067,"Ġë³µìŀ¡":5068,"ĠìĤ¬ë²ķ":5069,"ëģĦëŁ¬":5070,"ëĨĢìĿ´":5071,"ìĤ¬ìĿ´":5072,"ĠíĨµìĥģ":5073,"ìķĦë¦¬":5074,"Ġì¡°ëªħ":5075,"ĠëıĻìĺģìĥģ":5076,"Ġë¹Ħì¦ĪëĭĪìĬ¤":5077,"Ġêµ¬ìĥģ":5078,"ĠìľłìĤ¬":5079,"Ġì¶¤":5080,"ĠëĬĲê¼Ī":5081,"ĠìłģìŀĲ":5082,"ĠíĬĢ":5083,"Ġê¹ĬìĿ´":5084,"Ġë¬´ê²Į":5085,"ê¸īìĭĿ":5086,"ĠìŁģ":5087,"ĠìĬ¤íĬ¸ëłĪìĬ¤":5088,"Ġ2004":5089,"ĠíĿī":5090,"íıīíĻĶ":5091,"íĮ©":5092,"ĠìĿ¼ê°ģ":5093,"Ġì§Ģì§Ģìľ¨":5094,"ĠìĤ°íķĺ":5095,"ìĪĺì§Ģ":5096,"ĠìĦľêµ¬":5097,"ĠíĿ¥ë¯¸":5098,"ìĹħë¬´":5099,"Ġì§ĢìĪĺ":5100,"Ġë¹ĦìłĦ":5101,"ëĮĢíĨµëł¹":5102,"ħëĭĪëĭ¤":5103,"ĠëıĻì°¸":5104,"ĠëªħíĴĪ":5105,"ĠìĦłë³´ìĺĢ":5106,"ëĤľëĭ¤":5107,"ê³µìĿ¸":5108,"ĠìĦłì¶ľ":5109,"ëį°ìĿ´":5110,"Ġë¬´ë¦İ":5111,"Ġìĭ¬ìŀ¥":5112,"ĠìĦ±ëªħ":5113,"ĠëĤ´ëĤ´":5114,"ìĭŃëĭĪê¹Į":5115,"ĠSBS":5116,"ĠìĦ±ëĬ¥":5117,"ë¡ľìĬ¤":5118,"Ġì§ĢëĤ´":5119,"ê¿Ī":5120,"Ġëħ¼ë¦¬":5121,"ĠëĮĢë§Į":5122,"ì¢ĭ":5123,"Ġê¹¨ëģĹ":5124,"ì¨":5125,"Ġìį":5126,"íķĺìļ°":5127,"ëĿ¼ê³łìļĶ":5128,"Ġì§Ģíķĺì²ł":5129,"Ġê·¸ëĤł":5130,"ĠìĦŀ":5131,"ĠìĦ¤ë¹Ħ":5132,"Ġë§ĮëĤł":5133,"ĠìľłëĭĪ":5134,"ê³Ħì¸µ":5135,"Ġê°Ģê³Ħ":5136,"Ġìļ©ìĿ¸":5137,"ĠìĹ°ëł¹":5138,"ĠíħĮë§Ī":5139,"ãİı":5140,"Ġìĥģë¬´":5141,"ì±ħìŀĦ":5142,"Ġì½ĺìĦľíĬ¸":5143,"ì°¾":5144,"et":5145,"ê¸ĭ":5146,"ĠìĿ´ìĸ´ì§Ī":5147,"ê¸°ìĤ¬":5148,"ĠìĪĺëĭ¨":5149,"ëł·":5150,"Ġë§Īì¹ľ":5151,"íį¼ìĬ¤":5152,"Ġë³´ì¦Ŀ":5153,"Ġëļ«":5154,"Ġë³¸ë¶Ģ":5155,"ê¸°ìŀĲ":5156,"Ġìĭľê¸ī":5157,"Ġì£¼ìľĦ":5158,"ëĮĢì²´":5159,"Ġëª¨ë¥¸ëĭ¤":5160,"ëĮĢê°ķ":5161,"ĠëĨĢìĿ´":5162,"Ġì¤Ģê³µ":5163,"Ġì§ĢëıĦë¶Ģ":5164,"Ġæ":5165,"ìĹĲê²ĮìĦľ":5166,"Ġìľłê¸°":5167,"ĠìĹ¬ìĿĺ":5168,"Ġë¬¼ë¥ĺ":5169,"ĠíĻĺìľ¨":5170,"Ġëª¨ìķĺ":5171,"ĠìĻĦìłĦ":5172,"ìŀ¬ìłķ":5173,"ê±°ëł¸":5174,"Ġìĺ¤ë¦¬":5175,"Ġì§ĳìķĪ":5176,"ĠìĤ´ìĿ¸":5177,"ĠìĿ´íĥĪë¦¬ìķĦ":5178,"ĠëħĢ":5179,"ìĨĮìŀ¥":5180,"ĠíĮĮê²¬":5181,"íģ´ëŁ½":5182,"Ġìŀ¥íķĻ":5183,"Ġëĭ¹ìĹ°íŀĪ":5184,"Ġë´Ĳìķ¼":5185,"Ġì¶Ķìĸµ":5186,"Ġ/":5187,"Ġì§Ģì¼ľë³´":5188,"ĠíĬ¸ìľĦíĦ°":5189,"ì§ĦíĿ¥":5190,"ìĹĲëĭ¤":5191,"Ġì¡°íķ©ìĽĲ":5192,"Ġëª¨ìŀĲ":5193,"ìłķìĽĲ":5194,"Ġë¸ĮëĿ¼ì§Ī":5195,"ĠìĤ¬ìľł":5196,"ĠíĮĮìĹħ":5197,"ĠëĵĿìłĲ":5198,"Ġì°©ìĪĺ":5199,"ìĪĺìĦĿ":5200,"Ġì§ĢìĹ°":5201,"Ġíģ´ëŀĺ":5202,"Ġíĳľì¤Ģ":5203,"ê¸Īìķ¡":5204,"ìĿ´ìłľ":5205,"ë´Ħ":5206,"Ġë²Įìĸ´ì§Ģ":5207,"Ġê°ľë´ī":5208,"Ġê³§ë°Ķë¡ľ":5209,"ìħī":5210,"Ġìľłëł¥":5211,"Ġìłķì°©":5212,"ìĥ¤":5213,"ĠìĦ±ë¶Ħ":5214,"ìĪĺìĤ°":5215,"Ġì¶©ëıĮ":5216,"ë¯¹":5217,"ëĶĶìħĺ":5218,"ë§Ļ":5219,"ìľłì¹ĺ":5220,"ë²łìĿ´":5221,"ìĹŃìĤ¬":5222,"ë¥ľ":5223,"Ġê¸°íĥĢ":5224,"ìķĦíĮĮíĬ¸":5225,"íı¬ë¥´":5226,"Ġëª¨ëĭĪíĦ°":5227,"Ġìĭłíĺ¸":5228,"ĠëħĢìĦĿ":5229,"ê¸°ì§Ģ":5230,"ĠëĥĦìĥĪ":5231,"ë²Īíĺ¸":5232,"ê·¸ëłĩ":5233,"ìĤŃ":5234,"ĠìĭľìĽĲ":5235,"ëł¤ìķ¼":5236,"66":5237,"ĠíĺĦíĻ©":5238,"Ġëĵ¤ìĸ´ê°Ħ":5239,"Ġíģ´ëŁ½":5240,"ê·¸ëŁ°":5241,"Ġìŀħë²ķ":5242,"ï½":5243,"Ġë¬¸ìĿĺ":5244,"íĮĮìĿ´":5245,"ìĪľíĻĺ":5246,"ĠìĽĲíķĺ":5247,"ë°ķë¬¼ê´Ģ":5248,"3000":5249,"Ġì¤¬":5250,"ìŀ¬íĮĲ":5251,"Ġì¡°ìŀĳ":5252,"Ġíĸīë³´":5253,"ĠìĪ«":5254,"Ġë³´ìĿ¸":5255,"ĠëĦ¤ìĿ´ë²Ħ":5256,"Ġê±°ëĳĲ":5257,"Ġìŀħì¦Ŀ":5258,"íĽ":5259,"ì¹«":5260,"íķĻê¸°":5261,"Ġíľ´ê°Ģ":5262,"ĠíĹĪìľĦ":5263,"Ġë§ĽìŀĪ":5264,"ĠëĨįíĺĳ":5265,"Ġë§ŀìĿ´":5266,"99":5267,"Ġë©ĶìĿ´ìłĢ":5268,"ëĮĢë¹Ħ":5269,"êµŃëĤ´":5270,"ĠëıĮìŀħ":5271,"ĠìĦ¸ë¶Ģ":5272,"Ġìĭľìĥģ":5273,"ĠíĽ¼ìĨĲ":5274,"íĨłë¡Ŀ":5275,"ĠíĬ¸ëłĮëĵľ":5276,"ì¨Į":5277,"ĠêµĲíļĮ":5278,"Ġìĭłë¶Ħ":5279,"IT":5280,"Ġê³µëŀµ":5281,"ì¼ĢìĿ´ìħĺ":5282,"ëĿ¼ìĦľ":5283,"Ġìļ©ìĹŃ":5284,"ë§ĪìŀĲ":5285,"Ġê°Ĳìĭľ":5286,"75":5287,"Ġë¶Ģì±Ħ":5288,"Ġê¹ĢìłķìĿĢ":5289,"Ġë¹Ĺ":5290,"300":5291,"ê³½":5292,"Ġêµ¬íķĺ":5293,"Ġíķľì¸µ":5294,"Ġë§¤ì£¼":5295,"ĠìĪĺìĨĮ":5296,"Ġ=":5297,"ĠëĤĺìĦłëĭ¤":5298,"ĠíĴĢìĿ´":5299,"ĠìŀĩëĶ°ëĿ¼":5300,"ê¸°ëħĲ":5301,"Ġìľłìŀħ":5302,"ĠìĹ°ëĮĢ":5303,"ëľ¨ë¦¬":5304,"ìĪĺìĿµ":5305,"Ġë³µìĽĲ":5306,"Ġì¤ĳëĮĢ":5307,"Ġê°ĢëŁī":5308,"Ġê°Ħë¶Ģ":5309,"Ġìłĸ":5310,"ĠìĹ°íľ´":5311,"ĠêµĲìľ¡ê°Ĳ":5312,"ĠêµŃìłķìĽĲ":5313,"ĠìŀĲìĤ´":5314,"ĠìĹĶì§Ħ":5315,"Ġë³ĢëıĻ":5316,"ëªħíļĮ":5317,"Ġì°Į":5318,"ĠãĦ±":5319,"ì§ĪíĻĺ":5320,"Ġëĭ¨ìĸ´":5321,"ĠìłĲì°¨":5322,"ĠíĬ¹íĻĶ":5323,"ĠëĳĺëŁ¬ìĭ¼":5324,"Ġë³´ê´Ģ":5325,"ì²ĺë¶Ħ":5326,"Ġë©Ģë¦¬":5327,"íķĻê³¼":5328,"ê¸°ê¸°":5329,"Ġì¡°ìłĪ":5330,"Ġìµľìłģ":5331,"ìłķë¹Ħ":5332,"Ġêµ¬ê¸Ģ":5333,"Ġì¹ĺëŁ¬":5334,"Ġì¢ħë¥ĺ":5335,"Ġê·¸ìłĢ":5336,"ìŀ¥ê¸°":5337,"ĠìĬ¤íİĺìĿ¸":5338,"íĬľë¸Į":5339,"Ġê³¼ìŀ¥":5340,"ĠëıĻëĤ¨":5341,"ĠìķĪì²łìĪĺ":5342,"Ġë°ĸìĹĲ":5343,"Ġì·¨íķĺ":5344,"ĠìķĦíĶĦ":5345,"ìĿ´ëĭĿ":5346,"Ġìłķì¹ĺìĿ¸":5347,"Ġê¸īê²©":5348,"Ġë°°ëĭ¬":5349,"ëį¤":5350,"ìľĪ":5351,"Ġìłľìķ½":5352,"ĠìĪĺì¹ĺ":5353,"Ġíķ©ë¥ĺ":5354,"ì²ľìĸµ":5355,"Ġìĸ´ë¥¸":5356,"Ġìĺ¤íĶ¼ìĬ¤":5357,"åħ":5358,"Ġë©´ìłģ":5359,"ĠìĨĮëħĦ":5360,"Ġëĺĳê°Ļ":5361,"¸Ĳ":5362,"Ġìĵ°ëłĪê¸°":5363,"ĠìĿ¼ìĽĲ":5364,"ë°Ķëĭ¥":5365,"ìļĶê¸Ī":5366,"Ġê¹ľì§Ŀ":5367,"ĠìĿ´ë¤Ħì¡Į":5368,"íĥĲ":5369,"ìŀ¥ë¹Ħ":5370,"Ġë²¨":5371,"Ġê°ĢìĬ¤":5372,"Ġêµ¬ë¯¸":5373,"íķ´ì§Ī":5374,"Ġì¶©ì²Ń":5375,"ìŀĲë§ĪìŀĲ":5376,"ĠìĤ¬ìĹħë¹Ħ":5377,"Ġë¬´ëĦĪ":5378,"ĠìĦłë³´ìĿ¸ëĭ¤":5379,"Ġë¹Ħìłķê·ľì§ģ":5380,"ĠìľłëıĻ":5381,"Ġë°°ëł¤":5382,"ì¹¸":5383,"Ġëĭ¹ìĿ¼":5384,"Ġê»":5385,"Ġíķ´ìļ´":5386,"ĠìĹĦì²ŃëĤľ":5387,"Ġíĥĳìŀ¬":5388,"ĠíĻĺê²½ë¶Ģ":5389,"ì²´ìľ¡ê´Ģ":5390,"Ġ46":5391,"Ġì¦īìĭľ":5392,"Ġì²łíķĻ":5393,"ë°ĶìĿ´ìĺ¤":5394,"íķ´ìł¸":5395,"ĠíĨµì¦Ŀ":5396,"ĠìĤ¬ë¡ľ":5397,"Ġê·¸ëŀĺìļĶ":5398,"ĠìĹ°íķ©":5399,"ê²½ëĤ¨":5400,"Ġì§ĢëıĦìŀĲ":5401,"ĠëĴ¤ì§ĳ":5402,"ì§Ģìĸ´":5403,"ĠìĪ«ìŀĲ":5404,"ëŀŃ":5405,"Ġìĭłìŀħ":5406,"Ġë¬¼ì§Ī":5407,"ĠCEO":5408,"Ġìłģë°ľ":5409,"ê³µíķĻ":5410,"ëª¨ëį¸":5411,"Ġê²½íĸ¥":5412,"ëħ¸ì´Ŀ":5413,"ĠíĺĳìĹħ":5414,"ìłĦëĤ¨":5415,"Ġë©Ķëī´":5416,"ĠìĨĮë¬¸":5417,"ĠëĪĪì¹ĺ":5418,"ìĿĢìĿ´":5419,"ìķĦíĬ¸":5420,"58":5421,"ìĬ¤íĭ°ë²Į":5422,"ĠìĤ¬ë¡ľìŀ¡":5423,"Ġì¤ĺ":5424,"ĠíļįëĵĿ":5425,"Ġâĳ":5426,"Ġë¹Ļ":5427,"Ġë¹łì§Ħ":5428,"ë²ħ":5429,"Ġë©ĺ":5430,"Ġ49":5431,"ĠëģĮìĸ´ìĺ¬":5432,"Ġëĭ¬íķľëĭ¤":5433,"Ġ47":5434,"ĠPC":5435,"ë°¸":5436,"ĠìĺĪëĬ¥":5437,"Ġìĭľìłķ":5438,"ëĬ¦":5439,"Ġì¸¡ìłķ":5440,"ìłĦì§Ģ":5441,"Ġìĭ¤íĸī":5442,"ĠìĬ¤íĥĢíĬ¸":5443,"ìĥģê³µ":5444,"Ġê°ĸì¶°":5445,"ê°ľìĨĮ":5446,"ëıĻë¬¼":5447,"ĠëĤĺê°Ķ":5448,"Ġíľ´ìĭĿ":5449,"ĠíĻĶìĦ±":5450,"ìĭŃìĭľìĺ¤":5451,"ĠìłķìĭĿ":5452,"ĠìĤ¬ëĿ¼ì§Ģ":5453,"Ġíĸĩ":5454,"íĺĳìĥģ":5455,"Ġë¯¼ì£¼ì£¼ìĿĺ":5456,"ĠíĮĮë¦¬":5457,"ê±¸ìĿĮ":5458,"Ġì°½ìĿĺ":5459,"ì°¸ìĹ¬":5460,"Ġíĸ¥íķľ":5461,"Ġë¯¸ìķĪ":5462,"ê³łë¦¬":5463,"ìĥģíĥľ":5464,"Ġë¥´":5465,"ëĲĲìľ¼ë©°":5466,"ì°¨ëŁī":5467,"ĠìŀĦìĥģ":5468,"Ġê¶Įê³ł":5469,"Ġìĺ¤ë¹ł":5470,"ĠìĨĮíĶĦíĬ¸":5471,"íĺĦì§Ħ":5472,"Ġì´Ŀê´Ħ":5473,"ĠíĴįê²½":5474,"ĠíĿĲë¥´":5475,"ĠKIA":5476,"ĠìĦ¸íĬ¸":5477,"LG":5478,"Ġê³łëĵ±íķĻêµĲ":5479,"ĠìĸĳìĤ°":5480,"ĠëĮĢìŀ¥":5481,"Ġê·¸ê°Ħ":5482,"Ġì»¤ë®¤ëĭĪ":5483,"ĠìĭľìĤ¬":5484,"Ġ[":5485,"Ġê²°ìĿĺ":5486,"ìķ½íĴĪ":5487,"ëıĻëł¥":5488,"Ġ120":5489,"Ġë»Ķ":5490,"Ġë¬¼ê°Ģ":5491,"Ġìĸ´ë¥´ìĭł":5492,"ĠãĪľ":5493,"ë¸Ĳ":5494,"ĠìĦ¸ìĽł":5495,"ĠëĮĢíķ´ìĦł":5496,"ë©į":5497,"53":5498,"ë¹Ħìľ¨":5499,"Ġë°©ìĸ´":5500,"ë§Īì¼ĵ":5501,"ĠëĦĪë¬´ëĤĺ":5502,"ìĭľìķĪ":5503,"Ġë°ķìłķ":5504,"Ġê°ģìŀĲ":5505,"ĠëķĢ":5506,"Ġíķ´ìļĶ":5507,"Ġê±°ì¹ĺ":5508,"ë°ĶëŀĮ":5509,"Ġë§Īì³¤":5510,"ĠëĤ¯":5511,"Ġë°ĺë°ķ":5512,"Ġì°¨ê´Ģ":5513,"ĠëıĻêµ¬":5514,"ĠìĥģìĹħ":5515,"Ġìĸ´ì¨Į":5516,"ìĿ´ëŀĢ":5517,"ĠìłĲíı¬":5518,"59":5519,"íĹĪê°Ģ":5520,"Ġëħ¸ë¬´íĺĦ":5521,"Ġê±¸ìĿĮ":5522,"ìŀĦëĮĢ":5523,"Ġìŀłìŀ¬":5524,"íĪ":5525,"íĢ´":5526,"Ġìłģíķ©":5527,"ĠìĿ´ëłĩ":5528,"Ġì¹ĺë¥´":5529,"Ġìŀ¬ë£Į":5530,"ìĹĲê²Ĳ":5531,"íĮĢìŀ¥":5532,"ëļĿ":5533,"ĠìĻ¸íĻĺ":5534,"íı¬ëŁ¼":5535,"ç¾İ":5536,"68":5537,"ĠëģĬìŀĦ":5538,"Ġì°¨ì§Ī":5539,"Ġë¶ĢìĤ¬ìŀ¥":5540,"ìĬ¤ë§ĪíĬ¸":5541,"Ġê°¤ëŁŃìĭľ":5542,"ĠìĦ±ìĿ¸":5543,"Ġê³łìłķ":5544,"Ġë³Ħë¡ľ":5545,"ĠëıĮë¦¬":5546,"Ġê¸°ìĥģ":5547,"ìĹ°íŀĪ":5548,"Ġì¤ĳìłĲ":5549,"ìĩł":5550,"Ġíķ©ëıĻ":5551,"Ġìŀħìĭľ":5552,"ĠìĬ¤íĨłë¦¬":5553,"Ġìłľê³ł":5554,"Ġì´ĪìłĲ":5555,"Ġ2002":5556,"ëıĦìĦľê´Ģ":5557,"57":5558,"ĠìĭłìĦł":5559,"ĵê¸Ģ":5560,"Ġì½ĶìĬ¤íĶ¼":5561,"Ġì§Ħë¡ľ":5562,"ê¸Ģë¡ľë²Į":5563,"Ġë³Ģìĭł":5564,"ĠìķĪëħķ":5565,"ĠìĹĨìķł":5566,"ë¥Ń":5567,"ëģĿ":5568,"Ġì¶ķíķĺ":5569,"ìĹ¬ìŀĲ":5570,"íİĺìĿ´":5571,"Ġë³´ìĿ¼":5572,"ĠëıĦì¿Ħ":5573,"ì´ĿíļĮ":5574,"ĠìĹĲìĬ¤":5575,"Ġì¢ħìĿ´":5576,"Ġì¸µ":5577,"ĠìĨĮíĺķ":5578,"ëĲ¨":5579,"Ġìŀ¬ëĭ¨":5580,"ĠíıŃíĸī":5581,"Ġë°ĽìķĦëĵ¤ìĿ´":5582,"ì±":5583,"Ġìĭ¤ìłķ":5584,"Ġë¹ĦìĦľ":5585,"ë§Īíģ¬":5586,"8000":5587,"ï¼Ĥ":5588,"ĠìĦľëªħ":5589,"Ġìŀ¬ë¯¸ìŀĪ":5590,"Ġë²ĮìĺĢ":5591,"Ġê³½":5592,"Ġì¢ĭìķĦ":5593,"42":5594,"ĠìĻľëĥĲ":5595,"PC":5596,"ĠëıĦìĦľê´Ģ":5597,"ì²ŃìĤ¬":5598,"ª¼":5599,"ëŀĺëıĦ":5600,"ĠìĽħ":5601,"ì£¼ì£¼":5602,"Ġìĭłì²´":5603,"ê²½ì°°ìĦľ":5604,"Ġê°ķìĹ°":5605,"Ġê°ģêµŃ":5606,"ĠìĤ¬ê¸°":5607,"Ġê±´ëį°":5608,"ĠìľĦì¶ķ":5609,"ĠìŀĲê¾¸":5610,"ìķĦëĿ¼":5611,"ĠìĿ¼ë°©":5612,"ĠìĥģìĿ¸":5613,"ĠëĵľëŁ¬ëĥĪ":5614,"ìĿ¸êµ¬":5615,"56":5616,"Ġìľµíķ©":5617,"ì¡°íĬ¸":5618,"Ġíķľìłķ":5619,"Ġìłķíķĺ":5620,"ê°ľìĿ¸":5621,"ĠíĮĲìĤ¬":5622,"Ġì¤Ħìĸ´ëĵł":5623,"ĠëĤĺëĪĶ":5624,"Ġëı¼ì§Ģ":5625,"ĠìĿ¸ê³µì§ĢëĬ¥":5626,"Ġ59":5627,"ĠíĮĮíĬ¸ëĦĪ":5628,"ĠìĹ¬íĮĮ":5629,"ìĨĮìĨį":5630,"Ġê°ĢìŀħìŀĲ":5631,"ê³łê°Ŀ":5632,"Ġì£¼ì°¨ìŀ¥":5633,"Ġê³łìĨĮ":5634,"Ġêµ¬ìłľ":5635,"Ġë¯¸êµ°":5636,"Ġìĩł":5637,"ĠìĹ°ìĪĺ":5638,"SK":5639,"Ġì¹¨íķ´":5640,"ì¤ĺìķ¼":5641,"ĠíķĢ":5642,"ì§Ģê²Ģ":5643,"ìķĬ":5644,"ìĤ¬ìĹħìŀĲ":5645,"Ġìļ´ìłĦìŀĲ":5646,"ĠëŁ°ëįĺ":5647,"ĠìĹ°ê¸Ī":5648,"ë¶ĢëĮĢ":5649,"ê¼¼":5650,"Ġìĥģê°Ģ":5651,"ĠìĤ´ìķĦê°Ģ":5652,"ĠìĻĦê³µ":5653,"Ġëªħëĭ¨":5654,"ê·¹ìŀ¥":5655,"Ġë¯¸ìĤ¬ìĿ¼":5656,"ì¹´ìĿ´":5657,"ĠìĪĺë¦¬":5658,"ìĨĮìŀ¬":5659,"Ġìħĭ":5660,"ĠíĮĲë§¤ëŁī":5661,"Ġëĭ¹íķĺ":5662,"ĠíĥĢìŀĲ":5663,"ë¯¸ëĶĶìĸ´":5664,"Ġê°Ĳê°ģ":5665,"Ġì¦īê°ģ":5666,"ëħ¹":5667,"ĠìĹ¬ìĿ¸":5668,"Ġíĥľìĸĳê´ĳ":5669,"ìĹĳìĬ¤":5670,"ìĸ´ë¦°":5671,"ê·ľìłľ":5672,"4000":5673,"ê°ĢìļĶ":5674,"43":5675,"Ġìĸ´ëĳ":5676,"ìĦ¸ìłĲ":5677,"ìĨĮìĨ¡":5678,"ĠìĭłìĦ¸ê³Ħ":5679,"Ġëĭ¨ê¸°":5680,"Ġê²¹":5681,"ê´Ģëł¨":5682,"Ġìļ´ëªħ":5683,"Ġì²ŃìĨĮ":5684,"ê³łëĵ±":5685,"ëĭ´ëĭ¹":5686,"ì§Ģì£¼":5687,"Ġì¦Ŀê¶ĮìĤ¬":5688,"6000":5689,"ĠìĿ´ìŀĲ":5690,"ĠíĮĢìŀ¥":5691,"Ġíİľ":5692,"ĠëıĻíķ´":5693,"ìŀĳê°Ģ":5694,"ìķĪë³´":5695,"41":5696,"ìļ´ìłĦ":5697,"Ġê¸°íĽĦ":5698,"Ġì¤ĳíķĻêµĲ":5699,"ĠíĦ±":5700,"Ġëª°ìķĦ":5701,"Ġë²Ķíĸī":5702,"Ġëĳĺì§¸":5703,"ĠëĤ´ëĭ¬":5704,"ì¤ĳìĭ¬":5705,"Ġì¶ľìĤ°":5706,"Ġì£¼ì²´":5707,"ë¡ľìį¨":5708,"ĠìĥĮ":5709,"Ġíľ´ëĮĢíı°":5710,"Ġê³¼ëıĦ":5711,"ĠìĦ¤ë¬¸":5712,"íĤ¤ì§Ģ":5713,"ĠëĬĲëĤĢ":5714,"ìłĦíķĺ":5715,"Ġìľłíĺķ":5716,"Ġê±´ì¡°":5717,"ĠëĮĢë²ķìĽĲ":5718,"ĠìĦ±íĸ¥":5719,"Ġë°Ģëł¤":5720,"Ġë¯¸ëĭĪ":5721,"ĠìķŀìĦ¸":5722,"Ġë§¤ì²´":5723,"Ġì²łìłĢíŀĪ":5724,"ĠíĪ¬ìŁģ":5725,"ä¸Ń":5726,"Ġì§Ģì§Ħ":5727,"ëĶĺ":5728,"Ġê°Ģìĭľ":5729,"Ġê³µì§ģ":5730,"ĠìĿ¸ìĹ°":5731,"ĠëıħìĦľ":5732,"Ġìŀħì°°":5733,"ëĬĲëĿ¼":5734,"77":5735,"Ġíķ´ìłľ":5736,"Ġíı¬ìŀ¥":5737,"ĠìĥĿê²¨":5738,"ac":5739,"ĠìĨĮìĻ¸":5740,"Ġê±¸ëł¤":5741,"Ľë¶Ī":5742,"ĠFTA":5743,"ì²ŃìĨĮëħĦ":5744,"Ġëħ¸íķĺìļ°":5745,"ĠíĨłë¡łíļĮ":5746,"Ġë§ĪìĿ´":5747,"Ġë±":5748,"Ġì§ĢëĭĮ":5749,"Ġìľłë°ľ":5750,"ìľłìĤ°":5751,"ĠëĮĢëª©":5752,"Ġê·¸ì¹ĺ":5753,"Ġíģ´ëĿ¼":5754,"¼íĦ°":5755,"Ġë§ŀìĦľ":5756,"ìľłëŁ½":5757,"ĠìĹĲìĸ´":5758,"Ġ42":5759,"ì½ĶìĬ¤":5760,"Ġì§Ģëªħ":5761,"ìĤ¬ë¬´ìĨĮ":5762,"ìľ¼ë¯Ģë¡ľ":5763,"êµĲíļĮ":5764,"Ġì²ľìĹ°":5765,"ĠìłĦíĮĮ":5766,"ĠëĮĢê°Ģ":5767,"ĠìĦłì§ĦêµŃ":5768,"ĠíıīíĥĿ":5769,"ĠíĥĦíķµ":5770,"Ġìĵ°ëŁ¬":5771,"ĠìłĦëĭ´":5772,"ĠíĮ½":5773,"Ġê³µíĨµ":5774,"Ġìĸ´ëĸł":5775,"ì¤Ģë¹Ħ":5776,"ĠëıħíĬ¹":5777,"Ġì¶ľìĦĿ":5778,"ĠìłĢì¶ķ":5779,"Ġë¶ģë¯¸":5780,"Ġë²¤ì²ĺ":5781,"Ġìĥģëĭ¹ìĪĺ":5782,"Ġìłľì¡°ìĹħ":5783,"ĠëĨĴìĹ¬":5784,"Ġëĭ¨ìĪľíŀĪ":5785,"ìĿ¸ê¶Į":5786,"Ġë³ĢìĪĺ":5787,"Ġë¸Įë¦¬íķĳ":5788,"Ġìľłíĸī":5789,"Ġíķłì§Ģ":5790,"ĠìłĦìĭľíļĮ":5791,"ê°Ģíı¬ë¥´":5792,"ìĹĲìĦľë¶ĢíĦ°":5793,"Ġìŀłê¹Ĳ":5794,"Ġë·":5795,"Ġê¸°ìĪłëł¥":5796,"Ġíľ©":5797,"Ġë©Īì¶Ķ":5798,"ĠìĬ¤íĶ¼":5799,"Ġëĭ¹íĸĪ":5800,"ĠQ":5801,"ê³łìļ©":5802,"Ġëĭ¿":5803,"Ġìĭłì¤ĳ":5804,"ĠëĤ´ìĪĺ":5805,"ĠìĨĶì§ģ":5806,"Ġë°°ëĭ¹":5807,"ìĿ¸íĦ°ëĦ·":5808,"Ġê°ĪìĪĺë¡Ŀ":5809,"ê³µë¬´ìĽĲ":5810,"Ġì¦Ĳê±°":5811,"Ġìŀ¥ì¹ĺ":5812,"ëĬĶëĭ¤ê³ł":5813,"ĠìķĪìĭ¬":5814,"Ġ75":5815,"ìĿ´ì¦Ī":5816,"ĠìľłíĬľë¸Į":5817,"ìłĢì¶ķ":5818,"Ġë¼Ī":5819,"ĠëĤ´ê²Į":5820,"å®":5821,"Ġ2003":5822,"Ġìĺ¤ìĹ¼":5823,"ìĺ¨ëĭ¤":5824,"ë°°ìļ°":5825,"Ġìľłê¶ĮìŀĲ":5826,"Ġë©Ķë¥´":5827,"Ġì²´íı¬":5828,"ĠìĪĺì§ĳ":5829,"Ġë©°ì¹ł":5830,"ĠìĪĺë°±":5831,"ĠY":5832,"Ġê¹ĢíĺĦ":5833,"Ġëĸłìĺ¤ë¥´":5834,"ëĵľëĿ¼ë§Ī":5835,"ëĤ¸ëĭ¤":5836,"Ġë²Ħëł¸":5837,"ìĹĲëıĦ":5838,"ë³į":5839,"Ġëĵ¤ìĸ´ìĻĶ":5840,"Ġê³µìĭľ":5841,"Ġì²łê°ķ":5842,"ê³¼ìłľ":5843,"Ġê³łë§Ļ":5844,"Ġê²©ì°¨":5845,"ĠëĿ¼ëĶĶìĺ¤":5846,"Ġíĺ¸ìĿĳ":5847,"Ġíķ©ë³ĳ":5848,"ê·¼ë¡ľ":5849,"ĠìĿĺë¢°":5850,"ìŀĲë³¸":5851,"Ġê·¼ì²ĺ":5852,"ĠìĹ°ë´ī":5853,"ìĦ¸íı¬":5854,"Ġë¹Ħë¡Ģ":5855,"Ġìĸ´ìļ°":5856,"FA":5857,"ê³łìĿ¸":5858,"ëŀ«ëıĻìķĪ":5859,"ĠìķĦê¸°":5860,"Ġëĭ¤ìĿ´":5861,"es":5862,"Ġê°ķìĤ¬":5863,"Ġë¬¸íĻĶìŀ¬":5864,"67":5865,"Ġì°©ê³µ":5866,"88":5867,"Ġê²¨ëĥ¥":5868,"Ġë¶ķ":5869,"ĠìŀħìĽĲ":5870,"ë¿":5871,"ĠíħĮìĿ´":5872,"Ġ600":5873,"ëĭ¤ëŀĢ":5874,"ëįĶëĿ¼ê³łìļĶ":5875,"Ġíķľë²Ī":5876,"ĠìĺģëĤ¨":5877,"Ġìĭ¤ìŀ¥":5878,"Ġì°¨ê¸°":5879,"Ġê°ĲìĦ±":5880,"Ġë¶Īê±°":5881,"ĠëĤ¨ê¸°":5882,"Ġíĩ´ì§ģ":5883,"ĠìŀĲëĦ¤":5884,"Ġëĭ´ê²¨":5885,"ĠìĻĢìĿ¸":5886,"Ġë°©íķ´":5887,"Ġìĭ¬ì§Ģìĸ´":5888,"Ġìĸ´ì©Ķ":5889,"ĠíķłìķĦë²Ħì§Ģ":5890,"ĠíĽĦë°°":5891,"ìłĪì°¨":5892,"ĠìĿ¼ìĭľ":5893,"Ġëļľëł·":5894,"ìĭłì²Ń":5895,"ĠíļĮê³Ħ":5896,"Ġê½¤":5897,"ĠìºĲëĤĺëĭ¤":5898,"ĠíĮĮìĿ´":5899,"ĠìĨĲëĭĺ":5900,"ìŀ¬ìłķë¶Ģ":5901,"ĠìķĦíĶĦë¦¬ì¹´":5902,"Ġì§Ħìĥģ":5903,"Ġìĸ¸ëĭĪ":5904,"ĠëĦĺì¹ĺ":5905,"Ġê¸°ì¡°":5906,"Ġìļ©ê¸°":5907,"ìĭľë¦¬ì¦Ī":5908,"ëĵĢ":5909,"ĠìĿ¼ì°į":5910,"Ġê°Ģê²Į":5911,"Ġìĭľëĭ¬":5912,"ë¯¸ëĦĲ":5913,"Ġì½©":5914,"Ġê¹ĢëıĻ":5915,"Ġëĵ¤ìĿ´":5916,"ol":5917,"Ġê·¹ëĮĢ":5918,"Ġì¡°ëĭ¬":5919,"Ġ44":5920,"Ġëįĺì§Ģ":5921,"ì§ĢëĤľíķ´":5922,"ëĨįìĹħ":5923,"ë³¸ëĭ¤":5924,"ĠëĲľëĭ¤ê³ł":5925,"ìĭ¤ìłĲ":5926,"ĠìłĦê¸°ì°¨":5927,"Ġê°Ģë³į":5928,"íķµíĻĶ":5929,"Ġëĭ¬íĸĪ":5930,"Ġê´ĳìŀ¥":5931,"ĠìĿ¼ìľ¼íĤ¤":5932,"ìľłíĨµ":5933,"1000":5934,"ĠìĿ´ë¤Ħì§Ħ":5935,"ĠíĥĦëł¥":5936,"ëĲľëĭ¤ëĬĶ":5937,"Ġëħ¼ë¬¸":5938,"ë¡¯ëį°":5939,"ìĿ´ëŁ°":5940,"is":5941,"ĠìĨĶë£¨ìħĺ":5942,"ĠëıĦë¯¼":5943,"Ġê±¸ìĸ´":5944,"ì¹ľêµ¬":5945,"Ġê²¨ìļ°":5946,"íķĻíļĮ":5947,"íĺĳìłķ":5948,"ĠëĤ©íĴĪ":5949,"Ġë²Įê¸Ī":5950,"¤ĺ":5951,"ĠëĮĵê¸Ģ":5952,"Ġìķ¤":5953,"Ġìĸ´ëł¤ìļ¸":5954,"ĠìĨĮìļĶ":5955,"ĠëĮĢë²ķ":5956,"ê³µê¸ī":5957,"Ġì£¼íĸī":5958,"ê°ĲìĹ¼":5959,"ĠìĭłìŀĦ":5960,"Ġì¤ĳëıĦ":5961,"ëłĪìĿ¸":5962,"Ġìĭ¬íĻĶ":5963,"ìĬ¤íĤ¤":5964,"Ġê²Įìĭľ":5965,"Ġì§Ģì¶ľ":5966,"com":5967,"AI":5968,"ì¼Ģìĸ´":5969,"Ġìŀ¬ë°°":5970,"ëĭŃ":5971,"ĠíĮĮê´´":5972,"54":5973,"ìĸ´ëĸ":5974,"ë£°":5975,"ĠìĭłìĿ¸":5976,"ĠìŀħêµŃ":5977,"Ġ43":5978,"ë³´ìĪĺ":5979,"ìĤ¬ìĿ´íĬ¸":5980,"ĠêµŃë¹Ħ":5981,"Ġì¶Ķê²½":5982,"ĠìķĦìĽĥ":5983,"69":5984,"7000":5985,"am":5986,"ë§ĪìĬ¤":5987,"ì§Ħëĭ¨":5988,"êµĲíĨµë¶Ģ":5989,"ĠìĿĺì¡´":5990,"ĠêµĲê³¼ìĦľ":5991,"Ġê³łê¸°":5992,"ì£¼ìĿ¸":5993,"Ġê°ģìĺ¤":5994,"Ġíķľë§ĪëĶĶ":5995,"Ġíķ¸":5996,"ëĤĺê°Ī":5997,"52":5998,"Ġê²½ë¹Ħ":5999,"ë°Ķì§Ģ":6000,"Ġê±´ìĿĺ":6001,"ë§¹ìłĲ":6002,"ĠíĿ°":6003,"Ġíİ¸ì§ĳ":6004,"Ġë¬´ìĦľ":6005,"Ġëª°ëĿ¼":6006,"ë²¤ì²ĺ":6007,"ëľ©":6008,"Ġìľłì¹ĺìĽĲ":6009,"íĻķìĭ¤":6010,"Ġì§ĦíĻĶ":6011,"Ġìľłê°Ģ":6012,"ĠìĤ°ë¦¼":6013,"ĠëĦĺê²¨":6014,"ĠìĿ¼ì¢ħ":6015,"Ġìĭľì¤ĳ":6016,"Ġìª¼":6017,"ĠìĹŃìłĦ":6018,"ìĦłìĸ¸":6019,"Ġì¦Ŀëªħ":6020,"Ġë°Ķë¥´":6021,"ìŀĲìĹ°":6022,"64":6023,"Ġê²°ìĭ¬":6024,"ĠìķķëıĦ":6025,"ë¯¸ëĤĺ":6026,"Ġìĺ¤ëŀ«ëıĻìķĪ":6027,"Ġìĭ¬íĮĲ":6028,"ĠìŀĲë¬¸":6029,"Ġì»¨ìĦ¤íĮħ":6030,"ĠëĬĺìĸ´ëĤ¬":6031,"ìĥģëĭ´":6032,"ì¤ĳìĨĮ":6033,"Ġì°½ìŀĳ":6034,"Ġì¶ľê·¼":6035,"ĠëĤ´ëĨ¨":6036,"ĠëĮĢìĥģìŀĲ":6037,"Ġ52":6038,"Ġë§¥ì£¼":6039,"æĸ":6040,"Ġëĭ¤ë£¨":6041,"Ġì²łíļĮ":6042,"ĠìĦłìłľ":6043,"ĠëķĲ":6044,"Ġë°ľê¸ī":6045,"Ġë¶Ģìŀĳìļ©":6046,"Ġì§ĢëĤĺì¹ĺ":6047,"Ġê´ĢëŀĮê°Ŀ":6048,"Ġëı¼ìļĶ":6049,"ĠíķŃëª©":6050,"ĠìĬ¤ìľĦ":6051,"ĠíĸĪìĹĪ":6052,"Ġê°ĲìĹ¼ì¦Ŀ":6053,"ĠìĿµìĪĻ":6054,"ĠìĺĽëĤł":6055,"ê°ĲìĽĲ":6056,"ed":6057,"Ġë¹łì¡Į":6058,"ĠìĪĺíĹĺ":6059,"ĠëŃī":6060,"ĠìĹ¬ìĿĺëıĦ":6061,"ĠëĨįìĤ°ë¬¼":6062,"el":6063,"Ġìłķê·ľì§ģ":6064,"ìĭłê³ł":6065,"Ġê°ľíĹĮ":6066,"ë¶ĢíĴĪ":6067,"ĠìĨĲê°ĢëĿ½":6068,"ê¶Ĳ":6069,"ĠìĿ´ë¥¸ëĭ¤":6070,"ĠìłĢìĨĮëĵĿ":6071,"Ġê³¨ëª©":6072,"Ġì¤ĳëıĻ":6073,"ĠìĿ´ìĦ±":6074,"ìĬ¤íħĮ":6075,"Ġë²¼":6076,"ê³µíĹĮ":6077,"Ġì½Ķë¦¬ìķĦ":6078,"Ġì§ĦíķĻ":6079,"ë¤Ħ":6080,"Ġìµľëĭ¤":6081,"Ġë¿Į":6082,"ĠíĥľíĴį":6083,"ĠëĤĺìģľ":6084,"Ġì°¸ìĤ¬":6085,"Ġì½Ķì¹ĺ":6086,"ĠìĿ´ì¤ĳ":6087,"ĠìĬ¤íĥĢíĬ¸ìĹħ":6088,"ĳ¥":6089,"ĠëĤ¨ê²¨":6090,"ĠíĬ¹ê²Ģ":6091,"Ġìŀ¥ë¥´":6092,"Ġì¶©ìłĦ":6093,"Ġë¶Ģê°ģ":6094,"ĠíĽĮë¥Ń":6095,"Ġê²½ìĥģ":6096,"Ġë§ĪìĿ´íģ¬":6097,"Ġë§¤ìĪĺ":6098,"ĠìĽĲìłķ":6099,"Ġìĸ¸ìłľëĤĺ":6100,"ìºłíĶĦ":6101,"ìģ¨":6102,"Ġê±°ëĴĢ":6103,"ĠìĻ¼ìª½":6104,"Ġê¼´":6105,"ĠëªħìłĪ":6106,"ìĭľìĬ¤":6107,"ĠìłĦìłľ":6108,"Ġì³Ĳëĭ¤ë³´":6109,"Ġê°Ģìĥģ":6110,"Ġê¸Īíĺ¸":6111,"íĶ¼ìķĦ":6112,"ëĶª":6113,"Ġê´ĢìĦ¸":6114,"ìĿĺìĤ¬":6115,"Ġê±°ì§ĵë§Ĳ":6116,"Ġê·¸ë¦¬ìĬ¤":6117,"ĠëĬĺìĸ´ëĤł":6118,"ĠìŀĲëĿ¼":6119,"Ġë¯¸ì¹ł":6120,"ìĪį":6121,"íĸĪìĹĪ":6122,"ì²ľíŀĪ":6123,"Ġê°Ĳì¶ķ":6124,"ĠëıĮìķĦìĻĶ":6125,"íķĻìŀĲ":6126,"ĠëıĻìĸĳ":6127,"ĠìĬ¹ì§Ħ":6128,"ìŀĲë©´":6129,"Ġë³´ì¡´":6130,"ĠìĤ´ëł¤":6131,"NG":6132,"OC":6133,"Ġíķľì°¸":6134,"PGA":6135,"ĠìķĦë¬´ê²ĥ":6136,"Ġìľłíķ´":6137,"ìĦ¤ê³Ħ":6138,"íĨµìĥģ":6139,"Ġê¹Ģì§Ħ":6140,"ë°Ķëĭ¤":6141,"Ġì§Ħì£¼":6142,"ìĹ°íķ©íļĮ":6143,"Ġì§Ģíĳľ":6144,"ê¹ĥ":6145,"9000":6146,"Ġê¼½íŀĮëĭ¤":6147,"ĠìĬ¤ëĭĺ":6148,"ìļ©ì°¨":6149,"Ġì§ĳê¶Į":6150,"Ġê´ĢìłĲ":6151,"Ġë°©ìĤ¬":6152,"Ġëį©":6153,"ë¶Ħê°Ħ":6154,"62":6155,"ìķĦì§Ģ":6156,"íĹ¬":6157,"Ġìĭ¤ì¢ħ":6158,"51":6159,"êµ¬ìĨį":6160,"Ġì°¨ìĦ¸ëĮĢ":6161,"ĠìĤ¬ë¬´ì´Ŀìŀ¥":6162,"Ġì²łê±°":6163,"ìļ¸ìĤ°":6164,"Ġëª¨ìĿĢ":6165,"ĠëĲĺëıĮ":6166,"ëĭīìĬ¤":6167,"ĠêµŃë¬´ì´Ŀë¦¬":6168,"Ġì£¼ìŀ¬":6169,"Ġíİ¼ì³¤":6170,"ĠëĤ®ì¶Ķ":6171,"ĠìĨĮê°Ĳ":6172,"Ġ84":6173,"Ġë¦¬ëįĶìĭŃ":6174,"Ġìļ°ë¦¬ëĤĺëĿ¼":6175,"Ġë¶Ļìŀ¡":6176,"DP":6177,"ìłĦëł¥":6178,"Ġìĸ´ì¨Įëĵł":6179,"Ġíķĺê³ł":6180,"Ġë²łìĿ´ì§ķ":6181,"Ġì¡°ê°ģ":6182,"ĠìĹ¬ê¶Į":6183,"ĠíĻĶë¬¼":6184,"ãĥ":6185,"ëłĽ":6186,"Ġë¬´ìĤ°":6187,"Ġë¶ĦìŁģ":6188,"íĿĶ":6189,"63":6190,"ë¹ĦìłĦ":6191,"ĠìĿĳê¸ī":6192,"ro":6193,"ĠíĻĺìĺģ":6194,"ëĭĪê¹ĮìļĶ":6195,"ĠâĢ¦":6196,"ëĨĢ":6197,"ĠìĿ¼íĻĺ":6198,"2019":6199,"ĠìĪĺê¸ī":6200,"ìŀ¬ìĤ°":6201,"ĠìĹ°ê´Ģ":6202,"ĠìĿ´ê±¸":6203,"ĠìłĢìŀ¥":6204,"ìĸ´ìł¸":6205,"61":6206,"Ġê·¼ìľ¡":6207,"ìŀ¬ìĥĿ":6208,"Ġìłķìŀĳ":6209,"ĠìľĦë¡ľ":6210,"ìĤ¬ëĭ¨":6211,"Ġê¹ĢëĮĢ":6212,"ĠìĤ¬ìĹ°":6213,"ëĵ¤ìĿ´":6214,"Ġì¶©ì¡±":6215,"Ġê¸°ê¸°":6216,"ĠìĿ´ì¢ħ":6217,"ĠìĽĮëĤĻ":6218,"ĠíĮ¨ë°°":6219,"Ġê¹Ģê²½":6220,"ëĦ¤ìĭľìķĦ":6221,"Ġì¹ĺë§¤":6222,"Ġ41":6223,"ìĬ¤íĦ´":6224,"ĠìłķìĦ±":6225,"ĠêµŃìĤ°":6226,"ĠìĪľìĪĺ":6227,"íĤ·":6228,"Ġì²ľì²ľíŀĪ":6229,"ĠìķĪíĥĢê¹Į":6230,"ĠìłĲìĭ¬":6231,"ê´ĳìŀ¥":6232,"ëŃĩ":6233,"Ġê¹Ģìŀ¬":6234,"Ġìµľìĭł":6235,"Ġê³Ħì¢Į":6236,"ë±ħíģ¬":6237,"Ġëª©ìĤ¬":6238,"Ġì¢Įìļ°":6239,"ë¥´íĬ¸":6240,"ĠëĭŃ":6241,"Ġê¹Ģì¹ĺ":6242,"Ġê²©ëł¤":6243,"Ġë°ĶëŀĮì§ģ":6244,"ĠìĽĲíĻľ":6245,"ĠìľĦìĥģ":6246,"ĠìĿ´ëŀĢ":6247,"Ġì¶Ķëª¨":6248,"ìłķì§Ģ":6249,"ĠíĽĦìĨį":6250,"Ġìĭ¤ìĹħ":6251,"ëĨįíĺĳ":6252,"Ġë¹Įëł¤":6253,"ĠìĿĢíĩ´":6254,"ì£¼íĸī":6255,"ĠìŀĲìłľ":6256,"ë¶Ģì²ĺ":6257,"íĻľìļ©":6258,"ĠíķľìĪ¨":6259,"ìłĢìĶ¨":6260,"Ġíĳ":6261,"Ġê¹Ģíı¬":6262,"ëŀ©":6263,"Ġê³¼ëª©":6264,"Ġê±¸ëł¸":6265,"Ġíģ´ëŀĺìĭĿ":6266,"ê°Ģìłķ":6267,"ë¯¸íĦ°":6268,"Ġìŀħêµ¬":6269,"ê²°ìłķ":6270,"ĠìķĦë²ł":6271,"Ġê¸°ë¦Ħ":6272,"ìłĲê²Ģ":6273,"Ġëĭ®":6274,"ĠëĲĺê²Į":6275,"Ġë¹ĦíķµíĻĶ":6276,"ë¨¸ìĬ¤":6277,"Ġëĭ¨ìŀ¥":6278,"ĠìłĦë¬´":6279,"Ġìĭ±ê°Ģíı¬ë¥´":6280,"Ġë¶ĢëĶª":6281,"ë°Ķë¥¸":6282,"il":6283,"ĠíĿĶìłģ":6284,"ĠëĤ¨ë¶Ģ":6285,"ĠìŀħìĪł":6286,"ĠìľĦìĽĲíļĮ":6287,"ĠìŀĳìłĦ":6288,"ê°¤":6289,"Ġë°©ì¹ĺ":6290,"Ġëĭ¹ëĤ´":6291,"ìłĦêµŃ":6292,"ìĪĺìļĶ":6293,"ë§Įê°Ħ":6294,"ê·¸ëŁ¼":6295,"ĠìĪĻë°ķ":6296,"Ġê°Ģê³µ":6297,"Ġìĺģíĸ¥ëł¥":6298,"íĿ¥ìĽĲ":6299,"íĨµíĻĶ":6300,"ĠìķĪìĸĳ":6301,"ìĸ¸ìĬ¤":6302,"Ġëĵ¯ìĿ´":6303,"ĠìĿ´ë§ĪíĬ¸":6304,"Ġê¹Ģìĥģ":6305,"ĠìĿ¸ì²ľìĭľ":6306,"Ġì¡°íĻĶ":6307,"ìĺĪë°©":6308,"Ńī":6309,"ëĸ¡":6310,"Ġê°ķíĸī":6311,"ìĭ±íĦ´":6312,"Ġìŀ¥ëĤľ":6313,"ĠìµľìĨĮíķľ":6314,"ì²ŃëħĦ":6315,"íıīìĸĳ":6316,"Ġì§ļ":6317,"íİĺëĿ¼":6318,"ë¶ĦìĦĿ":6319,"Ġìłķì§Ģ":6320,"ëħĶ":6321,"Ġê³¼ê°Ĳ":6322,"ìĬ¤íĥĦ":6323,"ĠíĬ¹ìľł":6324,"Ġëį°ë¦¬":6325,"ĠìłķíĻķíŀĪ":6326,"ê²ĮìļĶ":6327,"ĠìŀĲíļĮìĤ¬":6328,"íĻĶë¬¸":6329,"ê´ĳìĹŃ":6330,"ëļ±":6331,"ĠìĻ¸ë©´":6332,"ì£¼ê°Ħ":6333,"ë¹ħ":6334,"Ġëį°ëł¤":6335,"ĠìĿ´íĺ¼":6336,"ĠêµĲíĻĺ":6337,"ë³´ìŀ¥":6338,"Ġë§ĳ":6339,"Ġë°ķìĪĺ":6340,"Ġe":6341,"ê·łíĺķ":6342,"ëĭ«":6343,"Ġê³µìłķìľĦ":6344,"Ġë©ľ":6345,"ãĥ»":6346,"Ġê°ķìłĲ":6347,"Ġìķĵ":6348,"ĠìķĦëģ¼":6349,"ë°ķìĬ¤":6350,"ĠìķĻ":6351,"Ġëª«":6352,"ĠíĮ¨íĤ¤ì§Ģ":6353,"Ġêµ°ìĪĺ":6354,"Ġëĭ¨ì¶ķ":6355,"ìĪĺìĪł":6356,">(":6357,"Ġë¯¼ìĥĿ":6358,"íĮ¡":6359,"IP":6360,"ĠìĤ¬ë§ĿìŀĲ":6361,"ëĭ¤ìĪĺ":6362,"Ġê°ĢìĨį":6363,"ĠìĤ¬ìĹħìŀ¥":6364,"Ġìŀī":6365,"ë±":6366,"Ġìĺ¤ê°Ģ":6367,"Ġê°ķë¦ī":6368,"ê¸°ë°ĺ":6369,"ê³µê³µ":6370,"Ġì²´íģ¬":6371,"ìłľì£¼":6372,"ĠíħĮëŁ¬":6373,"ëį©ìĿ´":6374,"Ġìĸ´ìļ¸ë¦¬":6375,"ĠëĤ´ìłķ":6376,"ĠëĪĪë¹Ľ":6377,"Ġìĭ¤íĥľ":6378,"ĠíĨµíķĺ":6379,"ëĬĶëĭ¤ë©´":6380,"ìĸ¸ë¡ł":6381,"Ġì²´ëł¥":6382,"Ġìĸĳìĥģ":6383,"ëıĻê°ķ":6384,"ë°ķê·¼íĺľ":6385,"Ġëħ¸ë¦¬":6386,"ìĿ´ìļ©":6387,"ĠìĹĩ":6388,"ĠìĬ¹ê°Ŀ":6389,"íģ°":6390,"Ġê°Ģë§Į":6391,"Ġëĭ¹ìĦłìĿ¸":6392,"Ġìĸ´ë¦°ìĿ´ì§ĳ":6393,"Ġë¬´ì¡°ê±´":6394,"Ġìĺ¨ëıĦ":6395,"Ġìĺ¤íķ´":6396,"ĠìĦłë³´ìĿ¸":6397,"ìķĦì§ģ":6398,"ê¸°ë³¸":6399,"Ġì´Ľë¶Ī":6400,"ĠìľłíķĻ":6401,"Ġë¹¼ìķĹ":6402,"ë²¨íĬ¸":6403,"Ġëĭ¦":6404,"ë¡ľê·¸":6405,"ì´Īëĵ±":6406,"ìĻ¸êµŃ":6407,"Ġì§Ħìĭ¬":6408,"Ġì´īì§Ħ":6409,"MW":6410,"Ġìĭ¸ìļ°":6411,"ĠëĪĪìķŀ":6412,"ìĬ¤ëŁ°":6413,"Ġê¼½íŀĪ":6414,"ê²½ì°°ì²Ń":6415,"ëĮĢë¬¸":6416,"ĠìĤ¬ëĵľ":6417,"TX":6418,"Ġìŀ¬ê±´ì¶ķ":6419,"ëªĩ":6420,"ìĿ´ìŀĲ":6421,"ë¶ķ":6422,"Ġì¦Ŀìłķ":6423,"Ġê¼¼ê¼¼":6424,"ĠìĿ¸ì§Ģ":6425,"ë¶Ģëĭ´":6426,"ĠâĢķ":6427,"ĠëĨįë¯¼":6428,"Ġíķ´ìĥģ":6429,"Ġê°ķìĦ¸":6430,"íī":6431,"Ġì¡´ì¤ĳ":6432,"ê¸°ê³Ħ":6433,"ĠíķĦë¦¬":6434,"ĠëłĮ":6435,"íĮ½":6436,"Ġê·¸ëŁ¼ìĹĲëıĦ":6437,"ĠíĻķìĭł":6438,"Ġ85":6439,"Ġê³µëıĻì²´":6440,"íĥł":6441,"ëĳĺëŁ¬":6442,"Ġì¡°íķŃ":6443,"Ġìĺ¹":6444,"ĠìłĦíĽĦ":6445,"ìķĦëıĻ":6446,"ĠëıĦë°ľ":6447,"Ġëĭ¤ë¦Ħ":6448,"ĠìĪĺëł´":6449,"Ġìŀ¬ëĬ¥":6450,"Ġìķ¼ìĻ¸":6451,"Ġì¶Ķìłģ":6452,"Ġì¤ĳìĪľ":6453,"ĠêµŃìŀ¥":6454,"Ġë¯¼ê°Ĳ":6455,"Ġìĺ¤íĶĦ":6456,"Ġë°°ìłķ":6457,"Ġìķŀìŀ¥ìĦľ":6458,"ë°©íĸ¥":6459,"84":6460,"Ġê¸īëĵ±":6461,"Ġë¥ĺíĺĦì§Ħ":6462,"ĠìĨĮíĻĺ":6463,"ĠíĺĦìĹŃ":6464,"ĠìĿ¸ìļ©":6465,"Ġê°ķê²½":6466,"Ġë³µìĪĺ":6467,"Ġì²Ńì£¼":6468,"ĠìŀĲìĭłê°Ĳ":6469,"Ġì¡°êµŃ":6470,"Ġë³´ì¡°ê¸Ī":6471,"ĠëĤ©ë¶Ģ":6472,"ĠìłĦìĹŃ":6473,"ĠíħĮìĬ¤íĬ¸":6474,"ĠNC":6475,"ĠëıĦë§Ŀ":6476,"Ġì¹¨ëĮĢ":6477,"ìĪĺê¸°":6478,"Ġíķľì§Ħ":6479,"ìħĶìĦľ":6480,"ĠêµĲìŀ¥":6481,"Ġë¶ĪëłĢ":6482,"Ġë³ĳíĸī":6483,"Ġì§Ģì¹¨":6484,"ãİĿ":6485,"ĠíĥľêµŃ":6486,"ĠíĥĪëĿ½":6487,"ĠìĬ¤íģ¬":6488,"Ġëĭ¹ìĤ¬ìŀĲ":6489,"ĠìĶ»":6490,"Ġê²½ë¡ľ":6491,"Ġì§ĢìĿ¸":6492,"Ġë³Ģíķĺ":6493,"Ġê³łëıĦ":6494,"Ġê±°ìłĲ":6495,"Ġë°ľì£¼":6496,"ch":6497,"ìĿĦê¹ĮìļĶ":6498,"Ġìłķíķ´":6499,"Ġìµľìķħ":6500,"Ġ#":6501,"ëĤ´ëħĦ":6502,"ĠìĽĲìľł":6503,"ĠëĤĺíĥĢëĥĪ":6504,"ĠìĹ°ìĺĪìĿ¸":6505,"ĠìĨĮìĥģ":6506,"Ġìĺ¤ë¥¸ìª½":6507,"Ġì¶ĺì²ľ":6508,"ìĤ¬íĥľ":6509,"ìĭ¤íĹĺ":6510,"ĠìĥĪíķ´":6511,"Ġìļ´íķŃ":6512,"Ġì»¤ëĭ¤ëŀĢ":6513,"ìĮį":6514,"Ġêµ¬ëıĦ":6515,"Ġìĺ³":6516,"Ġê¸Īê°ĲìĽĲ":6517,"Ġíķ´êµ°":6518,"ĠìķĦìĿ´íı°":6519,"Ġë³´ìľ¡":6520,"ê°ĸ":6521,"ent":6522,"Ġê³ĦìłĪ":6523,"ĠìĦłìłĦ":6524,"ìĺ·":6525,"ĠìĻ¸êµĲë¶Ģ":6526,"íĬ¹íŀĪ":6527,"ë¡¬":6528,"ĠìĨĮìĿĮ":6529,"ĠëģĬìŀĦìĹĨìĿ´":6530,"ĠìĿĺê²°":6531,"Ġíķľëĭ¤ë©´":6532,"êµĲë¥ĺ":6533,"ëĶĶìŀĲìĿ¸":6534,"ĠëĤĺëŀĢíŀĪ":6535,"ĠìĬ¤íħĮ":6536,"ĠëĬĺëł¤":6537,"íĨłë¡ł":6538,"Ġíĺķìłľ":6539,"ĠêµŃìĦ¸":6540,"ĠëĤĺë¦Ħ":6541,"ìĿ¼ìŀĲ":6542,"ìĭľì½Ķ":6543,"TF":6544,"ĠëıĦìķ½":6545,"Ġìī¬ìļ´":6546,"ĠìĭľëĦĪì§Ģ":6547,"Ġë¶ĢìľĦ":6548,"ĠìĤ´ì§Ŀ":6549,"êµ°ìĪĺ":6550,"Ġìŀ¬ìĽĲ":6551,"Ġíĸīìłķë¶Ģ":6552,"Ġíıīìĸĳ":6553,"ĠëĤĺíĥĢëĤ´":6554,"Ġìĺ¤íĶ¼ìĬ¤íħĶ":6555,"ëħ¸ìĿ¸":6556,"Ġê·¹ëĭ¨":6557,"ìĪŃ":6558,"ìĦ¸ëł¥":6559,"ĠìĹ°ìĦ¤":6560,"Ġì±Ļê¸°":6561,"ĠìķŀìĦł":6562,"ëĨĴ":6563,"Ġ58":6564,"ĠìķĦë¬´ëŀĺëıĦ":6565,"ĠìĹ°ëĭ¤":6566,"Ġê·ĢêµŃ":6567,"Ġëģĵ":6568,"Ġìĭ¤ë§Ŀ":6569,"ĠìĹł":6570,"ë³´ê³ł":6571,"ì§ĢìĽĲê¸Ī":6572,"ĠëģĦëįķ":6573,"Ġëĭ¹ë¶Ħê°Ħ":6574,"Ġê²½ê¸°ìŀ¥":6575,"ëĦ¥":6576,"ĠíĦ¸ìĸ´":6577,"Ġì´Ŀìŀ¬":6578,"Ġëª°ë¦¬":6579,"Ġê¸°ìļ¸ìĿ´":6580,"ĠìĨĮíĶĦíĬ¸ìĽ¨ìĸ´":6581,"ĠìĿ¼ìĸ´ëĤ¬":6582,"ë¬´ê¸°":6583,"ëŁ°ìĬ¤":6584,"Ġê±¸ë¦°":6585,"ĠìĦľì´Ī":6586,"ĠìĭĿë¬¼":6587,"Ġëĳ¥":6588,"ĠCC":6589,"ìŀ¬ëĤľ":6590,"ë¦¬ëĿ¼":6591,"Ġê³łìĥĿ":6592,"Ġíŀĺìŀħ":6593,"Ġê³¼ìĿ¼":6594,"ĠêµĲìľ¡ì²Ń":6595,"ë°ľìłĦìĨĮ":6596,"Ġê¿Īê¾¸":6597,"Ġíİ¸ìĿĺìłĲ":6598,"ìłĦë¬¸ê°Ģ":6599,"ĠêµĲíĨµìĤ¬ê³ł":6600,"Ġ57":6601,"Ġì§Ħìĺģ":6602,"Ġëĭ¹íĻ©":6603,"Ġ1990":6604,"ĠìĿ¼ìĸ´ëĤľ":6605,"Ġê°ļ":6606,"Ġì§ĢëĤľì£¼":6607,"ĠëĦĺìĸ´ê°Ģ":6608,"Ġê°ĢëģĶ":6609,"Ġìµľìĥģ":6610,"ëī":6611,"ĠíĻĶìŀ¥ìĭ¤":6612,"Ġê°Ģë°©":6613,"ë²ĪìĹĲ":6614,"ĠëĮĢíķĺ":6615,"ĠíĥĢìĿ´íĭĢ":6616,"íĺĳìĿĺ":6617,"ê±":6618,"ĠìłĪìĭ¤":6619,"ê³łìĤ¬":6620,"ëĭ¨ìŀ¥":6621,"ĠìľĦíĥģ":6622,"Ġëĵ¤ìĸ´ê°Ī":6623,"Ġê¸°ìļ´":6624,"Ġìĸ´ëĳĲ":6625,"ĠìĦŃì·¨":6626,"ĠíĶĦëłĪ":6627,"Ġìĺģê´ĳ":6628,"ĠíĿ¥íĸī":6629,"2020":6630,"Ġë¶ĢëĵľëŁ¬":6631,"Ġë§Īë²ķ":6632,"Ġìŀ¥ìĭĿ":6633,"Ġë³´íĹĺë£Į":6634,"Ġìĥģê¸Ī":6635,"Ġë¶ĢíĻľ":6636,"Ġíĳľëªħ":6637,"DI":6638,"Ġê°Ħíİ¸":6639,"ì¥Ĳ":6640,"ĠëĦĺê¸°":6641,"Ġê³łìĪĺ":6642,"Ġê±°ì¹ľ":6643,"ĠìĿĦ":6644,"ĠëĦ·":6645,"ĠIC":6646,"åı":6647,"ë°©ë²ķ":6648,"ĠìķĮìķĦë³´":6649,"Ġê°Ģë²¼":6650,"Ġêµ³ìĿ´":6651,"ëĤ¨ëıĦ":6652,"Ġìŀ¥íķĻê¸Ī":6653,"Ġê³µì£¼":6654,"ìĭľëĭ¤":6655,"ĠëĤłìķĦ":6656,"Ġê³łë¬¸":6657,"ĠëıĻëł¥":6658,"ĦìĬ¤":6659,"ë¶Ģì§Ģ":6660,"Ġì½ĶëĦĪ":6661,"íĸīë³µ":6662,"Ġë¶ĢìŀĲ":6663,"ëį°ë¯¸":6664,"ĠëĮĢìĻ¸":6665,"ĠìłĦìķ¡":6666,"ĠíķľëķĮ":6667,"Ġê³¨íĶĦìŀ¥":6668,"Ġê°ľì²Ļ":6669,"Ġë¶ģêµ¬":6670,"Ġê±´ìĦ¤ìĤ¬":6671,"72":6672,"Ġê°Ĳìĥģ":6673,"ìĺ¤íĶĪ":6674,"ë°ķëŀĮíļĮ":6675,"ĠìłĬìĿĢìĿ´":6676,"Ġê¹Ģê¸°":6677,"Ġì§ĢìľĦ":6678,"ëĤŃ":6679,"ĠìĿ´ë¤Ħì§Ī":6680,"íķĺì§Ģë§Į":6681,"ĠìĹ°ë£Į":6682,"Ġë¹Ħë¡Ŀ":6683,"ĠìĿĳìĭľ":6684,"Ġê¶":6685,"ë°Ľì¹¨":6686,"ĠìĿ´ë¡ł":6687,"Ġê°Ģì§Ī":6688,"ëĵĿìłĲ":6689,"íķĺë©´":6690,"Ġì¹¨ë¬µ":6691,"Ġì¼ĢìĿ´ë¸Ķ":6692,"íĬ¸ë¡ľ":6693,"Ġì½ĶìĬ¤ëĭ¥":6694,"Ġì±Ļê²¨":6695,"Ġë¬´ê´Ģ":6696,"Ġëª¨ë¥¸":6697,"UV":6698,"Ġë°ľëĭ¬":6699,"ëĶ±":6700,"Ġê²©ë¦¬":6701,"ê·¸ë¦¬":6702,"ìĸ´ë¶Ļ":6703,"Ġê³łìľł":6704,"ìĪ²":6705,"ĠìĹ°ë°©":6706,"ĠìŀĲë°ľ":6707,"Ġê°Ģê¹Ŀ":6708,"ĠíĿ¡ìĪĺ":6709,"ĠìŀĲêµŃ":6710,"ĠìŀĳëıĻ":6711,"ìĿ¼ìŀĲë¦¬":6712,"ìĹ°íĮ¨":6713,"ĠëĵľëĿ¼ìĿ´":6714,"ĠìĨ¡ëıĦ":6715,"Ġê¸°ìģ¨":6716,"Ġê±´ìĪĺ":6717,"ĠìĭľìĦ¸":6718,"Ġëĵ¤ìĸ´ìĦł":6719,"ìľ¼ìĭľ":6720,"Ġëĭ´ë³´":6721,"ìłľíķľ":6722,"om":6723,"ìļ©ì§Ģ":6724,"Ġëĭ¤ìļ´":6725,"ĠìĨĮì§Ģ":6726,"ĠìłķìĦľ":6727,"Ġìļ©ìĤ°":6728,"ìĸ´ì§Ī":6729,"ĠëĭµíĸĪ":6730,"Ġêµ°ëĮĢ":6731,"Ġìķłì´Ī":6732,"ëĭ¹ìĭł":6733,"Ġì¤ĦìĹ¬":6734,"Ġëĭ¹ëĭ¹":6735,"Ġì¡°ë§Įê°Ħ":6736,"ĠìĿ¸ë¥ĺ":6737,"ï¼Į":6738,"Ġë¯¼ìĭ¬":6739,"ĠìĦ¸ìļ´":6740,"íĳ¸ëĵľ":6741,"Ġìľłì¡±":6742,"Ġì¶ĶëĿ½":6743,"Ġíķĳ":6744,"Ġê³µíĻĶ":6745,"Ġê¸°ìķĦì°¨":6746,"ĠìĿĺìŀĲ":6747,"Ġëĭµëĭµ":6748,"Ġëĭ¬ìķĦ":6749,"OU":6750,"ĠëıĻìŀĳ":6751,"ĠìĪĺìĺģ":6752,"Ġëį°ìĿ´":6753,"íĥ±":6754,"Ġê¾":6755,"Ġê²½ë§¤":6756,"ë°¸ë¦¬":6757,"Ġëĵ¤ìĸ´ìĻĢ":6758,"ĠëĤ«":6759,"ì°½ìĹħ":6760,"Ġê¹Ģìļ©":6761,"Ġìŀ¥êµ°":6762,"ìħīíĬ¸":6763,"Ġíķľì°½":6764,"ì¹´ëį°ë¯¸":6765,"ĠìĿ¸ëıĦëĦ¤ìĭľìķĦ":6766,"ìĨįëıĦ":6767,"ĠìŀĲìĤ¬":6768,"ĠìĤ´íķ´":6769,"ĠìķĦìī¬ìĽĢ":6770,"Ġì§ĢìĹŃêµ¬":6771,"ĠìŀħìĤ¬":6772,"ì°¨ìŀ¥":6773,"ĠëĶĶìĬ¤íĶĮëłĪìĿ´":6774,"ëĵłê°Ģ":6775,"ì°½ì¡°":6776,"Ġìŀ¦":6777,"ĠíķŃìĿĺ":6778,"Ġêµ¬ìĦ±ìĽĲ":6779,"ìłľì²ł":6780,"Ġìĭ¬íķĺ":6781,"Ġìłĳëª©":6782,"Ġíķľìª½":6783,"ë§¤ë§¤":6784,"Ġë¸Ķë£¨":6785,"íĦ±":6786,"ë©ĶìĿ¼":6787,"ĠëĸłëĤ¬":6788,"NA":6789,"Ġíİ¸íķĺ":6790,"Ġë¹µ":6791,"Ġìľłë¡ľ":6792,"Ġ99":6793,"ĠìŀĲìķĦ":6794,"Ġìłķë©´":6795,"ķìĭľì½Ķ":6796,"íķĻëħĦëıĦ":6797,"Ġê·¸ëĤĺë§Ī":6798,"ìķĦìĽĥ":6799,"ë°©ì§Ģ":6800,"ĠìĿ¼ê´Ģ":6801,"ìĺģíĸ¥":6802,"Ġìŀ¥ì°©":6803,"Ġë¸Ķë¡Ŀ":6804,"ìĤ¬ìļ©":6805,"Ġê³łë§Ī":6806,"Ġë¬´ëłµ":6807,"Ġì£½ìĿ´":6808,"ì§Ħë³´":6809,"Ġìĭľê³Ħ":6810,"Ġì²ĺì§Ģ":6811,"Ġíĺģëªħ":6812,"çĶ":6813,"ĠìĿ´ê²¨":6814,"íĺĦìĭ¤":6815,"ĠìĿ´ëģĦ":6816,"Ġìļ°ìļ¸":6817,"Ġì»¤ë®¤ëĭĪíĭ°":6818,"Ġì£¼ë¶Ģ":6819,"ê´ĳê³ł":6820,"ê³±":6821,"Ġì°½ìĽĲìĭľ":6822,"ëŃĲ":6823,"íķľì§Ģ":6824,"Ġíķ´ìĪĺ":6825,"Ġê°ľìŀ¥":6826,"Ġê°Ŀê´Ģ":6827,"ĠìĽĮìĭ±íĦ´":6828,"Ġëĸ¡":6829,"Ġê°ĢìĿ´ëĵľ":6830,"ĠìķĦë¦Ħëĭ¤":6831,"ĠëıĮìķĦìĺ¨":6832,"Ġë¹Ħíĸīê¸°":6833,"Ġë¶Ħëĭ¹":6834,"ĠëĴ¤ëĬ¦":6835,"ĠìĹ¬ì§Ģ":6836,"íĿ¬ë§Ŀ":6837,"ĠìĿĮì£¼":6838,"Ġ\"âĢ¦":6839,"Ġë°ľëª©":6840,"íļĮê³Ħ":6841,"ìĤ¬ë¡Ģ":6842,"Ġëĭ¹íķľ":6843,"ĠìĭľíĤ¤":6844,"ìĭ¤ìłģ":6845,"Ġìħ°":6846,"Ġê¹ĢìĹ°":6847,"ì£¼ìŀĲ":6848,"ĠìŀħìłĲ":6849,"Ġì§Ģëª©":6850,"¹ìĭľ":6851,"Ġíı¬ëŁ¼":6852,"ìĸ´ëĤ´":6853,"ĠìĦľíķ´":6854,"ìĤ°ìĹħëĭ¨ì§Ģ":6855,"Ġë©į":6856,"Ġë°ĺìĦ±":6857,"Ġì¤ĳë°ĺ":6858,"Ġì§ĢëĤ¸":6859,"Ġì¶©ìĭ¤":6860,"ĠíĮĮìĽĮ":6861,"ëĦĲëĵľ":6862,"ĠëıĦëĮĢì²´":6863,"ë¶ĢëıĻìĤ°":6864,"ìĭ¬ë¦¬":6865,"ìĿ¸ì¦Ŀ":6866,"Ġë§Įê¸°":6867,"ìĦ¤ë¹Ħ":6868,"ĠìĹĺë¦¬":6869,"ĠNH":6870,"ĠìĽĮíģ¬":6871,"Ġì¹¸":6872,"ĠìĨĮìħľ":6873,"Ġ4000":6874,"ĠìĨĲìĥģ":6875,"ĠëĩĮë¬¼":6876,"ĠìļĶê±´":6877,"ìĽĮìĦľ":6878,"ìŀĲìĿ´ëĦĪ":6879,"ĠìĪľì²ľ":6880,"ĠíĻķìĭ¤íŀĪ":6881,"æľ":6882,"ĠëıĮìķĦë³´":6883,"Ġê°Ģíķ´":6884,"ëĭ¹ìĭľ":6885,"Ġìĥīê¹Ķ":6886,"Ġìŀ¬ìĥĿ":6887,"ĠìĹĦê²©":6888,"íıŃíĸī":6889,"ê³łêµĲ":6890,"Ġ250":6891,"ìĪĺìĹħ":6892,"ĠíĻĢë¡ľ":6893,"Ġìłķë°Ģ":6894,"Ġë¬´ìĤ¬":6895,"ĠëĤ´ë¹Ħ":6896,"Ġì·¨ê¸ī":6897,"Ġê¹İ":6898,"ë¥´íģ¬":6899,"ëĿ¼ë¦¬":6900,"ĠìĹ°êµ¬ìĨĮ":6901,"Ġì¢ħë¡ľ":6902,"ë§Īëĭ¹":6903,"ë²Ħê·¸":6904,"ĠìĭľìĥģìĭĿ":6905,"ìĨĮíĶĦíĬ¸":6906,"Ġë©´ìłľ":6907,"Ġìĥģìļ©":6908,"ĠìłĢíķŃ":6909,"Ġìķ¼ê°Ħ":6910,"ĠëĸłëĤľ":6911,"Ġ700":6912,"íļ¨ìľ¨":6913,"Ġìľłë§Ŀ":6914,"ĠìķĦëĭĻëĭĪëĭ¤":6915,"Ġê³µìĿµ":6916,"ì£¼ìĭĿ":6917,"ëĮĢêµĲ":6918,"ìĿ¸ìĽĲ":6919,"Ġê´Ģì°°":6920,"Ġë©´ìĹŃ":6921,"ĠíĿĶíŀĪ":6922,"ìĨĮìĦ¤":6923,"Ġë§Įë§Į":6924,"Ġì¼ľ":6925,"Ġìĸ´ìļ°ëŁ¬":6926,"ĠìŀĦìĭł":6927,"Ġë¶Ģì²ľ":6928,"íĥĢìĽĮ":6929,"ĠìĻĢìĿ´":6930,"íİĻ":6931,"ãİľ":6932,"ĠìĩĦ":6933,"ĠâĹı":6934,"ĠìŀĲì¹«":6935,"ĠìĿ´ìĪĺ":6936,"ê°Ħëĭ´íļĮ":6937,"Ġêµ°ìĿ¸":6938,"ĠIP":6939,"Ġ800":6940,"600":6941,"ëĵľë¦°ëĭ¤":6942,"ĠëĲĺì°¾":6943,"ìĮĢ":6944,"Ġë§ĪìĤ°":6945,"Ġìĺ®ê¸°":6946,"02":6947,"Ġì¦Ŀìĸ¸":6948,"ìŀ¬ë£Į":6949,"Ġìĭľê³µ":6950,"ĠëĴ·ë°Ľì¹¨":6951,"Ġì£¼ìĦĿ":6952,"ìľ¼ëł¤":6953,"Ġ51":6954,"åľ":6955,"Ġë§Īì¹¨ëĤ´":6956,"Ġì°½ë¦½":6957,"ìĪĺìĪĺìĥī":6958,"âĦ":6959,"ĠPD":6960,"Ġë²Įìĸ´ì¡Į":6961,"ĠìķĦëĭĲê¹Į":6962,"ë¹µ":6963,"Ġëª¨ëĭĪíĦ°ë§ģ":6964,"ĠìĺĪê¸Ī":6965,"ĠìĦłê±°êµ¬":6966,"ĠìĻľê³¡":6967,"ëıĻêµ¬":6968,"Ġë¶ĪìķĪê°Ĳ":6969,"ìĬ¤íĥĢìĿ¼":6970,"Ġë§īëĮĢ":6971,"ĠëĤĺíĥĢëĤľ":6972,"ì¤Į":6973,"Ġì§Ģë¦¬":6974,"ĠìĭłëĿ¼":6975,"ĠìķĦìłĢìĶ¨":6976,"ĠìłĦëĭ¹":6977,"ĠìľłìĹ°":6978,"ĠìłĢê¸°":6979,"Ġ2001":6980,"Ġë¶Ģìłģ":6981,"ĠìķĦëĭĪë©´":6982,"Ġë¦¬ìĬ¤íģ¬":6983,"ĠëĮĢë¦½":6984,"ìĿ´íģ¬ìĹħ":6985,"íĺ¸ìĿ¸":6986,"Ġì»¤ì¡Į":6987,"ìĿ´ë¯¸":6988,"ĠìĿį":6989,"Ġìĸ´ëĳł":6990,"ĠíĿĻ":6991,"ĠìĤ¬ëĿ¼ì¡Į":6992,"Ġëĸłìĺ¬ëŀĲ":6993,"ìĽĶëĵľì»µ":6994,"ìĸ´ë¦°ìĿ´":6995,"78":6996,"Ġë³¸ìĦł":6997,"ĠìĤ¬ë¬¼":6998,"ê±°ëŀĺìĨĮ":6999,"Ġìŀ¬ë²Į":7000,"Ġê³łìĬ¤":7001,"ë³´ëıĦ":7002,"ëĥĲê³ł":7003,"Ġëĭ¥":7004,"kg":7005,"ĠëĨĴìĿ¼":7006,"ĠëĮĢëŁī":7007,"ìĹ¬ë¦Ħ":7008,"ìĪĺì¤Ģ":7009,"ĠìĤ¬ìļ°":7010,"Ġ54":7011,"ìĺ¤ìĹ¼":7012,"98":7013,"ĠìĤ¬ìĿ´ë²Ħ":7014,"Ġê²ī":7015,"ĠëĮĢëĮĢ":7016,"Ġìĭłì¶ķ":7017,"ĠìĬµê´Ģ":7018,"Ġë²Įìĸ´ì§Ħ":7019,"Ġëĥīìŀ¥":7020,"Ġê¸Īê°ķ":7021,"ìĦľêµ¬":7022,"Ġë³´ìĹ¬ì¤Ģëĭ¤":7023,"Ġê¸°ìĽĲ":7024,"Ġëªħìĭľ":7025,"ĠLED":7026,"Ġë¬´ìĦł":7027,"êµĲê³¼":7028,"ĠìŁģìłĲ":7029,"Ġë°ĺëł¤":7030,"ì±ĦëĦĲ":7031,"íĥĦìĨĮ":7032,"ê¸Īì§Ģ":7033,"Ġë³ĳìĤ¬":7034,"Ġë¶ķê´´":7035,"Ġìĥģíķĺ":7036,"Ġìłģìłķ":7037,"ìķħê´Ģ":7038,"Ġ\"(":7039,"ìĿĮìĭĿ":7040,"êµ¬ìŀ¥":7041,"Ġì¦ĿìĿ¸":7042,"ĠíĻľëł¥":7043,"íĥĢë¯¼":7044,"iv":7045,"Ġê¹¨ëĭ¬":7046,"ĠìķĦíĶĶ":7047,"Ġìĥģìĺģ":7048,"İĦ":7049,"ĠìłĦìĽĶ":7050,"ìĿ¼ë¦¬":7051,"ë²ĶìľĦ":7052,"ìĥĿíĥľ":7053,"ìĸ´ëĦ£":7054,"Ġë¬´ì£Ħ":7055,"Ġë°ľíļ¨":7056,"ĠìĦľë¶Ģ":7057,"Ġì²Ńë¬¸íļĮ":7058,"Ġê³Ħìĭľ":7059,"Ġë²łìĬ¤íĬ¸":7060,"Ġìŀ¥ìĤ¬":7061,"íķ´ì§Ħëĭ¤":7062,"ĠíĥĢëĭ¹":7063,"Ġìłľìŀĳì§Ħ":7064,"ĠìĮįìļ©":7065,"Ġëĭ¤ê°Ģìĺ¤":7066,"Ġëĵ±íĮĲ":7067,"ĠìĨĮìĪĺ":7068,"Ġì´Īëŀĺ":7069,"ìĥģê¸Ī":7070,"ĠìŀĲì¡´":7071,"Ġê°ĢìłĦ":7072,"ĠìĽĲë£Į":7073,"Ġê³µìĤ°":7074,"ìĤ¬ìĽĲ":7075,"Ġìĭłë¶Ģ":7076,"ĠëĦĲë¦¬":7077,"ĠêµŃë©´":7078,"Ġì²«ëĤł":7079,"Ġê¸īìĹ¬":7080,"Ġê´ĢëĤ´":7081,"Ġì±ĦìĽĮ":7082,"ëĿ¼íĨ¤":7083,"ì½ĺíħĲì¸ł":7084,"íħĮìĿ¼":7085,"ìĭłìļ©":7086,"Ġê±°ìłĪ":7087,"Ġê°Ħëĭ¤":7088,"Ġì£ĦìĨ¡":7089,"ĠíĿĺë¦¬":7090,"ĠLH":7091,"ĠíķŃê³µê¸°":7092,"ĠëĤĺëī":7093,"un":7094,"ĠíĿĶëĵ¤ë¦¬":7095,"Ġê³Ħëĭ¨":7096,"Ġë¬¼íĴĪ":7097,"Ġìĸ´ì©Įë©´":7098,"ĠëĤ´ëł¤ê°Ģ":7099,"íĭ°ì¦Į":7100,"Ġìĭľìĭł":7101,"ĠíķľëıĦ":7102,"ì§Ħìĺģ":7103,"Ġ68":7104,"ĠíķĻê³¼":7105,"Ġìĭłë°ľ":7106,"ìĹĲìĿ´":7107,"Ġì´Ŀëł¥":7108,"ëĴ¤":7109,"ĠëĤ¨ê²¼":7110,"ëĭ¨ì²´ìŀ¥":7111,"ĠëĽ°ìĸ´ëĤĺ":7112,"ĠìĤ°ì±ħ":7113,"Ġëħ¸íĬ¸":7114,"Ġìĭ¬íķľ":7115,"ĠìķķìĪĺìĪĺìĥī":7116,"íĻķìĿ¸":7117,"ĠìĦ¸íĥģ":7118,"Ġê°ĸì·Ħ":7119,"ìĿ¼ë°ĺ":7120,"Ġíıīë²Ķ":7121,"Ġë¶Ģì´Ŀë¦¬":7122,"ì°¨ë³Ħ":7123,"Ġì§ĳê°Ĵ":7124,"Ġìĩ¼íķĳëª°":7125,"ĠíĥĪì¶ľ":7126,"íļĮë³µ":7127,"ĠìĺģìĽĲ":7128,"ëĲľëĭ¤ê³ł":7129,"ĠìĿ´ìłł":7130,"ĠìĪĺìĦ±":7131,"ĠëıĦì¤ĳ":7132,"ë¸Įëŀľëĵľ":7133,"ëĮĢíĸī":7134,"ig":7135,"ìĦ¸ìĥģ":7136,"ëĿ¼ëĭĪ":7137,"ë¬´ëĮĢ":7138,"Ġì£¼íķľ":7139,"ĠíķĦë¦¬íķĢ":7140,"ĠëıĻê³Ħ":7141,"Ġì£¼ìŀĲ":7142,"ï½į":7143,"ìľ¼ëł¤ê³ł":7144,"Ġê°ľê´Ģ":7145,"Ġëªħì¹Ń":7146,"ê´ĢìľĦ":7147,"Ġìŀ¬íķĻ":7148,"íĬľëĶĶìĺ¤":7149,"Ġë°ľìĿĺ":7150,"Ġë¬´ëįĶ":7151,"ĠìĦ°":7152,"Ġëŀľ":7153,"Ġê°ĢëĤľ":7154,"ìŀİ":7155,"ìłĢíŀĪ":7156,"Ġê¹Ģë¯¼":7157,"ë¸Įë¦¬ëĵľ":7158,"ê°Ģìļ´":7159,"ìĪĺì¶ľ":7160,"ĠìķĪëıĻ":7161,"Ġê·¼ëĮĢ":7162,"Ġë°ķë¬¼ê´Ģ":7163,"Ġë§ŀëĮĢ":7164,"ĠìłģìĿĳ":7165,"Ġì§ĢëĤĺê°Ģ":7166,"ëĮĢíķĻìĽĲ":7167,"ìĦ±êµ°":7168,"Ġë·°":7169,"ĠíĻ©ê¸Ī":7170,"ìĿ¸ëį°ìļĶ":7171,"Ġëĵłëĭ¤":7172,"Ġì§Ħì§Ģ":7173,"ĠìĥģíĻĺ":7174,"íķ©ìĿĺ":7175,"Ġì°¸ê³ł":7176,"Ġê°ķìļĶ":7177,"ĠìĿ´ìĺģ":7178,"ìĹ¬ê±´":7179,"ĠíĮ¨íĦ´":7180,"ĠëĤ´ëĭ¤":7181,"ë¶Ģì±Ħ":7182,"ĠìĹ¿":7183,"ĠìĹĲìĿ´":7184,"Ġê·¹ìŀ¥":7185,"Ġëª»íķľëĭ¤":7186,"Ġëĵ¤ë¦¬":7187,"íħįìĬ¤":7188,"ëĪĶ":7189,"ë¯¸ìĪłê´Ģ":7190,"Ġìĥģíĸ¥":7191,"ĠëĤ´ë°Ģ":7192,"ĠêµĲìĭ¤":7193,"ìĿ´ëĿ¼":7194,"Ġìłģìĸ´ëıĦ":7195,"Ĺ¥":7196,"ĠìħĶ":7197,"Ġìłķë¬´":7198,"ĠìķĦìī½":7199,"Ġì¡°ìĨį":7200,"ĠìŀĦëĮĢë£Į":7201,"ĠìĿ´ë¯¼":7202,"ĠíķĻìĪł":7203,"Ġì³¤":7204,"Ġ1500":7205,"Ġê¸°ê¸Ī":7206,"Ġíķ´ê³ł":7207,"ĠìĿ¼ë°ĺìĿ¸":7208,"íħĮë¦¬ìĸ´":7209,"ìŀħëĭĪê¹Į":7210,"Ġíį¼ìĦ¼íĬ¸":7211,"Ġë³¸íļĮìĿĺ":7212,"LED":7213,"Ġê°ķëĤ¨êµ¬":7214,"Ġê´Ģíĸī":7215,"ë¹¨ë¦¬":7216,"Ġì¤ĳêµŃìĿ¸":7217,"ëĶĶìķĦ":7218,"ĠëĽ°ìĸ´ëĵ¤":7219,"Ġìķķëł¥":7220,"íĿ¥ë¯¼":7221,"íĻĪëŁ°":7222,"ìĥĺ":7223,"ìŀħìŀĲ":7224,"Ġê³µê³ł":7225,"íķ´ìļ´":7226,"ĠíĥĳìĬ¹":7227,"êµĲìĭ¤":7228,"ĠëĪĮ":7229,"íĴĢìĿ´":7230,"íĹ¨":7231,"ë³´ëĵľ":7232,"79":7233,"ë³´ê³łìĦľ":7234,"ëıĻìĽĲ":7235,"Ġëı¼ìķ¼":7236,"ìĬ¤ëłĪ":7237,"ë¦½ëĭĪëĭ¤":7238,"Ġë§¤ëĭĪ":7239,"ĠìĿĺë¥ĺ":7240,"ìĹ°ìĬ¹":7241,"Ġë¬´ì²Ļ":7242,"ìľĦíĹĺ":7243,"ëª¨ìŀĦ":7244,"as":7245,"ĠìłĳìĨį":7246,"Ġì§Ģíĸ¥":7247,"ê·¼ë¬´":7248,"Ġë§ĮíĻĶ":7249,"ĠíĽĶ":7250,"ëĬĦ":7251,"ìĨĮë°©":7252,"ì²ĺìŀ¥":7253,"Ġíĳ¸ë¥¸":7254,"Ġìĺģìŀ¥":7255,"ë¦¬íĭ°":7256,"ĠíĨ±":7257,"ìĨŁ":7258,"ĠìłķíĻ©":7259,"ĠíĿĳìŀĲ":7260,"Ġë»Ĺ":7261,"ëªħëł¹":7262,"Ġë³¸ì§Ī":7263,"Ġ2021":7264,"ĠìĺĪìĤ°ìķĪ":7265,"Ġëĭ¤ì§Ĳ":7266,"Ġê°Ĳë©´":7267,"ìĸ´ì´Į":7268,"Ġë§Īëĭ¹":7269,"ĠëłĪëĵľ":7270,"Ġìŀ¥ìĪĺ":7271,"íĨ¨":7272,"ĠìĹ¬ìĤ¬":7273,"Ġê³µìĿ¸":7274,"ê¸´ëĭ¤":7275,"ĠíİĺìĬ¤íĭ°ë²Į":7276,"Ġì¶ľìŀ¥":7277,"ê²¹":7278,"Ġê°Ĳì¶Ķ":7279,"ê²¸":7280,"Ġìĭłìŀ¥":7281,"ê·¸ëıĻìķĪ":7282,"ĠíħĮìĿ´ë¸Ķ":7283,"ë¬´ìĦ±":7284,"ĠëĤĺê°Ħ":7285,"Ġë©Ķëª¨":7286,"Ġ1980":7287,"ĠìĹ°ìĿ¸":7288,"íĺ¸ê¸°":7289,"Ġë´ĲëıĦ":7290,"Ġì°°":7291,"Ġë°ķì°¨":7292,"Ġê³łë°±":7293,"ĠìĿ´ë¤Ħì§Ģì§Ģ":7294,"ìŀ¡ìĿ´":7295,"ĠìĥĿê³Ħ":7296,"ĠíķľìłĦ":7297,"ìŀ¬ìĿ¸":7298,"Ġê²¬ìłľ":7299,"Ġíķ©ì³Ĳ":7300,"Ġíĥľìĸ´ëĤĺ":7301,"Ġì§Ŀ":7302,"Ġë¶ĦìĤ°":7303,"Ġëª©íı¬":7304,"ìĺģíĻĶìłľ":7305,"ĠìĨĮìľĦ":7306,"ë§ĪìĿĮ":7307,"ĠëĤ¨ìĸĳ":7308,"ĠíķŃìĨĮ":7309,"Ġ56":7310,"ĠìĤ¬ë¦½":7311,"Ġë©ĶìĿ´íģ¬ìĹħ":7312,"ation":7313,"ë©Ķë¦¬":7314,"ĠìĹ¬ê²¨":7315,"Ġ64":7316,"Ġë°±ìķħê´Ģ":7317,"ĠíħĶ":7318,"ĠìĪĺìĥģìŀĲ":7319,"ĠëıĻë¶ģ":7320,"Ġê·¸ë¶Ħ":7321,"ĠìĭłíĻĶ":7322,"ĠìĦ¬ìľł":7323,"MF":7324,"ĠìĿ´ë£¬":7325,"Ġê°ķëıĦ":7326,"ëİ":7327,"ĠìĦ¸ë¯¸ëĤĺ":7328,"Ġê°Ģëł¤":7329,"ĠëĶ°ì§Ģ":7330,"ĠíļĮìĪĺ":7331,"Ġíģ´ëĿ¼ìļ°ëĵľ":7332,"ĠíĻĶìĿ´íĬ¸":7333,"ĠìĦłë³´ìĿ¼":7334,"íĻĶìŀ¬":7335,"Ġ53":7336,"Ġìłģë¦½":7337,"ĠìĹ¬ê°Ŀ":7338,"ĠìĥĿìĥĿ":7339,"Ġë©¸":7340,"Ġì¤ĳê²¬":7341,"Ġìŀ¥ìķħ":7342,"Ġìĥģì£¼":7343,"Ġë§ĺ":7344,"Ġìĸµìłľ":7345,"Ġìĸĳì¸¡":7346,"ê³łëĵ±íķĻêµĲ":7347,"ìĽĲìĿĢ":7348,"Ġíĭ°ì¼ĵ":7349,"ĠëĦ¥ìĦ¼":7350,"ê²½ê¸°ëıĦ":7351,"ĠëĨĵì¹ĺ":7352,"ìĪĺëĭ¹":7353,"ĠìĿĮë£Į":7354,"ĠìĹĩê°Ī":7355,"Ġëĭ¹ìĽĲ":7356,"ê³ĦìĹ´":7357,"Ġì§ĢìĽĲê¸Ī":7358,"Ġìŀ¥ë¡Ģ":7359,"ìľłì§Ģ":7360,"ĠìĤ¬ëł¹":7361,"ĠìĺĪìĦł":7362,"Ġë§¤ìĽĶ":7363,"ĠëĤ¨êµ¬":7364,"Ġì¹Ńì°¬":7365,"Ġë¨¹ê±°ë¦¬":7366,"Ġëĭ¤ì±Ħ":7367,"ëª¨ìħĺ":7368,"ìĿ¸ìĥģ":7369,"ëĿ¼ìĿ´íĬ¸":7370,"ìĽĲëĮĢ":7371,"ëŀĳìĿ´":7372,"ĠëĽ°ìĸ´ëĦĺ":7373,"ĠìĪĺë©´":7374,"Ġê³µë°©":7375,"Ġëª¨ë¥¼":7376,"íİĺìĿ´ìĬ¤":7377,"Ġë°ĶëĢĲ":7378,"íĦ°ë¯¸ëĦĲ":7379,"ìĬ¤íĬ¸ëĿ¼":7380,"Ġì¶ľíĮĲ":7381,"ĠìĽ¬":7382,"Ġì¡±":7383,"Ġìŀĳê³¡":7384,"Ġë¯¸ì¹ľ":7385,"Ġê³łìĬ¤ëŀĢíŀĪ":7386,"Ġë³Ħëĭ¤ë¥¸":7387,"2015":7388,"Ġê³łìłĦ":7389,"ì¤ĳìĨĮê¸°ìĹħ":7390,"ì·¨ìĹħ":7391,"Ġë¬¸êµ¬":7392,"ìĨĮìĭľ":7393,"Ġê¸°ìŀ¬":7394,"ĠìĪĺë¶Ħ":7395,"íı¬íĬ¸":7396,"ìĽĮíķĺ":7397,"ì§Ģë¶Ģ":7398,"Ġì½ĺìħīíĬ¸":7399,"íĨµìĿ¼":7400,"ĠìĹ´ê¸°":7401,"íĪ¬ëªħ":7402,"ì½Ķëĵľ":7403,"Ġì§Ļ":7404,"ĠìĿ´ëª¨":7405,"ìľµíķ©":7406,"ë§¤ê¹Ģ":7407,"ìĬĪíį¼":7408,"Ġë¹Ħíķĺ":7409,"Ġíı¬íĦ¸":7410,"Ġíı¬ì°©":7411,"Ġë°ķì§Ģ":7412,"Ġê´ĳíĻĶë¬¸":7413,"ë£¨ì¦Ī":7414,"ĠìľłìłĦìŀĲ":7415,"ĠìĭľìĪł":7416,"Ġì¶Ķì²¨":7417,"ì¢Įê´Ģ":7418,"Ġíķľê°ķ":7419,"Ġì¤ĳê³ł":7420,"ĠëĮĢëĭ¤ìĪĺ":7421,"Ġ95":7422,"Ġìĸ´ëł¤ìĽł":7423,"Ġì§ģìŀ¥ìĿ¸":7424,"Ġíĸ¥íķĺ":7425,"íķłê¹Į":7426,"ĠíĶ¼ë¡ľ":7427,"ìĦ¸ìĿ´":7428,"Ġì²«ì§¸":7429,"ĠìĥĿê¸¸":7430,"ë°Ģë¦¬":7431,"ĠíĥĦíĥĦ":7432,"ĠíĪ¬ê¸°":7433,"íĥĢìŀĲ":7434,"Ġëĭ¹ìĦłìŀĲ":7435,"ĠìŀĲë¦¬ë§¤ê¹Ģ":7436,"ìķĦë¬´":7437,"ĠêµŃìĸ´":7438,"Ġìľ¡ìķĦ":7439,"Ġê·¸ëłĩì§Ģë§Į":7440,"ĠìķĦìĭľìķĪ":7441,"MC":7442,"ìĪĺìŀħ":7443,"ĠìĪľíĻĺ":7444,"Ġëªħë¶Ħ":7445,"ìĿ¸ì¹ĺ":7446,"Ġìľ¤ë¦¬":7447,"ĠìĤŃìłľ":7448,"ĠìłĦìĪĺ":7449,"Ġë¬¸ê±´":7450,"ìĹĶíĦ°":7451,"êº¼ë²ĪìĹĲ":7452,"ë¯¸ìĤ¬ìĿ¼":7453,"Ġ67":7454,"Ġìļķìĭ¬":7455,"ê¹¥":7456,"ĠìĿ´íĥľ":7457,"ì²¨ëĭ¨":7458,"ìĭ¸ìĽĢ":7459,"ĠíĺĪìķ¡":7460,"ìĽĮëĵľ":7461,"Ġì£¼ë¨¹":7462,"ëľ¨ëł¸":7463,"Ġ2022":7464,"Ġíĺĳë°ķ":7465,"Ġíķľë¥ĺ":7466,"ĠìľłìķĦ":7467,"ìĭľë§Ī":7468,"Ġíķľë¯¸":7469,"ĠíĮ¨ëĦĲ":7470,"Ġê¹Ģê´ĳ":7471,"2018":7472,"ë¨¼ìĬ¤":7473,"ëłīìĬ¤":7474,"Ġì¦Ĳê²ģ":7475,"Ġì¹ĺë£Įìłľ":7476,"Ġë¬´ìĸ¸":7477,"SA":7478,"ĠìĿ´ìĸ´ì§Ħ":7479,"ĠìĺĪìĻ¸":7480,"Ġì±Ħìļ°":7481,"íı¬êµ¬":7482,"Ġë¹Ħìĭ¼":7483,"ĠëĦ¤íĭ°ì¦Į":7484,"ĠìķĦíĶĪ":7485,"âĹ":7486,"Ġë°ľë§¤":7487,"ìħĶìķ¼":7488,"ê°Ģë£¨":7489,"Ġìĥģê¶Į":7490,"ĠëĳĺëŁ¬ìĭ¸":7491,"íĸīëıĻ":7492,"Ġë©ķìĭľì½Ķ":7493,"Ġé":7494,"Ġì£¼ë¥ĺ":7495,"ê·¸ë¦°":7496,"Ġê¸°ìģĺ":7497,"ìĹĦë§Ī":7498,"Ġì§ĢëĥĪ":7499,"ĠìĤ¬íĿĺ":7500,"Ġê°ĦíĮĲ":7501,"ĠCCTV":7502,"Ġì¶ľê°Ħ":7503,"Ġë¦¬ëª¨":7504,"Ġìŀłìĭ¤":7505,"ì§ĳíĸī":7506,"Ġìĸµìļ¸":7507,"ëĦ¤íĬ¸ìĽĮíģ¬":7508,"Ġë©´ëĭ´":7509,"ìłľìĿ¼":7510,"Ġì¤ĦìĿ¼":7511,"ëıĻì¡°íķ©":7512,"Ġíķľêº¼ë²ĪìĹĲ":7513,"ĠëĶ´":7514,"íĬ¹ìľĦ":7515,"Ġ180":7516,"ĠìĭľëĤĺ":7517,"ĠìłķìĿĺëĭ¹":7518,"Ġë°Ķëĭ·":7519,"ĠìĥĿë¬¼":7520,"ĠìĽĲë¦¬":7521,"ĠìķĪê±´":7522,"ĠëĬĻ":7523,"Ġë§Īëķħ":7524,"ĠìĦľëĳĺëŁ¬":7525,"Ġëĵ¤ìĸ´ìĺ¨":7526,"ì¤Ģíĳľ":7527,"Ġëįĺì¡Į":7528,"Ġê³°":7529,"Ġì£¼ìłĢ":7530,"Ġë°ľê°Ħ":7531,"íķ´ìĻ¸":7532,"ìĿĺíķĻ":7533,"ê³µìłľ":7534,"Ġíķ¨ìľł":7535,"Ġê²¬íķ´":7536,"Ġê³µìĦ¸":7537,"ĠìĪĺê°ķ":7538,"ĠX":7539,"ĠìĽĲì²ľ":7540,"Ġëª¨ë²Ķ":7541,"ĠìĻľëĥĲíķĺë©´":7542,"êµ¬ë¦¬":7543,"of":7544,"ëŀľíĬ¸":7545,"å°":7546,"ê²ĢíĨł":7547,"Ġì¦Ĳê±°ìĽĢ":7548,"ĠìłķìĦ¸":7549,"ĠíĨ¡":7550,"Ġëĭ¤ìĿ´ìĸ´":7551,"ê·¸ëłĪìĿ´ëĵľ":7552,"Ġì¦ĿëĮĢ":7553,"ì¶Ķíĸī":7554,"ìĤ¬ìłķ":7555,"Ġìĭ¬ìłķ":7556,"ĠìĥģëĮĢë°©":7557,"Ġìŀ¬ë°ľ":7558,"Ġê¸°ì§Ģ":7559,"ìĤ¬ëł¹":7560,"ĠìĿ¼ìĦł":7561,"Ġêµ½":7562,"ĠìĤŃê°Ĳ":7563,"ëĦĮ":7564,"Ġê±¸ë¡ľ":7565,"Ġë°°ìĨ¡":7566,"ìĺ¤ë¥¸":7567,"Ġì¸¡ê·¼":7568,"Ġì¶ĶìĤ°":7569,"ĠìĦłìĪĺëĭ¨":7570,"Ġìķłìłķ":7571,"íķĦìļĶ":7572,"Ġëĭĺ":7573,"Ġì¢ħìĤ¬ìŀĲ":7574,"ĠìĦłë³Ħ":7575,"Ġê±°ìĦ¸":7576,"ĠìĥĿìĤ°ëŁī":7577,"ìłĢìĬ¤":7578,"Ġì±Ħë¬´":7579,"Ġê¸ĪìĨį":7580,"ĠëĵĢ":7581,"Ġë¡ľëĵľ":7582,"Ġë¶Ħê¸°":7583,"BA":7584,"ĠìĬ¬ë¡ľ":7585,"Ġëĵ±ë¡Ŀê¸Ī":7586,"Ġê·¸ìķ¼ë§Ĳë¡ľ":7587,"Ġì£¼ë°©":7588,"ĠíĻ©ìłľ":7589,"Ġê°ĢìĤ¬":7590,"Ġíķ´ìķĪ":7591,"ĠìĪĺìĽĲìĭľ":7592,"ê²½ì£¼":7593,"ĠìķĦëĤĺ":7594,"Ġë¬¸ìĦľ":7595,"ëĿ¼ìĹĺ":7596,"Ġë²ĪìĹŃ":7597,"Ġì£¼ìĨĮ":7598,"ë¸Ķë¡Ŀ":7599,"íħĢ":7600,"åŃ":7601,"ĠëĶ°ìł¸":7602,"Ġëĭ¨íĸī":7603,"ĮĹ":7604,"Ġìĺ¤ë¥¼":7605,"ìĹ¬ê¸Ī":7606,"Ġë°Ķê¹¥":7607,"ĠìķĪë°©":7608,"ëįľëŀĢëĵľ":7609,"ĠëĨĢëŀĲ":7610,"ë¶Ģë¶Ģ":7611,"íĪ°":7612,"ìĤ°ëĭ¨":7613,"ĠìĬ¹ìļ©ì°¨":7614,"ĠëıĮëł¸":7615,"Ġê°ĳìŀĳ":7616,"ĠìĿĳëĭµìŀĲ":7617,"ë¦ŃìĬ¤":7618,"Ġíı¬ìĬ¤íĬ¸":7619,"ĠëĤĻëıĻê°ķ":7620,"ìĺ¹":7621,"ìłľìŀĳ":7622,"ìĨĮíĨµ":7623,"Ġëĵľë¡ł":7624,"íĴĪì§Ī":7625,"ĠìĪĺìľĦ":7626,"ëĤĺìĺ¤":7627,"ĠìĽĶê¸ī":7628,"ĠìĿ¸ìłĳ":7629,"ĠíĥĦìĨĮ":7630,"ë°ľíĳľ":7631,"ê³§":7632,"Ġë©ĺíĨł":7633,"ìĸ´ë¦¬":7634,"ëĮĢíķľë¯¼êµŃ":7635,"Ġê´ĳëªħ":7636,"Ġê³łëł¤ëĮĢ":7637,"ìĸ¸ëįĶ":7638,"Ġìµľìļ°ìĦł":7639,"Ġ66":7640,"ĠìĿ´ë¦¬":7641,"ì»·":7642,"Ġê·ľëªħ":7643,"íĪ¬ìĪĺ":7644,"74":7645,"ë¦¬ì¼ĢìĿ´ìħĺ":7646,"ĠëªħìĦ±":7647,"Ġê´Ģì¤ĳ":7648,"Ġì£¼ê°Ħ":7649,"Ġê³µì¤ĳ":7650,"ĠëĲłì§Ģ":7651,"ìłĦíĻĺ":7652,"ëĮĢìļ°":7653,"ĠíĺĳíļĮ":7654,"Ġë²Īíĺ¸":7655,"ì£¼êµ°":7656,"2016":7657,"ĠíĹĽ":7658,"íķĺëĬĺ":7659,"ĠìĹ°ìĦ¸ëĮĢ":7660,"Ġëª»ì§Ģ":7661,"ĠëıĦëįķ":7662,"Ġìŀ¬ê³ł":7663,"ëįĺê°Ģ":7664,"ĠëĶĶìŀĲìĿ´ëĦĪ":7665,"Ġê³µê¸°ìĹħ":7666,"ĠìĻ¸ì¹ĺ":7667,"ìİĦ":7668,"ĠíĬ¹íĺľ":7669,"ëĿ¼ìĬ¤íĭ±":7670,"ĠëĤļ":7671,"ìłķëıĦ":7672,"Ġë¶ģë¶Ģ":7673,"ëĨįêµ¬":7674,"ëĸ¼":7675,"ì¹´íİĺ":7676,"Ġë°ĺìłĦ":7677,"ëĶ¸":7678,"Ġëĭ¨ëĭ¨":7679,"Ġë¡ł":7680,"ë©ĶìĿ´ìħĺ":7681,"Ġìĥģíķľ":7682,"ĠëĿ¼ê³ł":7683,"ĠìĽĲìŀĲëł¥":7684,"ë¬¼ìĤ°":7685,"íĪ¼":7686,"ĠìĻ¸ëª¨":7687,"ĠìľĦíķ´ìĦł":7688,"Ġìĥĺ":7689,"Ġë©ĭì§Ħ":7690,"ĠìłĢìĨĮëĵĿì¸µ":7691,"Ġê´ĢìĹ¬":7692,"ì§ĢëĭĪìĸ´":7693,"ĠìĿ´ë¡Ģ":7694,"ĠìĪĺì§Ī":7695,"Ġíķľê¸Ģ":7696,"Ġê´ĢìłĪ":7697,"Ġë³´ìłĦ":7698,"Ġíĸīì§Ħ":7699,"ê²½ìĺģìŀĲ":7700,"Ġ63":7701,"Ġë°ĽìķĦëĵ¤ìĹ¬":7702,"Ġ69":7703,"ES":7704,"ĠìĬ¤ì¼Ģ":7705,"Ġë¶ĢëŁ¬":7706,"Ġìĥģìĭ¤":7707,"Ġë°´ëĵľ":7708,"Ġì¢ħìłĦ":7709,"ëª¨ëĵł":7710,"ĠëĤ´ì£¼":7711,"ĠëıĦëĦĲëĵľ":7712,"Ġê°Ĳì§Ģ":7713,"Ġì¹ĺìľł":7714,"ê¸°ë¶Ģ":7715,"ĠìĨĲíĿ¥ë¯¼":7716,"ĠìĤ¬íĽĦ":7717,"ĠìĸĳìĭĿ":7718,"Ġë²ĮìĿ¸":7719,"Ġíķ´ë²ķ":7720,"Ġê´Ģê´ĳì§Ģ":7721,"Ġê¸īìĭĿ":7722,"ìĿ¸ìĭĿ":7723,"Ġê²Įìŀ¬":7724,"Ġë°°ìĥģ":7725,"Ġê°Ģë§ĮíŀĪ":7726,"ĠìĪĺìĹ¬":7727,"ĠìĿĮìĭĿìłĲ":7728,"ëĮĢìĿĳ":7729,"íı¬ë¨¼ìĬ¤":7730,"Ġíķ¸ëĵľ":7731,"Ġê³µì§ģìŀĲ":7732,"ê¸īìĹ¬":7733,"Ġì±ħìŀĦì§Ģ":7734,"Ġì¢ĭìķĦíķĺ":7735,"ìļ°ìĪĺ":7736,"Ġëª¨ëŀĺ":7737,"Ġì§Ģì£¼":7738,"ĠìĬ¤íģ¬ë¦°":7739,"ĠìĹ´ë¦´":7740,"íħĮìĿ´ëĦĪ":7741,"Ġ72":7742,"ay":7743,"Ġë³´ìĹ¬ì¤Ģ":7744,"ĠìĹħê·¸ëłĪìĿ´ëĵľ":7745,"Ġëħ¼ìŁģ":7746,"ìħĶëĦĲ":7747,"ì¡°ë¦¬":7748,"ë°Į":7749,"ìĽĲìłĦ":7750,"ìı":7751,"Ġë§ĪìĬ¤íĦ°":7752,"ĠíļĮëıĻ":7753,"Ġìļ°ì¦Ī":7754,"Ġì¹ĺìĨŁ":7755,"Ġê¹ĢìĪĺ":7756,"ë³´ì¡°":7757,"íıīëĵ±":7758,"Ġì¡°ë¦¬":7759,"Ġìŀ¬íĻľ":7760,"Ġëĵ¤ìĹ¬ëĭ¤ë³´":7761,"ĠìŀĦë¬´":7762,"ìłĦìĦł":7763,"ë¡ľìĽĢ":7764,"Ġìĭ¤íļ¨":7765,"ĠìĹ¬ìĦ¯":7766,"ĠìķĦëĭĻëĭĪê¹Į":7767,"ĠìłĦêµĲ":7768,"ìĤ¬ë²ķ":7769,"Ġë°ĶìľĦ":7770,"ìĬ¤ì¿¨":7771,"ĠEU":7772,"ĠíĥĢìŀĦ":7773,"Ġíİ¸ìŀħ":7774,"Ġê°Ģë§¹ìłĲ":7775,"Ġê¸°ëıĦ":7776,"ìľłìĨĮ":7777,"Ġíģ¬ëĭ¤":7778,"PS":7779,"Ġì½ĶíĬ¸":7780,"íĿĳ":7781,"ìłķê¸°":7782,"ĠíĮ¨ëŁ¬":7783,"Ġìĸ´ëĸ¨":7784,"ĠëıĻíĻĶ":7785,"íĤ´":7786,"ë©´ìĦľëıĦ":7787,"Ġìŀ¬ì§ģ":7788,"Ġm":7789,"ë°°ìĥģ":7790,"Ġê²°íĺ¼ìĭĿ":7791,"ĠëĦĺìĸ´ìĦ°":7792,"Ġêµ¬ìĦĿ":7793,"Ġëĭ¹ì²¨":7794,"Ġë¶ĻìĹ¬":7795,"ĠìľĦìķĪë¶Ģ":7796,"ëĨįê°Ģ":7797,"ĠëĤ´ìĻ¸":7798,"ìºĲíĶ¼":7799,"Ġìĭ¤ë¦¬":7800,"ë¶ģëıĦ":7801,"Ġë¬´íķľ":7802,"2017":7803,"Ġìłľíľ´":7804,"ëĿ¼ê¸°":7805,"Ġêµ¬ìĹŃ":7806,"ĠíķĺìĸĢ":7807,"Ġì¡°ìļ©íŀĪ":7808,"Ġêµ¬ë©į":7809,"ĠìķĪíĥĢê¹Ŀ":7810,"ìľĻ":7811,"Â²":7812,"OS":7813,"ìµľê³ł":7814,"89":7815,"Ġè":7816,"Ġê°Ģì¤ĳ":7817,"Ġë¹ĦíĥĢë¯¼":7818,"Ġíĥľìĸ´ëĤľ":7819,"ĠëĿł":7820,"ìŀĳíĴĪ":7821,"ĠìĿ´ì£¼":7822,"ìĸ´ë¨¸ëĭĪ":7823,"Ġê°Ģë¥´ì¹ĺ":7824,"ë»Ĳ":7825,"ĠìľĪ":7826,"ĠíķŃë§Į":7827,"ĠìĬ¤íĭ°":7828,"Ġê´ĳìĸĳ":7829,"ĠìĹ´ì°¨":7830,"íķĺë£¨":7831,"ĠìłĦì§ģ":7832,"ĠìĤ´ìķĦëĤ¨":7833,"ĠìĪĺìĭľë¡ľ":7834,"ĠëŀŃ":7835,"Ġìĺµ":7836,"ĠìĬ¤ìľĦìĬ¤":7837,"Ġëĭ´ëĭ¹ìŀĲ":7838,"ĠìŀĲìĺģìĹħ":7839,"ëĳ¬":7840,"ì²ľêµ°":7841,"ìĥĿë¬¼":7842,"ëĤĺëĪĶ":7843,"Ġë¬´ìĿ¸":7844,"ĠëĤłì¹´":7845,"ê¸ĪìĨį":7846,"2012":7847,"ìĹħì¢ħ":7848,"ĠìķĦìĿ´ëıĮ":7849,"ìĦľì¹ĺ":7850,"ĠìĦ¸íı¬":7851,"ĠìĿ¸íĦ´":7852,"ĠëĳĺëŁ¬ë³´":7853,"Ġê³łìŀ¥":7854,"ĠìĦ±ìĭ¤":7855,"Ġë®¤ì§ģ":7856,"MA":7857,"Ġë§Īë¥´":7858,"Ġê¸°ìĺ¨":7859,"Ġìĭľê°Ģ":7860,"ĠìĿ¸íħĮë¦¬ìĸ´":7861,"ê³µëıĻì²´":7862,"ëĦĪìĬ¤":7863,"ì§Ģíķĺ":7864,"ĠíĦ°ìł¸":7865,"ĠëıħëıĦ":7866,"Ġ130":7867,"ĠìľłìĤ°":7868,"ĠìĿ´ìĬ¤":7869,"Ġë§ŀì¶ĺ":7870,"ë°©ìĹŃ":7871,"ëĳĲê¸°":7872,"ĠìĿĺë£Įì§Ħ":7873,"ĠíĶ¼ìĿĺìŀĲ":7874,"ì¶ľìĤ°":7875,"ĠëĪĦë¥´":7876,"ht":7877,"ë¡łê°Ģ":7878,"ĠìķŀìĦ¸ìĽĮ":7879,"ĠìĦ±ìŀ¥ìĦ¸":7880,"ĠíĦ°íĤ¤":7881,"ë¹ĦìĦľê´Ģ":7882,"ĠìķĪìĦ±":7883,"Ġì¾Įìłģ":7884,"EC":7885,"ìłĦë¶Ģ":7886,"Ġì´ĿíļĮ":7887,"ĠíĻĶíķ©":7888,"ìºłíį¼ìĬ¤":7889,"Ġë³´íĸī":7890,"Ġì°¨ìŀ¥":7891,"Ġì§Ģíĺľ":7892,"Ġìĭłê¸°":7893,"Ġìĸ¼ìĿĮ":7894,"ĠëĨĵìĹ¬":7895,"ĠíĨłë¡ľ":7896,"ĠìĿ¸ë¯¼":7897,"Ġì§Ĳìŀĳ":7898,"ĠìłľìŀĲ":7899,"Ġë§īíĮĲ":7900,"ĠëĳĶíĻĶ":7901,"Ġì¡°ìľ¨":7902,"ĠëĤ´ëĭ¤ë´¤":7903,"Ġê°ķëł¬":7904,"ĠëĨįìŀ¥":7905,"ëĤĺê°Ķ":7906,"íĥĿìĭľ":7907,"ot":7908,"ĠíĭĢë¦¼":7909,"ĠìłĦì§Ģ":7910,"ê²¨ìļ¸":7911,"ìļķìŀ¥":7912,"ìłłê°Ģ":7913,"Ġë°ķìĽĲ":7914,"ĠíĮĮíĭ°":7915,"ĠíĥģìĽĶ":7916,"Ġêµµ":7917,"Ġìĸ´ìĦľ":7918,"ï¼į":7919,"Ġê³¼ìĭľ":7920,"ĠìĨŁ":7921,"Ġê¸Īë°©":7922,"ĠìĿ¼íĸī":7923,"ëıĻìĥĿ":7924,"85":7925,"Ġì²Ńìŀ¥":7926,"ìĦĿìľł":7927,"ĠëªħìĿĺ":7928,"Ġì±ħìłķ":7929,"ĠíķĺìĿ´ë¸Įë¦¬ëĵľ":7930,"ĠìĪĺì°¨ë¡Ģ":7931,"æķ":7932,"ìĪĺëĭ¨":7933,"ĠìıŁìķĦì§Ģ":7934,"ìĬ¤íĮħ":7935,"Ġìľ¡êµ°":7936,"Ġìŀ¬ë°Į":7937,"ĠìĤ½":7938,"Ġìĺ¬ë°Ķë¥¸":7939,"ĠìĪľìĦľ":7940,"ĠëıĻìķĦë¦¬":7941,"Ġì°½ë¬¸":7942,"ì§ĢìĭĿ":7943,"ãİ¡)":7944,"íģ´ëŀĺ":7945,"Ġëĭ¤ë£¬":7946,"ĠêµĲìĽĲ":7947,"and":7948,"ëĤ´ìļ©":7949,"Ġê¹ĮëĭŃ":7950,"71":7951,"ĠëıĦëª¨":7952,"Ġìĥīìĥģ":7953,"ĠíĨłìļĶìĿ¼":7954,"Ġìłĳê·¼ìĦ±":7955,"ê²½ìŁģëł¥":7956,"Ġìĵ°ìĿ´":7957,"ĠíĹ¤ìĸ´":7958,"Ġê±´ìłĦ":7959,"95":7960,"ĠìłĦê²©":7961,"ê±´ë¹Ħ":7962,"ĠìĬ¤ìĽ¨":7963,"Ġì²´ê°Ĳ":7964,"ĠìĿ¼ìłľíŀĪ":7965,"ĠëĤĺìķĦ":7966,"Ġê³łìĸĳìĿ´":7967,"ĠìķĦíĬ¸":7968,"Ġë²ĶìĿ¸":7969,"Ġë§¤ì§Ħ":7970,"ìłķê¶Į":7971,"Ġë§Īíģ¬":7972,"ĠìľĦíķĺ":7973,"ìķ±":7974,"Ġê³Ħì¸µ":7975,"Ġì§Ģê²½":7976,"Ġì±ĦìĨĮ":7977,"Ġë°ľê¸¸":7978,"ĠëĿ¼ìĿ´ë¸Į":7979,"Ġëª©ê²©":7980,"Ġë©Ģíĭ°":7981,"ìĽĥìĿĮ":7982,"Ġë¶Ģë¦¬":7983,"ĠìĤ¬ì°°":7984,"ĠíĴįìĦ±":7985,"Ġê²½ì°°ê´Ģ":7986,"ëĭ¨ìľĦ":7987,"ĠìĪĺëħĦ":7988,"Ġê°¤ëŁ¬ë¦¬":7989,"Ġë¬¸ìŀ¥":7990,"ĠìĭľëĤĺë¦¬ìĺ¤":7991,"ìĬ¤ëŁ¬ìĽĮ":7992,"ad":7993,"ëĬĲëĥĲëĬĶ":7994,"ìĿ¼ì§Ģ":7995,"ê³łìĨįëıĦë¡ľ":7996,"ĠìĥĪëģ¼":7997,"ĠëĦĺìĸ´ìĦľ":7998,"ëĵľë¡ľ":7999,"ĠìĹ¼ëĳĲ":8000,"ĠíĸĪìľ¼ëĤĺ":8001,"ĠíĨµíĸī":8002,"ĠëĤ´ë³´":8003,"ĠìĦ±ìĤ¬":8004,"ĠëĤ¨ê¸´":8005,"Ġìĸĳìª½":8006,"ĠìĦ¸ëł¨":8007,"ĠìĹĳìĬ¤":8008,"Ġì°¸ìĦĿìŀĲ":8009,"ĠìĹ°ìķł":8010,"ĠëıĻíĸī":8011,"Ġë°ķìĺģ":8012,"Ġì§ĢëĤ¬":8013,"ë§Īì¼ĢíĮħ":8014,"ĠìĪĺíĻķ":8015,"Ġê¸īê²©íŀĪ":8016,"Ġë¶ĻìĿ´":8017,"Ġìĺ¤íĶĦëĿ¼ìĿ¸":8018,"ìļ°ìĬ¹":8019,"Ġì§ĢëĭĪ":8020,"ìĿ´ëŀĳ":8021,"Ġíĸīíĥľ":8022,"Ġìłģëĭ¹":8023,"Ġë§ĪìĿ´ëĦĪ":8024,"oT":8025,"ìĹ°ìĪĺ":8026,"Ġê¸īëĿ½":8027,"ĠìĽĲê²©":8028,"ĠëıĻìĦľ":8029,"Ġìĺ¤íĨł":8030,"ĠìķĪëĭ¤":8031,"ìĨĮë¹ĦìŀĲ":8032,"Ġê¹ĥ":8033,"Ġì¶Ķê²©":8034,"Ġëľ¨ê²ģ":8035,"ë¬¼ê°Ģ":8036,"Ġìľ¤ìĦĿ":8037,"ë³´ìķĪ":8038,"ê°ľìłķ":8039,"ëłĪìĿ´ìħĺ":8040,"Ġíħį":8041,"Ġíı¬íĬ¸":8042,"ëŁ¬ìĬ¤íĦ°":8043,"ì£¼ìĸ¼":8044,"ĠëĶľ":8045,"ĠëĦĮ":8046,"Ġíĺķíİ¸":8047,"ĠìĿ´ëħĲ":8048,"Ġìºĺ":8049,"ĠíĻķë¥ł":8050,"ĠìĹ°ìĥģ":8051,"ê¶Įëł¥":8052,"Ġëªĩëªĩ":8053,"ìĦ¼íĭ°ë¸Į":8054,"Ġì²ŃìĽĲ":8055,"ĠìĹ´ìķħ":8056,"Ġìĭłìŀ¬":8057,"ĠìĺģìĽħ":8058,"ìľĦìķĪ":8059,"ĠíķľêµŃìĿĢíĸī":8060,"Ġìĭľì¼ľ":8061,"íīģ":8062,"ìĻ¸êµĲ":8063,"Ġë¶ĢëĵľëŁ¬ìļ´":8064,"Ġë¬´ëł¥":8065,"Ġíģ´ë¦°":8066,"Ġëĥīìŀ¥ê³ł":8067,"ê²½ê¸°ìŀ¥":8068,"ĠìĿ´ë¤ĺ":8069,"400":8070,"2014":8071,"Ġ\"âĢ¦âĢ¦":8072,"ĠíĶĦë¡ľëª¨ìħĺ":8073,"Ġíİ¼ì³Ĳì§Ħëĭ¤":8074,"Ġë¦¬ìĸ¼":8075,"Ġ1998":8076,"ĠíħĶëłĪ":8077,"ê°ķíĻĶ":8078,"Ġìĸ½":8079,"íİĺìħľ":8080,"ì¼Ī":8081,"Ġê¹Ģë³ĳ":8082,"ĠìĥģìĭĿ":8083,"800":8084,"ì²´ìĿ¸":8085,"Ġê±´ëĦ":8086,"ĠëıħìłĲ":8087,"ĠìłķìĪĺ":8088,"Ġíį¼íı¬ë¨¼ìĬ¤":8089,"Ġì¦Ĳê²¨":8090,"ĠìķĦë¦Ħëĭµ":8091,"LS":8092,"Ġìļ´ìĨ¡":8093,"ĠìĪĺìĥī":8094,"Ġìĭ±ê¸Ģ":8095,"ĠìĤ¬ëª¨":8096,"ê°ĲëıħìĽĲ":8097,"ĠìĹ°ëĤ´":8098,"Ġ62":8099,"ê²¨ì§Ħ":8100,"Ġê¸īê°Ĳ":8101,"ìĤ¬ê¸°":8102,"ĠìŀĲì¡´ìĭ¬":8103,"Ġìļķë§Ŀ":8104,"Ġê³łìĿ¸":8105,"Ġë¹ĽëĤĺ":8106,"ë§¤ìĪĺ":8107,"ëľ°":8108,"Ġêµ°ë¯¼":8109,"íĥĢìĿ´":8110,"Ġë¹Ħê²°":8111,"ĠëĨįìĤ¬":8112,"Ġëª¨ìĭľ":8113,"Ġê³µë°±":8114,"Ġíĺ¸ê¸°":8115,"Ġì±ħìĥģ":8116,"Ġë³´ê°ķ":8117,"Ġì§ĢìĹŃë¯¼":8118,"Ġê²½ìľĦ":8119,"Ġë²¤ì¹ĺ":8120,"ĠíķĻìĹħ":8121,"ï¼ħ":8122,"ìĹ¬ëĮĢ":8123,"Ġíĥľê·¹":8124,"2010":8125,"ëĵłëĭ¤":8126,"Ġê¸°êµ¬":8127,"Ġëĭ¨ìĽĲ":8128,"Ġëĭ¤ë¥¼":8129,"ĠíĻĶìĥģ":8130,"Ġê°Ģì§ľ":8131,"ìĦłìĥĿ":8132,"Ġë²Ħíĭ°":8133,"ëıĦë¯¼":8134,"ŁìĪĺ":8135,"ĠíĥĿë°°":8136,"Ġì£¼ê³ł":8137,"ë¬¸ìŀ¬ìĿ¸":8138,"Ġì¦Ŀì§Ħ":8139,"ĠFA":8140,"Ġìĺ¨ìĭ¤":8141,"ĠìĤ¬ê°ģ":8142,"ë¹Įë¦¬":8143,"Ġìĺ¨ê°ĸ":8144,"Ġê°ĲìĤ¬ìĽĲ":8145,"Ġê±´ì§Ģ":8146,"ĠëĨįë¦¼":8147,"Ġëª¨ìĿ¸":8148,"Ġê±°ëĳĶ":8149,"Ġíķ«":8150,"ìĥ·":8151,"ĠëĮĢë¥Ļ":8152,"Ġëĵ±ì§Ģ":8153,"Ġìĭľê³¨":8154,"2013":8155,"ĠìķĦê°Ģ":8156,"ĠìĦľìĦľ":8157,"ĠìŀĲë¶Ģ":8158,"Ġìĺ¨ëª¸":8159,"ĳ¤":8160,"Ġêµ¬íĺ¸":8161,"Ġíķ´ì²´":8162,"Ġë°¸":8163,"Ġìĭľì§ĳ":8164,"íĭ°ìĬ¤íĬ¸":8165,"ìĹ°ë£Į":8166,"Ġë¡¤":8167,"Ġê³łë¥´":8168,"éģ":8169,"íĬ¸ëŀĻ":8170,"ĠìĬ¤íĤ¤":8171,"ì£¼ëıĦ":8172,"ĠëĳĲëł¤ìĽĢ":8173,"ĠìľĦìĥĿ":8174,"ĠëįĶìļ±ìĿ´":8175,"ëĲľëĭ¤ë©´":8176,"ëĳ¥ìĿ´":8177,"ëĦĵ":8178,"åį":8179,"Ġë©Ķë¥´ìĬ¤":8180,"ĠëĤ¨ìª½":8181,"Ġ6000":8182,"Ġìľłë£Į":8183,"ëĶĶìĬ¤íĶĮëłĪìĿ´":8184,"Ġë§¤ì¹ĺ":8185,"ĠìĿ´ë³ĳ":8186,"Ġ1999":8187,"ĠìĹ´ëł¤":8188,"Ġê³łìĭľ":8189,"êµĲìľ¡ê°Ĳ":8190,"ëĵľëŁ½":8191,"ĠìĽĲì£¼":8192,"íļĮìĽĲ":8193,"ĠëıĻë§¹":8194,"Ġëĸłìĺ¬ë¦¬":8195,"ì§Ģìĥģ":8196,"ë°ĶìĿ´íĬ¸":8197,"Ġì²ŃìĤ°":8198,"ìºĶ":8199,"Ġì£¼ê³łë°Ľ":8200,"Ġêµ¬ê²½":8201,"Ġìļ©ìĦľ":8202,"ĠìĥĿìķł":8203,"Ġë°ķëŀĮíļĮ":8204,"Ġë¡ľë§¨":8205,"íĥĢìłĲ":8206,"ëł¥ìĤ¬":8207,"ĠìķłëĭĪ":8208,"Ġê¸´ë°Ģ":8209,"ĠëĿ¼ìĿ´íĶĦ":8210,"Ġì¦Ĳê±°ìļ´":8211,"ĠìłĦìĦ¤":8212,"íĿł":8213,"ĠìĬ¤íĶĦ":8214,"Ġê¼¬ì§ĳ":8215,"Ġì»¤ì§Ī":8216,"Ġëª¨ê¸Ī":8217,"ĠìĪĺíĺľ":8218,"ĠíĮĮì£¼":8219,"ëĵľëł¸":8220,"ëĭ´ë³´":8221,"ìĤ°íĻĶ":8222,"87":8223,"ì§Ģë¡ľ":8224,"Ġê¸ĪíĴĪ":8225,"ìłĢê¸°":8226,"Ġëĭ¤íĸīíŀĪ":8227,"ê½":8228,"Ġë§Īìķ½":8229,"æ°":8230,"Ġíļ¡ëł¹":8231,"ĠìĹ°ìĿ´":8232,"ĠìĿ´ëŁ´":8233,"Ġê´´ë¡Ń":8234,"Ġìŀ¥ìĦ±":8235,"íĮĿ":8236,"Ġìļ°ìľł":8237,"ĠíıĲê¸°ë¬¼":8238,"ĠìłĦìĭł":8239,"ĠíĮĿ":8240,"ê²°ìłľ":8241,"Ġ1997":8242,"IST":8243,"Ġíķłê¹Į":8244,"Ġë¬´ìĥģê¸īìĭĿ":8245,"Ġíģ¬ë¦¬ìĬ¤ë§ĪìĬ¤":8246,"ìłľìķ½":8247,"ë¦¬ì¡°íĬ¸":8248,"ĠíĻĺìĥģ":8249,"ĠìĦ¸ë¬´":8250,"ê³¼ê±°":8251,"ĠíĹĺ":8252,"íĥľë£Į":8253,"Ġìŀ¬íĺĦ":8254,"íĻĶíıĲ":8255,"ĠãĢĬ":8256,"Ġëĭ¬ëŀĲ":8257,"ĠìĤ´íĶ¼":8258,"ìļ°ì£¼":8259,"Ġì¤Ħê¸°":8260,"Ġê³łì§ĳ":8261,"íĬ¹êµ¬":8262,"Ġê°Ĳëĭ¹":8263,"ĠëĪĦëĤĺ":8264,"ĠâĢĻ":8265,"Ġê°ĲìĹ¼ë³ĳ":8266,"ëĬ¬":8267,"Ġìĸ´ë¦¬":8268,"ĠìľłìĬ¹":8269,"ĠìĭłíķľìĿĢíĸī":8270,"Ġëįĺìł¸":8271,"ĠíĬ¹ë³Ħë²ķ":8272,"ĠìĹ´íĴį":8273,"Ġë°©ë¬¸ê°Ŀ":8274,"Ġìĭľíĸīëł¹":8275,"ĠìĪĺìĬµ":8276,"ĠêµŃìĦ¸ì²Ń":8277,"ĠìĤ°ìłķ":8278,"Ġìĸĳë³´":8279,"Ġë°Ģì§ĳ":8280,"ECD":8281,"ìłķìĿĺ":8282,"ëĬĲë¦¬":8283,"ì²ľì§Ģ":8284,"ãĢĭ":8285,"ëĶĶì§ĢíĦ¸":8286,"Ġë¶ĢëĵľëŁ½":8287,"Ġìļ©ëıĦ":8288,"Ġê±´ëĦ¤":8289,"ë°´ëĵľ":8290,"ĠìķĮëł¸":8291,"ĠíķŃê³µìĤ¬":8292,"ĠìĽĲê³ł":8293,"ĠMC":8294,"ĠìĿ´ë£¨ìĸ´ì§Ģ":8295,"Ġë¹Ħìĭ¸":8296,"ĠìĨ¡íĮĮ":8297,"ìĦ¸ì¢ħ":8298,"Ġë¯¸íĿ¡":8299,"ĠìĬ¬íĶĶ":8300,"ìĿ¸ê°Ħ":8301,"Ġë²ķì¡°":8302,"Ġë¨¸ë¦¿":8303,"Ġë¨¼ì§Ģ":8304,"íĳ":8305,"ĠìĦ¸ìłľ":8306,"Ġì§Ħíĸīíķł":8307,"TS":8308,"ĠëĦ¤ëįľëŀĢëĵľ":8309,"ĠìŀĲìĦ¸íŀĪ":8310,"ìĻ¸ìĦł":8311,"Ġì¶ľëıĻ":8312,"íĪ¬ìŀĲìŀĲ":8313,"Ġê³łì¡°":8314,"ĠíĶ¼ìķĦ":8315,"ĠìĬ¤íĥł":8316,"ê°ķìĽĲ":8317,"MS":8318,"ĠíĮĮê²©":8319,"Ġíĳľë©´":8320,"Ġìķ½ë¬¼":8321,"ê³µì²ľ":8322,"ĠìĿ´ìĬ¤ëĿ¼ìĹĺ":8323,"Ġê³±":8324,"Ġìłķíķľ":8325,"ì°½ìĽĲ":8326,"ìĹŃëŁī":8327,"Ġë³µêµ¬":8328,"ĠëĮĢì¤ĳêµĲíĨµ":8329,"ĠìļĶìĸĳ":8330,"Ġìĭľëĭ¬ë¦¬":8331,"ìĥģìĬ¹":8332,"Ġë°°íı¬":8333,"Ġëľ¬":8334,"ĠëĤ´ëħĦëıĦ":8335,"Ġë©´ìĦ¸ìłĲ":8336,"Ġìłĳì¢ħ":8337,"Ġë³´ëĤ¼":8338,"ì§ķê¸Ī":8339,"ĠëĤ´ê±¸":8340,"ĠìĤ°íķĻ":8341,"Ġìĥģìłķ":8342,"ĠìĿ´ëª©":8343,"ĠìĿ´ìĬ¬":8344,"ĠíĶĦë¦°":8345,"Ġëı¼ìĦľ":8346,"Ġìľłê°Ĳ":8347,"ĠíĥĢìľ¨":8348,"ì°¨ìĽĲ":8349,"Ġìŀ¡ìķĦ":8350,"Ġë°ķìĦ±":8351,"97":8352,"ĠíĺĦì§ģ":8353,"Ġë§¤ëıĦ":8354,"Ġê°ĢëĿ¼":8355,"Ġê¹ĶëģĶ":8356,"ĠìĪ¨ì§Ħ":8357,"Ġìµľê°ķ":8358,"ìļ´ìĦľ":8359,"Ġìķŀëĭ¹":8360,"ë§µ":8361,"cm":8362,"ĠíĨµìĿ¼ë¶Ģ":8363,"ĠëıĻíĸ¥":8364,"ĠìĭłëıĻ":8365,"Ġíĺ¸íıī":8366,"Ġê°ĲìĪĺ":8367,"ëĥĲë©´":8368,"ëĮĢìŀ¥":8369,"Ġëĭ¤ìĿ´ìĸ´íĬ¸":8370,"Ġì¤ĳê¸°":8371,"ìŀĲê²©":8372,"Ġìķ¡ìħĺ":8373,"Ġìĭ¤ìļ©":8374,"ĠìĿ´ë¥¼":8375,"Ġë¬´ìŀ¥":8376,"ĠíĥĪëĭ¹":8377,"ĠíĿ©":8378,"Ġì´Īëĵ±íķĻìĥĿ":8379,"Ġë½Ĳ":8380,"ìĭľë¦½":8381,"ĠìłĢíķĺ":8382,"ë¯¼ì¡±":8383,"ĠëĤ¡":8384,"Ġê²½ì°°ì²Ń":8385,"Ġê³µê°ĲëĮĢ":8386,"ĠêµĲìĦŃ":8387,"Ġê½Ĥ":8388,"Ġê¸°ê°ģ":8389,"Ġë°Ģìĸĳ":8390,"ĠìĹ°ëıĻ":8391,"ĠìĽĶìĦ¸":8392,"íĺĦìĥģ":8393,"ë©Ģ":8394,"Ġì¤ĳê³Ħ":8395,"ĠíĽĦíļĮ":8396,"Ġ110":8397,"Ġë°±ìĦ±":8398,"ĠëĪĦë¦´":8399,"ëĿ¼íģ¬":8400,"íķĺíķĺ":8401,"Ġê¹Ģì§Ģ":8402,"Ġìłķìľł":8403,"ĠíĦ°ì§Ģ":8404,"Ġê¶ģê¸Īì¦Ŀ":8405,"Ġìŀłìłķ":8406,"Ġë³´ë³µ":8407,"ëĿł":8408,"ëŀľì°¨":8409,"ì§ĳíļĮ":8410,"ĠìĿ¸ìĦ¼íĭ°ë¸Į":8411,"ëıĦìĸ´":8412,"ĠëĳĲëĵľëŁ¬":8413,"Ġëª¨ìĿ´":8414,"Ġê°Ģíķĺ":8415,"Ġê²¬ìĿ¸":8416,"ë¶ĢìĿ¸":8417,"Ġìľłìļ©":8418,"ĠíĮ©":8419,"ĠìĿ´ëĮĢ":8420,"Ġë©ĶìĿ¸":8421,"ë°±ì§Ī":8422,"íĥĢìĿ´ìĸ´":8423,"Ġíķĺì²ľ":8424,"ĠíĥĢìĿ´ìĸ´":8425,"ĠëĤ´ìĦ¸ìļ°":8426,"GB":8427,"ëŀľì°¨ìĿ´ì¦Ī":8428,"ĠëģĪëĭ¤":8429,"ì§Ħë£Į":8430,"Ġë¶ģì¸¡":8431,"ë¬¼ëŁī":8432,"ìĨĮìĹ°":8433,"ĠíĿł":8434,"TO":8435,"Ġì²Ńì·¨":8436,"ë§ĪìĿ´":8437,"ë¬¸íĻĶìŀ¬":8438,"Ġìļ©ìĸ´":8439,"ìħĶì¸ł":8440,"ëĭ¤ë©´ìĦľ":8441,"ĠëıĦìĦľ":8442,"Ġì°¢":8443,"Ġ77":8444,"Ġìķµ":8445,"ëıħêµĲ":8446,"ê´ĳë¶Ģ":8447,"Ġì¦Ŀê°ĢìĦ¸":8448,"ĠBMW":8449,"ĠIB":8450,"ĠKTX":8451,"Ġê¸°ì¦Ŀ":8452,"PA":8453,"Ġì°¾ìķĦë³´":8454,"Ġë³´íİ¸":8455,"Ġëĭ¹ëĩ¨":8456,"ĠìĦľìĸĳ":8457,"ĠSUV":8458,"Ġë§ĪëĶĶ":8459,"ê¼½":8460,"Ġìłľë³´":8461,"ĠëĤĺìģĺ":8462,"Ġë¹¨ê°Ħ":8463,"íĬ¸ë¡¤":8464,"ĠëıĦëĭ¬":8465,"Ġê°ķì¢Į":8466,"ĠìĥģíĴĪê¶Į":8467,"ëĵľë¦´":8468,"Ġì¦ĿìĦ¸":8469,"ĠìµľìĪľ":8470,"Ġì²ŃìĤ¬":8471,"ìĺµëĭĪëĭ¤":8472,"ìŁģìĿ´":8473,"Ġìķ¼ìĥĿ":8474,"ì²ĺìĿĮ":8475,"Ġë´ħëĭĪëĭ¤":8476,"DA":8477,"ĠìĨĮíıŃ":8478,"Ġê³µì¡°":8479,"Âł":8480,"ëħ¸ëıĻìŀĲ":8481,"\"âĢ¦":8482,"Ġê·¸ë¦¼ìŀĲ":8483,"Ġof":8484,"ĠëĮĢë²ķê´Ģ":8485,"Ġê°Ģë²¼ìļ´":8486,"ëı¼ì§Ģ":8487,"ìŀĲìŀ¬":8488,"ĠëĪĦìĽĮ":8489,"Ġë²Ħë¦°":8490,"Ġê´Ģíķł":8491,"Ġì¶ľìłľ":8492,"íĨµìłľ":8493,"Ġëĭ¹ê¸°":8494,"Ġê¾Ģ":8495,"ëħ¸íĬ¸":8496,"Ġë¦°":8497,"ĠìĿ¸ê±´ë¹Ħ":8498,"ĠíķľëĳĲ":8499,"Ġë¯¸ë¤Ħ":8500,"Ġë§¡ê¸°":8501,"Ġìĭ¹":8502,"Ġê³¼íĥľë£Į":8503,"ëĭ¨ëĭ¤":8504,"Ġv":8505,"ìĥµ":8506,"Ġìľłê°Ģì¡±":8507,"ëħ¸ëıĻë¶Ģ":8508,"ëª¨ì§ĳ":8509,"ĠìľĦìĦ±":8510,"Ġìĺģíĺ¼":8511,"Ġì¡°ì§Ģ":8512,"ë°ĺëĮĢ":8513,"Ġê¸´ìŀ¥ê°Ĳ":8514,"Ġê·ľì¹Ļ":8515,"Ġê°ľê·¸":8516,"Ġb":8517,"Ġìĺ¤íİĺëĿ¼":8518,"Ġìļ°ëĮĢ":8519,"ì§Ģíĳľ":8520,"Ġë¶ĢìĬ¤":8521,"Ġê±´ì¶ķë¬¼":8522,"ë¹Ħë¦¬":8523,"æŃ":8524,"ĠëĨįêµ¬":8525,"ìĿ´ìłĦ":8526,"ê´ĳìĹŃìĭľ":8527,"ëĤ®":8528,"âĢ§":8529,"ĠìŀĲê²©ì¦Ŀ":8530,"ëĺĳ":8531,"Ġì²ĺë°©":8532,"ê¸°ìķĦì°¨":8533,"Ġì¡°ìĦ¸":8534,"ĠëıĮìķĦìĻĢ":8535,"ER":8536,"Ġê·¸ê¹Į":8537,"ëĭ¹íķĺ":8538,"ëŀįëĭĪëĭ¤":8539,"----":8540,"Ġì¤ĢìĪĺ":8541,"Ġì²łìĪĺ":8542,"Ġëªħë¬¸":8543,"ì±Ħê¶Į":8544,"ĠìķĪìĤ°":8545,"ìŀĳìłĦ":8546,"ĠëĳĲë£¨":8547,"Ġë¹¨ëĿ¼":8548,"Ġê³łì§Ģ":8549,"íĻī":8550,"ĠìĽ°":8551,"73":8552,"Ġê²½ìĺģì§Ħ":8553,"Ġê¸°ëĭ¤ëł¸":8554,"ìŀ¥ìĤ¬":8555,"ĠìĹ°ìĿ¼":8556,"Ġë©Ķëĭ¬":8557,"Ġì¢ħì¢ħ":8558,"ëĨĴìĿ´":8559,"Ġ61":8560,"ĠíĹĪëĿ½":8561,"'âĢ¦":8562,"ĠìĹŃìŀĦ":8563,"ëıĦì²Ń":8564,"Ġë§Īìļ´ëĵľ":8565,"76":8566,"Ġìłķìĭľ":8567,"Ġëªħë°±":8568,"Ġìłĳìĸ´ëĵ¤":8569,"Ġíķ©ìŀĳ":8570,"ãİ¡(":8571,"ĠêµŃìłģ":8572,"Ġë³¼ê±°ë¦¬":8573,"Ġëªħëª©":8574,"Ġìĸ¸ìłłê°Ģ":8575,"ì´Ŀìķ¡":8576,"ë§¤ìŀ¥":8577,"Ġìľ¡ë°ķ":8578,"Ġëĭ¨ë§Ĳ":8579,"ĠëļĿ":8580,"Ġì¥":8581,"ĠìĹ¼ëł¤":8582,"ë¶Ģì¡±":8583,"ĠìķĦë§ĪëıĦ":8584,"ĠíĬ¹ë³ĦíŀĪ":8585,"Ġê²°ëĭ¨":8586,"ìĿ¸ëıĦ":8587,"ĠìĥĿìĿ¼":8588,"Ġìĺ¤ëŀľë§Į":8589,"ĠëĿ¼ìĿ¸ìĹħ":8590,"KB":8591,"ĠíķĺìľĦ":8592,"íĮ¨ìħĺ":8593,"ì°¨íĶ¼":8594,"ì¶©ëĤ¨":8595,"Ġì¶ľêµŃ":8596,"Ġë¯¸ì³¤":8597,"ĠìĿĺìĥģ":8598,"ĠìĹ¬ìłĦ":8599,"Ġê¸°ëĭ¤ëł¤":8600,"Ġë°Ķê¿Ģ":8601,"ĠìĤ°ìĹħëĭ¨ì§Ģ":8602,"ĠìĦľìĦľíŀĪ":8603,"Ġì¤ĳë¶Ģ":8604,"Ġíİ¼ì³Ĳì§Ģ":8605,"ë°ĳ":8606,"ĠíķľëıĻìķĪ":8607,"Ġê¹ĢëĮĢì¤ĳ":8608,"ìĺĪìłķ":8609,"ĠëĪĦë¦¬ê¾¼":8610,"ĠíķľêµŃìĸ´":8611,"íķĻë¶Ģ":8612,"Ġë¶ĪíĻ©":8613,"id":8614,"ãĪľ":8615,"2011":8616,"Ġê¾¸ë©°":8617,"Ġë¶ĢíĮ¨":8618,"ĠëķĮë¡ľ":8619,"ì²´ìľ¡íļĮ":8620,"ë¦¬íı¬":8621,"ëĭ¤ìĿ´":8622,"ĠìĿĮìĽĲ":8623,"ĠëĤ´ëł¤ëĨĵ":8624,"ĠìĤ¬ìļ°ëĶĶ":8625,"Ġìŀ¬ê³Ħ":8626,"íĺĲ":8627,"ĠìĨįìĨį":8628,"Ġë¯¼ìĦł":8629,"Ġíĺ¸ìĪĺ":8630,"Ġê°ľìĭľ":8631,"ë¯¸ëĶĶ":8632,"Ġëĭ¬ëĿ¼ì§Ģ":8633,"ĠìĨĶë¡ľ":8634,"ĠìĦĿíĥĦ":8635,"ë³µì§Ģë¶Ģ":8636,"ì¼ĢìĬ¤íĬ¸ëĿ¼":8637,"ìĭľê°ģ":8638,"Ġì¡´ê²½":8639,"ĠìķĦëĤĺìļ´ìĦľ":8640,"Ġì°½ëĭ¨":8641,"Ġìĺ¤ì§ģ":8642,"ìľłìĺĪ":8643,"ìį©":8644,"Ġìľłê´Ģ":8645,"Ġê°Ĳìĭ¸":8646,"Ġê³¨ëĵľ":8647,"ĠëĤ´ë¦´":8648,"Ġíķľìļ°":8649,"lo":8650,"ëĳĲë¥´":8651,"ĠìķĦëĥĲ":8652,"íį¼ëŁ°ìĬ¤":8653,"ĠìĬ¤íĬľëĶĶìĺ¤":8654,"Ġë¬´ìĸ¸ê°Ģ":8655,"Ġì»¨íħĮìĿ´ëĦĪ":8656,"SNS":8657,"ìĤ¬ê´Ģ":8658,"Ġê°Ĳì°°":8659,"ĠêµŃì±Ħ":8660,"Ġëŀĺ":8661,"Ġë°°ìļ´":8662,"Ġìļ¸ìĤ°ìĭľ":8663,"ĠíĤ¤ìĽĮëĵľ":8664,"ĠìĥģìŀĦìľĦ":8665,"Ġê³łë¦¬":8666,"ĠíŀĲë§ģ":8667,"Ġìłķë¡Ģ":8668,"Ġp":8669,"ĠìķĦë¦Ħëĭ¤ìĽĢ":8670,"Ġì§ģë©´":8671,"Ġë°Ķê¿¨":8672,"Ġì°¾ìķĦìĺ¤":8673,"Ġëħ¼ìĪł":8674,"Ġê²Ģì¶ľ":8675,"êµ¬ëł¤":8676,"Ġê¹¨ëĭ«":8677,"Ġêµ¬ë¦Ħ":8678,"Ġìĥģìĭľ":8679,"ëĮĢê¸Ī":8680,"ì²Ńêµ¬":8681,"Ġ74":8682,"Ġê²Ģê±°":8683,"ĠêµŃê²½":8684,"ëģĦëŁ½":8685,"Ġê¸°ìĦ±":8686,"Ġê³µë¬¸":8687,"Ġê³¼ìĦ¸":8688,"ĠíĻķê³ł":8689,"ĠíĨµìĤ°":8690,"íĭ°ëĤĺ":8691,"Ġê¼¬ë¦¬":8692,"ĠìĨĮíĻĢ":8693,"ĠëĵľëŁ¬ëĤľ":8694,"Ġë¨¸ë¬´":8695,"Ġê¸¸ìĿ´":8696,"Ġê°ĩ":8697,"íĩ´ê·¼":8698,"ĠìĹĲìĸ´ì»¨":8699,"Ġíļįê¸°":8700,"ct":8701,"ìľ¼ëł¤ëĬĶ":8702,"Ġìıłë¦¬":8703,"Ġtv":8704,"ĠíĮĮìĿ¼":8705,"Ġê³¤ëŀĢ":8706,"ìĦ±ëĬ¥":8707,"ì£¼ë¡ľ":8708,"Ġë°Ķê¾¼":8709,"ì£¼ê¸°":8710,"Ġìĭłíĺ¼":8711,"ï§":8712,"ìļĶìĽĲ":8713,"Ġëª¨ìĿĺ":8714,"Ġë¶Ħëĭ´":8715,"Ġìľłëıħ":8716,"ì§ĢìłĲ":8717,"Ġë¹Ħì¹ĺ":8718,"Ġê°Ħíĺ¸ìĤ¬":8719,"íĤ¥":8720,"ëħ¸ìĦł":8721,"ìĨĮìĭľìĹĦ":8722,"íĥĢìŀĦìĬ¤":8723,"ìļ©ìĹŃ":8724,"ê°ľíİ¸":8725,"ĠëĵľëĶĶìĸ´":8726,"ĠìĦłíĸī":8727,"ĠíĿ¥ë¶Ħ":8728,"ìĭĿëĭ¹":8729,"ĠíĨ¡íĨ¡":8730,"ëĭĽ":8731,"ìĭľíĤ¨ëĭ¤":8732,"ê¸°ìĨĮ":8733,"Ġëĵ±ìĤ°":8734,"Ġê³µìŀĳ":8735,"ĠìĨĮì§ĳ":8736,"ĠëģĮëł¤":8737,"ëłĪëĵľ":8738,"Ġì§ĦìłĦ":8739,"ĠíĹ¬ìĬ¤":8740,"éĩ":8741,"ëĤ´ë¦¬":8742,"Ġë§ĮìĿ¼":8743,"å±":8744,"ëįĶìĬ¤":8745,"ĠíĺĢ":8746,"Ġëª¨ìĸĳìĥĪ":8747,"Ġê¶¤":8748,"Ġê³¨ëĿ¼":8749,"Ġë§ĮìĦ±":8750,"ĠíĨłíģ¬":8751,"ĠíĻįì¤Ģíĳľ":8752,"ĠìĨĮê¸Ī":8753,"Ġì£¼ìĹ°":8754,"EU":8755,"Ġë¶ĦìĹ´":8756,"Ġê³µëª¨ìłĦ":8757,"Ġ88":8758,"Ġf":8759,"ìłľì¡°":8760,"ĠëĤľëĭ¤":8761,"Ġìĭ¼":8762,"ĠìĿ¼ë³¸ìĿ¸":8763,"Ġ\"'":8764,"ĠìĽĲê°Ģ":8765,"Ġëľ¯":8766,"Ġë°©íķľ":8767,"Ġëī´ëĶľ":8768,"ĠìĿ¼ìļĶìĿ¼":8769,"ìĪĺë¦¬":8770,"Ġìĸĩ":8771,"Ġë¬¼ëŁ¬ëĤĺ":8772,"ĠìĿ¼ì¹ĺ":8773,"ĠëĤłê°ľ":8774,"ĠìĤ¬ëĿ¼ì§Ħ":8775,"Ġìľłíļ¨":8776,"ĠìĦłì°©":8777,"ĠìĹĳ":8778,"ĠìĿ¼ìľ¼íĤ¨":8779,"Ġë¶Ģìĸĳ":8780,"Ġëª°ëŀĺ":8781,"ĠíĻľê¸°":8782,"êµ¬ìĦ±":8783,"Ġëĸ¨ìĸ´ì§Ī":8784,"ì²Ńë¬¸íļĮ":8785,"Ġë°©ìľĦ":8786,"ê³łëıĦ":8787,"ëĮĶ":8788,"ĠìĦłíı¬":8789,"Ġë°ĺì§Ŀ":8790,"Ġë°ĿíĺĢì¡Į":8791,"ëĤĺìĻĢ":8792,"Ġíķ©ìĦ±":8793,"ëĭµëĭĪëĭ¤":8794,"ĠëĦī":8795,"ĠíıŃìĹ¼":8796,"Ġì¶ķìłģ":8797,"ì¤ĳíķĻêµĲ":8798,"Ġê°Ħìłĳ":8799,"Ġë§ŀë¬¼":8800,"Ġì»¤íĶĮ":8801,"Ġë¶Ģì°©":8802,"ĠìłĢëŁ°":8803,"Ġì¶ľìŀĲ":8804,"Ġìĭłì°¨":8805,"ĠìķĪê²½":8806,"ĠíĶĮëŀĺ":8807,"ë¯¸êµ°":8808,"DC":8809,"Ġê°Ģê¹ĮìĽĮ":8810,"ì¹¨ì²´":8811,"em":8812,"ëį°ìĬ¤":8813,"Ġìĺ¨ìĭ¤ê°ĢìĬ¤":8814,"ëĵľë¦¼":8815,"ìĤ¬ìĿ¸":8816,"ìĺģìĹŃ":8817,"ìĹħìĨĮ":8818,"Ġë¬´ìĦŃ":8819,"Ġíģ¬ë£¨ì¦Ī":8820,"Ġì§Ģë¶Ī":8821,"Ġê·¸ë¦ĩ":8822,"ĠëįĶêµ¬ëĤĺ":8823,"ë§¤ëıĦ":8824,"ĠëģĬìĿ´":8825,"ê¸°ì¡´":8826,"ë²Īì§Ģ":8827,"Ġë¯¼ìłķ":8828,"Ġìŀħë§Ľ":8829,"íĻĶìŀ¥":8830,"Ġíķ´ìŀĦ":8831,"ĠìłķêµŃ":8832,"Ġë·°íĭ°":8833,"ìĹ¬ê¸°":8834,"ĠíĬ¹ê°ķ":8835,"ìłĦì²ł":8836,"Ġëª¨íĦ°":8837,"Ġ140":8838,"ĠëıĦì¶ľ":8839,"ĠëĦĪíĿ¬":8840,"ĠëıĦêµ¬":8841,"ëĥī":8842,"Ġ8000":8843,"ĠìĤ¼ìĦ±ë¬¼ìĤ°":8844,"Ġì§ĪìĦľ":8845,"ut":8846,"ĠìĿĮë°ĺ":8847,"Ġë°ľíĥģ":8848,"ĠìĿ´ë¶Ħ":8849,"ĠKBO":8850,"Ġìļ¸ë¦¬":8851,"Ġ1970":8852,"Ġê³łëĮĢ":8853,"ê¸į":8854,"Ġê³µëĭ¨":8855,"Ġíķľìĸĳ":8856,"ëĿ¼ì§Ģ":8857,"Ġê·¸ëĮĢ":8858,"ĠìķłíĶĮë¦¬ì¼ĢìĿ´ìħĺ":8859,"Ġë¹ĮëĶ©":8860,"Ġê´ĳë³µ":8861,"Ġì£¼ê¸°":8862,"Ġëĭ¤ê°Ģê°Ģ":8863,"Ġìĺ¬ë¦´":8864,"Ġì¶ľìĥĿ":8865,"op":8866,"ê²¨ëłĪ":8867,"ĠíĶĮëĿ¼ìĬ¤íĭ±":8868,"Ġêµ¬ë¦¬":8869,"Ġê·¹ìĭ¬":8870,"ê´Ģê³ĦìŀĲ":8871,"Ġë¶Īìĭł":8872,"ĠìºĶ":8873,"ëĤ¨ë¶ģ":8874,"ĠìĺĪìĿĺ":8875,"Ġë¬´ìļ©":8876,"ĠëĮĢì²´ë¡ľ":8877,"Ġìī´":8878,"äºº":8879,"Ġíĺ¸ê¸°ìĭ¬":8880,"Ġì¤ĳìĭľ":8881,"Ġë°ľíĮĲ":8882,"ë¹¨":8883,"ĠLTE":8884,"ìķłìļĶ":8885,"Ġê½ī":8886,"ë¸ĮëĿ¼":8887,"Ġ7000":8888,"Ġëĭ¤íģĲ":8889,"ĠìľĦëĮĢ":8890,"Ġë°ķìĬ¤":8891,"ĠìĥģìĽĲ":8892,"íķ¨ê»ĺ":8893,"Ġë²ĦëĶĶ":8894,"Ġë¶ģìª½":8895,"ĠëĮĢíķľíķŃê³µ":8896,"ĠICT":8897,"Ġìĸ´ëĸ¨ê¹Į":8898,"Ġê¶ĮìľĦ":8899,"ĠìĬ¤ìĽ¨ëį´":8900,"Ġ78":8901,"Ġë¶ĪêµĲ":8902,"ĠìĿ¼ìĤ°":8903,"ìĦľë¦¬":8904,"ìŀĩ":8905,"Ġê´Ģê±´":8906,"ĠìĪŃ":8907,"ĠìľĦìŀ¥":8908,"ĠíķĺëıĦ":8909,"Ġë¨¹ìĿ´":8910,"ëŀĺê³¤":8911,"ê·¸ëŁ¬ëĤĺ":8912,"ĠíıŃë¡ľ":8913,"94":8914,"ë½":8915,"Ġëĭ¬ëł¸":8916,"ë§ĺ":8917,"Ġì±ħìŀĦìŀĲ":8918,"Ġíķ´ìĦ¤":8919,"Ġê¹ĢìĦł":8920,"ĠìĿ¸ë¬¸":8921,"Ġë¶Ģê·¼":8922,"Ġê³Ħìĭł":8923,"Ġë°ĺíĻĺ":8924,"ëį°ìļĶ":8925,"ĠìľĦë²ķ":8926,"ĠìĭłëħĦ":8927,"ĠíķĺëĿ½ìĦ¸":8928,"ĠìĪĺìŀ¥":8929,"íĥľíĶĦ":8930,"ĠíĬ¼":8931,"ìĿ¼ìľ¼":8932,"ìľ¼ë¡ł":8933,"ë§ŀì¶¤":8934,"Ġê°ĢëĿ¼ìķī":8935,"Ġë¶Īíĸī":8936,"Ġë¨¸ë¦¿ìĨį":8937,"ìĦ¬ìľł":8938,"Ġê¸°ìĪĻ":8939,"Ġë¯¿ìĿĮ":8940,"ĠíĶ¼ìķĦëħ¸":8941,"Ġ2030":8942,"Ġê¸°ìłģ":8943,"ĠíĨµìŀ¥":8944,"Ġthe":8945,"ì°½ì¶ľ":8946,"ìĭľìłĪ":8947,"Ġê³µìĺģ":8948,"ìľłê°Ģ":8949,"Ġëª¬":8950,"Ġë§¤ë¬¼":8951,"Ġë¬´ëĦĪì§Ģ":8952,"2009":8953,"Ġë°Ķìģľ":8954,"Ġíľ©ìĭ¸":8955,"Ġê¹Ģìŀ¥":8956,"ir":8957,"ì½ĺìĦľíĬ¸":8958,"íĨłì§Ģ":8959,"Ġíľł":8960,"ìĬ¤ì¹´":8961,"Ġê±¸ì¹ľ":8962,"Ġê°ĵ":8963,"ìĸ´ì¹ĺ":8964,"Ġìĭľë¹Ħ":8965,"ìĸ´ì§Ħëĭ¤":8966,"ê±¸ìĿ´":8967,"Ġê¸°ìĦ¸":8968,"ĠíĿ¡ìĹ°":8969,"Ġê±¸ë¦´":8970,"ìłķë§Ĳ":8971,"ĠëĤ¯ìĦł":8972,"Ġìĺ¤ëĬĺëĤł":8973,"ëł¤ìĦľ":8974,"Ġê¸°ìĹħìĿ¸":8975,"ë®":8976,"Ġê°ĦìłĪ":8977,"TI":8978,"Ġì£¼ë¦Ħ":8979,"Ġíı¬ë¥´":8980,"Ġê³¨ìŀĲ":8981,"ĠíĮĮìŀ¥":8982,"Ġì²Ńì¶ĺ":8983,"Ġìħĭì§¸":8984,"ë¶Ģì§Ħ":8985,"Ġì°Ķ":8986,"Ġìĺģê°Ĳ":8987,"Ġ.":8988,"ĠìĹ¬ë¦Ħì²ł":8989,"ĠíĶ¼íķł":8990,"Ġì¡°ì¢ħ":8991,"ĠìĨĮë§¤":8992,"Ġêµ°ìĤ°":8993,"íı´ë¦¬ìĺ¤":8994,"íķı":8995,"ìĿ¼ë¶Ģ":8996,"ĠíķĻëł¥":8997,"Ġë¹Ħê·¹":8998,"ê³µìŀĲ":8999,"ĠìĨĮì£¼":9000,"Ġìļ°ìľĦ":9001,"Ġêµ¬ìłľìĹŃ":9002,"Ġì»µ":9003,"Ġë§ģ":9004,"Ġë¹ĦìĦľê´Ģ":9005,"ë²ķìķĪ":9006,"Ġë¬´ìĦľìļ´":9007,"ĠëįĶë¸Ķ":9008,"ĠìľłìĺĪ":9009,"ĠëĲľëĭ¤ë©´":9010,"Ġë§Įì¡±ëıĦ":9011,"ëłĪìĿ´ìĭľìķĦ":9012,"ëĭ¤ìĭľíĶ¼":9013,"ĠìĦ±ì¶Ķíĸī":9014,"íĻľìĦ±":9015,"Ġë¶Ģì¶Ķ":9016,"ĠìĹĲìĿ´ìĬ¤":9017,"ĠíĹĲ":9018,"Ġíĺķìĥģ":9019,"ĠëıĦìłĢíŀĪ":9020,"ë²¤ìħĺ":9021,"ĠêµĲì°¨":9022,"Ġëĭ¬ëĿ¼ì§Ħ":9023,"ĠíĹĮìĭł":9024,"ĠìĿ¼ìľ¼ì¼°":9025,"Ġë°°íĽĦ":9026,"ì§ĳëĭ¨":9027,"ë©ĶìĿ´":9028,"ìĤ¬ìĥģ":9029,"Ġëĭ¨ë°±ì§Ī":9030,"Ġìĸ´ëĬĲìĥĪ":9031,"ĠíĬ¸ë¡ľ":9032,"ì§Ģê¸°":9033,"ì£¼ìĺģ":9034,"Ġëª»ì§ĢìķĬ":9035,"ìļĶíĥĢ":9036,"ĠëĤ¨ìķĦ":9037,"ëª¨ë°ĶìĿ¼":9038,"Ġëį¤":9039,"Ġ79":9040,"ĠìŀĦì°¨":9041,"Ġë¹ĦëĮĢìľĦ":9042,"Ġì¹¨ëª°":9043,"Ġìŀĩëĭ¬":9044,"Ġì°¨ëĿ¼ë¦¬":9045,"Ġë¬ĺìĤ¬":9046,"Ġ73":9047,"ìĥĪë¡ľìļ´":9048,"ĠëĮĢìĦ¸":9049,"ìĺĪê¸Ī":9050,"ĠëĮĢíķĻìĽĲ":9051,"Ġíĸ¥ê¸°":9052,"Ġìłľì¹ĺ":9053,"Ġíİ¼ì¹ł":9054,"Ġìłĳíķĺ":9055,"Ġê²°ìĦ±":9056,"ìĭĿê°Ħ":9057,"ë¸Ķë¦¿":9058,"Ġd":9059,"ì»¤íĶ¼":9060,"ìĭľê¸°":9061,"ìĸ´ìĬ¤":9062,"Ġì§ĢìĥģíĮĮ":9063,"ĠGM":9064,"ĠëĿ¼ëĬĶ":9065,"Ġê³łë¬´":9066,"ĠìĿ¼ë¶ĢëŁ¬":9067,"ĠìŀĲì§Ħ":9068,"ĠíĿ¬ìĥĿìŀĲ":9069,"ëįĶêµ°ìļĶ":9070,"ëłĪìĿ´íģ¬":9071,"Ġë²ĮìĹ¬":9072,"ĠëĤŃë¹Ħ":9073,"åĲ":9074,"ëĮĢê¸°":9075,"ĠìłĦë°©":9076,"ĠìĨĮëıħ":9077,"ag":9078,"ĠìĿ´ëĵ¬":9079,"ĠëĮĢì¹ĺ":9080,"ìĿ´ëıĻ":9081,"ë¬¼ë¥ĺ":9082,"ë³´ìĥģ":9083,"ë¡ľì§Ģ":9084,"Ġê°Ģë¥´ì³Ĳ":9085,"ë¡ľë¦¬":9086,"ĠìĿ´ë©ĶìĿ¼":9087,"ĠìłĦëĿ½":9088,"ìĤ¬ë¦¬":9089,"ìĹ¬ëĭ¹":9090,"Ġë¯¸ìĪłê´Ģ":9091,"Ġ71":9092,"Ġê¿Ģ":9093,"ĠìĻ¸ì¶ľ":9094,"ĠìĿ¼ìĿ¼":9095,"ĠëıĮìķĦê°Ķ":9096,"ĠíĶĦëŀľì°¨ìĿ´ì¦Ī":9097,".\"":9098,"Ġë¯¸ë£¨":9099,"ëĮĲ":9100,"Ġì¢ĮìĦĿ":9101,"ĠëĤĻì°°":9102,"Ġë§ĪìĿ´ëĦĪìĬ¤":9103,"ĠíĬ¸ë¦¬":9104,"ĠíĨµìĺģ":9105,"ìĽ°":9106,"Ġë°ķìłķíĿ¬":9107,"ë¯¸ìķĪ":9108,"íķĺìľĦ":9109,"Ġìłģìĭľ":9110,"ìĦłì§Ħ":9111,"Ġ76":9112,"Ġìĸ´ë¦´":9113,"ëĿ¼ìĿ´íĶĦ":9114,"Ġì§ĢëĬ¥":9115,"êµĲì²´":9116,"ĠìĪĻìĨĮ":9117,"ĠëĮĦìĬ¤":9118,"Ġë¶ĪëŁ¬ìĿ¼ìľ¼":9119,"ĠìĻ¸ì³¤":9120,"Ġë°©ìĺģ":9121,"Ġìķ½ìŀĲ":9122,"êµ¬ëĭĪ":9123,"ìłĦëĭ¹":9124,"ĠìĿ´ëł¥":9125,"æĿ":9126,"ë¯¸ëĭĪ":9127,"Ġê²½ê´Ģ":9128,"ĠëĤĺë¹ł":9129,"ĠìķĦíĭ°ìĬ¤íĬ¸":9130,"ĠìłľêµŃ":9131,"íĪ¬ìŁģ":9132,"Ġìļ°ìłķ":9133,"ĠìĿ´ëĵ¬íķ´":9134,"mm":9135,"ĠìĿ´ë§Ī":9136,"ìĳ¥":9137,"ce":9138,"ĠìĿ´ìłģ":9139,"ĠìĬ¤íĶ¼ëĵľ":9140,"ĠìĨĲìŀ¡":9141,"íĮĮìĹħ":9142,"Ġêµ¬ëĳĲ":9143,"ĠìĥĢ":9144,"ĠìĺģìĦ¸":9145,"ê³µíĻĶ":9146,"êµ¬ëĭ¨":9147,"íĻįë³´":9148,"Ġêµ¬ì²Ńìŀ¥":9149,"Ġê·¼ìłĪ":9150,"ĠìĿ¸ìĦ±":9151,"ĠëıĦë°ķ":9152,"Ġê°Ŀìĭ¤":9153,"Ġëĭ¬ë¦°":9154,"Ġë°©íĨµ":9155,"ĠìĨĮìļ©":9156,"Ġìĸ¸ë¡łìĤ¬":9157,"ë¼Ī":9158,"ĠíŀĪíĬ¸":9159,"Ġíĩ´ê·¼":9160,"ê°ķìĤ¬":9161,"Ġê°ĢìļĶ":9162,"Ġë³ĳìĹŃ":9163,"Ġê´Ģìĭ¬ìĤ¬":9164,"ëıĻìŀĲ":9165,"Ġë´ĲìļĶ":9166,"Ġì¡°ì§Ĳ":9167,"ê°Ĳì¹ĺ":9168,"Ġë¶Ģìŀ¬":9169,"ĠìľłìĿ¸":9170,"ìĻĦíĻĶ":9171,"Ġê²½ìľł":9172,"ĠìĪĺëł¹":9173,"Ġë°ľëł¹":9174,"ëĭ¤ë§Į":9175,"ë¶ĢìĦľ":9176,"ĠëªħìĨĮ":9177,"ë¬´ìĬ¨":9178,"Ġì·¨íĸ¥":9179,"82":9180,"ìĪĺíķĻ":9181,"íļĮìĿĺìĨĮ":9182,"Ġìļ°ìĦ¸":9183,"ĠíħĮíģ¬":9184,"86":9185,"ĠìĹŃìĦ¤":9186,"Ġìľłì§Ħ":9187,"Ġì§Ģë¥´":9188,"Ġë¸Ķë¡ľê·¸":9189,"Ġì¶Ķì¶ľ":9190,"ëĭ·ì»´":9191,"éĿ":9192,"Ġë°ķì¢ħ":9193,"ĠìŀħìĨĮ":9194,"Ġë¹Ħë¡ľ":9195,"ĠëĬĲê»´ì¡Į":9196,"Ġë¶Ħíķł":9197,"ĠëĤ´ë©´":9198,"Ġëĭ¤ê°ģ":9199,"ëĦī":9200,"Ġì§ĢìĽĲìŀĲ":9201,"ĠìĿ´ê²¬":9202,"ĠëĶ°ìľĦ":9203,"ìĤ°ì§Ģ":9204,"êµ¬ê°Ħ":9205,"Ġë§¤ëĭĪìłĢ":9206,"ì°Įê°Ĳì¹ĺ":9207,"ĠìĹ°íıīê·ł":9208,"ĠìłĪë§Ŀ":9209,"Ġì¤ĳë³µ":9210,"Ġë§¥ëĿ½":9211,"ĠíĸīìĤ¬ìŀ¥":9212,"Ġë°ĶìĿ´ëĵł":9213,"ĠëĮĢìŀħ":9214,"ìĿ¼ëŀľëĵľ":9215,"ìĦ¸ìĬ¤":9216,"Ġëĵľë¦¼":9217,"Ġë°Ķëĳĳ":9218,"ĠìĤ¬êµĲìľ¡":9219,"Ġê¹ĢìĬ¹":9220,"Ġë¶ĦëŁī":9221,"ĠìĬ¤íİĺìħľ":9222,"Ġìį©":9223,"ê³Ħì¢Į":9224,"ĠìĪľìĭĿê°Ħ":9225,"Ġìķ½ìĦ¸":9226,"oo":9227,"ĠíļŁìĪĺ":9228,"ìłĢìļ°":9229,"Ġëĭ¨íĺ¸":9230,"ĠëłĪìĬ¤íĨł":9231,"ĠëłĪìĬ¤íĨłëŀĳ":9232,"ĠíĻķë¦½":9233,"Ġëĵ¤ìĸ´ê°Ħëĭ¤":9234,"Īëĭ¤":9235,"ĠìĻ¸ìĭĿ":9236,"Ġë°ľìłĦìĨĮ":9237,"ê·¸ë¦¼":9238,"Ġê¹Įëĭ¤":9239,"ĠíĽĮì©į":9240,"ĠëıĦì²Ń":9241,"ê±¸ë¦¬":9242,"Ġê°ĲìŀĲ":9243,"Ġs":9244,"ĠìłĦìŀĦ":9245,"ìĺ¤ë¦¬":9246,"ĠëĮĢìĽĲ":9247,"Ġë°ľë³ĳ":9248,"96":9249,"Ġê³µìĹ°ìŀ¥":9250,"ĠëĨĢëĿ¼ìļ´":9251,"ĠìĹ°ë£¨":9252,"å¤§":9253,"Ġìĸ´ëĳĲìļ´":9254,"ë³Ģê²½":9255,"ëĵ¤ìĹ¬":9256,"Ġíķ´ë°©":9257,"Ġì¤ĳëıħ":9258,"Ġê°ĪìķĦ":9259,"Ġìķħìŀ¬":9260,"ë°©íķĻ":9261,"ĠìĤ¬ëĥ¥":9262,"Ġìĭ¬ìĥģ":9263,"Ġê³łê°Ģ":9264,"ìĨĲìĭ¤":9265,"Ġìłľìĸ´":9266,"âĢĻâĢ¦":9267,"Ġë°Ķë³´":9268,"íĥĢë¥´":9269,"ĠìĿ¼ìĸ´ëĤł":9270,"ĠëĮĢêµ¬ê²½ë¶ģ":9271,"Ġìŀħëł¥":9272,"ë²łìĿ´íĦ°":9273,"Ġìĭ¤ì²´":9274,"Ġì¤ĳìĸ¼":9275,"ĠìĽĲíĻĶ":9276,"âĸ":9277,"Ġê¸°ëŁī":9278,"ëĤ¨ë¶Ģ":9279,"Ġë³´ê±´ìĨĮ":9280,"ĠìłķíĨµ":9281,"ìł¸ìĦľ":9282,"Ġì§Ģë¶ķ":9283,"Ġìľłì£Ħ":9284,"Ġë¬¸ëĵĿ":9285,"êµ¬ë§¤":9286,"ĠëĨĵìĿ¸":9287,"ĠìĿ¼ìĿ¼ìĿ´":9288,"ëĳĲìĤ°":9289,"Ġë°Ķì§Ģ":9290,"Ġëŀ©":9291,"ĠìĺģíĻĶìłľ":9292,"Ġìŀ¬íĤ·":9293,"Ġì²Ńìłķ":9294,"ĠìŀĲë§¤":9295,"Ġë°Ģë¦¬":9296,"ìºĲíĶ¼íĥĪ":9297,"ë¹Ħëĵľ":9298,"ĠíĮ¨ìĬ¤":9299,"Ġê¶Įìľł":9300,"ìĸ´ëĿ¼":9301,"ĠSM":9302,"ìłĦíĨµ":9303,"us":9304,"êµ¬ì²Ńìŀ¥":9305,"Ġìŀ¥ê¸°ê°Ħ":9306,"ĠìĤ¬ìĿ¸":9307,"Ġíĸ¥íĸĪ":9308,"Ġìį¨ìķ¼":9309,"ĠtvN":9310,"Ġê³µê²©ìĪĺ":9311,"Ġë°ľê±¸ìĿĮ":9312,"ĠëĴĢ":9313,"Ġë¶Īê½ĥ":9314,"Ġìŀħê±´":9315,"ST":9316,"ĠëĲĺíĴĢìĿ´":9317,"ë¡ľìĽĮ":9318,"Ġëħ¹ìĿĮ":9319,"ë¦¬ì¦ĺ":9320,"ĠìĸĳëıĦ":9321,"ĠëĿ¼ë©´":9322,"ĠìľłìĦ¸":9323,"Ġê³µêµ°":9324,"ĠìķĦë¥´ë°ĶìĿ´íĬ¸":9325,"íĬ¸ëŁ¼íĶĦ":9326,"Ġì¶ķìĤ°":9327,"ìĭľëĤ´":9328,"ì§ĪìĦľ":9329,"Ġì£¼ìłĦ":9330,"ì¥":9331,"Ġê¸°ì°¨":9332,"ĠìľłëĭĪíı¼":9333,"ĠìķĦì¹´ëį°ë¯¸":9334,"Ġë°ķìĽĲìĪľ":9335,"Ġë¶Īíİľ":9336,"ĠìºĦ":9337,"ä¹":9338,"EA":9339,"Ġë²Ħëł¤":9340,"íıĲê¸°":9341,"92":9342,"Ġë¶Īì°¸":9343,"Ġìĺ¬ëĿ¼ìĺ¤":9344,"ê°Ģë¦¬":9345,"GM":9346,"ur":9347,"ĠëıĻê²°":9348,"ë°©ë¬¸":9349,"íı¬ìĬ¤íĬ¸":9350,"Ġê¾¸ëł¤":9351,"SS":9352,"å·":9353,"Ġë°ķìĥģ":9354,"íĭĪ":9355,"FTA":9356,"ĠëĨįëıĦ":9357,"ĠëłĪìĿ´ìĬ¤":9358,"ë¶Ģìĥģ":9359,"Ġëĵ±êµĲ":9360,"ĠíĺĪê´Ģ":9361,"Ġë¨¸ë¬¼ëłĢ":9362,"ĠëĦĺê²¼":9363,"Ġì¹ĺìķĦ":9364,"Ġìľłíĺ¹":9365,"ë¥¨":9366,"Ġê°ģë³Ħ":9367,"ëĵ¤ìĸ´":9368,"ĠìľłìĦ±":9369,"CEO":9370,"ĠìĤ°ë¶Ī":9371,"ĠëĲĺìĤ´":9372,"ĠìĨĲìī½":9373,"ëĤĺíķŃê³µ":9374,"íĸ¥íĽĦ":9375,"ĠìĦ±íıŃëł¥":9376,"Ġìĸĳíķ´":9377,"Ġê¸īìĨį":9378,"Ġìľ¡ìĥģ":9379,"Ġëį´":9380,"ĠíĬ¹ìĿ´":9381,"ìĺģìĸ´":9382,"Ġì¤Ħì¤Ħ":9383,"ëĶ°ëĿ¼":9384,"ĠìĦ±ëĤ¨ìĭľ":9385,"Ġë¥´ëħ¸":9386,"ĠëĶ°ëĿ¼ê°Ģ":9387,"ĠíĶĮëŁ¬ìĬ¤":9388,"Ġê¸°ëħĲìĭĿ":9389,"íĿ¥êµŃ":9390,"ĠìĦłëªħ":9391,"ĠìĭľìĨį":9392,"ĠëĤłì§ľ":9393,"ĠíķĻëħĦ":9394,"ĠíĪ":9395,"ìĻ¸ê³¼":9396,"Ġìĭ¤ê°Ĳ":9397,"ĠëĬĺìĸ´":9398,"ĠìĪĺë¡Ŀ":9399,"Ġë¡¯ëį°ë§ĪíĬ¸":9400,"ĠìĤ¬ê²©":9401,"Ġì¹ľìłĪ":9402,"Ġì£¼ìĹŃ":9403,"íĤ¤ìĬ¤íĥĦ":9404,"ĠëıĻëĤ¨ìķĦ":9405,"ĠìĿ¸íĺķ":9406,"ìĤ¬ì§Ģ":9407,"åĮĹ":9408,"ìĿ¸ëĵľ":9409,"Ġë¬´ê±°ìļ´":9410,"Ġì¤ĳìŀ¬":9411,"ëĦ¬":9412,"ĠìĿĺìĻ¸":9413,"Ġëª½ê³¨":9414,"Ġì§Ģì§ĢìŀĲ":9415,"ĠíĹĪë¸Į":9416,"Ġëıĭë³´ìĿ´":9417,"ìĿ¸íĶĦëĿ¼":9418,"ĠìĿĺìķ½íĴĪ":9419,"Ġê±¸ë§ŀ":9420,"ëŀ´":9421,"Ġì£¼ë¬´":9422,"Ġìĸ¼ë¥¸":9423,"íı¬ìĬ¤":9424,"Ġì²´ë¥ĺ":9425,"ĠìļĶê¸Īìłľ":9426,"Ġë¶Ģíķ©":9427,"Ġì¦ĿìĦ¤":9428,"ìĦ±ê³¼":9429,"Ġê¸°ìĥģì²Ń":9430,"ĠíĨµê³Ħì²Ń":9431,"ĠëĤ´ìĭł":9432,"ìĭłìĪĺ":9433,"Ġëĵ¤ëł¸":9434,"ĠìĬ¤ìĬ¹":9435,"ê·ľìłķ":9436,"Ġì¹ĺëªħ":9437,"Ġëĵłëĵł":9438,"Ġëĭ¬ëĿ¼ì¡Į":9439,"ĠëĤ´ëł¤ìĺ¤":9440,"ĠìĹ¬ìĭł":9441,"Ġê±°ìłľ":9442,"ëıĻê¸°":9443,"íķ©ë³ĳ":9444,"Ġìĺ®ê²¼":9445,"ĠìĭĿëŁī":9446,"Ġëħ¸ë¦ĩ":9447,"Ġì°¸ìľ¼ë¡ľ":9448,"ĠìĿ´ë¤Ħì§Ģê³ł":9449,"ëłĺ":9450,"xx":9451,"ìĽĲìŀĲ":9452,"Ġë²ĦìłĦ":9453,"íĬ¸ëĿ¼":9454,"Ġëĺĳê°ĻìĿ´":9455,"ìĹ¬ë¶Ģ":9456,"NC":9457,"ê°ķëĤ¨":9458,"ìħĢëŁ¬":9459,"ĠíķľëĪĪ":9460,"Ġëıħëł¤":9461,"ĠìĹİ":9462,"Ġì°¾ìķĦëĤ´":9463,"ĠìĥģìŀĲ":9464,"ìĤ¬ìĬ¤":9465,"Ġç¾İ":9466,"ĠíģĲ":9467,"ë¦¬ìķĪ":9468,"ì§±":9469,"ì§Ģìĺ¤":9470,"ĠìķĦíĮĮ":9471,"ĠíķĻë¬¸":9472,"ì²ŃìĻĢëĮĢ":9473,"ĠìłĦìĤ¬":9474,"ĠìĬ¹ìłĲ":9475,"ìľ¼ìĭł":9476,"Ġê·¸íķ´":9477,"ĠíĥĢìĿ¸":9478,"Ġê´Ģìŀ¥":9479,"ì¢ħëª©":9480,"ìĸ´ëĸ¤":9481,"íĽĦêµ°":9482,"ĠìĿ´ë¤Ħì§ĢëĬĶ":9483,"Ġê°ľìĨĮ":9484,"ĠíĶ¼ê³łìĿ¸":9485,"Ġì¤ĳìĨĮíĺķ":9486,"ĠìķłëĭĪë©ĶìĿ´ìħĺ":9487,"ĠìłĦëĿ¼":9488,"ĠìĺĪìĪłê°Ģ":9489,"ìłĦìļ©":9490,"ĠìĨĮê·ľëª¨":9491,"Ġíķĺíĸ¥":9492,"Ġ119":9493,"ë¨¼íĬ¸":9494,"ë§Įì¡±":9495,"ĠíķĻìŀĲ":9496,"Ġìľłíı¬":9497,"Ġê¹ĢìłķìĿ¼":9498,"ĠìĥģìĦ¸":9499,"Ġê¹ĢìĹ°ìķĦ":9500,"ĠìĿ¸ëªħ":9501,"Ġìºłíį¼ìĬ¤":9502,"Ġìĸ¹":9503,"Ġë³Ģíĺ¸ìĿ¸":9504,"ĠíĴĢë¦¬":9505,"ìĪĺê¸ī":9506,"ĠìĪĺìļĶìŀĲ":9507,"SC":9508,"Ġìµľìļ°ìĪĺ":9509,"ëĤĺìĻĶ":9510,"Ġë¦´":9511,"ĠìĬ¤íĥĢìĿ¼ë§ģ":9512,"Ġê±°ìĭ¤":9513,"Ġíķµìĭ¤íĹĺ":9514,"Ġë°©ìĨ¡ìĤ¬":9515,"Ġê³¼ìŀī":9516,"Ġë°ķì°¬":9517,"ìľ½":9518,"Ġì²Ļì¶Ķ":9519,"ìĿ´ì¹ĺ":9520,"ĠìĸĳìŀĲ":9521,"Ġìĺ¤ë¥ĺ":9522,"ĠíĻĶëĳĲ":9523,"Ġëµ":9524,"Ġíķľê²°":9525,"HD":9526,"Ġê³łìĸĳìĭľ":9527,"Ġì¢Ģì²ĺëŁ¼":9528,"Ġê·¸ëŀľëĵľ":9529,"ĠëĮĢì§Ģ":9530,"Ġê±°ìļ¸":9531,"ĠíĬ¸ëŁŃ":9532,"ĠìŀĶëľ©":9533,"Ġëĭ¨ìłĲ":9534,"ĠíİĺìĿ´ì§Ģ":9535,"Ġê¼¼ê¼¼íŀĪ":9536,"ì¶ķìĤ°":9537,"83":9538,"ë²ĦíĬ¸":9539,"ĠíĬ¸ëłĪìĿ´":9540,"ĠìŀĲíĥĿ":9541,"ìłĢë¦¬":9542,"ìķĪêµ°":9543,"Ġë¯¸ëĵľ":9544,"Ġëħ¸ëŀĢ":9545,"ĠìĨĶì§ģíŀĪ":9546,"Ġìĸ´ì§Ģ":9547,"ĠìĦłìłĲ":9548,"ê³łìĭľ":9549,"Ġì»¨ìĨĮìĭľìĹĦ":9550,"ìľ¼ìħ¨":9551,"Ġë¹Ħë¡ľìĨĮ":9552,"ìľ¼ëł¤ë©´":9553,"ëļľ":9554,"Ġíı´ë¦¬":9555,"Ġì¦Ŀìķ¡":9556,"Ġì¤ĳë¦½":9557,"Ġêµ¬ì²Ń":9558,"ĠìĪĺê±°":9559,"Ġ1995":9560,"ä»":9561,"ĠíıŃíĥĦ":9562,"íı¬íķŃ":9563,"ĠëĹ":9564,"Ġíĳľì°½":9565,"Ġê²¬ëĶĶ":9566,"ìľ¡ìĦ±":9567,"Ġê³łì¶Ķ":9568,"ĠíĺĦìĪĺ":9569,"Ġë¶Īìĸ´ëĦ£":9570,"ĠíĥĢìĦł":9571,"ĠëĤĺíĥĢëĤł":9572,"íķĺìĿ´ëĭīìĬ¤":9573,"ëĭ¤ìŀĦ":9574,"700":9575,"ĠíıŃëĦĵ":9576,"Ġì°¨ë¶Ħ":9577,"ëįŁ":9578,"Ġë°©íķĻ":9579,"ĠíĶ¼ìļ°":9580,"ê·¸ëŁ°ëį°":9581,"ĠëĤ´ìłķìŀĲ":9582,"ìłķíĺ¸":9583,"ëĵĪ":9584,"ĠìķĦëĭĮëį°":9585,"Ġìļķêµ¬":9586,"ĠêµĲìłķ":9587,"Ġìļ©ëŁī":9588,"Ġë³´ê±´ë³µì§Ģë¶Ģ":9589,"Ġëĭ¤ëħĶ":9590,"ëĳĲë¦¬":9591,"ĠFC":9592,"Ġë¦¬ì¡°íĬ¸":9593,"Ġìĭ¤ìłĦ":9594,"ê¸Ģëŀľëĵľ":9595,"ĠìĹ°ì´Ī":9596,"Ġê°ĢíĮĮ":9597,"íĳľì¤Ģ":9598,"ì°¨ê´Ģ":9599,"ìĭĿë¬¼":9600,"Ġëĵľë¬¼":9601,"Ġê³µíĮĲ":9602,"ìĥģê°Ģ":9603,"ëıĦìłĦ":9604,"æĹ¥":9605,"íİł":9606,"Ġê°±":9607,"Ġìĺģëĵ±":9608,"ìĬĽ":9609,"ìĭľíĬ¸":9610,"im":9611,"Ġìķ½íĻĶ":9612,"ĠíĮĮë¬¸":9613,"ĠAP":9614,"Ġê°Ģíķ´ìŀĲ":9615,"ëĭ¹íķľ":9616,"ìĨĮëħĦëĭ¨":9617,"ĠëĵĿíĳľ":9618,"Ġìĸĳê·¹":9619,"ë©ĺíĬ¸":9620,"Ġíĳ¹":9621,"ëª©íĳľ":9622,"Ġë¶ĵ":9623,"Ġ160":9624,"Ġë°ĺê¸°":9625,"Ġë°©íĥĦ":9626,"ĠìłĪëĮĢë¡ľ":9627,"ê³µìĭĿ":9628,"ĠìĤĲ":9629,"Ġìį°":9630,"Ġê³¨ëĵł":9631,"Ġê²¨ìļ¸ì²ł":9632,"ap":9633,"ĠìĿ¼ê°Ģ":9634,"ĠëĨĢëŀĢ":9635,"Ġìĸ´ì°¨íĶ¼":9636,"Ġê±´êµŃ":9637,"ìķ¼ëĭ¹":9638,"Ġìĭ£":9639,"ìłĦë§Ŀ":9640,"Ġê³µë¡ł":9641,"ìĹ¬ëŁ¬":9642,"ìĿĳëĭµ":9643,"ĠíķĻê¸°":9644,"Ġë³µìļ©":9645,"Ġëĵ¤ìĸ´ìĺ¬":9646,"ĠìĿ¼ê³±":9647,"ĠìŀĲë¶Ģìĭ¬":9648,"ìĭľíĸī":9649,"ìľłì¹ĺìĽĲ":9650,"ĠìŀŃ":9651,"ĠìķĪìª½":9652,"ëĮĢíĻĶ":9653,"ĠíļĮìłĦ":9654,"ĠíĹ¤ëĵľ":9655,"ter":9656,"Ġë¶Ģíıī":9657,"Ġì¹ĺë¥¸":9658,"ĠìĦľìĭĿ":9659,"ĠìĿ¸ì²´":9660,"ĠâĶ":9661,"ĠêµŃê°Ĳ":9662,"Ġìłķë§Ĳë¡ľ":9663,"ãħ":9664,"Ġíķ´ê²½":9665,"ĠìĿ´ì§Ģ":9666,"ê¹Ģìłķ":9667,"Ġì§Ģì¼°":9668,"ì§Ģê¸ī":9669,"ìŀĲë¬¸":9670,"íĨµìŀ¥":9671,"ë©´ìĦ¸ìłĲ":9672,"ìĦ¸ìĽĶ":9673,"ĠëĮĢê°ľ":9674,"ĠìĦľë²Ħ":9675,"ìĽĲìĿ¸":9676,"Ġë©Īì¶°":9677,"ĠíĮĮëıĦ":9678,"Ġì£¼ë¨¸ëĭĪ":9679,"å¯":9680,"ĠìĹ¬ê¸°ìłĢê¸°":9681,"Ġë³´íĥ":9682,"ĠìĨľ":9683,"ĠìĿ´ìĪľ":9684,"ë§¤ì¹ĺ":9685,"ĠëģĶ":9686,"ĠëķĮë¦¬":9687,"Ġëħ¸ëł¤":9688,"ì¶ľë§Ī":9689,"ì»¤ìĬ¤":9690,"Ġì¡°ìĦłìĿ¼ë³´":9691,"Ġì°½ê³ł":9692,"ë°©ìļ¸":9693,"íĥľíıīìĸĳ":9694,"ê²©ë¦¬":9695,"ĠìĦ¼ìĦľ":9696,"Ġì¢ĮìłĪ":9697,"Ġê¹Ģíĺķ":9698,"Ġ190":9699,"ìĺ¨ëĿ¼ìĿ¸":9700,"ĠëĲłê¹Į":9701,"Ġë§ĲëłĪìĿ´ìĭľìķĦ":9702,"ìĬ¤ëŁ¬ìĽł":9703,"ì¿¼íĦ°":9704,"ity":9705,"íĨ¨ë¦Ń":9706,"Ġíı¼":9707,"Ġíķ´íĤ¹":9708,"ĠìĿĺíķĺ":9709,"Ġê³Ħê³¡":9710,"ĠìŀĺëĿ¼":9711,"Ġê¸ĢìŀĲ":9712,"Ġíı¬ë¶Ģ":9713,"Ġìŀ¡íŀĪ":9714,"ãı":9715,"Ġì²Ńíĥģ":9716,"81":9717,"êµĲìķĪ":9718,"ĠëĤ¨íķľ":9719,"ĠìŃī":9720,"Ġì²Ńëł´":9721,"ëĮĢìĥģìŀĲ":9722,"Ġë§¤ë¦½":9723,"Ġíı¬íĬ¸íı´ë¦¬ìĺ¤":9724,"ĠìĿ¼ê´Ħ":9725,"Ġìĭ¬íķ´":9726,"ë¹ĦëĶĶìĺ¤":9727,"ìĭ¹":9728,"ì¡°ìŀĳ":9729,"ĠìĿ¼ì°Įê°Ĳì¹ĺ":9730,"Ġê²½íĴĪ":9731,"Ġìļ°ìĹ°íŀĪ":9732,"ĠìĭľìĿ¼":9733,"ĠìĿ´ìĬ¬ëŀĮ":9734,"Ġì»¨ëĶĶìħĺ":9735,"Ġíı¬ëıĦ":9736,"ĠíĥĢìŀħ":9737,"ĠìĿ´ìĸ´ìł¸":9738,"ìĭľìľĦ":9739,"ĠíĮĮê³ł":9740,"ĠíĢ´":9741,"ìĦ±ê¸°":9742,"ë²łìĿ´ìħĺ":9743,"Ġê°ĢìĿ´ëĵľëĿ¼ìĿ¸":9744,"ĠëĤĺëĪ´":9745,"Ġ82":9746,"ĠìĿĺìłķë¶Ģ":9747,"ĠìĦ±ìĪĻ":9748,"AR":9749,"ĠìŀĲë¦½":9750,"ë§ĪëĬĶ":9751,"Ġì¶ľíķĺ":9752,"Ġë¶ĢëģĦëŁ¬":9753,"íļ¡":9754,"Ġë¬´íļ¨":9755,"Ġìľ¨":9756,"ëĦĪë¬´":9757,"Ġìŀ¬íķ´":9758,"ë´īìĤ¬ìŀĲ":9759,"Ġìĺģêµ¬":9760,"ë¯¸ìķł":9761,"ä½":9762,"ìĪĺì²ĺ":9763,"ĠëĮĢíĸī":9764,"ĠìĿ´ìĸ´ì§Ħëĭ¤":9765,"ëłĪìĿ¼":9766,"ìĿ´ëħ¸":9767,"Ġê°Ģìł¸ê°Ģ":9768,"Ġë³ĳëł¥":9769,"Ġë¯¸ë¶Ħìĸĳ":9770,"Ġê´Ģë£Į":9771,"ĠLA":9772,"ëĮģ":9773,"Ġìļ©ì§Ģ":9774,"Ġk":9775,"Ġê¹Ģë¬´ìĦ±":9776,"ĠìŀĩëĶ°ë¥´":9777,"ìķĦì£¼":9778,"ĠíļĮìĽĲêµŃ":9779,"íľ´ê°Ģ":9780,"Ġê²ģëĭĪê¹Į":9781,"OP":9782,"ìĬ¤íĨłìĸ´":9783,"ĠìķĦìĤ°":9784,"ì¡°ëªħ":9785,"íĶĦëłĪ":9786,"ìĹ¬ê³ł":9787,"Ġë¬´ëĭ¨":9788,"Ġíķ´ìļ´ëĮĢ":9789,"Ġëĭ¬ì½¤":9790,"900":9791,"Ġë¬¼ê³łê¸°":9792,"ì§Ħíķĳ":9793,"ĠìłĢê°Ĳ":9794,"ĠíĻĪíĶĮëŁ¬ìĬ¤":9795,"Ġë³´ìĦĿ":9796,"ì¤ĳê³Ħ":9797,"Ġë²ķìłľ":9798,"Ġë°´":9799,"Ġë§ĿìĦ¤":9800,"ĠìķĦê°ĢìĶ¨":9801,"ĠëĨĶ":9802,"ĠíĬ¹ë¡Ģ":9803,"Ġ*":9804,"ê·ľëªħ":9805,"Ġì¤ĳëħĦ":9806,"ìĬĲ":9807,"ĠìĿĺíķĻ":9808,"Ġë¶Ĳ":9809,"ìĿĺê²¬":9810,"ĠMB":9811,"ĠëĨįëĭ´":9812,"Ġë¹Ħëªħ":9813,"ĠìĭĿêµ¬":9814,"ĠìĩĦìĭł":9815,"ĠìĦľì´Īêµ¬":9816,"ĠìĻĢì¤ĳ":9817,"Ġëĭ¨ë§Ĳê¸°":9818,"Ġê¹Ģì¤Ģ":9819,"ĠìłĦìĪł":9820,"Ġëĵľë¦´":9821,"ĠíĮ½íĮ½":9822,"Ġë°ĶíĢ´":9823,"ĠìĿ´ëĿ¼íģ¬":9824,"ì´¬ìĺģ":9825,"ê·¼ë¡ľìŀĲ":9826,"ĠìµľìłĢìŀĦê¸Ī":9827,"Ġìŀ¥ë³ĳ":9828,"ID":9829,"Ġë©´ëª¨":9830,"ĠíĥĶ":9831,"Ġì§ģê¶Į":9832,"ìĥģìŀĲ":9833,"íģ¬ìĬ¤":9834,"ëłīìħĺ":9835,"êµ¬ì²Ń":9836,"æĸĩ":9837,"íģ¬ëĿ¼":9838,"Ġë¹ĦëĭĲ":9839,"ĠëĤ®ì¶°":9840,"ĠìĭłëıĦ":9841,"ê·¸ëĿ¼":9842,"ĠìĦ¸ìĿ´":9843,"Ġíĥľë¸Ķë¦¿":9844,"ĠíĶĮëłĪìĿ´ìĺ¤íĶĦ":9845,"ĠìĻ¸ê³½":9846,"Ġíķ´ê²°ì±ħ":9847,"Ġì·¨ìŀ¬ì§Ħ":9848,"Ġë°ľìĨ¡":9849,"\",":9850,"Ġê´ĳìĤ°":9851,"ĠëĮĢì£¼ì£¼":9852,"ĠìĺĪìģĺ":9853,"ëŃĦ":9854,"ĠêµŃìķħ":9855,"Ġì»¨íĬ¸ë¡¤":9856,"ĠëģĮìĸ´ìĺ¬ë¦¬":9857,"Ġìŀ¥ë¯¸":9858,"Ġë¶Ģê°Ģ":9859,"íĳ¼":9860,"ul":9861,"Ġìĥīëĭ¤ë¥¸":9862,"Ġíģ¬ë¦¼":9863,"ëıĭ":9864,"Ġìĸ´ëĶĺ":9865,"ë¶ģë¶Ģ":9866,"íģ¬ë¦¼":9867,"ìĥģìĦł":9868,"ĠìĪľìĿ´ìĿµ":9869,"Ġê²½íĺ¸":9870,"ĠìķĦíķĺ":9871,"ìĬµê´Ģ":9872,"Ġëıħìŀ¬":9873,"ìłĲìĪĺ":9874,"Ġê°ģê´ĳ":9875,"íħĮëŀĳ":9876,"ĠìĭľíĿ¥":9877,"ìĺ¤ë¡±":9878,"Ġì´ĿìĪĺ":9879,"ë²łë¥´":9880,"ì§ĪëłĢ":9881,"Ġê¸ĪìĹ°":9882,"Ġw":9883,"ìĿĢì§Ģ":9884,"ì£¼ê°Ģ":9885,"ìŀĳë¬¼":9886,"ĠìĥģìĨį":9887,"Ġë°Ģìłĳ":9888,"ĠìĽĮíģ¬ìĪį":9889,"Ġì°¾ìķĦìĻĶ":9890,"ìĹī":9891,"Ġìŀ¬ì°¨":9892,"ĠìĪĺìĨ¡":9893,"Ġìĭłìķ½":9894,"Ġì¤Ħê³§":9895,"ĠìĪ¨ê¸°":9896,"ĠCN":9897,"ëıħë¦½":9898,"ì¹ľíĻĶ":9899,"ĠíĶĦë¦¬ë¯¸ìĸ´":9900,"Ġíĩ´ì§Ħ":9901,"ìĦłë¬¼":9902,"ë³ĢìĿ¸":9903,"Ġì£¼ìľłìĨĮ":9904,"ë©ľ":9905,"ìĬ¹ë¶Ģ":9906,"Ġë³Ħëªħ":9907,"Ġë¶ĢíĴĢ":9908,"Ġë¶Ģíķĺ":9909,"Ġê°Ħê²©":9910,"Ġíĳ¸ë¥´":9911,"Ġíĺĳìłķ":9912,"ĠìĨĮëĤĺë¬´":9913,"Ġë°ľëĿ¼":9914,"Ġ1200":9915,"ĠëĤ´ê°ģ":9916,"ëª©ìłģ":9917,"èĪ":9918,"ìĹ°ìĦ¤":9919,"ë³´ìłĦ":9920,"ĠíĦ¸ìĸ´ëĨĵ":9921,"Ġë§īëĤ´":9922,"Ġìļ¸ìĿĮ":9923,"ĠìĹĦì¤ĳ":9924,"Ġë°ķì§ĢìĦ±":9925,"Ġì°¾ìķĦìĺ¨":9926,"Ġëľ¨ê±°":9927,"Ġë°Ń":9928,"Ġê¸°ëıħêµĲ":9929,"ëŁ¿":9930,"Ġêµ¿":9931,"ow":9932,"çĻ":9933,"ë¦¬íı¬ëĭĪìķĦ":9934,"ĠìĦ±íıŃíĸī":9935,"ìŀ¬íĮĲìĨĮ":9936,"ĠìĪĺëª©":9937,"ì§ĳëĭĪëĭ¤":9938,"ĠëĤľë¯¼":9939,"93":9940,"êµ¿":9941,"ĠìłĦìłģ":9942,"Ġëĭ¤ë¦ĦìĹĨ":9943,"ì¡°ë¡Ģ":9944,"ë°ĺëıĦì²´":9945,"æĪ":9946,"Ġìłķëĭµ":9947,"ĠëĤĺëīĺ":9948,"ìĬ¬ëŁ¬":9949,"ĠLNG":9950,"ëĤĺëĵ¤":9951,"ìľłë¡ľ":9952,"ëĤ´ê¸°":9953,"ìĿĮë£Į":9954,"ĠìĻ¸ìĭł":9955,"Ġëıĭë³´":9956,"ìĦ¸ìķĪ":9957,"Ġê²½ì°°ìĦľ":9958,"Ġê·¸ë§ĮëĳĲ":9959,"ĠíĹĮìŀ¬":9960,"ĠëĬĲëĤĢëĭ¤":9961,"Ġìĸ¸ëįķ":9962,"ìĪĺìĺģ":9963,"Ġìŀİ":9964,"Ġë¬¼ëł¤":9965,"ĠíķĻê³Ħ":9966,"ĠìķĦìĭľìķĦëĤĺíķŃê³µ":9967,"ëĭ¤ìĸĳ":9968,"Ġìľłë°©":9969,"ë¬´ì§Ģ":9970,"ê¼´":9971,"ĠíĬ¸ëŀĻ":9972,"ì¹´ëĿ½":9973,"ëĮĢíĺķ":9974,"TBC":9975,"ĠìĺģëıĻ":9976,"ëĶĶìĬ¤":9977,"ĠíĨłëģ¼":9978,"ĠìĽĲê¸Ī":9979,"ĠìķĦìĬ¤":9980,"íİ¸ìĿĺ":9981,"ë§¥ì£¼":9982,"Ġì¶Ķì¸¡":9983,"ì§Ħë³´ëĭ¹":9984,"Ġì¡°íļĮ":9985,"êµŃë¦½":9986,"Ġê·¸ëŀĺìķ¼":9987,"ĠëĮĢíķĻêµĲ":9988,"ĠìĨĲê¼½":9989,"um":9990,"ì¤Ħê¸°":9991,"ĠëĮĢíĶ¼":9992,"Ġë°°ìĽł":9993,"ê·ľì¹Ļ":9994,"ìĬ¤ë¦¬":9995,"Ġë°ĺê°ĳ":9996,"Ġê·ĢìĹ¬":9997,"Ġìĭłë¹Ħ":9998,"ë¯¼ê°Ħ":9999,"ëª¨ìĶ¨":10000,"Ġë°ķíĥľ":10001,"SI":10002,"Ġìĥģê´ĢìĹĨìĿ´":10003,"ì»¨ëĮĢ":10004,"Ġ86":10005,"ĠëŀŃíĤ¹":10006,"ìľłìķĦ":10007,"ĠìĻ¸êµŃìĸ´":10008,"Ġì²´ëĤ©":10009,"Ġì±Ħì·¨":10010,"ì¡°ëĭ¬":10011,"Ġê¸°ìķĦ":10012,"ĠìłķíĸĪ":10013,"ĠìĿ´ìĥī":10014,"ì§Ģíľĺ":10015,"ëįĺì§Ģ":10016,"ĠíĮĮëŀĢ":10017,"íķ´ìĦł":10018,"ê³¼ìĦ¸":10019,"Ġê°Ĳê¸°":10020,"ĠìļĶìĽĲ":10021,"MB":10022,"ëĲ©ëĭĪëĭ¤":10023,"Ġì¹ĺíĤ¨":10024,"ëł¤ëįĺ":10025,"Ġë±ĥ":10026,"Ġê¸°ë²ķ":10027,"ëıĦìĨĮ":10028,"ĠëĶĶìł¤":10029,"Ġ87":10030,"Ġì¶ľêµ¬":10031,"ĠíĤ¤ìĬ¤":10032,"Ġìĭľì²´":10033,"ì¡°ìĦ±":10034,"ë°ķê³Ħ":10035,"ë°Ķê²Ĳ":10036,"ê¸°ìĪłìĽĲ":10037,"Ġê±°ì¹ł":10038,"Ġì¤ĳê°ľ":10039,"Ġëįĺì§Ħ":10040,"ì¤Įë§Ī":10041,"Ġë§ŀëĮĢê²°":10042,"ìŀ¥ìĨĮ":10043,"ìĪĺìłķ":10044,"ìĿ´ìķ¼ë§Ĳë¡ľ":10045,"Ġìŀ¬ìĦł":10046,"ĠíĮ¨ëŁ¬ëĭ¤ìŀĦ":10047,"ĠíĶ¼ê³¤":10048,"ìĥģíĻĺ":10049,"Ġvs":10050,"Ġìľłë¬¼":10051,"Ġê°Ģì£½":10052,"Ġê²ĮìĭľíĮĲ":10053,"ìĿ´ëĿ¼ëıĦ":10054,"ëĮĢìļĶ":10055,"íķľê°Ģ":10056,"ĠìķĪê²¨":10057,"Ġì°¨ëł¤":10058,"ĠìĿ´ìľ¤":10059,"ê¸°ì´Ī":10060,"ĠìľłìłĦ":10061,"Ġì½¤":10062,"Ġì£¼ì¶ķ":10063,"Ġëħ¼íıī":10064,"Ġë§ĪëĿ¼íĨ¤":10065,"\"(":10066,"Ġìłķíķ´ì§Ħ":10067,"Ġë¹Īê³¤":10068,"ĠìłĦìĹ¼":10069,"Ġíĥķ":10070,"Ġìĺ¤ë¸Į":10071,"Ġë¬´ëį¤":10072,"Ġê²½ìĤ¬":10073,"Ġì¹ĺë°Ģ":10074,"Ġì¸¡ìĿĢ":10075,"ìľ¼ëŁ¬":10076,"íķ©ë¦¬":10077,"Ġë³´ëŀĮ":10078,"Ġìĳ¥":10079,"Ġê¸ĪìļĶìĿ¼":10080,"íıīêµ°":10081,"ĠíĹ¬ê¸°":10082,"ë¹ĮëĶ©":10083,"ĠìĦľë©´":10084,"íĥĢìĪĺ":10085,"Ġ83":10086,"Ġê³µì¡´":10087,"ĠìĭłíĿ¥":10088,"Ġëħ¸ë²¨":10089,"ëĤ¨ìŀĲ":10090,"go":10091,"Ġíĳľê²°":10092,"ìĭŃìŀĲ":10093,"ìŀ¬íķ´":10094,"ĠëŁ¬ë¸Į":10095,"ê±´ë¬¼":10096,"íĮĮë¦¬":10097,"Ġìķħì·¨":10098,"ìłĦë¶ģ":10099,"ì½Ķìĸ´":10100,"ore":10101,"ìĸ´ëĸ»":10102,"Ġê°ķêµ¬":10103,"ĠëŁŃ":10104,"ĠëģĶì°į":10105,"ĠìĹ°ë¹Ħ":10106,"Ġíı¬ê´Ħ":10107,"CO":10108,"ĠìłĦêµĲì¡°":10109,"Ġê¶ĮìĹŃ":10110,"Ġê¹Ģì£¼":10111,"ĠìłĢì§Ģë¥¸":10112,"ĠëĤ¨ëĭ¤ë¥¸":10113,"Ġíį¼ì§Ģ":10114,"Ġê°ľìĽĲ":10115,"Ġë°ĺíķ´":10116,"ê¸ĪìŀĲë¦¬":10117,"ĠìĿ´ìĿ¸":10118,"ëłĲ":10119,"ê³µê³ł":10120,"ĠíĥĲë°©":10121,"ĠìĿ´ê²½":10122,"Ġë©´ë°Ģ":10123,"ĠëĮĢì¡°":10124,"ê²°íĺ¼":10125,"íĹ¨íĭ°ëĤĺ":10126,"Ġì§ĦëıĦ":10127,"Ġê¹ĢíĿ¬":10128,"ĠìĮĵìĹ¬":10129,"Ġì£¼ì¶¤":10130,"ĠëıĮìķĦê°Ī":10131,"ĥë°Ń":10132,"Ġìľłìłģ":10133,"ëıĻìĿĺ":10134,"ìĭ¬íĮĲ":10135,"ëĸ¨ìĸ´":10136,"ëģĮ":10137,"Ġë°±ì§Ģ":10138,"Ġë¶Īê³µìłķ":10139,"ëª¬ëĵľ":10140,"íĻķìĤ°":10141,"ĠìĽĲìŀĳ":10142,"Ġìķ¡ìĪĺ":10143,"ab":10144,"KT":10145,"ĠêµĲíĻ©":10146,"Ġëĵ¤ìĸ´ìĦ°":10147,"ìĿĢê°Ģ":10148,"Ġë³Ģíķ¨":10149,"Ġë°°ìļ¸":10150,"ì»¤ëħķ":10151,"ë¹Ħì¹ĺ":10152,"Ġë°°ìļ°ìŀĲ":10153,"ê³¼ëª©":10154,"ìĻ¸êµŃìĿ¸":10155,"Ġê°ĲíĥĦ":10156,"Ġë¨¸ë¦¬ì¹´ëĿ½":10157,"ê°±":10158,"ĠìĹ°ì²´":10159,"Ġìĭłìĥģ":10160,"ĠíĶĦëĿ¼ìĿ´":10161,"ìļĶì¦ĺ":10162,"ĠíĽĦì¿ł":10163,"Ġìŀħëĭ¨":10164,"Ġì°¨íĬ¸":10165,"Ġì°©ê°ģ":10166,"ĠëĮĢê¸Ī":10167,"ĠíĽĦë³´ìŀĲ":10168,"ĠíĿĳìĿ¸":10169,"Ġë²ķëł¹":10170,"Ġê³¼ì§ķê¸Ī":10171,"Ġì²ľìŀ¬":10172,"Ġì½ľëĿ¼":10173,"Ġê³µë¡ľ":10174,"ĠíĨ¤":10175,"Ġìĺ¬ëĿ¼ê°Ķ":10176,"Ġíĭ°ìħĶì¸ł":10177,"Ġìĺģì£¼":10178,"łì§Ģ":10179,"Ġë°Ķìģĺ":10180,"ĠìķĦìĿ´ìĬ¤":10181,"Ġë¯¸êµŃìĿ¸":10182,"ëĪĦêµ¬":10183,"Ġê³Ħìłķ":10184,"Ġì¤ĳì§Ģ":10185,"Ġë°ľëłĪ":10186,"ëĮĢë¦¬":10187,"ìłĵ":10188,"Ġì½Ķë¯¸ëĶĶ":10189,"ĠêµŃì±ħ":10190,"ĠíĥĢê²°":10191,"ê°Ĳìĭľ":10192,"ĠíĥĲêµ¬":10193,"ìĻĢìĦľ":10194,"ìĸ´ë¡ľ":10195,"ìŀĳëħĦ":10196,"Ġë°°ìĽĮ":10197,"ĠëģĮìĸ´ëĵ¤":10198,"Ġê¸°ìĪĻìĤ¬":10199,"Ġíĥ±":10200,"ĠìĨĮìķ¡":10201,"ĠëģĦëįķìĺĢ":10202,"Ġìŀħì²´":10203,"Ġì¢ħë¡ľêµ¬":10204,"Ġëĭ¤ì§Ģ":10205,"ê°Ģìŀ¥":10206,"ĠìĻķìŀĲ":10207,"Ġë³µë¬´":10208,"Ġê³łìĭ¬":10209,"Ġê°ĪëĿ¼":10210,"Ġëĭ¬ëŀĺ":10211,"íĽ¼ìĨĲ":10212,"Ġì¤ĳíĺķ":10213,"ĠìĦłì°©ìĪľ":10214,"ĠìķĦëĭĮì§Ģ":10215,"91":10216,"ĠìĪľì°¨":10217,"ĠìľłìĬ¹ë¯¼":10218,"ĠìŀĲìĻ¸ìĦł":10219,"ĠìĿ´ìª½":10220,"ĠíıīìĿ¼":10221,"ĠìĺĪìģľ":10222,"Ġëĸ´":10223,"ĠìĤ¬ëĿ¼ìł¸":10224,"Ġìĸ´ìĥī":10225,"ĠìĹĶíĦ°":10226,"Ġ1994":10227,"Ġëĭ¤ìłĢìĬ¤":10228,"ì¦Ĳ":10229,"ì§ĳíĬ¸":10230,"Ġì¶ĶíĽĦ":10231,"ë¥´ëª¬":10232,"µ¸":10233,"Ġëª¹ìĭľ":10234,"Ġìķ½íķľ":10235,"Ġê²½ìĭł":10236,"Ġ98":10237,"ĠëĬĺëł¸":10238,"ë¡ľìļ°":10239,"âĦĵ":10240,"ĠëĮĢìĹ¬":10241,"ĠëĤłë¦¬":10242,"ì±Ħìļ©":10243,"Ġê³µìłľ":10244,"Ġê¿°":10245,"ë²Ħëĵľ":10246,"ê¹Ĭ":10247,"Ġì§Ģì¹ľ":10248,"ĠìłĪìķ½":10249,"Ġëª¸ë§¤":10250,"Ġì£¼ìĤ¬":10251,"ĠìłĦìĿ¼":10252,"ĠíĦ°ì¹ĺ":10253,"ìĺĽ":10254,"ìĿ¼ìłķ":10255,"ì§ĢëĭĪìĸ´ë§ģ":10256,"ë©Ķìĭľì§Ģ":10257,"ĠìĦ¬ìĦ¸":10258,"ĠëĦĵíŀĪ":10259,"ĠìŀĦìļ©":10260,"ĠìłĦìĨ¡":10261,"ĠëĦĺìĸ´ìĦł":10262,"ĠìĹ¬ìĻķ":10263,"ë³ĳëĮĢ":10264,"Ġìļ°íļĮ":10265,"Ġíķľë°©":10266,"ĠìĿĳëª¨":10267,"Ġë§ĪíĬ¸":10268,"ĠêµŃê³ł":10269,"Ġì·¨ë¯¸":10270,"Ġìŀ¥ìĿ¸":10271,"ë¹Ĺ":10272,"ĠíķĺëĤĺíķĺëĤĺ":10273,"Ġ81":10274,"Ġê°ĢìĦ¸":10275,"ĠIn":10276,"Ġê°Ģì¶ķ":10277,"ĠíķŃìĨĮìĭ¬":10278,"ì§Ģëħ¸":10279,"ìĭľì¼ľìķ¼":10280,"ĠíĺĦê´Ģ":10281,"ìŀĦìĬ¤":10282,"ĠìĿ¸ë¬¸íķĻ":10283,"Ġìºłíķĳ":10284,"íı¬ìĭľ":10285,"Ġê²½ê°Ĳ":10286,"ëĦ¤ìĬ¤ì½Ķ":10287,"ì²«":10288,"Ġë¡±":10289,"ĠíĬ¹ì§ĳ":10290,"Ġì²ĺíķľ":10291,"ìĹ´ì°¨":10292,"ĠìĹ´ìĩł":10293,"LPGA":10294,"ĠìĭľìĦ¤ë¬¼":10295,"Ġìķ½ìłĲ":10296,"Ġíİ¼ì¹ľëĭ¤":10297,"ĠíĥĪíĩ´":10298,"Ġìŀłìŀ¬ëł¥":10299,"Ġìŀ¥ë§Ī":10300,"art":10301,"ìĥģíĴĪê¶Į":10302,"ìĪľê°Ħ":10303,"Ġì°¨ë¦¼":10304,"ìĤ¬ìłĦ":10305,"Ġê°ķíĺ¸":10306,"ëłĪìłĢ":10307,"Ġ1996":10308,"ĠìľĹ":10309,"íķĦëĵľ":10310,"Ġì¤ĳì¦Ŀ":10311,"ë¬´ì§Ħ":10312,"ĠëıĻë¶ģìķĦ":10313,"ìŀĲìľłêµ¬ìĹŃ":10314,"Ġì²´ì¤ĳ":10315,"íį¼ëĭĪ":10316,"ì¹ĺê¸°":10317,"ĠëĤĺìĻĢìĦľ":10318,"ëĵľëł¤":10319,"íĻĶë¬¼":10320,"íĻķëĮĢ":10321,"ë¥¼ë¦°":10322,"ĠíĮĲë¡ľ":10323,"Ġìľłìĥģ":10324,"ĠìĦłìĽĲ":10325,"ĠíķĺìĽĲ":10326,"Ġë¬¸ê²½":10327,"ĠìĦ±ë²Ķì£Ħ":10328,"ëĬł":10329,"Ġì¶ĶìĭłìĪĺ":10330,"Ġìĭľêµ°":10331,"Ġì¤ĺìķ¼":10332,"Ġë§īìĥģ":10333,"ìĺģêµŃ":10334,"Ġê±¸ë¦¼":10335,"Ġíľ´ê²Į":10336,"ĠìĪĺì²ľ":10337,"Ġì·¨ìĹħìŀĲ":10338,"ìŀĲëħĢ":10339,"Ġì°¨ì¢ħ":10340,"ëĮĢìľĦ":10341,"ĠëıĻìķĦìĿ¼ë³´":10342,"ĠíıŃìĬ¤":10343,"ìĺ¤ìĬ¤":10344,"ë¶Ģë¥´íģ¬":10345,"ĠíķĺìĪĺ":10346,"ĠìĬ¤ì¹´ìĿ´":10347,"ìļ´ëĭ¤":10348,"Ġë¡Ŀ":10349,"Ġë³´íĹĺê¸Ī":10350,"Ġì¿łíı°":10351,"Ġë°°ë¶Ħ":10352,"Ġì§Ģë¬¸":10353,"ĠìĬ¤íĨł":10354,"ëĭ¹íĸĪ":10355,"ìŀĲêµŃ":10356,"ĠíĻĺíĺ¸":10357,"Ġíĳľê¸°":10358,"ĠíĨµìĭłìĤ¬":10359,"Ġìľłì¾Į":10360,"ĠìĨĮìĽĲ":10361,"ì§Īëŀľëĵľ":10362,"ĠIS":10363,"ê³µìķ½":10364,"ìĬ¤íĭ±":10365,"êµŃì§Ģ":10366,"ìłľìŀ¬":10367,"Ġ900":10368,"Ġìĭľë¦¬ìķĦ":10369,"ëįĶëŁ¬":10370,"ê³µëª¨":10371,"ëª¨íĦ°":10372,"ĠëĨįìĸ´ì´Į":10373,"ĠëĤ©ëĵĿ":10374,"ìĺĢìľ¼ë©°":10375,"ë©ĺíĦ°ë¦¬":10376,"ëį°ìĿ´íĬ¸":10377,"ĠëĮĢìłĳ":10378,"ëĤłëłĪ":10379,"Ġê¸°ìĸ´":10380,"Ġê³łì³Ĳ":10381,"Ġê±¸ê¹Į":10382,"ê°ĢìĿĦ":10383,"æĺ":10384,"íĪ¬ìĬ¤":10385,"Ġì¤Ħì¤ĦìĿ´":10386,"...":10387,"Ġìĺ¤ì¼ĢìĬ¤íĬ¸ëĿ¼":10388,"ìĹħìĽĲ":10389,"íĺľíĥĿ":10390,"ë°ķìĤ¬":10391,"ĠëĤ©ì¹ĺ":10392,"Ġíķ©ê²©ìŀĲ":10393,"ìµ¸":10394,"Ġë´īìĩĦ":10395,"ë§¤ì²´":10396,"ĠìĦłê´ĢìľĦ":10397,"ìĤ¬ì¹´":10398,"ĠìĪĻìłľ":10399,"Ġíķľëį°":10400,"ìĿĢëį°ìļĶ":10401,"ĠìĦłë³´ìĹ¬":10402,"IFA":10403,"íĨłíĨł":10404,"Ġë¹ĦëĶĶìĺ¤":10405,"ĠìĺĪëħĦ":10406,"ĠìĦ¸ìĿ¼":10407,"Ġíĳ¼":10408,"ĠìĤ¬ê°ģì§ĢëĮĢ":10409,"ĠëĵľëłĪìĬ¤":10410,"íĤ¤íį¼":10411,"Ġìĸĳìĭ¬":10412,"ë¯¸ìĦ¸":10413,"ha":10414,"ìĿ¼ìĪĺë¡Ŀ":10415,"ìľłê¸°":10416,"Ġë¹¼ëĨĵ":10417,"ĠìĿ¼ì²´":10418,"íĩ´ì§ģ":10419,"ìĹĳìĬ¤íı¬":10420,"ĠëĤĺëħ¸":10421,"è»":10422,"ĠìĨĲê¸¸":10423,"Ġìłľë°ľ":10424,"ĠíĮĶë¦¬":10425,"ëŁ¬ìĭľìķĦ":10426,"Ġìł¸":10427,"ĠíĮĮìĤ°":10428,"ĠíķĻëĮĢ":10429,"ë¸ĶëŀĻ":10430,"íķľíĻĶ":10431,"ëħ¸ëıĻì¡°íķ©":10432,"Ġìĺ¤ëĶĶìħĺ":10433,"Įë¦°":10434,"Ġê·ľíĥĦ":10435,"ëĽ":10436,"ì²ŃíļĮ":10437,"ìĪĺìĪĺë£Į":10438,"HO":10439,"ĠìĬ¬ë¡ľê±´":10440,"ĠíĺĳìĿĺíļĮ":10441,"ĠëĦĪë¨¸":10442,"ĠìĽĶìļĶìĿ¼":10443,"Ġíľ©ìĵ¸":10444,"ë¹Įë¦¬íĭ°":10445,"ĠìĿ¼ê¸°":10446,"Ġê³łìĦ±":10447,"Ġê±¸ë¦¼ëıĮ":10448,"Ġë³´ì¢Įê´Ģ":10449,"Ġê³łìĤ¬":10450,"ëĮĢìĽĲ":10451,"Ġê¸°ìŀ¥":10452,"ĠìĸĳëħĲ":10453,"ĠìĦ¹":10454,"Ġê°Ħì§ģ":10455,"Ġëĭ¤ê°ĢìĻĶ":10456,"ìļ©ëŁī":10457,"Ġì¹´ì¹´ìĺ¤íĨ¡":10458,"Ġê³¼íķĻìŀĲ":10459,"íķ´ìķĪ":10460,"ìĥģë¶Ģ":10461,"ìĽĲìŀĲëł¥":10462,"ĠìĭłìĥĿ":10463,"ĠìĦ¸ìĪĺ":10464,"ê°Ħìłĳ":10465,"Ġë³¸ëŀĺ":10466,"ëĶ©ìĬ¤":10467,"ĠëĦīëĦī":10468,"ĠìĿ´ìŀ¬ëªħ":10469,"Ġìºĺë¦¬íı¬ëĭĪìķĦ":10470,"ĠíĶĦëĿ¼":10471,"ëįĺëį°":10472,"ê³°":10473,"ĠíĨµë¡ľ":10474,"ĠìĿ´ê¸¸":10475,"íĭ°ìĬ¤":10476,"íķĻëł¥":10477,"Ġì°¬ë°ĺ":10478,"Ġëħ¸ëıĻëĭ¹":10479,"ĠìĿ´ë£°":10480,"ĠíĻįìĦ±":10481,"ê·¸ë§Į":10482,"Ġìĭľíĭ°":10483,"ĠLCD":10484,"Ġì°¨ê°Ģìļ´":10485,"ĠíĻ©ëĭ¹":10486,"íĺĪìķķ":10487,"ì§Ģìłķ":10488,"ĠìĤ¬ëªħ":10489,"ĠìĹ®":10490,"Ġë§ĪìĿ´íģ´":10491,"ĠêµĲê°Ĳ":10492,"Ġíĺ¸ìŀ¬":10493,"ĠìķĦìī¬ìļ´":10494,"Ġìĭľê°Ģì´Ŀìķ¡":10495,"Ġëĭ¨ìłķ":10496,"ĠìĹŃíķĻ":10497,"Ġë¯¼ì¤ĳ":10498,"ĠìĤ¬íĺķ":10499,"ĠìĦ±íĺķ":10500,"Ġì°½êµ¬":10501,"ĠìĨĮê·¹":10502,"ĠìĿĺìłľ":10503,"íĥĢë¦¬":10504,"ë¯¸ì¹¼":10505,"ìĹĲìĸ´":10506,"Ġë¶ĪëŁī":10507,"ë¬´ìĭ¤":10508,"Ġì¡´ìŀ¬ê°Ĳ":10509,"ĠíĻľì§Ŀ":10510,"ĠìĤ´ë¦¼":10511,"ĠìĪĺë¹ĦìĪĺ":10512,"ìĹ°ìŀ¥":10513,"ë¦¿ìĪĺ":10514,"ĠëĤ´ëĭ¤ë³´":10515,"ĠíļĮíĶ¼":10516,"íİĺìĬ¤íĭ°ë²Į":10517,"ĠìĹ¬ì£¼":10518,"ĠìĤ¬ì§ģ":10519,"Ġë¿ľ":10520,"ĠìĿ¼ìĸ´":10521,"ĠëıĻìĦ±":10522,"Ġëĭ´ê²¼":10523,"ĠëıĮë³´":10524,"Ġì°©íķľ":10525,"Ġì²¼":10526,"ï¤":10527,"ĠíķľìĿĢ":10528,"ë¯¼ì§Ģ":10529,"ìĹ£":10530,"ĠìłĢì¡°":10531,"Ġìĭ¤ìĬµ":10532,"ëľ¨ë¦°":10533,"Ġëıħë¦½ìļ´ëıĻ":10534,"Ġë°ĺëĤ©":10535,"ĠëıĻìłĲ":10536,"ëĭ¤ì§Ģ":10537,"ë¶Ģë¡ľ":10538,"ê°¤ëŁŃìĭľ":10539,"ãĢī":10540,"ĠìĭłìĦ¸":10541,"Ġìļ°ë¦°":10542,"ĠëıĦìĭľëĿ½":10543,"Ġê´Ģê³ĦìĹĨìĿ´":10544,"VP":10545,"ìłķëıĻ":10546,"Ġíŀĺìĵ°":10547,"Ġíļ¨ìĦ±":10548,"Ġë¬¼ìĿĮ":10549,"âĢķ":10550,"ĠSTX":10551,"ëĲĲìľ¼ëĤĺ":10552,"Ġíģ´ë¦°íĦ´":10553,"Ġìŀħì£¼ë¯¼":10554,"ëıĻëĦ¤":10555,"íĮľ":10556,"Ġê¹ĢìĿ¼":10557,"Ġíİ¸ê²¬":10558,"ĠìķĦë¦¬":10559,"Ġë°©ê³¼":10560,"ĠìĤ¼ìĦ±ê·¸ë£¹":10561,"ìłģìľ¼ë¡ľ":10562,"íĺķìĤ¬":10563,"ĠìķĦë§Īì¡´":10564,"ë¶Ģê°Ģ":10565,"íĺ¸íĿ¡":10566,"Ġë²ķìĿ¸ìĦ¸":10567,"Ġìº¡":10568,"ĠëĤ´ìŀ¥":10569,"Ġì¦ĿíıŃ":10570,"Ġê´Ģíķ´":10571,"íİĮ":10572,"Ġê°ķì§Ħ":10573,"ĠTF":10574,"Ġê°Ģë¡ľë§ī":10575,"ëıĹ":10576,"Ġë¡ľë¹Ħ":10577,"Ġì°¾ìķĦë³¼":10578,"Ġê·¸ëĬĺ":10579,"Ġíĺ¸ëŀĳìĿ´":10580,"ì½Ķìĺ¬":10581,"ëĤľíŀĪ":10582,"ëī´ìĸ¼":10583,"ê¼Ń":10584,"ì¤ĳê°ľ":10585,"ê³µë¶Ģ":10586,"ëĤĺíĥĢ":10587,"Ġìĭ¤ë¬¼":10588,"ĠíĦ°ëľ¨ëł¸":10589,"Ġn":10590,"ĠìłľëĦ¤":10591,"ëĮĦ":10592,"Ġë°±ìłľ":10593,"ĠëĨĴìĿ¸":10594,"Ġë³ĢíĸĪ":10595,"ĠíİĦ":10596,"ëıĻë¶Ģ":10597,"è¨":10598,"ĠìłĦê²½":10599,"ĠìķĦìĽĥëıĦìĸ´":10600,"Ġìĺ¤ë¡ľì§Ģ":10601,"ìĤ°ëıĻ":10602,"ìĦłë°ľ":10603,"Ġì¦ĿìĹ¬":10604,"ëıħìĿ¼":10605,"Ġìłķë¬¸":10606,"ĠìĪĺìĭł":10607,"Ġì¡°ìĨįíŀĪ":10608,"Ġãħ":10609,"ìĭ¤ìĹħ":10610,"Ġìŀ¬íİ¸":10611,"ĠKCC":10612,"Ġê¸°ë»Ĳ":10613,"ĠìĹ¼ì¦Ŀ":10614,"Ġíķĺëĵľ":10615,"ĠìĿ´ìĽĲ":10616,"Ġìŀ¡ì§Ģ":10617,"ì§ķê³Ħ":10618,"ï¦":10619,"íİĢ":10620,"ìŀĲìĭł":10621,"Ġì¶ķìĤ¬":10622,"ìĹĲëĭ¤ê°Ģ":10623,"ĠìĬ¤íĮĮ":10624,"Ġëª©ìļķ":10625,"ê²Ģì§Ħ":10626,"ìķ¼ëĵľ":10627,"Ġì¶ĶìľĦ":10628,"Ġì¶ľíĩ´ê·¼":10629,"ĠíĻįìĪĺ":10630,"ë¯¼ì£¼ì£¼ìĿĺ":10631,"ĠíĻĶë³´":10632,"Ġê°ķëł¥íŀĪ":10633,"ìłģìŀĲ":10634,"ĠìĨĮìľłìŀĲ":10635,"ê·łê´Ģ":10636,"Ġìļ°íĺ¸":10637,"ìŀĲìľ¨":10638,"Ġê²°ìĬ¹ìłĦ":10639,"ë©´ìłĳ":10640,"ìłĲìľł":10641,"Ġì¶ľíĮĲìĤ¬":10642,"Ġìĸ´ê¸ĭ":10643,"RA":10644,"ĠJTBC":10645,"ĠìŀĲì¹ĺêµ¬":10646,"ĠëĤ´ìĦ¸ìĽĮ":10647,"Ġíķı":10648,"ĠëªħíĻķíŀĪ":10649,"ìĭŃëĭĪëĭ¤":10650,">,":10651,"Ġìŀĥìĸ´":10652,"Ġê²ĮìĿ´":10653,"Ġë¯¸ìļ©":10654,"Ġë¶Ģë¥¸":10655,"íħĮíģ¬ëħ¸":10656,"Ġë°°ìĭł":10657,"ì¶Ķìĸ´":10658,"ĠìłķíĻĶ":10659,"Ġì°¸ëª¨":10660,"Ġì²´ì§Ī":10661,"ĠìĨĮëª¨":10662,"íĢĺ":10663,"ìľłë¦¬":10664,"Ġë°Ķë¡ľìŀ¡":10665,"ĠìĤ¬ìĻ¸":10666,"ĠíİĺìĿ´":10667,"Ġíĳľì§Ģ":10668,"ê·¸ê²ĥ":10669,"Ġê°ĢëĬł":10670,"ĠìĿĮìĭĿë¬¼":10671,"ë¡ľë´ĩ":10672,"GA":10673,"ë£¨ìĪĺ":10674,"ë³ķ":10675,"Ġë¹Ħì¶°":10676,"Ġ350":10677,"ãĨįêµ°":10678,"Ġë¬´ê²ģ":10679,"Ġìŀ¥ëł¤":10680,"ĠíĭĢë¦¼ìĹĨ":10681,"ĠìĤ¬ìĽĲ":10682,"ìĵ´":10683,"ĠëĪĪëĨĴìĿ´":10684,"íĶĦëĿ¼ìĿ´":10685,"Ġëĭ¨ìĭĿ":10686,"íĶĦë¡ľìłĿíĬ¸":10687,"ĠìĺģíĨł":10688,"Ġê±°ëĵŃëĤĺ":10689,"ë²Ħëł¤":10690,"ë²ĮìĿ´":10691,"ĠìĿ´ëĮĢë¡ľ":10692,"Ġê³ĦëŀĢ":10693,"Ġìĭľê³µìĤ¬":10694,"Ġë²ĦíĬ¼":10695,"Ġì§Ģìŀ¥":10696,"Ġë¶ĢëıĦ":10697,"ë©´íĹĪ":10698,"ĠìķĦëŀį":10699,"ĠìĨĮìĬ¤":10700,"ë£¨ë¯¸":10701,"Ġìķħê¸°":10702,"Ġìĭłì¡°":10703,"ĠìľĦëł¥":10704,"ë²łë¦¬":10705,"Ġíı¬íĨł":10706,"ĠìĤ¬ë°©":10707,"íı¬ìŀ¥":10708,"Ġìłľìķķ":10709,"Ġë°ĶëŀįëĭĪëĭ¤":10710,"Ġ2500":10711,"Ġê±´ê°Ģ":10712,"ìĪĺìĥģ":10713,"ĠìĤ¬ëĤĺìĿ´":10714,"Ġì¢ħìĿ¼":10715,"Ġë°ķë³ĳ":10716,"Ġìļ°íİ¸":10717,"Ġë¶ĢìŀĦ":10718,"ĠëĮĢëĭ¨íŀĪ":10719,"Ġíĺ¸ì¡°":10720,"ìĿ´ìķ¼ê¸°":10721,"DS":10722,"êµĲê³¼ìĦľ":10723,"ìłĬ":10724,"ĠëĬĺë¦´":10725,"íģ´ëŀĺìĬ¤":10726,"ĠìľĦì¡°":10727,"Ġëĭ¬ëł¤ê°Ģ":10728,"ì£¼ê±°":10729,"ë¥´ê¸°":10730,"Ġì¤ĦìĺĢ":10731,"Ġëĵ±ìŀ¬":10732,"Ġê¿ĩ":10733,"ë¸Ķë£¨":10734,"íķŃë§Į":10735,"ìĭ¬ìĿĺ":10736,"Ġë¶ĢìľĦìĽĲìŀ¥":10737,"Ġì¡Į":10738,"2008":10739,"Ġì§ĦëıĻ":10740,"ĠìłķëıĻ":10741,"Ġêµ¬íķ´":10742,"ìĹ°ê¸°":10743,"ĠìĨĮë¦¬ì³¤":10744,"Ġ97":10745,"Ġì½Ķëĵľ":10746,"ëłĪìĿ´íĦ°":10747,"ë¥´ë¥´":10748,"ĠêµŃìĻ¸":10749,"ĠìĪ¨ì§Ģ":10750,"ĠìµľíĽĦ":10751,"ìĭľëĭ¹":10752,"ĠíĻĶìĤ´":10753,"Ġê³łë¶Ģ":10754,"Ġíģ¬ë¡ľìĬ¤":10755,"ĠíĪ¬êµ¬":10756,"Ġë³´íĥľ":10757,"ĠìłľìĿĺ":10758,"PP":10759,"ìĦłê±°ë²ķ":10760,"âĹĭ":10761,"Ġ92":10762,"éĽ":10763,"ë²Ħëĭĺ":10764,"ĠëĮĢê¶Į":10765,"Ġì§Īì£¼":10766,"ĠëıĻìĦł":10767,"Ġ96":10768,"ê¸°íļĮ":10769,"Ġíģ´ëŁ¬ìĬ¤íĦ°":10770,"êµŃìłľê³µíķŃ":10771,"Ġëħ¸íĬ¸ë¶ģ":10772,"ì²ŃìĽĲ":10773,"Ġëį¸":10774,"ĠìĥĪìĤ¼":10775,"Ġê·¸ìłľ":10776,"ĠëĤ´ìĹŃ":10777,"ĠìĨĮìĭł":10778,"ĠìĭľëĤ´ë²ĦìĬ¤":10779,"ĠëĤ¨ì§ĵ":10780,"ìĤ¬ìĹħë¹Ħ":10781,"ìĦłíĥĿ":10782,"Łĵ":10783,"Ġê·ĢëĨį":10784,"Ġëŀľëĵľ":10785,"ĠíĤ¬":10786,"ëĦ¤ìĬ¤":10787,"Ġì°½ëĭ¹":10788,"Ġë©Ķëª¨ë¦¬":10789,"ì§Ħì¶ľ":10790,"Ġëĵ¤ìĸ´ìĦ¤":10791,"Ġíĩ´ì¶ľ":10792,"ĠìºĲìĬ¤íĮħ":10793,"Ġê°ģê³Ħ":10794,"ìľ¤ë¦¬":10795,"ĠíıĲìĹħ":10796,"ĠêµĲìŀ¬":10797,"íĮĮìĽĮ":10798,"ĠìĪĺìĤ°ë¬¼":10799,"ìľĹ":10800,"Ġíĥľê¶Į":10801,"ìĬ¤íĨłë¦¬":10802,"Ġë²łíħĮëŀĳ":10803,"ëĤĻìĹ°":10804,"ĠëĮĢê²Ģ":10805,"Ġìļ°ìķĦ":10806,"Ġì°½ìĹħìŀĲ":10807,"ê³łëĬĶ":10808,"Ġë§ŀë¶Ļ":10809,"ë§¤ì¶ľ":10810,"ĠëĦĵíĺĢ":10811,"íĥ±íģ¬":10812,"ë²łìĬ¤íĬ¸":10813,"ĠìĨĮìĦ¤ê°Ģ":10814,"Ġì§ĳì¤ĳëł¥":10815,"ìĺ¬ëŀĲ":10816,"ê²¨ìļ´":10817,"ĠìĽĲìŀĲìŀ¬":10818,"ë¦¬ìļ°ëĵľ":10819,"ĠìķĪíĥĢê¹Įìļ´":10820,"ìļĶë¦¬":10821,"ĠíĦ°ëĦĲ":10822,"ĠíĸĩìĤ´":10823,"Ġë¶ĢìłģìłĪ":10824,"ë³´ìľł":10825,"ĠVR":10826,"Ġì¤ĳíķĻìĥĿ":10827,"ìĥģëĮĢ":10828,"ĠëĤļìĭľ":10829,"ì°½ëĭ¨":10830,"ìħĢë¡ľëĤĺ":10831,"Ġìĭłì²ľì§Ģ":10832,"ĠìĿ´ì¤Ģ":10833,"Ġë§Įë£Į":10834,"ë¡ľìĦł":10835,"Ġëĭ¹êµŃìŀĲ":10836,"tp":10837,"Ġë¹ĦíĭĢ":10838,"Ġì²ľìŀ¥":10839,"Ġë§īê±¸ë¦¬":10840,"ĠìĹĺë¦¬ë²łìĿ´íĦ°":10841,"ĠìĬ¤íĤ¨":10842,"ìĦ¸ìŀĲ":10843,"íıĲê¸°ë¬¼":10844,"ìŀĲì±ħ":10845,"Ġìĭľì§Ħíķĳ":10846,"ĠìłķëħĦ":10847,"ê´ĢìłĪ":10848,"ìĭĿìĤ¬":10849,"ì¶Ķì²ľ":10850,"ĠìĤ°ìĨĮ":10851,"Ġê·¸ìª½":10852,"Ġê°ĢëŃĦ":10853,"ìĤ¼ìĦ±ìłĦìŀĲ":10854,"ĠìĥģìĿĺ":10855,"ë¬´ìļ©":10856,"ĠëĲĺëıĮìķĦ":10857,"íĺ¸ëĤ¨":10858,"ĠìĿ¸ëĶĶ":10859,"ëª¨ë¹ĦìĬ¤":10860,"**":10861,"Ġê²°ìĭ¤":10862,"ë°ľìĥĿ":10863,"Ġìĺ¨ëĭ¤":10864,"ĠìĨĲëª©":10865,"ĠìĿ´ëģĪ":10866,"ëĮĢìĦł":10867,"Ġì¤ĳì§Ħ":10868,"Ġê²°ê³¼ë¬¼":10869,"Ġë°ĶìĿ´ìĸ´":10870,"ìĭłíĺ¸":10871,"Ġç":10872,"ĠìĿ´ìĦĿ":10873,"å¸":10874,"īį":10875,"ĠìĽĮíĦ°":10876,"Ġì¡°íĺĦ":10877,"ìĭľíĶ½":10878,"Ġê¸īíŀĪ":10879,"Ġê±°ëŀĺìĨĮ":10880,"ë³´íĹĺë£Į":10881,"Ġë§ĮìłĲ":10882,"ëĶĶìĽĢ":10883,"ĠìĪĺëªħ":10884,"Ġìļ°ìļ¸ì¦Ŀ":10885,"Ġë§Īêµ¬":10886,"ĠíĮ¨ìĬ¤íĬ¸":10887,"ĠìĻłì§Ģ":10888,"Ġ170":10889,"ĠíĻ©êµĲìķĪ":10890,"Ġíľĺë°ľ":10891,"Ġì¤Ħìĸ´ëĵľ":10892,"íķ´ëĭ¹":10893,"Ġìĺ¬ëĿ¼ìĻĶ":10894,"ĠìĿ¼ìľ¼ì¼ľ":10895,"ê³µìľł":10896,"ê¶Įëĭ¨":10897,"âħ":10898,"Ġë°Ģìĸ´ë¶Ļ":10899,"Ġêµ¶":10900,"Ġëħ¹íĻĶ":10901,"ë°ĭ":10902,"Ġin":10903,"Ġë³´ë¬¼":10904,"Ġê°Ĳìĺ¥":10905,"Ġíķ©ê³Ħ":10906,"ĠìķĦë©Ķë¦¬":10907,"ëĬĲëĥĲê³ł":10908,"Ġêµ¬ìĽĲ":10909,"ĠíĽĦë°ĺê¸°":10910,"Ġìŀ¡íĺĢ":10911,"ë¦ħëĭĪëĭ¤":10912,"Ġê³¨íĤ¤íį¼":10913,"Ġê³¼ì²ľ":10914,"ìĻĢìĿ´":10915,"ìĬ¤íĨ±":10916,"ìĿ¸ëĭ¨":10917,"Ġë°ķì§ĢìĽĲ":10918,"ĠìĤ°ëĭ¤":10919,"ĠíĥĢíĺĳ":10920,"Ġíĭ°ë¹Ħ":10921,"ĠìĪĺë²ķ":10922,"ĠìĥĿìĦł":10923,"Ġì¡°ë³Ħ":10924,"ĠìłĢìŀĳ":10925,"êµ¬ìĦĿ":10926,"ìłĦê³µ":10927,"Ġë°ĽìķĦëĵ¤ìĿ¼":10928,"ĠìĤ°ìĹħìĿĢíĸī":10929,"Ġì¹¨ìĪĺ":10930,"Ġì»´ë°±":10931,"å¿":10932,"ĠìķĪê°ľ":10933,"ë¶ģìŀĲ":10934,"ĠíĮĮê¸ī":10935,"ĠìĪĺë£Į":10936,"ë°±ë§Į":10937,"ĠìĿ´ìĨ¡":10938,"ìĨĮëĵĿìĦ¸":10939,"ë¶ĵ":10940,"ĠìĹ¬íķĻìĥĿ":10941,"ĠíĻĺìĬ¹":10942,"ëĳĲíĻĺ":10943,"Ġìłĳíķľ":10944,"Ġ89":10945,"ê³łê¸ī":10946,"ìĤĲ":10947,"ìĦ±ìłģ":10948,"íĺĳëıĻì¡°íķ©":10949,"ĠìĿ´ìļ©ê°Ŀ":10950,"ĠëĤłì¹´ë¡ľìļ´":10951,"ê°ĢìĪĺ":10952,"IB":10953,"Ġê°ľë§īìłĦ":10954,"Ġë³´ì¦Ŀê¸Ī":10955,"Ġëĭ¤íĪ¼":10956,"ĠìłľìŀĦìĬ¤":10957,"Ġì·¨íķ´":10958,"ĠìĺģìĽĲíŀĪ":10959,"ìĽĲì§Ģ":10960,"Ġë°ķìļ©":10961,"ĠìĹīëļ±":10962,"ê¹Ģì¹ĺ":10963,"DB":10964,"ĠìĿ¼ê°Ħ":10965,"ë¹Ħíĸī":10966,"Ġë¡ľì¼ĵ":10967,"Ġíķ´ë³Ģ":10968,"ĠìĤ°ìŀ¬":10969,"Ġìŀħì£¼ìŀĲ":10970,"ĠìĶ¹":10971,"ë®¤ì§Ģ":10972,"ĠìĿ´íĻĶ":10973,"IG":10974,"ĠëıĦë¦¬":10975,"Ġê°ľìĿ¸ìłĦ":10976,"ìĳ¤":10977,"ĠìĬ¤íİĻ":10978,"Ġ1960":10979,"ĠìľłëĦ¤ìĬ¤ì½Ķ":10980,"ĠãĦ´":10981,"ĠìıŁìķĦìł¸":10982,"ì£¼ìĦĿ":10983,"Ġë§¡ê²¨":10984,"ëĽ°":10985,"Ġì¡°ì²ĺ":10986,"Ġì§ĪìĿĺ":10987,"ĠíĿĺëłĢ":10988,"ĠìĦ±ì·¨":10989,"Ġëĸłìĺ¤ë¥¸":10990,"ĠìĹŃëıĻ":10991,"ì£¼ìĿĺìŀĲ":10992,"Ġê²Ģìłķ":10993,"ìľĦì¹ĺ":10994,"ĠìĿ´ì§ĳíĬ¸":10995,"ĠìĭľëıĻ":10996,"ĠìłĦì§Ħ":10997,"ë³Ģíĺ¸ìĤ¬":10998,"Ġíı¬ìĬ¤íĦ°":10999,"ë¶ģêµ¬":11000,"Ġë°°ì¶Ķ":11001,"ĠíĨµíķ©ì§Ħë³´ëĭ¹":11002,"íĦ°ëĦĲ":11003,"ìĤ¬ëĵľ":11004,"ĠìĦľìłĲ":11005,"Ġë°©íĥĦìĨĮëħĦëĭ¨":11006,"íĻĢëĶ©ìĬ¤":11007,"Ġìĭľìķ¼":11008,"âĢ¤":11009,"ì¦Ŀì§Ħ":11010,"ì½ķ":11011,"ìĤ¬íļĮëĭ¨ì²´":11012,"ëĭ¤ëĵ¬":11013,"ĠêµŃë¯¼ìĿĢíĸī":11014,"MO":11015,"ìŃī":11016,"êµŃìĪĺ":11017,"ĠìłľëıĻ":11018,"ĠëĸłëĤł":11019,"Ġê¸°ë¶Ģê¸Ī":11020,"Ġë°ķìĿ¸":11021,"Ġë§ĪëĬĺ":11022,"Ġì§ĳíĸīìľłìĺĪ":11023,"ĠìĿ¸ì§ĢëıĦ":11024,"ĠíĮĲêµĲ":11025,"Ġê¸Īê°ķìĤ°":11026,"Ġê³µì§Ģ":11027,"Ġëĭ¤íģĲë©ĺíĦ°ë¦¬":11028,"ĠìĹīëį©ìĿ´":11029,"ë§ĪìĿ¼":11030,"ĠëĦĺì³Ĳ":11031,"ĠìľłëĮĢ":11032,"ĠíĻĶê°Ģ":11033,"Ġì¡°ë§Ŀ":11034,"ĠìķĦë¥´íĹ¨íĭ°ëĤĺ":11035,"ĠìķĦì¤Įë§Ī":11036,"ĠìĹ´íĿĺ":11037,"å±±":11038,"ì§ĪëŁ¬":11039,"ë®¬":11040,"Ġê³ĦìĬ¹":11041,"Ġì§Ģì§Ģì¸µ":11042,"Ġ94":11043,"Ġì«Į":11044,"MZ":11045,"ìĹ¬ë¡ł":11046,"Ġë³´ì¶©":11047,"Ġê³łìĨįëıĦ":11048,"Ġê¸°ìĹħì²´":11049,"Ġìĸĳíĺ¸":11050,"Ġìŀĳê³¡ê°Ģ":11051,"íĶĮëłīìĬ¤":11052,"ĠëĦĺê¸´":11053,"ì§Ħêµ¬":11054,"Ġì½§":11055,"ĠìĪĺëĭ¹":11056,"ĠëĪĮëŁ¬":11057,"ìĨįê¸°":11058,"Ġìĸĳìľ¡":11059,"Ġê²½íĿ¬":11060,"ê³µíĻĶêµŃ":11061,"Ġìłľì¡°ìĤ¬":11062,"Ġì¤ĳìĤ°":11063,"ë§ĪíĨł":11064,"íĶĮëŀ«":11065,"http":11066,"ëĵľëĿ¼":11067,"Ġì²©":11068,"ĠëıĻëĮĢë¬¸":11069,"Ġä¸Ń":11070,"ë¬¸ìłĲ":11071,"ĠìłĦìĤ°":11072,"Ġìŀīê¸Ģëŀľëĵľ":11073,"ĠETF":11074,"Ġë¶Īë¹Ľ":11075,"ë¯¹ìĬ¤":11076,"ĠìŀħìĪĺ":11077,"Ġì§Ģì¼ľìķ¼":11078,"ĠëıĻìª½":11079,"Ġíİ¼ì¹ľ":11080,"ĠìĭłìĽĲ":11081,"Ġíİł":11082,"íļĮìĿĺìĭ¤":11083,"ì½ľë¦¿":11084,"ì§Ģì¹¨":11085,"Ġê»į":11086,"Ġëª°ëł¸":11087,"ë¹Ķ":11088,"êµ°ìĤ¬":11089,"íĨµê³Ħ":11090,"ĠìĿµíŀĪ":11091,"ĠëıĦëĤ´":11092,"Ġê³łìĿĺ":11093,"Ġê¹Ģëªħ":11094,"ĠìĭłìĦ±":11095,"ë°Ķë¥´":11096,"ëħĦì¸µ":11097,"ìĦ¸íĽĪ":11098,"ìķĦë§Ī":11099,"ê°ģìĦľ":11100,"Ġë©´íĹĪ":11101,"Ġëĺĳëĺĳ":11102,"ê¶Ī":11103,"Ġë°Ķì§Ŀ":11104,"ìĹ°ìĬµ":11105,"ĠìĦłìŀ¥":11106,"Ġë§ĲíĪ¬":11107,"Ġë¦¬ìĬ¤íĬ¸":11108,"ì«":11109,"LA":11110,"Ġì£¼ìĥģ":11111,"Ġìĸĳì§Ī":11112,"Ġë¦¬ëĵľ":11113,"Ġìĥ·":11114,"ê¹ľ":11115,"ëĵľë¦°":11116,"Ġìķķì¶ķ":11117,"ëķĢ":11118,"íĻķë³´":11119,"íģ´ë¦¬":11120,"ĠíĦ¸ìĸ´ëĨ¨":11121,"Ġë¬¼ê²°":11122,"ìķĦë¦Ħ":11123,"ĠíĽĦìľł":11124,"Ġì¼Ģìĸ´":11125,"ìĭłìłĢ":11126,"Ġë¸ĮëĿ¼ìļ´":11127,"ĠìħĶì¸ł":11128,"ë¹Ħìĥģ":11129,"ë§ŀìĿ´":11130,"Ġìłķëª½":11131,"ĠìīĲ":11132,"ĠëĿ¼ìļ´ëĵľ":11133,"Ġìĸ´ëĸ¡":11134,"ĠíĶĦëłĪìŀĦ":11135,"ĠìĤ¬ë£Į":11136,"ĠìĺĪë§¤":11137,"ëŀŃíĤ¹":11138,"ê°Ģê³µ":11139,"ĠìĤ¬ìĦ¤":11140,"Ġìļ¸ëł¤":11141,"Ġê°ĢìĤ°":11142,"Ġì´Īê³ł":11143,"Ġë³Ħê°ľ":11144,"ĠíļĮìĤ¬ì±Ħ":11145,"ìľ¼ìĦ¸ìļĶ":11146,"ìĿĦìĪĺë¡Ŀ":11147,"ĠìļķìĦ¤":11148,"ì°Ķ":11149,"íĶĮëĿ¼":11150,"Ġë³´ê¶Ĳ":11151,"ĠíļĮë³µìĦ¸":11152,"Ġìľ¡ì²´":11153,"Ġë°©ê¸Ī":11154,"ĠìľłìĿĺ":11155,"Ġì§ĳíĸīë¶Ģ":11156,"ĠëĿĪëĭ¤":11157,"Ġë¹Ħìľł":11158,"ĠìłģíĺĢ":11159,"ì²´ìłĦ":11160,"AE":11161,"ĠíĽĦíĩ´":11162,"ĠìıŁìķĦì¡Į":11163,"ĠìĦ¸ìŀħìŀĲ":11164,"ë²łìĿ´ìĬ¤":11165,"Ġë¬¸ì²´":11166,"ĠìĿ¸ì¢ħ":11167,"ĠíİĢ":11168,"Ġíĳ¸ëĵľ":11169,"ĠìĤ¬ìŀĲ":11170,"Ġê±°íĴĪ":11171,"êµĲìĦŃ":11172,"ĠëĮĢë¶Ģ":11173,"ëĵľë¡ľìĿ´ëĵľ":11174,"Ġì·¨íķľ":11175,"Ġì½Ķìĺ¤ë¡±":11176,"Ġëĭ¨íİ¸":11177,"ìĿ´ëħ¸ë²łìĿ´ìħĺ":11178,"Ġíķ©ë²ķ":11179,"ĠìĨĮë§Ŀ":11180,"ĠëĤ´ìī¬":11181,"Ġ93":11182,"ive":11183,"ë±ĥ":11184,"Ġë©°ëĬĲë¦¬":11185,"ë¶Īë²ķ":11186,"ë¦¬ìĹĲ":11187,"å¹":11188,"Ġìµľìŀ¥":11189,"Ġìľłìŀ¬":11190,"Ġê°¯":11191,"Ġì¹ĺìļ°":11192,"ìŃ":11193,"ĠìŀłìĪĺ":11194,"Ġêµ¬ìĤ¬":11195,"ĠìľĦì´ī":11196,"ĠìĿ¸ìĤ¼":11197,"Ġê³łìŀĳ":11198,"Ġíĸīìļ´":11199,"ìĬ¤íĶ¼":11200,"ĠëĵľëŁ¬ëĤ¸":11201,"ĠìĥĿê¸´ëĭ¤":11202,"Ġë¬¸ëªħ":11203,"Ġì§Ģìļ°":11204,"ìļ´íĬ¸":11205,"Ġìĭ¤ì¦Ŀ":11206,"ĠìĿ´ì°½":11207,"ĠëĤĺëĪĪ":11208,"ëĲłì§Ģ":11209,"Ġì»·":11210,"ĠìĽ¹íĪ°":11211,"Ġì¤ĳìĭ¬ì§Ģ":11212,"Ġë°°ëŁ´":11213,"Ġíį¼ìł¸":11214,"ëĿ¼êµ¬":11215,"ìĨĮê°ľ":11216,"Ġê´ĳë²ĶìľĦ":11217,"Ġë§ĪìĿĮê»ı":11218,"Ġë³´ë¥ĺ":11219,"ĠìĿ´íĺĦ":11220,"Ġë°ľìĥģ":11221,"Ġë¬µë¬µ":11222,"Ġë³´ë¦Ħ":11223,"âĶ":11224,"ìļĶìĨĮ":11225,"Ġì¡°ë¥ĺ":11226,"ĠíĶĮëĿ¼":11227,"Ġë³¶":11228,"ĠìĹ°íıī":11229,"ëħ¸ìĬ¤":11230,"Ġì½ĶëłĪ":11231,"ìļĶìĿ¸":11232,"Ġê±°ìķ¡":11233,"Ġìĥģíķ´":11234,"ĠìĦľìª½":11235,"ĠíķĻìľĦ":11236,"Ġìŀ¥ë¡ĢìĭĿ":11237,"ëłĮì§Ģ":11238,"Ġë³µëıĦ":11239,"ĠêµĲì§ģìĽĲ":11240,"ĠíĽĦìŀĦ":11241,"ĠíĴĢìĸ´":11242,"Ġë§¤ë²Ī":11243,"ĠëıĻìĥģ":11244,"Ġìĭłìŀĳ":11245,"ĠìłĢëłĩê²Į":11246,"Ġì¼ĢìĿ´ìĬ¤":11247,"íĮ¨ëĵľ":11248,"Ġìŀ¥ê±°ë¦¬":11249,"ĠëĤĺíĥĢëĤľëĭ¤":11250,"Ġíľ´ìĸĳ":11251,"ĠìĬ¤ì¹´":11252,"íĶ¼ìĨĮ":11253,"ëĤ¨ëĮĢ":11254,"ĠìĦľìłķ":11255,"ê»ĳ":11256,"Ġíķľê»ı":11257,"Ġë¦½":11258,"Ġë³´ê¸ĪìŀĲë¦¬":11259,"ìĿ¸ê°ĢìļĶ":11260,"ĠìŀĶëĶĶ":11261,"Ġë¸Įë¡ľ":11262,"íĬ¹ìłķ":11263,"ì²łíķĻ":11264,"ê°ķìłĦ":11265,"ëĤĺë¬¼":11266,"ìĪĺìĤ°ë¶Ģ":11267,"ĠMOU":11268,"ìĺĪê³ł":11269,"ĠëıĮë´Ħ":11270,"ĠìĹħëį°ìĿ´íĬ¸":11271,"Ġ&":11272,"est":11273,"ĠíĺĦìĪĺë§ī":11274,"ëĸł":11275,"ĠêµĲìĹŃ":11276,"Ġíķĳíģ¬":11277,"ëĺ¥":11278,"ìĬ¹íĻĺ":11279,"ìļ´ëıĻìŀ¥":11280,"ë¯¸ìĬ¤":11281,"ĠìĿ´ìŀ¬ìļ©":11282,"ĠìĪĺìĤ°":11283,"Ġê¸°ë¦¬":11284,"Ġìļ¸ë¦ī":11285,"01":11286,"Ġë¶Ģì¹ľ":11287,"ĠìĨĲë°Ķëĭ¥":11288,"ĠíĻĶíķ´":11289,"ĠìĹ°ìķĪ":11290,"Ġìĺ¤ìĿ¼":11291,"ê²½íĹĺ":11292,"ìĬĺ":11293,"ì¹©":11294,"Ġê³¼ë°ĺ":11295,"ĠìĹħìĨĮ":11296,"Ġëĭ¹ì§Ħ":11297,"ĠGDP":11298,"Ġìĺ¨íĨµ":11299,"Ġê²¹ì¹ĺ":11300,"ìĥģìĤ¬":11301,"ĠëĮĢìļ°ê±´ìĦ¤":11302,"ĠëĤ´ìĦ¸ìļ´":11303,"Ġë¯¸ë¯¸":11304,"Ġìĺ¥ìĥģ":11305,"ìĭłíĥģ":11306,"ĠìĬ¤ìľĻ":11307,"ĠíĬ¼íĬ¼":11308,"Ġëª¨ëĵĪ":11309,"ë°©íķ´":11310,"ĠíĬ¹ìľĦ":11311,"Ġì£¼ìłĢìķī":11312,"Ġc":11313,"ìĭľê²½":11314,"Ġì§ģìĦł":11315,"Ġìłľë²ķ":11316,"ê³łìĸĳ":11317,"ĠíĶĮëŀ«íı¼":11318,"Ġê²ĮìĿ´íĬ¸":11319,"ê³¡ëıĻ":11320,"ê°¯":11321,"ìłĳìĪĺ":11322,"ì£¼êµĲ":11323,"Ġëª¨ëĵľ":11324,"if":11325,"ĠìĦ±ê¸Ī":11326,"ì§ĦìĿ´":11327,"ë°Ķê¿Ī":11328,"ĠìĥĿìĦ±":11329,"ê³łëł¹":11330,"ìłľêµŃ":11331,"ĠìĿ´ë¤Ħìł¸ìķ¼":11332,"ĠíĺĲìĺ¤":11333,"ëĨįìŀ¥":11334,"ĠìłĲëł¹":11335,"Ġï¼Ĥ":11336,"Ġê°Ħíĺ¸":11337,"ìĹĶëĤłëłĪ":11338,"ĠìĽĲìķĪ":11339,"Ġê³łëĵ±íķĻìĥĿ":11340,"ì»¨ìĦ¤íĮħ":11341,"íĿ¬ìłķ":11342,"ëĮĢì¤ĳ":11343,"ĠìĦ±ë§¤ë§¤":11344,"ĠìĺĪìĪĺ":11345,"ë¬»":11346,"Ġë¦¬ìĦľì¹ĺ":11347,"ìľ¼ëĭĪê¹ĮìļĶ":11348,"ëĤ´ìħĶëĦĲ":11349,"Ġê±´ìĦ¤ìĹħ":11350,"ĠìŀĲìłķ":11351,"Ġê³łëŀĺ":11352,"ìħ°":11353,"ver":11354,"ìĹĮ":11355,"ëŁ¬ë¸Ķ":11356,"Ġì§Ģíĺķ":11357,"Ġë§Īë¹Ħ":11358,"Ġë°ľìĹ´":11359,"ì²ľìķĪ":11360,"ĠíķĺìĹ¬ê¸Ī":11361,"Ġìĺ¤ë¦¬ìĺ¨":11362,"ĠìĦłê±°ë²ķ":11363,"Ġëĭ¹íķ´":11364,"ìĿ¼ëŁ¬":11365,"ĠíĤ¤ìĽł":11366,"íķ´ê²°":11367,"Ġì§ĳì°©":11368,"Ġì¡°ì¹´":11369,"ç¥":11370,"ĠëıĦëĳĳ":11371,"ìĦľìļ¸ìĭľ":11372,"RI":11373,"ëĤĺê°Ħ":11374,"ĠìľłëŁ½ìĹ°íķ©":11375,"ìĤ´ìĿ¸":11376,"íĶĦëŀĳìĬ¤":11377,"ĠìĨ¡íĮĮêµ¬":11378,"Ġíļ¨ëł¥":11379,"Ġë¹łìł¸ëĤĺê°Ģ":11380,"Ġíľ´ìĿ¼":11381,"Ġëºı":11382,"ì²ĺë²Į":11383,"ë¬´ìĤ¬":11384,"ĠëĮĢêµŃë¯¼":11385,"ìĽĲíļĮ":11386,"ĠìĬĪíĮħ":11387,"íķ´ê³ł":11388,"ĠëıĮìķĦëĭ¤ëĭĪ":11389,"Ġì´Į":11390,"ìĪĺì¹Ļ":11391,"ìĪľìĿ´ìĿµ":11392,"Ġëĥīìłķ":11393,"ĠìķĮíĮĮ":11394,"ĠOECD":11395,"Ġì¡°íĺķ":11396,"ë§¤ìĿ¼":11397,"ìĦľë¶Ģ":11398,"Ġíĵ¨":11399,"ìĪĺíĸī":11400,"ê°ľëħĲ":11401,"Ġë¶Ħì£¼":11402,"Ġ91":11403,"Ġêµ¬ë¡ľ":11404,"ê³µê²©":11405,"ĠìĦ¸ëĭ¨":11406,"ĠíĽĦìĽĲê¸Ī":11407,"Ġ1988":11408,"ĠìĭľíĬ¸":11409,"ĠìŀĲìķĦëĥĪ":11410,"ĠìĬ¤íĭ¸":11411,"Ġê±°ëŀĺëŁī":11412,"Ġê±¸ìĸ´ê°Ģ":11413,"Ġê¸°ë¥´":11414,"ì§ĢíļĮ":11415,"ëł¤ëĭ¤":11416,"ĠëĤĺíĿĺ":11417,"ĠìłķêµĲ":11418,"è¡":11419,"ĠëĤłëł¸":11420,"Ġê°Ģìł¸ìĺ¤":11421,"Ġë²ĦëĿ½":11422,"ê°Ģê²Į":11423,"įìĬ¤":11424,"ĠíĥĢìĦĿ":11425,"ëĤ´ìĿ¼":11426,"Ġëħ¸ëıĻì¡°íķ©":11427,"ĠìĬ¤íĶĦë§ģ":11428,"Ġë§Īìħ¨":11429,"æķħ":11430,"ëłĪëĤĺ":11431,"íķĻê·ľ":11432,"Ġì¡°ìĹħ":11433,"Ġê³µì²ŃíļĮ":11434,"íķ´ìĦĿ":11435,"ìį¹":11436,"ëĵľë¦½ëĭĪëĭ¤":11437,"íĥĿíĬ¸":11438,"Ġë°©ë¶ģ":11439,"Ġë°ĺë¬¸":11440,"ê°ĢìłĦ":11441,"ĠêµŃë¬´ë¶Ģ":11442,"ĠëĶ°ëıĮ":11443,"ĠëĮĢë¦¼":11444,"ĠìķĦìļ°ë¥´":11445,"Ġë¸Ķë¡Ŀì²´ìĿ¸":11446,"ĠìĥģìĤ¬":11447,"ãİ¢":11448,"ìļ°ìĦł":11449,"ĠìĭłìĤ¬":11450,"ĠëĤ´ì§Ģ":11451,"ìłĢëĦĲ":11452,"íĶĮë£¨":11453,"Ġìłķìļ°":11454,"ìĺ¬ë¦¬":11455,"Ġë¶Ģë¥¼":11456,"Ġë°ķìŀ¬":11457,"Ġìĺ¨ì²ľ":11458,"ëŀĺìļĶ":11459,"ìĺģìĪĺ":11460,"ìĺ¬ë¦°":11461,"å¼":11462,"ĠìĿ´ìĤ¬íļĮ":11463,"ìłĦì²´":11464,"ĠìĭłëħĲ":11465,"Ġì»¤ì§Ħ":11466,"Ġë¸ĶëĿ¼":11467,"ĠëıĻìķĦìĭľìķĦ":11468,"ìĸĢë§Ī":11469,"Ġë¯¼ê´Ģ":11470,"Ġì´Īë¡Ŀ":11471,"ë£¨íĥĢ":11472,"ìĦ±ë¶Ħ":11473,"ìŀ¥íķĻ":11474,"ĠìĸĳìĤ¬":11475,"ĠìĨĮìĭĿíĨµ":11476,"Ġìĺµìħĺ":11477,"ĠìĿ´ê²¼":11478,"ĠíĮĮëĿ¼":11479,"ĠìĽĲíĺķ":11480,"íĻĶìĦ±":11481,"ĠìĿ´ê°ķ":11482,"íĤ¤ìĬ¤":11483,"Ġê²©ìĥģ":11484,"Ġê²°ì§ĳ":11485,"Ġíıīëĵ±":11486,"ĠíĴįëł¥":11487,"ĠìĻ¸íĻĶ":11488,"ë°Ķìļ´ëĵľ":11489,"ĠëįĶìľĦ":11490,"ĠìĽ¨ìĿ´":11491,"ëª¨ëĳĲ":11492,"ĠëĤĺì£¼":11493,"åĪ":11494,"ë²Ħë¦´":11495,"Ġíĸīìŀ¥":11496,"ëª¨ìĬµ":11497,"Ġëĭ´ìŀĦ":11498,"ĠíĬĢìĸ´ëĤĺ":11499,"Ġë°ľì¡±":11500,"Ġê°Ģìł¸ëĭ¤":11501,"Ġìķħìļ©":11502,"ì¢ħìĿ¼":11503,"ĠëĮĢë°ķ":11504,"ĠìĻķë³µ":11505,"Ġê³µíĨµìłĲ":11506,"ĠëĮĢë²ķìĽĲìŀ¥":11507,"ĠëĨįìĦ±":11508,"Ġê¹Ģíķľ":11509,"Ġë¡ľë§Ī":11510,"êµŃíĨł":11511,"ìĭłíķľ":11512,"Ġë°ĺì°¬":11513,"Ġëį°ìĿ´íĬ¸":11514,"ìĭłê²½":11515,"ëĤĺìĿ´íĭ°":11516,"Ġë¹ĦíĬ¸":11517,"ip":11518,"ê²Ģì°°ì²Ń":11519,"ì±ħìŀĦìŀĲ":11520,"Ġê¸°ëĳ¥":11521,"ëıĦìĭ¬":11522,"Ġë²łë¥¼ë¦°":11523,"ìŀħì°°":11524,"ĠíĥĪë°Ķê¿Ī":11525,"ĠíıŃëĿ½":11526,"Ġíĸ¥ìĪĺ":11527,"ì±ĶíĶ¼":11528,"Ġê°ĲíŀĪ":11529,"Ġì»¬ëłīìħĺ":11530,"Ġê°ľë§īìĭĿ":11531,"ëķĲ":11532,"ì¹´ë©ĶëĿ¼":11533,"ë°°ëĭ¹":11534,"ĠìĸĳíĮĮ":11535,"Ġê°Ħìĭł":11536,"ĠìĿĮì£¼ìļ´ìłĦ":11537,"Ġë±Ģ":11538,"ĠìĹĦìłķ":11539,"Ġì¤ĳìľĦ":11540,"ĠOLED":11541,"ìļĶìĸĳ":11542,"ìĭ¶":11543,"ĠìĿ´ê´ĳ":11544,"Ġíķ´ìĤ°":11545,"ĠìłĳìłĦ":11546,"ìĸĳêµ°":11547,"ĠìłķìĦł":11548,"ëŁ¬ë¸Į":11549,"Ġíħĥë°Ń":11550,"ê¸°ìķ¼":11551,"ĠìľłíĿ¥":11552,"Ġëħ¸ë¥´":11553,"ĠìĹ°ì¤ĳ":11554,"ëłĢëĭ¤":11555,"ĠìĪ¨ê²¨":11556,"Ġë¬´ì§Ģ":11557,"íĮ¨ìĬ¤":11558,"Ġì¤ĳê³łì°¨":11559,"Ġíĺķíıī":11560,"ì£¼ë¥ĺ":11561,"Ġë§Ĳë¦¬":11562,"Ġíĥľìļ°":11563,"Ġëª¨ë¥¸ëĭ¤ëĬĶ":11564,"íĺ¸ìĺģ":11565,"Ġê¸ĢìĶ¨":11566,"ĠëĤĺëĪĮ":11567,"Ġê°Ģë¦¬íĤ¤":11568,"Ġë§¤ëī´ìĸ¼":11569,"ì´īì§Ħ":11570,"Ġì¹ĺìķĪ":11571,"OT":11572,"ĠíĴĪê²©":11573,"ĠìķĮëľ°":11574,"íĮĮìĪĺ":11575,"ìĽĮíĸĪ":11576,"íħĮë§Ī":11577,"ë²ķë¥ł":11578,"ĠíĹĪë¬¼":11579,"Ġìĸ´ëķĮ":11580,"ĠìĪ¨ì¡Į":11581,"ĠìĤ°ì§Ģ":11582,"Ġëª°ëĿ¼ëıĦ":11583,"ë§Įê¸Ī":11584,"ĠìĦ¸ê·ł":11585,"âĢĻ.":11586,"ĠIMF":11587,"Ġìĸ´ëł¸":11588,"Ġíķ¨ë¶Ģë¡ľ":11589,"Ġë°ķíĥĪ":11590,"ĠìĬ¤íĥľíĶĦ":11591,"Ġê¼½íĺĶ":11592,"Ġê¸°íķĺ":11593,"ew":11594,"ĠíķĺëıĦê¸ī":11595,"Ġíĥľìĸ´ëĤ¬":11596,"Ġíĺ¼íķ©":11597,"Ġìłķì§Ħ":11598,"Ġë©Ķë¦¬":11599,"Ġì§Ħíķ´":11600,"ĠìĤ´ê·ł":11601,"ê²½ìĽĲ":11602,"ìľ¼ë¦¬":11603,"Ġë¯¸ìĬ¤":11604,"Ġìĭ¤ëªħ":11605,"Ġêº¼ëĥĪ":11606,"Ġë°ĶëĢĶ":11607,"íı´ë¦¬":11608,"ëĵ£":11609,"Ġíı¬ìĪĺ":11610,"Ġë²łìĿ´ìĬ¤":11611,"ĠìĬ¹ê²©":11612,"Ġìŀ¬ì¦Ī":11613,"ëıĶ":11614,"Ġ2025":11615,"íķĦëįĶ":11616,"Ġìĸ´ìĦł":11617,"Ġìŀ¬ìŀĦ":11618,"Ġë¥´ëħ¸ìĤ¼ìĦ±":11619,"Ġì¡°ê²½":11620,"ìĦ±ê³µ":11621,"ìĨĲíķ´":11622,"ì§Ģì¶ľ":11623,"ĠëıĮíĴį":11624,"Ġíĸĩë¹Ľ":11625,"Ġë°Ģì°©":11626,"ĠëĤ´ìĦ¸ìĽł":11627,"ìķĦì¹¨":11628,"ìħĶë¦¬":11629,"Ġë¯¸ìĬ¤íĦ°":11630,"ĠíĢ´ì¦Ī":11631,"ĠíķŃêµ¬":11632,"ĠíĽĦìľłì¦Ŀ":11633,"Ġì§Ģê°ĳ":11634,"ĠSW":11635,"ì´ĿìĥĿìĤ°":11636,"Ġìĺ¤ë¥¸ëĭ¤":11637,"ĠìĿ¸ê°Ģ":11638,"ĠìĭĿíĥģ":11639,"Ġíĩ´ìŀĦ":11640,"Ġì§ĢíĤ¬":11641,"Ġëī´ì§Īëŀľëĵľ":11642,"ĠIoT":11643,"íĺĦì§ģ":11644,"ëĨĶ":11645,"ê²Ģìŀ¥":11646,"ĠìĭľìľĦëĮĢ":11647,"Ġê¸īíķĺ":11648,"ê±°ëŀĺìľĦ":11649,"ìłķë³´ìĽĲ":11650,"Ġëĭ¤ëĭĲ":11651,"Ġëĭ¨ìłĪ":11652,"Ġê¹ĬìĪĻ":11653,"Ġëĭ¬ëĿ¼ì§Ī":11654,"Ġëª¨íĹĺ":11655,"ìĸĳìĦ±":11656,"ĠìĿ¼ëªħ":11657,"Ġìļ´ëıĻìŀ¥":11658,"íĥľìĸĳ":11659,"Ġê²ĢìĤ¬ìŀ¥":11660,"ĠíĤ¤ìļ¸":11661,"Ġê¶ģê·¹":11662,"Ġì§Ģë¦¬ìĤ°":11663,"Ġê·Ģì¡±":11664,"ìŀ¬ìĽĲ":11665,"Ġë§Ľì§ĳ":11666,"ì§ĢìŀĲì²´":11667,"ĠìĤ¬ë©´":11668,"ìĪĺìĤ°ë¬¼":11669,"ë¬´ìŀ¥":11670,"ÃĹ":11671,"ê·¸ê±´":11672,"ìĦľë¥ĺ":11673,"Ġìĭ¤ë¦¬ì½ĺ":11674,"ì§ĢìĿ¸":11675,"ê²½ë¹Ħ":11676,"ëĬĶêµ¬ëĤĺ":11677,"ë°°êµ¬":11678,"Ġë§Īì°°":11679,"Ġìĭľíķľ":11680,"Ġê¹Ģë¬¸":11681,"'.":11682,"Ġë¶Īê±°ì§Ħ":11683,"Ġì§ģê²°":11684,"Ġëĸ¨ë¦¬":11685,"ĠìĨįì¶ľ":11686,"ê´Ģìĭ¬":11687,"Ġë¹Įë¦¬":11688,"ìŀĲìłĦê±°":11689,"Ġ\"âĢ¦âĢ¦.\"":11690,"Ġì´Ŀìķ¡":11691,"ĠìĶĮ":11692,"Ġê°ģì§Ģ":11693,"Ġìķħìĺģíĸ¥":11694,"ìıĺ":11695,"Ġëħ¸ìĪĻ":11696,"Ġê²½ê³¼":11697,"ĠìĹĲì½Ķ":11698,"íĿ¬ë¡±":11699,"Ġë³´ëĭµ":11700,"ì¤į":11701,"Ġêµ°ëį°":11702,"ãİŀ)":11703,"Ġíķ´ì¹ĺ":11704,"ĠìľĮë¦¬":11705,"ĠíķľêµŃìłĦëł¥":11706,"ĠìĦľë°©":11707,"ĠìĨĮë©¸":11708,"ĠíĤ¹":11709,"ĠíĥĪëª¨":11710,"ĠìĹ°ìĩĦ":11711,"Ġë©´ìĹŃëł¥":11712,"Ġê°Ģëĭ´":11713,"Ġëĭ¤ì¤ĳ":11714,"Ġëĵ¤ìĸ´ìĦłëĭ¤":11715,"íĥĢëĭ¹":11716,"Ġìŀ£":11717,"ìļ°ë¯¸":11718,"ëĭ¤ë¥´":11719,"ĠëıĦì§ĢìĤ¬":11720,"ĠìĨĲìŀĲ":11721,"ëıĻë§¹":11722,"ĠëĶ±ëĶ±":11723,"ĠìłķìłĲ":11724,"ĠëłĪìłĢ":11725,"ĠìĪĺëł¨":11726,"ĠëĮĢìłĦìĭľ":11727,"Ġì§Ģë£¨":11728,"ĠíĶ¼ëł¥":11729,"ĠìĿĳìļ©":11730,"ê°¤ëŁ¬ë¦¬":11731,"ĠìĤ¬ìĸĳ":11732,"ì¹ľíĻĺê²½":11733,"ê²½íĻĺ":11734,"Ġì¢ħìĹħìĽĲ":11735,"Ġë¶Īê¸¸":11736,"RS":11737,"íĢĺìĸ´":11738,"ĠëĤĻê´Ģ":11739,"ì¤Ģíĺ¸":11740,"ĠëĤ´ë¹Ħì³¤":11741,"ĠìŀĲë³¸ì£¼ìĿĺ":11742,"ë¶ĦìŁģ":11743,"Ġê¹Ģìľ¤":11744,"ê°ĢëıĻ":11745,"æµ":11746,"ĠëķĮëł¤":11747,"ê°Ģìļ´ëį°":11748,"ì¤ĳëıħ":11749,"ë³¶":11750,"ìĿ¸ë¬¼":11751,"Ġì¡°ìĥģ":11752,"ê³łìĥĿ":11753,"Ġëħ¸íĻĶ":11754,"ĠìĿ´ì§Ħ":11755,"ĠìŀħëĮĢ":11756,"íģ¬ë¦¬íĬ¸":11757,"ĠìĬ¤ë¬¼":11758,"Ġì§Ģë°©ìĦ¸":11759,"ĠëªħëıĻ":11760,"Ġê³¤ëĳĲ":11761,"05":11762,"Ġìļ°íķľ":11763,"ĠëŃĶì§Ģ":11764,"Ġìĩłê³łê¸°":11765,"Ġì¶©ëĭ¹":11766,"ëħ¹ìĥī":11767,"Ġë¶ĢìĹĮ":11768,"ê¾¸ë¡ľ":11769,"ĠìĿ´ë§Į":11770,"Ġë£°":11771,"ĠìĨįíķľ":11772,"Ġë°ķì§Ħ":11773,"ìķĦë¹ł":11774,"Ġì¡°ë¬¸":11775,"Ġë²łë¥´":11776,"ëĦ¨":11777,"Ġì·¨íķł":11778,"ãİ¥":11779,"ĠìĬ¤ìºĶ":11780,"ï¥":11781,"Ġê¸°íĺ¸":11782,"ãĨįì¤ĳ":11783,"ĠìĪĺíĺ¸":11784,"ĠíĬ¹ìĥī":11785,"ĠëĤ¨ìļ©":11786,"ĠíķĺëıĻ":11787,"Ġê·¸ëł¸":11788,"èĢ":11789,"ĠìłģíŀĮ":11790,"ë£»":11791,"Ġ1992":11792,"Ġíķ´ìĸĳìĪĺìĤ°ë¶Ģ":11793,"ĠìłĢë§Īëĭ¤":11794,"ĠíĺĦëªħ":11795,"ê°Īëĵ±":11796,"ĠìĦ±ê·łê´Ģ":11797,"ĠCBS":11798,"Ġë´īíĪ¬":11799,"ìĹĲíĶĦ":11800,"Ġìļ©ë³ĳ":11801,"æĻ":11802,"Ġê³¼ëĭ¤":11803,"ĠíŀĻ":11804,"Ġë¶Īì¾Į":11805,"Ġíļ¨ëĬ¥":11806,"ĠíķĢíħĮíģ¬":11807,"ĠëĮĢë¦¬ìłĲ":11808,"Ġìĸĳì£¼":11809,"Ġë¯¸ëĵľíķĦëįĶ":11810,"ĠìĹ°ìŀĦ":11811,"ĠíĻįìĤ¼":11812,"ĠëįĶëŁ¬":11813,"Ġì«ĵê²¨":11814,"Ġê¹Ģì°½":11815,"Ġìĺ¤ë§Į":11816,"ê´Ģë¦¬ë³¸ë¶Ģ":11817,"ê²½ìĦł":11818,"Ġê°ľìĽĶ":11819,"Ġë§īíĺĢ":11820,"Ġë§ŀë¬¼ëł¤":11821,"ëľ¸":11822,"Ġíķľìĭľ":11823,"ìĺģì§Ħ":11824,"ìĬ¹ìĿ¸":11825,"Ġë§Įì§Ģ":11826,"ìĺ¤íĽĦ":11827,"åľĭ":11828,"ë°ķìĿ´":11829,"Ġíķĺìļ°ìĬ¤":11830,"ëŀĺíĶĦíĬ¸":11831,"ìľĦëĮĢ":11832,"Ġìĭłê³¡":11833,"ì¹´ì¹´ìĺ¤":11834,"ìłķìĭĿ":11835,"ìĥģìĿ¸":11836,"ĠìĹ´ë§¤":11837,"ìĬ¤íĬ¸ë¦¬íĬ¸":11838,"ĠíĨ¡íĨ¡íŀĪ":11839,"ê³łë¬¸":11840,"Ġë¯¸ëĭ¬":11841,"ĠìĪĺì§ģ":11842,"Ġìŀ¥ë²½":11843,"ĠìĨĮíĮĮ":11844,"ĠìķĪìłĦìĤ¬ê³ł":11845,"Ġì§ĢëĤĺì¹ľ":11846,"ìĤ¬ëł¹ë¶Ģ":11847,"ìľĦìĥĿ":11848,"Ġì´īì´ī":11849,"Ġì¹©":11850,"ĠìłĢì¶ľìĤ°":11851,"Ġì§ĪëłĢ":11852,"ê²Ģì¦Ŀ":11853,"Ġíĳľì¶ľ":11854,"ìĿ¸ìŀ¬":11855,"ĠìĹ¬ëł¥":11856,"ĠìĤ¬ìļ´ëĵľ":11857,"ìĿ´íĽĦ":11858,"ĠíķĦìŀĲ":11859,"Ġìłł":11860,"Ġê³łì¹ĺ":11861,"Ġìĥģê³µ":11862,"ĠìĦłíĺ¸ëıĦ":11863,"Ġë¹łì§Ī":11864,"ĠëıĻë¬¸":11865,"ìĨĮëħĢ":11866,"Ġë²ķê´Ģ":11867,"íĬ¹ìĪĺ":11868,"ëıĹë¬¼":11869,"ĠEBS":11870,"ë¦¬ìĸ¼":11871,"ê·¸ëŀĺìĦľ":11872,"ĠëıĻë°ĺìĦ±":11873,"Ġë¡ľë§¨ìĬ¤":11874,"ĠìĪĺì§Ģ":11875,"Ġìłķì§ģ":11876,"ëĤ´ëł¤":11877,"ĠìłľìŀĳìĤ¬":11878,"Ġë°ĺìĤ¬":11879,"Ġìļ©ìĿ´":11880,"Ġëĳ¬":11881,"ĠìłĦë¬¸ìĿĺ":11882,"ë³´ëĶĶìķĦ":11883,"ì½§":11884,"ĠìłĦìĦł":11885,"ì§ĢìĨį":11886,"ìĪĺìĨĮ":11887,"Ġëĸłëĵ¤":11888,"ë¸Ķë¦¬":11889,"ĠìĹ¬ìłķ":11890,"Ġì¡°íķ©ìŀ¥":11891,"ê·łíĺķë°ľìłĦ":11892,"ë¤ĺ":11893,"íĬ¸ëĦĺ":11894,"ĠëıĦë§Ī":11895,"Ġë±ħ":11896,"ĠUS":11897,"ë±ī":11898,"Ġë³Ģíĺķ":11899,"Ġì¶©ìĦ±":11900,"Ġì¶Ķë¯¸ìķł":11901,"ê¸°ìĺ¨":11902,"ĠìĹ¬ìĪĺìĭľ":11903,"ìĦľë¡ľ":11904,"íı¬íĦ°":11905,"Ġê±°ëĳĺ":11906,"ĠíħĶëłĪë¹ĦìłĦ":11907,"Ġê·¸ëĿ¼ìļ´ëĵľ":11908,"Ġê·¸ìµ¸":11909,"Ġíı¬ì§Ģ":11910,"íĵ":11911,"ĠìĭľìĹ°":11912,"ĠíķĦíĦ°":11913,"Ġì¶ĶìĿ´":11914,"ĠìŀĦìĭľíļĮ":11915,"ëŀĹ":11916,"ë³´ìľ¡":11917,"ĠëıĻì§Ģ":11918,"ĠëĮĢíķŃ":11919,"Ġì¹ĺê³¼":11920,"ĠëłĪìĿ´ìłĢ":11921,"Ġê¹¨ìĸ´":11922,"ëİĮ":11923,"ĠìĤ°ì¶ľ":11924,"ĠëĤłëł¤":11925,"ëŁ¬ëĵľ":11926,"Ġê³łë¹Ħ":11927,"íķľë°ĺëıĦ":11928,"Ġë³Ģíķ´":11929,"Ġíĥľê·¹ê¸°":11930,"Ġê°ģê¸°":11931,"ìĬ¤ëŁ¬ìĽĢ":11932,"Ġëª¨ìļķ":11933,"Ġì°¾ìķĦìĻĢ":11934,"Ġë¬¼ìĸ´":11935,"ĠìĦľë¥¸":11936,"Ġíķ©ìĤ°":11937,"Ġìĥģê´ĢìĹĨ":11938,"ĠëºĢ":11939,"íĸīì§Ħ":11940,"ë§Įìķ½":11941,"ļê½ĥ":11942,"ĠìĤ´ìķĦëĤĺ":11943,"ĠíĸĦ":11944,"ĠìĹĦì²ŃëĤĺ":11945,"êµ¬ë§Ī":11946,"Ġê³ĦíĮĮ":11947,"ĠíļĮìĥĿ":11948,"ĠëĤ¸ëĭ¤":11949,"ëĤ´ìĻ¸":11950,"Ġëĭ¨ìĹ°":11951,"Ġë¡ľëĵľë§µ":11952,"Ġê¹Ģíĺľ":11953,"ãİ¡,":11954,"ëĨįëĭ¨":11955,"ë¥µ":11956,"ëħ¸ëıĻëĭ¹":11957,"Ġìľłë³´":11958,"ìĹ°ê·¹":11959,"Ġíķľë³µ":11960,"íĶ¼íķ´ìŀĲ":11961,"ê¸ĢëĿ¼ìĬ¤":11962,"Ġê²½ìłľíķĻ":11963,"Ġë¶Ģë¥¸ëĭ¤":11964,"ĠíĥĿì§Ģ":11965,"íĨłë¡łíļĮ":11966,"ĠêµĲë³µ":11967,"Ġë¯¼ìŀĲ":11968,"Ġìĵ´ëĭ¤":11969,"ĠìĭłëĤĺ":11970,"ĠìĤ¬ëĵ¤":11971,"Ġê°ľíķĻ":11972,"ĠìĬĽ":11973,"Ġë§Īë¥¸":11974,"ìº¡":11975,"Ġê²½ìĿ¸":11976,"Ġìŀłëĵ¤":11977,"Ġê²ĮìĬ¤íĬ¸":11978,"ê´Ģìŀ¥":11979,"ì¢ħìĿ´":11980,"íı¬ì§Ģ":11981,"ŃëĭĪëĭ¤":11982,"Ġì°¸ìłĦ":11983,"ĠìºĲì£¼ìĸ¼":11984,"LL":11985,"ê±´ìĪĺ":11986,"ĠìĥĪê²¨":11987,"íħĮìĿ´ìħĺ":11988,"Ġëª¨ìĺĢ":11989,"Ġíķ´ìĺ¨":11990,"ëį±":11991,"Ġê·¸ëĭ¤ì§Ģ":11992,"Ġê´Ģë¬¸":11993,"Ġë§Īì¼ĵ":11994,"Ġì±ĶíĶ¼ìĸ¸ìĭŃ":11995,"ĠìĽĲë¡ľ":11996,"ĠëĽ´":11997,"AP":11998,"Ġì§ķìĪĺ":11999,"Ġë¬¸íĦ±":12000,"Ġìĺģíķĺ":12001,"ĠíĮĮìĥĿ":12002,"ê³µë¦½":12003,"ĠìĭłìĨįíŀĪ":12004,"Ġìłĳì´īìŀĲ":12005,"ĠìĹ¬íĸīê°Ŀ":12006,"Ġê³łìķ¡":12007,"íį¼ìĭľíĶ½":12008,"ĠìĤ´ìķĦìĺ¨":12009,"Ġë³¸íļĮ":12010,"Ġëº¨":12011,"Ġê°ĦìĤ¬":12012,"ĠìĿĺíķ´ìĦľ":12013,"Ġìĸ¼ìĸ´ë¶Ļ":12014,"ì¤ĳê¸°":12015,"ëįĶëĿ¼ë©´":12016,"Ġë¶Īì¶ľë§Ī":12017,"ĠìŀĦíķĺ":12018,"ĠíĨłìĸĳ":12019,"Ġì¶©ì£¼":12020,"Ġê°Ģê¾¸":12021,"ĠìķĦíĻī":12022,"ĠëıĮìķĦìĺ¬":12023,"ë²ħìĬ¤":12024,"Ġìŀħìĸĳ":12025,"ĠíĦ°ëľ¨ë¦¬":12026,"ĠìĮĵìĿ¸":12027,"Ġê³µìłķê±°ëŀĺìľĦ":12028,"Ġì°¨ë¦¬":12029,"Ġëĭ¨ê¸°ê°Ħ":12030,"Ġë°°ìĪĺ":12031,"íľ´ìĿ¼":12032,"Ġê°ĦìĭłíŀĪ":12033,"Ġìī¼íĦ°":12034,"ĠìŀĦìĿĺ":12035,"íĹ¬ìĬ¤":12036,"ë³´ê¸°":12037,"Ġê¸ģ":12038,"Ġë²Īì§Ģ":12039,"Ġê¸°ëĵĿ":12040,"Ġìĩ¼íĬ¸":12041,"Ġìļ°ìĹ°":12042,"ĠìłľìŀĲë¦¬":12043,"ĠìłľìĿ´":12044,"ĠìĹ¬ëįŁ":12045,"ĠìĹŃìĦ¸":12046,"ĠíĻĺê¸ī":12047,"ìĬ¬ëĿ¼":12048,"Ġë¶ĢìĿĺìŀ¥":12049,"ìłľìĿ´":12050,"ĠìĽĲì¡°":12051,"ìĺĢìľ¼ëĤĺ":12052,"Ġë³¼ëĦ·":12053,"Ġì¹´íĥĢë¥´":12054,"ìĬ¤íĶĦ":12055,"ìĦ¸ìĦľë¦¬":12056,"Ġìŀ¬ë¹¨ë¦¬":12057,"éĻ":12058,"ì§Ħë¡ľ":12059,"Ġë§ŀì·Ħ":12060,"íĺĦíĻ©":12061,"Ġê°ľê·¸ë§¨":12062,"Ġa":12063,"ĠíĨłì¢ħ":12064,"ĠëıĮìķĦìĦ°":12065,"Ġíĥľíıīìĸĳ":12066,"ë°°ì¹ĺ":12067,"ë¹Ħì¦ĪëĭĪìĬ¤":12068,"ĠëıĻêµ´":12069,"ĠìĿ´ëĤĻìĹ°":12070,"ìķĦë¥´":12071,"ĠíĽĦë¬¸":12072,"ĠëĦ¤ìĿ´":12073,"ĠíĥĢê¹ĥ":12074,"Ġëª¨ìĪľ":12075,"ĠêµŃë¬¼":12076,"Ġìĭ¤ìĪĺìļĶ":12077,"ìĿ´ìĬ¤íĬ¸":12078,"íĶĦëŀĢ":12079,"íĶĮëŀĺ":12080,"ĠìĿ´ë£¨ìĸ´ì§Ħ":12081,"ĠìŀĦì§Ħ":12082,"Ġíľĺë°ľìľł":12083,"ì¦ī":12084,"Ġê·¼ìłĳ":12085,"ìŀĲëıĻ":12086,"¤¼":12087,"Ġê¸°íĶ¼":12088,"ĠìłĦë³µ":12089,"Ġìĭ¸ìĿ´":12090,"ĠìķĮëłĪ":12091,"Ġì²ľíķĺ":12092,"Ġìĸĳë°ĺ":12093,"ĠìĥĿë¦¬":12094,"ĠëĿ¼ìĿ´ë²Į":12095,"ĠìĦľìĪł":12096,"ë¥ĺìŀ¥":12097,"ìŀ¥ë©´":12098,"Ġìĺ¬ëĿ¼ìĺ¨":12099,"Ġ1993":12100,"ĠìĥģìĬµ":12101,"ĠìĨĮì§Ħ":12102,"ìĹ°ìĪĺìĽĲ":12103,"ëª¨ëłĪ":12104,"Ġì§ĢìĦ±":12105,"ĠíıĲëł´":12106,"ĠëĤ¨ì¸¡":12107,"ĠìķĪëĵľë¡ľìĿ´ëĵľ":12108,"ê·¸ëłĪ":12109,"ìĵ°ëłĪê¸°":12110,"íĻĶëł¥":12111,"Ġíı¬íķŃìĭľ":12112,"Ġëĵ¤ìĹ¬ëĭ¤":12113,"ìĿĢíĸīìŀ¥":12114,"ìļ©ìĪĺ":12115,"ĠíĮĮíģ¬":12116,"ìĦľë¯¼":12117,"ĠDNA":12118,"ìĭłì¢ħ":12119,"ĠìłĦë¡Ģ":12120,"Ġê°ķìŀĲ":12121,"Ġê°ķìķĦì§Ģ":12122,"Ġë°ľë¶Ģ":12123,"Ġâĺ":12124,"Ġìĭłì²ŃìĦľ":12125,"ìĿ´ëªħë°ķ":12126,"Ġì§ĪíĥĢ":12127,"Ġë§Īëĭ¤":12128,"Ġê´Ģëł¨ìŀĲ":12129,"ĠìĿ¸ìĩĦ":12130,"all":12131,"ìķĪì²łìĪĺ":12132,"ĠìĿ´ëĮĢíĺ¸":12133,"ĠìĤ°ìķħ":12134,"ìĦ¼ìĬ¤":12135,"ìķ¼ë§Ī":12136,"ëŁ°íĬ¸":12137,"Ġë¶Īë¦°ëĭ¤":12138,"Ġê³łêµ¬ëł¤":12139,"ĠëĤ´ë±ī":12140,"ĠìŀĶìķ¡":12141,"Ġ112":12142,"ĠíĽĦìĨĲ":12143,"ëįĶë¸Ķ":12144,"ĠëĮĢëªħ":12145,"Ġi":12146,"ãıĬ":12147,"ëĤĮ":12148,"ĠíķĦë¦Ħ":12149,"Ġíķłë¦¬ìļ°ëĵľ":12150,"ĠíĮĲë¬¸ìłĲ":12151,"ĠìĹŃìłĲ":12152,"ĠìķĦë§Īì¶Ķìĸ´":12153,"íİ¸ìĦ±":12154,"ĠëĴ¤ì§Ģ":12155,"ìĿ¸ê³µ":12156,"ìĤ´ìĿ´":12157,"ìĹĶìŀĲ":12158,"éĢ":12159,"Ġê°ķëıĻ":12160,"ê°ĲìĹ¼ì¦Ŀ":12161,"GDP":12162,"Ġë¯¸ìħĺ":12163,"ĠëĤ´ëł¤ê°Ķ":12164,"Ġë¯¸ì²ĺ":12165,"Ġìķµì»¤":12166,"Ġìļ©ìĿĺìŀĲ":12167,"íĽ¼":12168,"ĠíĶ¼ìŀĲ":12169,"Ġì¦Ī":12170,"ĠíĻĶìĽ¨ìĿ´":12171,"Ġê²½ìŁģìĤ¬":12172,"ì¡°ê°ģ":12173,"Ġê³¼ìĭ¤":12174,"Ġëª¨ìĿĢëĭ¤":12175,"Ġì¹´ì§Ģëħ¸":12176,"ĠíĻĺìĪĺ":12177,"íļĮìłĦ":12178,"ëıĮìĿ´":12179,"ìĹĶì§Ħ":12180,"Ġê²½ê¸°ëł¥":12181,"íĮį":12182,"íĶĮë£¨ìĹĶìŀĲ":12183,"ë¶Ģì´Ŀë¦¬":12184,"ĠìĹ¬ë°°ìļ°":12185,"Ġëĵ¤ëł¤ìĻĶ":12186,"ĠìĨ¡ê¸Ī":12187,"ì§ĸ":12188,"ë³´ê´Ģ":12189,"ĠìĦ±ì£¼":12190,"Ġëħ¸ìĺĪ":12191,"ìĹ¬ê²¨":12192,"ĠSS":12193,"Ġë§¤íĬ¸":12194,"ICT":12195,"Ġì§ģê²©":12196,"Ġê¹Ģì¢ħìĿ¸":12197,"Ġíģ´ë¦¬":12198,"ë³´ëĤ´":12199,"Ġê¹Ģì²ľ":12200,"ìĥģìĹħ":12201,"Ġë§Īìĭł":12202,"Ġíĺ¸ìłĦ":12203,"ê²½ìłķ":12204,"ĠìĹ°ë©´ìłģ":12205,"ìķĦìĤ°":12206,"ĠìĿ¼ë³¸êµ°":12207,"ĠìĿ´ëªħ":12208,"Ġíķµë¬´ê¸°":12209,"Ġì§Ħìķķ":12210,"ĠíĽĦê¸°":12211,"AS":12212,"Ġìķ½êµŃ":12213,"ĠëĤ©ìŀħ":12214,"Ġë§īíŀĪ":12215,"íĭ°ì§Ģ":12216,"çĦ":12217,"ìĻĦìłĦ":12218,"Ġêµ¬íĺķ":12219,"Ġëĵľë¬¸":12220,"Ġì´ĪìĽĶ":12221,"ëĮĢë³ĢìĿ¸":12222,"ëĭ¨ìĨį":12223,"ĠìĽĲíĶ¼ìĬ¤":12224,"íķĻìĪł":12225,"ĠìĪĺê°Ĳ":12226,"ĠëĮĢëįķ":12227,"Ġëĭ¨ìĦľ":12228,"ĠìĿ´íķ´ê´Ģê³Ħ":12229,"ĠíķŃìķĶ":12230,"ĠêµĲíĽĪ":12231,"ĠëĥīëıĻ":12232,"Ġê²¹ì³Ĳ":12233,"ëĦ¤íĬ¸":12234,"ê³µëĮĢ":12235,"Ġë§ĪìĿĮëĮĢë¡ľ":12236,"ìķĦëª¬ëĵľ":12237,"ĠìĤ¬ìļ©ìŀĲ":12238,"Ġì¹ľìłķ":12239,"íĺĦëĮĢì°¨":12240,"ë¬¼ë¡ł":12241,"ĠìĦ¹ìĭľ":12242,"ë¯¼íĺ¸":12243,"ĠìłĦì²ł":12244,"Ġëĭ¤ë¬¼":12245,"Ġë°ĿíŀĲ":12246,"Ġê¸ĢìİĦ":12247,"Ġì¹ĺëłĢ":12248,"Ġíİĳ":12249,"ì¤Ģìĺģ":12250,"ìĿ´ìŀ¬":12251,"Ġê±´ëĦ¸":12252,"ĠíĥĲìĤ¬":12253,"Ġê´´ë¬¼":12254,"íıŃíĥĦ":12255,"ëį§":12256,"ĠìķĪì£¼":12257,"íĪ¬ê¸°":12258,"ĠìĤ¬ë§ī":12259,"ìĥģíĺ¸":12260,"ìĬµê¸°":12261,"Ġìĺ¤ë¦Ħ":12262,"Ġì§ľì¦Ŀ":12263,"ìķ½ìĭĿ":12264,"Ġìķ¼ê¸°":12265,"ë¹ĦìĦľ":12266,"Ġê³łìĨįëıĦë¡ľ":12267,"Ġì£¼ìĸ´ì§Ħ":12268,"ìľ¼ë¦¬ëĿ¼":12269,"ĠìĥĲ":12270,"ìĿ´ê²ĥ":12271,"ĠëĤľë°©":12272,"ìĪĺìļķìŀ¥":12273,"ìķĦìķĦ":12274,"Ġëĭ¨ê³¨":12275,"RT":12276,"ìĦ±ëĤ¨":12277,"ìľĦìĦ±":12278,"ëħ¸ëŀĺ":12279,"ĠëĤ¨ìĸĳì£¼":12280,"ĠíļĮìĥģ":12281,"ĠìķĦë¬´íĬ¼":12282,"Ġê±°ì¹¨":12283,"ì§Ģì§Ģ":12284,"ê¸°íĽĦ":12285,"ìĭľìĬ¤ì½Ķ":12286,"ĠëĨĢëŀį":12287,"ĠëıĮìĹ°":12288,"ĠëĵľëĿ¼ìĿ´ë¸Į":12289,"oc":12290,"Ġë©Ķê°Ģ":12291,"Ġë³Ģëªħ":12292,"ĠëĪĪìĹ¬ê²¨":12293,"ĠìĦ¤ëłĪ":12294,"ì£¼ì°¨ìŀ¥":12295,"ĠìĲ":12296,"ĠíĻľë°ľíŀĪ":12297,"ìłľê¸°":12298,"Ġë¶Ħíı¬":12299,"ĠìĻ¸ê´Ģ":12300,"Ġëĭ´íķ©":12301,"Ġê¸°ë¯¸":12302,"ĠìłĦìŀ¥":12303,"ìĦ±ìĿ´":12304,"Ġëı¼ì§Ģê³łê¸°":12305,"Ġë§ĪìĦ¸ìļĶ":12306,"ĠìĿ¼ì¡°":12307,"Ġë³¸ìĹ°":12308,"ìĬ¤íĥĢíĬ¸":12309,"ĠíĿĺëł¸":12310,"Ġë¦¬ëĵ¬":12311,"ìĺģë¦¬":12312,"íĶ¼ìĨĮëĵľ":12313,"Ġë¶ĢëıĻ":12314,"Ġìķłìį¨":12315,"Ġìĭľì±ħ":12316,"ĠìĹ¬ëĬĲ":12317,"ê³µì£¼":12318,"ì§Ģíķĺì²ł":12319,"Ġì´Īì½ľë¦¿":12320,"Ġì¹ľê·¼":12321,"Ġë¹ĦìŀĲ":12322,"ĠëĪĪë¶Ģ":12323,"ê´Ģê´ĳê³µìĤ¬":12324,"Ġê°Ħì£¼":12325,"ìĹ¬ìĪĺ":12326,"ĠìĿµëªħ":12327,"ĠíĸīìķĪ":12328,"ĠìķĶíĺ¸":12329,"Ġì´īë°ľ":12330,"ĠíĹĿ":12331,"ĠìĿ´ëĵĿ":12332,"ëıĦëĭ¹":12333,"ìĥģìŀ¥":12334,"ĠìĪĺìĽĶ":12335,"íĥĢì§Ģ":12336,"ìŀĲëĦ¤":12337,"ë¿Įë¦¬":12338,"Ġë¬´ìŀĳ":12339,"ĠíĬ¹ìĤ¬":12340,"ìĦ¸ìļ°":12341,"ë§ĿìĿ´":12342,"ĠìŀĶì¹ĺ":12343,"ëıĻìķĦ":12344,"ìķĦì¹´ëį°ë¯¸":12345,"è¦":12346,"ìĿĺìķ½íĴĪ":12347,"ë°ĶìľĦ":12348,"Ġìĭ±íģ¬":12349,"ëĭĪê¹Ĳ":12350,"ĠíĤ¤ì¦Ī":12351,"ĠìĦĿë°©":12352,"ìĤ¬ê³¼":12353,"ĠìĨĲìĪĺ":12354,"Ġë¦¬ì½ľ":12355,"ë©Ķë¥´":12356,"ëı¼ìĦľ":12357,"íĶĮëŀľ":12358,"Ġê¹ĢëĳĲ":12359,"Ġê°ĦìĭĿ":12360,"Ġíķ¨ìłķ":12361,"Ġê·¸ë£¨":12362,"Ġìĭłìļ©ì¹´ëĵľ":12363,"ĠíĨ°":12364,"Ġ1987":12365,"Ġëĭ¨ì²´ìŀ¥":12366,"Ġì²´ìĺ¨":12367,"ĠìłķìĦ¸ê·ł":12368,"Ġë§ĲëĿ¼":12369,"ĠìĽĲëıĻëł¥":12370,"Ġìķ½ìłķ":12371,"ìĽĲì¹Ļ":12372,"ëį®":12373,"ìłķë¦¬":12374,"ĠìĹħìłģ":12375,"ìĭ¤ì²ľ":12376,"Ġê±°ê¾¸ë¡ľ":12377,"MBC":12378,"ìĭľëıĦ":12379,"ĠìĤ¬ìĿ´ì¦Ī":12380,"ëĮĢì£¼ì£¼":12381,"GC":12382,"ĠìĮĵìĿ´":12383,"ë²³":12384,"Ġë¶Ģê²°":12385,"âĦĥ":12386,"Ġì§Īë³ĳê´Ģë¦¬ë³¸ë¶Ģ":12387,"Ġìį¨ìĦľ":12388,"Ġ9000":12389,"Įë¦°ì§Ģ":12390,"Ġê´Ģìķħ":12391,"ê³µì§ģìŀĲ":12392,"êµŃìłģ":12393,"ĠìĨĮëĭĪ":12394,"ìĬ¤íħĮìĿ´íĬ¸":12395,"Ġë°ĺê²©":12396,"Ġì§Ħìłķíķľ":12397,"Ġê²½ìĹ°":12398,"ĠìĿ´ìĤ°íĻĶ":12399,"ĠìĺĪì»¨ëĮĢ":12400,"Ġì§ĳíķĦ":12401,"Ġìĭłì²ŃìŀĲ":12402,"ĠëĳĲêº¼":12403,"Ġëĭ¹ìĤ¬":12404,"ĠìĪĺìĦ±êµ¬":12405,"Ġï¼į":12406,"ì§ģìĹħ":12407,"ì½ľëĿ¼":12408,"ëģ½":12409,"ì²´êµŃ":12410,"Ġê²Ģì§Ħ":12411,"ìĬ¹ìłĲ":12412,"ĠíĻĺê¸°":12413,"ë°©ìĸ´":12414,"ëĦĲë¦¬ìĬ¤íĬ¸":12415,"Ġìĺ¬ìĬ¤íĥĢ":12416,"ĠìĽĢì§ģìĿ¼":12417,"ë£¨ë¯¸ëĬĦ":12418,"ìĿ¸ìĥĿ":12419,"ìĽĲëĭ¨":12420,"íį¼ëĵľ":12421,"Ġìĺ®ê¸´":12422,"íģ´ëĿ¼":12423,"ìľ¼ëĿ¼ê³ł":12424,"Ġìłķê²½":12425,"Ġìĺ¤ìĬ¤íĬ¸":12426,"Ġê°ķíķ´":12427,"ä¸Ģ":12428,"Ġê°ľêµĲ":12429,"ìłĳì¢ħ":12430,"ĠíĺĦëĮĢëª¨ë¹ĦìĬ¤":12431,"Ġìŀ¥ìĭľê°Ħ":12432,"Ġì·¨íĸĪ":12433,"Ġë¶ĢìĤ°ëĮĢ":12434,"ê¶¤":12435,"ì¢Ģ":12436,"ĠìĬ¤ë¬´":12437,"ĠíķľìŀĲ":12438,"ĠìŀĲëŀĢ":12439,"ĠíĮĮìĨĲ":12440,"íĺĦëıĻ":12441,"ĠíħįìĤ¬ìĬ¤":12442,"ì¼ĢìĿ´íĮħ":12443,"ì²´ìĬ¤íĦ°":12444,"ĠìĬ¹ì°¨":12445,"Ġê¸°ìļ¸ìĹ¬":12446,"Ġë§īë°Ķì§Ģ":12447,"Ġê°ķìĪĺ":12448,"Ġëĭ¤íĪ¬":12449,"Ġìĸ´ëĶĺê°Ģ":12450,"Ġì¢ħìĤ¬":12451,"Ġìķ½íķĺ":12452,"ĠìĹĲíĶ¼ìĨĮëĵľ":12453,"Ġíķľë°ľ":12454,"ëĭ´ë°°":12455,"íĹĮë²ķ":12456,"ìŀĲì±ħìłĲ":12457,"ì°¨ê¸°":12458,"ĠìĺģìĺĪ":12459,"Ġëª¨ìŀĲëĿ¼":12460,"Ġê²°íķ¨":12461,"Ġìĺģë¬¸":12462,"Ġê³µíĹĮ":12463,"ìĦľìĬ¤":12464,"ĠCNN":12465,"ì»¥":12466,"ëĿ¼ëĶĶìĺ¤":12467,"Ġê¸°íķľ":12468,"å¾":12469,"ë¬¸ìĦľ":12470,"ĠDJ":12471,"Ġìļ°ëļĿ":12472,"Ġë©ĶìĭłìłĢ":12473,"Ġë¡ľìĬ¤":12474,"ĠìĤ¬ì£Ħ":12475,"ĠëĤ´ì¤¬":12476,"Ġíģ°ìĿ¼":12477,"ë°ĶíĢ´":12478,"ìŀ£":12479,"Ġëª¨ë°ľ":12480,"ĠìĹĳìĬ¤íı¬":12481,"íĺķìłľ":12482,"Ġëĭ¬íķł":12483,"ìĸĳìĭĿ":12484,"ì°¨ìĿ´":12485,"Ġê¹Ķëł¤":12486,"Ġë¶ĻìĺĢ":12487,"Ġì¤ĳìķĻìĿĢíĸī":12488,"Ġê³łëł¹íĻĶ":12489,"Ġ1991":12490,"ĠìŀĲìĿ´":12491,"êµŃë°©":12492,"Ġê°ķìĦ±":12493,"ĠëĤ¨ë¯¸":12494,"Ġëª©ëıĻ":12495,"ìķ¨ë²Ķ":12496,"ìĥģìĪĺ":12497,"Ġê·łíĺķë°ľìłĦ":12498,"ĠíķĺëĤ¨":12499,"ëĦ¤ë§Ī":12500,"ëĤĺë¦¬":12501,"ĠëĤŃë§Į":12502,"Ġì»¤ë®¤ëĭĪì¼ĢìĿ´ìħĺ":12503,"ak":12504,"ì²ŃìĨĮ":12505,"ìĺĪìķ½":12506,"Ġê³łë¦½":12507,"Ġê²°ìĦł":12508,"ine":12509,"th":12510,"ĠìĪĺëıĹë¬¼":12511,"ĠìĬ¹ê³Ħ":12512,"ĠëĤłìķĦê°Ģ":12513,"ìŀ¥ëĭ¨":12514,"ì´Ŀê´Ħ":12515,"Ġëĵľëŀĺê³¤":12516,"ĠìĨĮëªħ":12517,"ĠìľłëĤĺìĿ´íĭ°":12518,"Ġë§īê°ķ":12519,"ìŀ¥ìĿ´":12520,"ĠëĲĺìĥĪ":12521,"ê°ľìŀħ":12522,"Ġë¯¸ìĸĢë§Ī":12523,"Ġìļ´ë°ĺ":12524,"Ġìĺ¤íĨłë°ĶìĿ´":12525,"ĠíĪŃ":12526,"Ġìłķê´Ģ":12527,"ĠìĹ°êµ¬ìŀĲ":12528,"ëıĻíĸ¥":12529,"ĠìķŀìĦ°":12530,"Ġë®":12531,"ìĿ´íĸī":12532,"ĠìĤ¬íĳľ":12533,"ĠìľłëĤľíŀĪ":12534,"ĠìĤ´ë¦°":12535,"Ġë²Īì©į":12536,"ê°Ģìŀħ":12537,"ìĨĮíĺķ":12538,"ìĽįìĬ¤":12539,"IN":12540,"æĸ°":12541,"ĠëĮĢì¶©":12542,"ĠìĺģíĻĶê´Ģ":12543,"ìĸ´ëĶĶ":12544,"ĠíĹĪê³µ":12545,"Ġì¶Ķìļ´":12546,"ëıĦìĤ¬":12547,"Ġê°ĲìĹ¼ìŀĲ":12548,"ĠìĦĿìĤ¬":12549,"Ġê±°ì°½":12550,"ĠìĪĺìļĶìĿ¼":12551,"TN":12552,"ê³µìĺĪ":12553,"Ġë³¸ìłĲ":12554,"Ġê¸¸ëŁ¬":12555,"Ġëŀľëĵľë§Īíģ¬":12556,"Ġë¬´ëįĶìľĦ":12557,"Ġë§Įì°¬":12558,"Ġê¹ĢìĽĲ":12559,"Ġë³µì§Ģë¶Ģ":12560,"ĠìĪĺì¶ľìŀħ":12561,"Ġë¹Ħëĭ¨":12562,"Ġìĭ¤ëł¤":12563,"ĠíĴĢëł¤":12564,"ê²°ìĬ¹":12565,"Ġìĭ¬íĺĪ":12566,"Ġì¢ĮíĮĮ":12567,"ìłľê³µ":12568,"Ġê±°ëĳ¬":12569,"ĠìĦľê·Ģ":12570,"Ġì¶ľëł¥":12571,"ĠìŀĲì§Ī":12572,"Ġë¯¸ì§ĢìĪĺ":12573,"ĠíŀĪë¡ľ":12574,"Ġê±´ê°ĢìļĶ":12575,"ĠíĳľíĸĪ":12576,"ìĨĮë°©ìĦľ":12577,"ìīĲ":12578,"Ġë¹Ħì¤Ģ":12579,"ìµľëĮĢ":12580,"Ġì¶ľê³ł":12581,"Ġì¹ĺì¦Ī":12582,"Ġíĳľë³¸":12583,"ĠëĿ¼ìĿ´íĬ¸":12584,"ĠìľĮ":12585,"ë£¨ìĬ¤":12586,"Ġë²Ĺìĸ´ëĤľ":12587,"ĠëĤ¨ìķĦê³µ":12588,"ĠíĥĦìķķ":12589,"íĪ¬ë¦¬":12590,"Ġë¯¸ëĦ¤":12591,"ìłĢëŁ°":12592,"ìĿ´ëłĩê²Į":12593,"Ġëĭ´ìķĦ":12594,"ĠìĺĪë¯¼":12595,"ĠìŀĦë°ķ":12596,"ìļĶêµ¬":12597,"ì¦ĿíĽĦêµ°":12598,"êµĲë¶Ģ":12599,"ĠìĽĶíıīê·ł":12600,"ĠíļĮìĿĺìĭ¤":12601,"ĠìĬ¬íĶĪ":12602,"ĠãĢĪ":12603,"BM":12604,"03":12605,"Ġìķ¼ìĭ¬":12606,"Ġìĥģìĥģëł¥":12607,"ìĸ´ìĦľëĭ¤":12608,"Ġë©Ķìĭľ":12609,"Ġì´Ŀë¬´":12610,"ĠLS":12611,"ĠëĨįì¶ķ":12612,"íķĻìľĦ":12613,"íħĮìĬ¤íĬ¸":12614,"Ġìķ¼êµ¬ìŀ¥":12615,"Ġíķĺìĸ":12616,"ĠìķłêµŃ":12617,"Ġíļ¡ëĭ¨":12618,"ë³´ì¡°ê¸Ī":12619,"ĠìĿ¼ëĭ¹":12620,"Ġê²½ìŁģìŀĲ":12621,"Ġë¶ĢìĿĳ":12622,"íĭ°ìķĦ":12623,"ì²´ìĸ´":12624,"ĠíĶĦëŀĳ":12625,"PD":12626,"AIST":12627,"ĠíĺĳëıĻì¡°íķ©":12628,"ë®¤ì§ģ":12629,"ĠëĮĢë©´":12630,"ë¬´ìĹĩ":12631,"Ġìŀ¥ëĤľê°Ĳ":12632,"Ġê°ľê°ľìĿ¸":12633,"ë¶Ģìłķ":12634,"íĶĮëŀľíĬ¸":12635,"ëªħíĴĪ":12636,"Ġëª°ëĳĲ":12637,"ĠìĥĿíĻľë¹Ħ":12638,"ĠìĹ¼ìĽĲ":12639,"ê³łëŀĺ":12640,"ĠëĮĢíĳľëĭ¨":12641,"ĠëĳĲëł¤ìĽĮ":12642,"ĠìĿ¼ìĸ´ìĦľ":12643,"ĠëıĦìļĶíĥĢ":12644,"ĠìĭłìĿĮ":12645,"ëĿ¼ìĿ´ë¸Į":12646,"ĠíĻĪê²½ê¸°":12647,"Ġì¶ľíĴĪ":12648,"ë¶Ģìĸĳ":12649,"Ġìłķì¡°":12650,"íĶĮëłĪìĿ´ìħĺ":12651,"Ġêµ¬ë³Ħ":12652,"ang":12653,"ĠìĦ¤íĥķ":12654,"ë¯¼ìłķ":12655,"ĠìłĦìĭľê´Ģ":12656,"ìķĦëŀĺ":12657,"Ġìłľì²ł":12658,"Ġ101":12659,"ĠSt":12660,"ĠíĬ¸ëłĪìĿ´ëĵľ":12661,"Ġê¸°ìłĲ":12662,"Ġìĭ¤ìĤ¬":12663,"ĠìĿ´ìĬ¹ìĹ½":12664,"ëĤ¨ë¯¸":12665,"ĠìĽ¨ëĶ©":12666,"Ġê´ĳê²½":12667,"ĠìĹ°ê³ł":12668,"Ġë²łëĦ¤":12669,"ĠìļĶìķ½":12670,"Ġì°Įíĳ¸":12671,"ì©¡":12672,"Ġìľłê¸°ëĨį":12673,"ëĭĪì§Ģ":12674,"ĠìĪľì¡°":12675,"ë°°ì¶ľ":12676,"ĠìĤ¬ìĥĿíĻľ":12677,"ëĭ¹ê³¼":12678,"Ġíķ©ì¹ĺ":12679,"ìĨĮìĿ´":12680,"Ġê¸°ìļ©":12681,"ìķħëĭ¨":12682,"Ġìľłë³ĳ":12683,"Ġìŀ¥ëĭ´":12684,"íľ´ì§ģ":12685,"Ġêµ¬ì§ģìŀĲ":12686,"Ġì§ģêµ¬":12687,"ĠíĿīê¸°":12688,"Ġíĳľë°©":12689,"ĠìĪĺìĿµê¸Ī":12690,"Ġìĸ¸ë¡łìĿ¸":12691,"ìĹ¬ê°Ŀ":12692,"ëłĮì¦Ī":12693,"ĠëĮĦ":12694,"Ġíİ¼ì³Ĳì§Ħ":12695,"ìĽĲëıĦ":12696,"ĠíĥĪë¶ģìŀĲ":12697,"íıŃíĴį":12698,"ĠìĿ´ìĪľìĭł":12699,"ĠíħĮëĭĪìĬ¤":12700,"ĠìłĪë°ķ":12701,"ìĭłëĿ¼":12702,"Ġëĭ¤ëĭĮ":12703,"ì¤ĳëĭ¨":12704,"ĠìłĦëħĲ":12705,"Ġë²ĮìĿ¼":12706,"Ġë¬´ëįĶê¸°":12707,"ĠìĤ¬ëł¹íĥĳ":12708,"ĠìĪĺê³ł":12709,"ĠêµĲëĤ´":12710,"ë¶Ħë³Ħ":12711,"ìĿ´íĥĪ":12712,"ĠíļĮê³ł":12713,"Ġì°¸ì¡°":12714,"Ġìĸ´ìļ°ëŁ¬ì§Ħ":12715,"ĠìĨĮìķĦ":12716,"ĠìĪľíļĮ":12717,"Ġë¯¸ëģĦëŁ¬":12718,"ìĦ±ëħĦ":12719,"Ġëª°ìŀħ":12720,"Ġë¶ĦìĪĺ":12721,"ĠìľĮë¦¬ìĹĦ":12722,"ì»´íį¼ëĭĪ":12723,"ĠìĨįì´Ī":12724,"ìĵ°ê¸°":12725,"Ġìĺ¤ìĤ¬ì¹´":12726,"ĠZ":12727,"Ġê¹ĢìĿĢ":12728,"ĠìĦľë¸Į":12729,"ĠëĪĪëıĻìŀĲ":12730,"ĠìĥģíķĺìĿ´":12731,"ss":12732,"ĠìŀħìĨĮë¬¸":12733,"ì¦ĿìŀĲ":12734,"Ġíķ´ìĹŃ":12735,"ìĪłë¶Ģ":12736,"Ġê³µì±Ħ":12737,"Ġë¯¸ì£¼":12738,"ê±Ģ":12739,"ĠëıĻë©Ķëĭ¬":12740,"ĠíĻĶíıĲ":12741,"ĠìĨĮê°ģ":12742,"Ġì±ħìŀĦê°Ĳ":12743,"ìľłì¶ľ":12744,"Ġë¨¸ë¬¼ëŁ¬":12745,"Ġë¦¬ë²Ħ":12746,"ê¹Ģíķ´":12747,"ĠìĿ´ì¼Ģ":12748,"ĠíĴĭ":12749,"ĠëıĻíĥĦ":12750,"Ġíķ´ìĪĺë¶Ģ":12751,"Ġê¶Įìŀ¥":12752,"Ġëĭ¹ëĩ¨ë³ĳ":12753,"Ġê·¸íĨłë¡Ŀ":12754,"Ġë¶Ħíķ´":12755,"Ġ,":12756,"ĠìłĦìŀĳ":12757,"ë¹¡":12758,"ĠìĹ¬íĸīìĤ¬":12759,"Ġì¹¼ëŁ¼":12760,"ë°ľìĸ¸":12761,"Ġë³´ëł¹":12762,"ìĿ´ëŁ¬":12763,"ĠìĶģ":12764,"ĠìķĦë²Ħëĭĺ":12765,"Ġìłľë¡ľ":12766,"ĠíĹ¤ì§Ģ":12767,"ĠìĿ¼ìľ¼íĤ¬":12768,"Ġê·ĢìĹ¬ìļ´":12769,"Ġëĭ¤ë¤Ħ":12770,"Ġìķ¡ìĦ¸ìĦľë¦¬":12771,"ĠëĬĺìĸ´ëĤľëĭ¤":12772,"ĠìłģìĦ±":12773,"Ġë´ĲìĦľ":12774,"Ġì¿¨":12775,"ĠìĤ¬ë²ķë¶Ģ":12776,"ìĥģìĭľ":12777,"ĠìĹ¬ê°Ģ":12778,"ĠíĬ¹ê¸ī":12779,"ĠíĦ°ì¡Į":12780,"ĠìĪĺìłķìķĪ":12781,"ĠìĽĢì§ģìĺĢ":12782,"Ġê±°ë¨¸":12783,"ĠëĮĢëŀµ":12784,"ĠíķľìĭĿ":12785,"ìĿ´ëıĦ":12786,"ë¦¬ìĬ¤ë§Ī":12787,"ĠíļĮíĻĶ":12788,"ĠìĪĺìĺģìŀ¥":12789,"ìĿ¼ì¹ĺ":12790,"íİ«":12791,"Ġì§ģê²©íĥĦ":12792,"Ġìĭłìĺģ":12793,"Ġìĺ¤ìĤ°":12794,"Ġìħ°íĶĦ":12795,"ê½ģ":12796,"Ġê°Ģìł¸ìķ¼":12797,"Ġê¸ĪìĦ¸":12798,"ĠëĵŃëĭĪëĭ¤":12799,"ìłĦì²ĺ":12800,"íıīìĥĿ":12801,"ĠìĺĪë³´":12802,"ĠìĤ¼ì§Ħ":12803,"ĠìĦ±ìĽĲ":12804,"ìĤ¬ëł¹ê´Ģ":12805,"!!":12806,"Ġìĺ¤ëĿ½":12807,"ĠìĤ¼ìĦ±ì¦Ŀê¶Į":12808,"ë§Īë¥´":12809,"CI":12810,"ĠìĽĲë§Ŀ":12811,"ĠëĳĲê»ĺ":12812,"ĠìķĮì½Ķìĺ¬":12813,"ĠìĦŀìĿ¸":12814,"ìłĦë°©":12815,"Ġìļ´ìĺģë¹Ħ":12816,"MOU":12817,"ĠêµŃêµ°":12818,"ĠíĤ¤ìļ´":12819,"ĠìĿ´ë¤Ħìł¸":12820,"íħĮìĿ´":12821,"Ġë°Ķë¥´ìħĢë¡ľëĤĺ":12822,"ĠìŀĦì¢ħ":12823,"08":12824,"Ġëĸ¨ìĸ´ì§Ħëĭ¤":12825,"ì»¤ë¨¸ìĬ¤":12826,"ìĨĮìľł":12827,"ìĹĶì§ĢëĭĪìĸ´ë§ģ":12828,"ìħĶëıĦ":12829,"ĠìĦľìĤ°":12830,"ĠëįĶëĵ¬":12831,"Ġíĺ¼ìĿ¸":12832,"ìĥĿê°ģ":12833,"Ġìĺ¬ëĿ¼ìĦ°":12834,"ĠìľłìĦł":12835,"Ġì¹¨ì°©":12836,"ì±Ħë¬´":12837,"ì§Ħì§ľ":12838,"Ġë²łìĿ´ë¹Ħ":12839,"Ġì¡°ë¦½":12840,"ê¸īìłģ":12841,"ê³ĦìłĪ":12842,"ĠìĤ¬ìļ©ëŁī":12843,"ê¸°ëĮĢ":12844,"Ġë¶Ģìĭľ":12845,"Ġì§ĢëĤľë²Ī":12846,"Ġìķ¨":12847,"ĠíĶ½":12848,"Ġë§Įëģ½":12849,"ĠëĤ´ëł¤ëĭ¤ë³´":12850,"ë§¡":12851,"Ġìĭ¤ìĪĺìļĶìŀĲ":12852,"ë·°íĭ°":12853,"Ġëħ¸ìĽĲ":12854,"Ġ2023":12855,"Ġì±Ļê¸´":12856,"ëħ¸ìĿ´":12857,"Ġê³µìĤ°ëĭ¹":12858,"ĠìĹ°ê¸°ìŀĲ":12859,"Ġëĭ¤ìļ´ë¡ľëĵľ":12860,"ĠìĦ±íĿ¬ë¡±":12861,"Ġê¸īë³Ģ":12862,"ìĿ´ëĤĺë§Ī":12863,"Ġêµ¬ëıħ":12864,"ìłľëĭ¹":12865,"ê³łë°ľ":12866,"Ġíķľê°Ģ":12867,"Ġëĭ¹ì²¨ìŀĲ":12868,"Ġê±°ìĦ¼":12869,"ìľłê³µìŀĲ":12870,"Ġìĭ¤ë²Ħ":12871,"Ġê´ľíŀĪ":12872,"ëłĪìĿ´íĬ¸":12873,"ĠìĤ¬ëĭ¨":12874,"ëįĶë¶Ī":12875,"Ġì¹¨íĪ¬":12876,"ìĺ¤íĶĦëĿ¼ìĿ¸":12877,"é«":12878,"¿ëĤł":12879,"íķľê²¨ëłĪ":12880,"ì½ĶíĬ¸":12881,"êµŃë¯¼ìĿĢíĸī":12882,"Ġê·Ģìĭł":12883,"Ġê¾¸ë¯¸":12884,"Ġë¶Ģìľł":12885,"Ġì§Ģìľ¼ë©°":12886,"ĠìĥĮëĵľ":12887,"ë²łìĬ¤":12888,"ëĵľë¦¬ëĵľ":12889,"ĠìĦ¸íĥģê¸°":12890,"ĠíĨµì¹ĺ":12891,"Ġë§Īíı¬êµ¬":12892,"Ġëª°ë¦°":12893,"Ġìłķìŀ¥":12894,"ĠìĿ´ë¶Ī":12895,"ĠíĮĮíĸī":12896,"ìłķìĪĺ":12897,"ra":12898,"ĠëłĮì¦Ī":12899,"ê±´ìłĦ":12900,"ĠCG":12901,"Ġì°ľ":12902,"Ġíķĳê³Ħ":12903,"ĠìĬ¹ë§Ī":12904,"Ġì¹ľë¶Ħ":12905,"ë²ķìĥģ":12906,"Ġíı´ëŀĢëĵľ":12907,"ĠìºĦë³´ëĶĶìķĦ":12908,"Ġë©ĶëĶĶ":12909,"Ġë¹Ħíķ´ìĦľ":12910,"ìŀ¥êµ¬":12911,"ĠëŁŃìħĶë¦¬":12912,"Ġì¹¨ìŀħ":12913,"Ġìĭ¬ì¸µ":12914,"ĠìĬ¤íĶ¼ì»¤":12915,"Ġìłģìŀĸ":12916,"ĠìľłìłĢ":12917,"ìŀĶì¹ĺ":12918,"Ġì§Ģì²´":12919,"Ġë¬µë¬µíŀĪ":12920,"ĠíķľëĿ¼":12921,"Ġê²¬ëĶľ":12922,"ë§ĪìĬ¤íģ¬":12923,"ĠìĿĮìķħíļĮ":12924,"Ġê³Ħìķ½ìĦľ":12925,"âĶĢ":12926,"Ġì§ģìĺģ":12927,"ĠëĮĢë³¸":12928,"ĠìĦłë¹Ħ":12929,"Ġë¹Ħë²ķ":12930,"ĠëĮĢë¬¸":12931,"ë³´íĺ¸ë²ķ":12932,"ëª«":12933,"ĠëĺĲëŀĺ":12934,"Ġê±°ë¶ģ":12935,"Ġì°¨ëªħ":12936,"íħĮëŁ¬":12937,"Ġë°ķê²½":12938,"ĠìĨĮëł¨":12939,"04":12940,"íĺĪê´Ģ":12941,"Ġë¶Īê±°ì§Ģ":12942,"ê¹Ģìĺģ":12943,"ìĬ¤íģ¬ë¦¼":12944,"Ġê¹ĢìĦ¸":12945,"ì°½ê³ł":12946,"ì¹´ë¥´":12947,"ĠìĦ±ë¦½":12948,"ĠíĺĦëĮĢìłľì²ł":12949,"Ġëį°ìĿ´ë¹Ħëĵľ":12950,"Ġì£¼íĮĮìĪĺ":12951,"ĠìľĦìŀĦ":12952,"ê²½ê´Ģ":12953,"ë°©ìľĦ":12954,"Ġë²Įìĸ´ì§Ī":12955,"íĶĦëŀĢìĭľìĬ¤ì½Ķ":12956,"ĠíİĺëĦĲ":12957,"íĥĢìĿ¸":12958,"ĠìķĦìĤ¬":12959,"Ġë³´ìĿ´ìĬ¤":12960,"ĠìłķìłĦ":12961,"ĠìĶ¨ìķĹ":12962,"ê°ķìĿĺ":12963,"Ġì¢ħíİ¸":12964,"ĠëıĻíĺ¸":12965,"Ġë°©ìĤ¬ìĦł":12966,"ĠìļĶìĥĪ":12967,"Ġê°Ģìł¸ìĺ¬":12968,"Ġë¬´ìĤ¬íŀĪ":12969,"ìĨ¥":12970,"ì¦Ŀê°Ģ":12971,"Ġì½ĺíģ¬ë¦¬íĬ¸":12972,"ìľ¡ìĥģ":12973,"Ġë²Ħë¦´":12974,"The":12975,"Ġë°±ìĿ¸":12976,"ĠìĻľëĥĲë©´":12977,"ìķĶëıĻ":12978,"ĠíĥĢìĽĮ":12979,"ĠìĨįíķĺ":12980,"ê·¸ëķĮ":12981,"ĠëĮĢëĳĲ":12982,"ì²Ńìłķê¸°":12983,"Ġìľłë¥ĺ":12984,"ĠëĤĺëŃĩ":12985,"ìķłíĶĮ":12986,"Ġë³´ì»¬":12987,"Ġê¸°ì¹¨":12988,"ì´ĿìĦł":12989,"Ġìĸµì§Ģë¡ľ":12990,"ĠìłĦíĪ¬ê¸°":12991,"ĠëĨįì§Ģ":12992,"ĠíĿ¬ë¯¸":12993,"Ġë²¤ì¸ł":12994,"Ġê°ĢíĨ¨ë¦Ń":12995,"Ġë©ĺíĨłë§ģ":12996,"ĠëĤĺë¹Ħ":12997,"Ġê¹ĢìĿ¼ìĦ±":12998,"ìĹ°ìłĦ":12999,"Ġìĥ¤ìĽĮ":13000,"Ġíİĺë¥´":13001,"Ġëĭ¤ì¹ĺ":13002,"ĠíĥĲìĥī":13003,"ĠìĿ´ë³Ħ":13004,"ìĩ¼íķĳëª°":13005,"Ġëıħê°Ĳ":13006,"Ġì»¤ë²Ħ":13007,"Ġìĭ¤ë¦°":13008,"ĠìĦľê¸°":13009,"ì±ĶíĶ¼ìĸ¸":13010,"ĠìĥĪìļ°":13011,"ĠìĬ¹ê°ķ":13012,"ê¸°íķľ":13013,"Ġë³´ë¦¬":13014,"ìļ´ì§Ģ":13015,"Ġìŀ¡íŀĮ":13016,"Ġë°ľìĤ°":13017,"ì©Į":13018,"AA":13019,"ĠìĦ¸ìĭ¬":13020,"Ġìĺ¤ëłĮì§Ģ":13021,"ĠìķĦìĿ¼ëŀľëĵľ":13022,"Ġì§Ħíķľ":13023,"Ġê¹ĢíķĻ":13024,"ëĵľëłĪ":13025,"ĠìľłìĪĺ":13026,"ê·¸ê²Į":13027,"ì§Ģë¥´":13028,"Ġì²ĺëħĢ":13029,"Ġì§Ģìĺ¥":13030,"ard":13031,"ĠíĨµíķĻ":13032,"ĠíĶĮëŀľíĬ¸":13033,"Ġë°¥ìĥģ":13034,"ĠëĴ¤ìª½":13035,"ê¿Īì¹ĺ":13036,"íķ´êµ°":13037,"íĪ¬ê°Ī":13038,"ĠìŀĶìĿ¸":13039,"Ġì§ĳíķ©":13040,"ia":13041,"ìĤ¬ê²©":13042,"ìĿ´ëĤł":13043,"Ġë§Ľë³´":13044,"ĠìŀĲë¦¿ìĪĺ":13045,"ìĦ±ëıĻ":13046,"Ġë¸ĮëłĪìĿ´íģ¬":13047,"Ġë²Ħíħ":13048,"ĠëĨĢìĿ´íĦ°":13049,"Ġëģ¼ì¹ĺ":13050,"ë¶ĪìķĪ":13051,"Ġì°¨ëĵ±":13052,"ìĿ¸ìĪĺ":13053,"Ġ360":13054,"Ġ1300":13055,"ĠìĪľì°°":13056,"ĠìĤ¬ëł¹ê´Ģ":13057,"ĠìķĦìĿ´ìĬ¤íģ¬ë¦¼":13058,"Ġ|":13059,"ê²°êµŃ":13060,"ë¬´ëĿ¼":13061,"êµĲëĮĢ":13062,"íĹĪë¸Į":13063,"íķ´ëĿ¼":13064,"Ġíı¬ìĬ¤":13065,"Ġìĸĺê¸¸":13066,"ĠíĶĦë¡ľìĦ¸ìĬ¤":13067,"ĠìĦ±ì°°":13068,"íĬĢ":13069,"Ġíı¬ì§Ģìħĺ":13070,"ĠíķĻìĤ¬":13071,"ĠëĤĺëīľ":13072,"Ġë¯¼ìĺģíĻĶ":13073,"ĠíĻĺë¶Ī":13074,"ìµľìłĢ":13075,"''":13076,"ĠìłĦëĳĲíĻĺ":13077,"ë¬¸ê³ł":13078,"ĠëģĿëĤł":13079,"ëĭ¹ìĽĲ":13080,"Ġëħ¸ê³¨":13081,"Ġë¯¼ìĤ¬":13082,"Ġìļ°ëŁī":13083,"ĠêµĲìĸĳ":13084,"ì¹¨íķ´":13085,"Ġìŀħë¬¸":13086,"Ġê°ĩíĺĢ":13087,"Ġë³¸ëĬ¥":13088,"Ġëį´ë§Īíģ¬":13089,"íķłìĿ¸":13090,"ìľłíĸī":13091,"Ġëĭ´ìŀ¥":13092,"ve":13093,"ê·¸ëŀĺëıĦ":13094,"ì§ĢëıĦìŀĲ":13095,"ĠìĦľìŀ¥":13096,"ĠíĮ¨ë°Ģë¦¬":13097,"Ġê¹ĢëĤ¨":13098,"ëĭ¿":13099,"ĠìĤ¬ìĨĮ":13100,"ĠìķĦëŀ«":13101,"Ġê·¼ìĽĲ":13102,"ì¤ĳê°Ħ":13103,"Ġê±°ì³¤":13104,"Ġê³µìĪĺ":13105,"Ġëĭ¤ëĵ¬":13106,"ë¶Ħê³¼":13107,"ëª¨íĨł":13108,"ĠâĨ":13109,"Ġíħħ":13110,"ĠíĮĮíĹ¤":13111,"ìĽĮì§Ħ":13112,"Ġì¹ĺì¼ľ":13113,"Ġë¯¼ìĨį":13114,"Ġë£©":13115,"Ġê±°ì³Ĳìķ¼":13116,"ìĿ¸ê³¼":13117,"Ġê°ķìĦľêµ¬":13118,"ĠìļĶëłĩê²Į":13119,"Ġì±Ļê²¼":13120,"Ġíĺ¸íĿ¡ê¸°":13121,"ĠìĤ¬ìŀĦ":13122,"ĠìĽ¬ë§Į":13123,"ĠìĬ¤ë©°":13124,"ëĿ¼ìļ°":13125,"Ġê·¹íŀĪ":13126,"ìł¯":13127,"ìĻ¸ë¶Ģ":13128,"ì½Ķì¹ĺ":13129,"Ġìĸ´ì§¸":13130,"íĮ¡ìĿ´":13131,"Ġê¸°ìĥī":13132,"ĠíĥĢìĿ´ê±°":13133,"ì¹´ê³ł":13134,"ìĬ¤íĭ´":13135,"íıīì°½":13136,"Ġë¹¼ëıĮ":13137,"ĠíĦ°ì§Ħ":13138,"ĠìĦłëıĻ":13139,"Ġë¬´ê³µ":13140,"ìŀĲìĿ´":13141,"ĠíĥĿíĸĪ":13142,"Ġì¢ħê°Ģ":13143,"Ġëĭ¤ìłķ":13144,"ìĭľê³Ħ":13145,"ĠëıĦë§¤":13146,"Ġê²½ë¶Ģ":13147,"ëĭ¨ê¸°":13148,"íĳľìĭľ":13149,"Ġë§¤ê°ľ":13150,"ers":13151,"Ġìľ¤ìĦĿìĹ´":13152,"Ġë¹Ħì¶Ķ":13153,"Ġìļ°ë¬¼":13154,"Ġë³´íĺ¸ìŀĲ":13155,"êµ¬ë¯¸":13156,"ĠìĨĲíķĻê·ľ":13157,"Ġì¹´ë¦¬ìĬ¤ë§Ī":13158,"íĺķíĥľ":13159,"Ġíģ¬ë¡ľ":13160,"Ġë¸Ķë£¸":13161,"ĠìĬ¹ìŀĲ":13162,"ĠëĮĢìĪĺ":13163,"ìĬ¤ëĭĺ":13164,"Ġë¬¸íĻĶìŀ¬ì²Ń":13165,"GS":13166,"Ġë°Ķê¿Ķìķ¼":13167,"ë³´ìĦł":13168,"Ġ1989":13169,"Ġíķ¨ìĸĳ":13170,"ìĺ¤ë²Ħ":13171,"ìĦ±íĸ¥":13172,"ĠíĴįê¸°":13173,"Ġê¹Ģìľł":13174,"ĠêµĲë³´":13175,"net":13176,"Ġëª¨íĺ¸":13177,"ê°ĵ":13178,"ĠìĬ¹ë¬´ìĽĲ":13179,"ĠìĿ´ìĻĦ":13180,"ĠìŀĬìĸ´":13181,"ê´Ģìłľ":13182,"ìĹ°ê³Ħ":13183,"ìĽĮì¡Į":13184,"Ġì¤ĳêµŃìĸ´":13185,"ìĨĮìĪĺ":13186,"Ġê°ĦìĨĮ":13187,"Ġì½ĶìĹĳìĬ¤":13188,"ĠìĿ´ì¹ĺ":13189,"íķłìĪĺë¡Ŀ":13190,"ì³ĲìĦľ":13191,"Ġê³§ìŀ¥":13192,"Ġìĺ¬ëĿ¼ê°Ī":13193,"Ġë½ĲëĤ´":13194,"ìĪĺëĬ¥":13195,"Ġíı°":13196,"Ġì¦īìĦĿ":13197,"Ġì¡°ìŀ¥":13198,"ĠëĮĢìĤ¬ê´Ģ":13199,"Ġíķĺì²Ń":13200,"ĠíĿ¬ê·Ģ":13201,"Ġìĺ¤ì°¬":13202,"Ġëĭ¤íģ¬":13203,"Ġê¶ĮìĿµ":13204,"ë¦¬ëįĶ":13205,"Ġì§Ħìŀĳ":13206,"íĺĦìķĪ":13207,"ĠëıĦìłķ":13208,"ĠíĬ¸ëŀĺ":13209,"ĠëĤ´ë³´ëĤ´":13210,"ĠíŀĻíķ©":13211,"êµ¬ìĭ¬":13212,"ĠëĦ¥ìĬ¨":13213,"ë¹Ħë°Ģ":13214,"ĠëĤ´ëª°":13215,"ĠìĹ½":13216,"ĠìĬ¹ìĨĮ":13217,"ê²Ķ":13218,"ëıĻìķĦë¦¬":13219,"ìļ©ìĿ¸":13220,"Ġê°ľë°ľìŀĲ":13221,"Ġìļ°ìĬ¹ìŀĲ":13222,"Ġë³´ìĤ´":13223,"ì²ľëıĻ":13224,"ĠëĮĲ":13225,"Ġì¼ĢìĿ´íģ¬":13226,"ĠìĿ´ìĭľ":13227,"ê³¨ëª©":13228,"Ġìĥģíĳľ":13229,"Ġìľłê°Ģì¦Ŀê¶Į":13230,"ëį±ìĬ¤":13231,"íĥľìļ°":13232,"ĠìĿ´ìĸ´ìĦľ":13233,"íĮł":13234,"ĠíĦ°ë¯¸ëĦĲ":13235,"íķłë¨¸ëĭĪ":13236,"íı¬ëıĻ":13237,"ĠìķķìĪĺ":13238,"Ġë³¸ê´Ģ":13239,"ì§ķìĸ´":13240,"íıīë¡łê°Ģ":13241,"íĺľì§Ħ":13242,"ì¶©ë¶ģ":13243,"ĠìĭľêµŃ":13244,"Ġë¬¸íķŃ":13245,"ĠìĹ°íĥĦ":13246,"ĠíĶĦëłĪìĬ¤":13247,"ìĨĶë¦°":13248,"ìĤ¬ìľł":13249,"ëĤ¨ìļ©":13250,"ĠìĻ¼ìĨĲ":13251,"ë¯¼ìĽĲ":13252,"ĠìĦ±ëªħìĦľ":13253,"ä¸ī":13254,"Ġêµ¬íķł":13255,"Ġëªħìĭ¤":13256,"Ġê·¸ëŁ°ì§Ģ":13257,"Ġì§ĳìĸ´ëĦ£":13258,"Ġê°Ģë¯¸":13259,"ĠUN":13260,"ìļ´ìĨ¡":13261,"ìľłëĭĪ":13262,"Ġê½ģ":13263,"íĮ©íĬ¸":13264,"ìĿ´ëĿ¼ëĵłì§Ģ":13265,"Ġë°ĺìŀħ":13266,"Ġê¹Ģìłľ":13267,"ë²łíĬ¸ëĤ¨":13268,"06":13269,"ĠìĿ´ìľ½":13270,"Ġê¸¸ê±°ë¦¬":13271,"ĠMVP":13272,"Ġê³µíĳľ":13273,"ri":13274,"Ġëĭ¹ìłķ":13275,"íĬ¿ëĤł":13276,"OD":13277,"ĠíĻĶëł¥":13278,"Ġxx":13279,"ĠëĤľë¦¬":13280,"Ġë§ĪìĪł":13281,"ĠPB":13282,"Ġì£¼ìĸ´ì§Ģ":13283,"æ³":13284,"ĠìĦ±ì§Ī":13285,"ĠëĶ¸ê¸°":13286,"ëħ¸ë¬´íĺĦ":13287,"ĠìłĦíķľëĭ¤":13288,"2007":13289,"ĠìłĢì§ĪëłĢ":13290,"Ġê²°ìĿĺìķĪ":13291,"Ġêµ¬ìŀĲ":13292,"Ġë¹Īë²Ī":13293,"ĠìĹ°ì£¼ìŀĲ":13294,"Ġë¬´ìĭ¤ìłĲ":13295,"114":13296,"Ġì¹ľì²Ļ":13297,"ê°ķìłĲ":13298,"ìĿ¸íļĮ":13299,"ĠìĦ¤ëĵĿëł¥":13300,"ìĨĶë£¨ìħĺ":13301,"Ġê´ĳêµĲ":13302,"ìĸ´ë§ģ":13303,"çĽ":13304,"ëŀĢíĬ¸":13305,"ê°ķëĮĢ":13306,"ĠìĻĦì£¼":13307,"ë¶Ħë¦¬":13308,"Ġì°¨ìĿµ":13309,"ìĿ¼ëĭ¨":13310,"Ġë°ķì£¼ìĺģ":13311,"éĸ":13312,"ĠìĦ¤ë§Ī":13313,"ëĭĪìĬ¤íĬ¸":13314,"Ġê²½ë³´":13315,"ê°ľë°©":13316,"ìĪ¨ìĹĲ":13317,"ĠìĤ¬ìĺ¥":13318,"ĠëĵľëĿ¼ìĿ´ë²Ħ":13319,"ìłľë¡ľ":13320,"up":13321,"ĠìķĦìĦ¸ìķĪ":13322,"éģĵ":13323,"ĠìĦ¸ê¸°":13324,"ê°ľëıĻ":13325,"Ġìłĳíķł":13326,"ìĺ¬ëĿ¼":13327,"Ġë³´íĸīìŀĲ":13328,"ĠìĿ´ìľ½ê³ł":13329,"Ġëıħë³´":13330,"âĢĻ)":13331,"¾°":13332,"Ġíķ©ëĭ¹":13333,"ë³ĢëıĻ":13334,"Ġì¤ĦìĿ¸":13335,"ĠëĤ¯ìĦ¤":13336,"ëĤĺëħ¸":13337,"ìĸ´ëĬĲ":13338,"Ġê²°ìĤ°":13339,"BI":13340,"íŀĪíĬ¸":13341,"íĴĭ":13342,"ĠìĽĲìĭ¬":13343,"Ġê³łíĿ¥":13344,"ĠìĿ¼ê°Ĳ":13345,"ì°ľ":13346,"íı¬ìĬ¤ì½Ķ":13347,"ĠëĤ¨ìĤ°":13348,"Ġëĭ¨ê°Ģ":13349,"ìĿ¸íķĺ":13350,"ĠìĥģìĦ¤":13351,"ĠìķĮë¦´":13352,"Ġê²¬ë³¸":13353,"ì¡°ê¸°":13354,"ĠíĶ¼íĬ¸":13355,"ĠìĽĥëıĮ":13356,"Ġê±¸ìĸ´ìĦľ":13357,"ĠìŀĲìĥĿ":13358,"ong":13359,"Ġë®¤ì§Ģìħĺ":13360,"ĠLPGA":13361,"Ġ1950":13362,"ĠìĥĪë§Įê¸Ī":13363,"Ġê»įì§Ī":13364,"ĠìĿĮëª¨":13365,"Ġìļ¸ëł¸":13366,"ëĮĢìĻķ":13367,"ĠìĿ¼ì¶ķ":13368,"ĠìĦ±íĻ©":13369,"íı¬ì§ĢìĹĦ":13370,"ĠìĥģìłĲ":13371,"íķŃìŁģ":13372,"ĠìĿĺëĮĢ":13373,"Ġìĭľëĵľ":13374,"ĠìĿ´íĬ¿ëĤł":13375,"ê²ĮëģĶ":13376,"Ġê³¼ìŀĲ":13377,"Ġê³¤ì¶©":13378,"Ġìļ©ëĤ©":13379,"íĬ¬":13380,"Ġê·¸ì¹ľ":13381,"Ġì´Īë³´":13382,"Ġëĭ¨íĴį":13383,"Ġto":13384,"ĠìĿ¼íļĮ":13385,"ĠìĿ¼ëł¨":13386,"ĠìĬ¤ì¼Ģì¤Ħ":13387,"ĠíĢ¸":13388,"ì¦Ŀëªħ":13389,"ê²½ë³´":13390,"Ġë§īë§Ĳ":13391,"íķĺìĤ°":13392,"Ġìŀ¥êµĲ":13393,"ì§Ģì²Ń":13394,"åŃĲ":13395,"....":13396,"Ġ450":13397,"Ġëĭ¨ìĪ¨ìĹĲ":13398,"Ġë¶Ħëĭ¨":13399,"ë²ħì§Ģ":13400,"ë³´íĨµ":13401,"Ġkt":13402,"Ġìĭ¤ìłĲ":13403,"ìŀħìŀ¥":13404,"ĠíķľìĸĳëĮĢ":13405,"Ġê³łì¶©":13406,"ë¶Īë¦¬":13407,"Ġë¦¬ìļ°":13408,"Ġì§ĢìĿĮ":13409,"Ġê°ĲìĨĮìĦ¸":13410,"ëıĦìĻĢ":13411,"ê¸°ë¦Ħ":13412,"ĠíŀĪìĸ´ë¡ľ":13413,"Ġë²ķì¹Ļ":13414,"íİĳ":13415,"ê·¸ë§Ī":13416,"ìķĪëħķ":13417,"Ġë°°êµ¬":13418,"Ġì²ĺìļ°":13419,"RO":13420,"ĠìĹ´ë§Ŀ":13421,"ĠìķĪì°©":13422,"ìļĶê±´":13423,"Ġë¶ĪìĮį":13424,"Ġê¸°ìĬµ":13425,"Ġíı¬ìļ©":13426,"ĠìĿĢê·¼":13427,"ĠëĤ´ìĭ¤":13428,"ê±°ëĿ¼":13429,"ĠìĽĲìĦľ":13430,"ĠìĭĿë¯¼ì§Ģ":13431,"Ġë¶ĢíĨµëł¹":13432,"ĠëıĦìŀ¥":13433,"Ġíĩ´ìĽĲ":13434,"Ġì¡°ìĦłìĹħ":13435,"ĠëıĮëł¤ì£¼":13436,"ì»¨ë²¤ìħĺ":13437,"Ġë§ĪìĤ¬ì§Ģ":13438,"íĿĻ":13439,"our":13440,"ì¶ľìĭł":13441,"Ġëļľê»ĳ":13442,"Ġê³łëĤľ":13443,"ĠëıĻêµŃ":13444,"ìĸ´ëĥĪ":13445,"Ġíķľì¤ĳ":13446,"íĺ¸ìĪĺ":13447,"Ġì´Ŀê¸°":13448,"ĠìŀĶë¥ĺ":13449,"ĠìĦľëĳĲë¥´":13450,"ĠìĹĺë¦¬íĬ¸":13451,"ë³¸ìĿ¸":13452,"ĠíıŃìļ°":13453,"ëĮĢìĤ¬ê´Ģ":13454,"ĠíĢĦ":13455,"Ġë²ļê½ĥ":13456,"Ġë°ķëª¨":13457,"Ġê°ķë³Ģ":13458,"ĠíĺĦëĮĢìĿ¸":13459,"Ġë§Īëĵľë¦¬ëĵľ":13460,"Ġì§ĢëĮĢ":13461,"ê²©ìĪĺ":13462,"Ġë²Ļ":13463,"Ġíķ´ì§Ģ":13464,"íĺ¸ì£¼":13465,"æĢ":13466,"Ġë¿Įëł¤":13467,"ëĮĦìĬ¤":13468,"Ġë§ĪìĿ¸ëĵľ":13469,"ĠìķĮë£¨ë¯¸ëĬĦ":13470,"ê°Ĳìłķ":13471,"ìĦľìļ¸ëĮĢ":13472,"íķĺìĹ¬":13473,"ìľłìĤ¬":13474,"Ġë£¸":13475,"íķľëıĦ":13476,"ë§Īë¸Ķ":13477,"ĠëĤ®ì·Ħ":13478,"Ġë³´ìĬµ":13479,"ìłľìĿ¼ìłľëĭ¹":13480,"Ġë¬´ìĭ¬":13481,"íļĮë¡ľ":13482,"êµ¬ëıĦ":13483,"ëįĶëĿ¼êµ¬ìļĶ":13484,"ê³łë²ķ":13485,"Ġì¡°ìĺģ":13486,"ë³´ì¢Įê´Ģ":13487,"Ġì¤ĳìĸ¼ê±°ëł¸":13488,"ìķħìĤ°":13489,"Ġê¸°ë¥ĺ":13490,"ê¸Īê³ł":13491,"KBS":13492,"ìĺĪë¹Ħ":13493,"Ġë¶ĻìĿ¸":13494,"êµŃìłķ":13495,"ĠëıĦëŀĺ":13496,"Ġë²¨ê¸°ìĹĲ":13497,"Ġìĥģë¥ĺ":13498,"PL":13499,"ĠìĦ¸ë°Ģ":13500,"ĠìłĦìĭľìŀ¥":13501,"ë§¥ìĬ¤":13502,"Ġìľłëŀĺ":13503,"Ġëĭ¹ê¶Į":13504,"íĻľìķ½":13505,"Ġê°Ģê²°":13506,"ĠìĬ¤íĭ°ë¸Ĳ":13507,"ĠíĿ°ìĥī":13508,"Ġë©´ë°ĢíŀĪ":13509,"Ġë°¤ìĥĪ":13510,"ë²Ĺ":13511,"ìĿ´ë§ĪíĬ¸":13512,"Ġì´ĪìĦł":13513,"Ġê²½íĿ¬ëĮĢ":13514,"ĠëıĮìķĦìĦľ":13515,"Ġì§Ģê·¹":13516,"Ġìĥģê³ł":13517,"Ġìŀ¥íĦ°":13518,"Ġë¡ľê³ł":13519,"Ġë¦´ëłĪìĿ´":13520,"Ġë§Īë²ķìĤ¬":13521,"Ġë°©ìĨ¡ìĿ¸":13522,"Ġì²ľìķĪìĭľ":13523,"UN":13524,"Ġì²´ìĿ¸":13525,"ëĬĲëĭĪ":13526,"ëĨįìĤ°ë¬¼":13527,"Ġê°ģëıĦ":13528,"Ġë¹Ħë¹Ħ":13529,"ê°Ģìĥģ":13530,"ĠìĤ°íĸī":13531,"ĠëĤĢ":13532,"Ġëĭ¬ê±Ģ":13533,"íĶ¼ë¶Ģ":13534,"ëªħìĺĪ":13535,"ĠìķĪìĤ°ìĭľ":13536,"ìķĦëĤĺ":13537,"íķ¸":13538,"ëĤĺëĵľ":13539,"íħĮë¥´":13540,"ë§ģíģ¬":13541,"ĠëĿ¼ìŀĦ":13542,"ĠìĪĺìłľ":13543,"ĠëĮĢëıĻ":13544,"Ġê°ĦìĦŃ":13545,"Ġìłľìķ½ìĤ¬":13546,"ĠëĬ¥ëıĻ":13547,"ìĤ¬ìĹħëĭ¨":13548,"Ġì·¨ëĵĿìĦ¸":13549,"ë¬´íķľ":13550,"Ġíľ´ìĹħ":13551,"AT":13552,"ME":13553,"Ġê¸°íĥģ":13554,"Ġìĺ¤ëĦĪ":13555,"ĠíĬľ":13556,"íĬ¸ëŁŃ":13557,"ì£¼ì²´":13558,"ĠíĻĶëĭµ":13559,"ĠíĴįìļĶ":13560,"Ġíķ´ëĤ¨":13561,"Ġìĭ¸ìĽĮ":13562,"Ġêµ¬ê¸ī":13563,"íĮĮíĭ°":13564,"Ġëª©ë¡Ŀ":13565,"Ġìłķìŀ¬":13566,"Ġìĭ¤ì¢ħìŀĲ":13567,"ĠëģĮìĸ´ëĤ´":13568,"Ġìł¤":13569,"ì¤ĳëıĻ":13570,"Ġì£¼ëĭ¹":13571,"ì²ľêµ¬":13572,"ë¶Ħëªħ":13573,"ê°ĢìĬ´":13574,"Ġë¶Ģìĭľìŀ¥":13575,"ĠìłĦìħĭ":13576,"êµ¬ë©į":13577,"ĠíĨłë§ĪíĨł":13578,"Ġëĭ¤ëħĢìĺ¨":13579,"ë²ĮëłĪ":13580,"Ġê·Ģì°®":13581,"ĠëłĪìĿ¸":13582,"Ġë²ħ":13583,"PO":13584,"ëĤĺê¸°":13585,"íĴĪëª©":13586,"ĠìĦľë¹ĦìĬ¤ìĹħ":13587,"Ġëħ¸ëł¤ë³´":13588,"Ġëĭ¬íķ´":13589,"ĠìĪłì§ĳ":13590,"ĠìĨĮíĴĪ":13591,"çĦ¡":13592,"ĠìłĦìĿ´":13593,"Ġê³µìķĪ":13594,"Ġë°ľëıĻ":13595,"Ġëª©ìļĶìĿ¼":13596,"ì£¼ìĤ¬":13597,"Ġì¢ħê²°":13598,"ìĿ¼ìĦ¸":13599,"íĶĮë¦ŃìĬ¤":13600,"ĠìłĢíķ´":13601,"Ġìĥģê¸ī":13602,"èĩ":13603,"ĠêµĲëıĦìĨĮ":13604,"ê°Ģì¹Ń":13605,"Ġëĭ´íĻĶ":13606,"íľ´ìĸĳ":13607,"ĠíĽĦë³´ì§Ģ":13608,"Ġíķĺë²Ħëĵľ":13609,"Ġë°ĺê²½":13610,"Ġìŀ¬ëŀĺ":13611,"ë§Īë£¨":13612,"ê·¸ëłĩê²Į":13613,"ì½ĶìĿ¸":13614,"Ġê³µë£¡":13615,"09":13616,"ë°±ìĭł":13617,"Ġìĥģê¸°":13618,"Ġëħ¸ëıĻë¶Ģ":13619,"ìłĪë¡ľ":13620,"Ġê²©ëł¬":13621,"ì»´íĵ¨íĦ°":13622,"Ġíıīê°ĢìłĦ":13623,"Ġê·¸ëŁ°ê°Ģ":13624,"ĠíĮĶëł¸":13625,"Ġë¹ĦìľĦ":13626,"ìĹ°ìĨį":13627,"Ġê³µìĤ¬ë¹Ħ":13628,"ĠìĦ±ëĭ¹":13629,"ĠìĿĳíķĺ":13630,"ĠíĽĦê³Ħ":13631,"ê±°ì§Ģ":13632,"ĠìĹ´ëŀĮ":13633,"LH":13634,"ĠíħĮë§ĪíĮĮíģ¬":13635,"Ġìĭłì§Ħ":13636,"Ġìķħë§Ī":13637,"ĠìĽħì§Ħ":13638,"ì½Ķëħ¸":13639,"èª":13640,"ĠìĨĮë°©ê´Ģ":13641,"Ġìĺ¹íĺ¸":13642,"ëĿ¼ëĵłê°Ģ":13643,"ë¦°ëĭ¤ëĬĶ":13644,"ĠíĨłíĬ¸ëĦĺ":13645,"ĠíķľìĿ¸":13646,"íĦ°ì¹´":13647,"ĠìĹ¬íĸīì§Ģ":13648,"ĠìĥĿìłĦ":13649,"CJ":13650,"ĠëĬĶ":13651,"Ġand":13652,"ĠìĶ©":13653,"ãĢĮ":13654,"Ġìĺ¤ì§Ģ":13655,"ĠíĴĪì¢ħ":13656,"ìĨĮìĭĿ":13657,"ĠìķĦì£¼ë¨¸ëĭĪ":13658,"ëłģìĿ´":13659,"ĠìĿ¸íħĶ":13660,"Ġë©Ķì¹´":13661,"Ġìĭľíģ¬":13662,"Ġë©ĭìŀĪ":13663,"Ġê°Ģíĺ¹":13664,"Ġê²¬íķĻ":13665,"ìļĶë²ķ":13666,"Ġê³łëıħ":13667,"Ġë§Īìĭ¤":13668,"Ġë§ĪëĭĪìķĦ":13669,"ë¬¸íĻĶìľłìĤ°":13670,"Ġê°Ģê¸īìłģ":13671,"ĠCD":13672,"Ġëłī":13673,"ĠìĤ¼ê°ģ":13674,"ure":13675,"ĠêµŃíķľ":13676,"Ġë·Ķ":13677,"ĠìĹĲëĵľ":13678,"Ġëĭ¤ìĿ´ìķĦëª¬ëĵľ":13679,"ĠìĨĮëĵĿìĦ¸":13680,"ìĺ¤ë¹ł":13681,"ĠìĻķêµŃ":13682,"ĠëĮĢëĭ´":13683,"Ġìľłë¬´":13684,"ìĹĲë¥´":13685,"Ġìľ¤ê³½":13686,"ìĺ¤íĶ¼ìĬ¤":13687,"Ġë°ĽìķĦëĵ¤ìĺĢ":13688,"Ġê°ķìĨĮ":13689,"Ġê´ĳìĹŃìĭľ":13690,"ĠëĤ´ëł¤ìķī":13691,"ĠìķĦìļ°ëĶĶ":13692,"Ġë³´ì§ģ":13693,"Ġê²½íĸ¥ìĭłë¬¸":13694,"Ġë¶Īëł¸":13695,"Ġìŀĳìłķ":13696,"ĠëĬ¦ì¶Ķ":13697,"Ġê²½ë¡ľëĭ¹":13698,"ìŀĦìŀĲ":13699,"ĠìķŀëĴ¤":13700,"ì¤Ģëĭ¤ëĬĶ":13701,"ìĭ¤íĥľ":13702,"ĠëĮĢê¾¸":13703,"Ġëıħì°½":13704,"ëĤ´ìĹŃ":13705,"ë§ĲëĿ¼":13706,"Ġìĭ¬ìĭ¬":13707,"ê´ĢìĿĢ":13708,"ne":13709,"ê±°ìłĲ":13710,"Ġ220":13711,"Ġ105":13712,"íĺĲìĿĺ":13713,"ìĭ¬ìŀ¥":13714,"Ġìŀ¬ìĭ¬":13715,"ĠíķĻê¸ī":13716,"Ġë§ĮëĤľëĭ¤":13717,"Ġê³łìľĦê¸ī":13718,"æĽ":13719,"Ġê¸īìĦ±ìŀ¥":13720,"Ġë¡ľë²ĦíĬ¸":13721,"Ġìŀ¥ëĤ¨":13722,"Ġë²Īê°Ī":13723,"ìĭľìĿ¸":13724,"ì§Ħëĭ¤ëĬĶ":13725,"ĠìłĦê´ĳ":13726,"Ġê²½ìĤ°":13727,"íĥľìĽĲ":13728,"ĠíĽĪíĽĪ":13729,"ĠìĺĪë°°":13730,"Ġì²ŃëŁī":13731,"íļĮìĪĺ":13732,"ì¶ľíĮĲ":13733,"Ġë¬´ê¶ģ":13734,"Ġê³Ħê¸ī":13735,"ë¦¬ìĭľ":13736,"Ġê°Ģìł¸ìĻĶ":13737,"ì¦Ļ":13738,"ĠìĦ¤ìĤ¬":13739,"Ġìĸ´ìĹħ":13740,"ìķĪëĤ´":13741,"Ġìĥģë´ī":13742,"Ġìŀ¬ìĪĺ":13743,"Ġìłķê³Ħ":13744,"Ġì§ģìĨį":13745,"Ġíĳľìłģ":13746,"ê¹ĢìĹĨìĿ´":13747,"Ġêµ´ëŁ¬":13748,"ìĿ¸ë°©":13749,"ĠìĦ¸ë¸Ĳ":13750,"ìºī":13751,"Ġê·¸ëŁ¬ë¯Ģë¡ľ":13752,"Ġìĺģì¢ħ":13753,"ê³µêµ¬":13754,"Ġíķľìĺ¥":13755,"ĠìĤ´íı¬":13756,"ìĸ¸ëĭĪ":13757,"Ġìŀ¥íİ¸":13758,"ëıĻìĭľ":13759,"Ġíķ¨ëŁī":13760,"ĠìĨľìĶ¨":13761,"ê³łë£¨":13762,"ĠìµľìĥģìľĦ":13763,"ĠíķĺìĨĮìĹ°":13764,"Ġì§ľë¦¿":13765,"íĬ¹ë³Ħë²ķ":13766,"ĠíıŃíĴį":13767,"Ġë°ĺì§Ģ":13768,"ëª¨ëĭĪ":13769,"ĠìĿĢë°Ģ":13770,"íĥĿì§Ģ":13771,"ĠìĺģëĤ¨ëĮĢ":13772,"ê³µìĭľ":13773,"ĠëĬĲê»´ì§Ħëĭ¤":13774,"Ġíķ´ìĪĺìļķìŀ¥":13775,"ĠìĿ´ìĿĢ":13776,"ĠëģĮìĸ´ìķĪ":13777,"Ġìĺģë¦¬":13778,"Ġëĭ¤ìĭľê¸Ī":13779,"ëĿ¼ëĵłì§Ģ":13780,"os":13781,"Ġìĺģìŀ¬":13782,"ëĪĦê°Ģ":13783,"ë²Ħê±°":13784,"ìĹ°ëıĦ":13785,"Ġê±¸ë¦°ëĭ¤":13786,"ĠíİĺëĦĲíĭ°":13787,"ĠìĬ¤ì¿¨":13788,"Ġë²ĮìĿ¸ëĭ¤":13789,"ĠìĿ´ìĦ¸":13790,"ä¼":13791,"ì§Ħíĸī":13792,"ĠíķĺëĤĺëĭĺ":13793,"Ġë°ķì°¬íĺ¸":13794,"ëª¨ë¦¬":13795,"ĠìĿĳê¸īìĭ¤":13796,"ĠìĿ¼ëŁ¬":13797,
[...]
