#version: 0.2 - Trained by `huggingface/tokenizers`
Ġ ì
Ġ ë
ì Ŀ
Ġ ê
í ķ
ë ĭ
ì Ĺ
ëĭ ¤
ê ³
Ġ í
ìĿ ´
ë Ĭ
ëĬ Ķ
ê °
ìĹ Ĳ
ì Ħ
ìĿ Ħ
ì ł
ì ŀ
ì §
Ġì Ŀ
ë ¡
Ġì ŀ
ê³ ł
íķ ĺ
ìĿ ĺ
ë¡ ľ
ë ¥
íķ ľ
ë ı
ì ľ
ì ĭ
¸ °
ê° Ģ
Ġì ł
ì§ Ģ
ìĿ Ģ
ì ķ
Į Ģ
Ĥ ¬
â Ģ
ë¥ ¼
ë ¦
ê ²
ì ļ
Ġê °
ìĦ ľ
ĠìĿ ´
Ġì ķ
ëı Ħ
íķ ´
ë Ĥ
Ġê ²
Ġë °
ë ĵ
ê µ
ê ¸°
ì Ľ
ë §
ì ĸ
Ī ĺ
Ġë §
Ġì §
ë ł
í ĸ
ë ©
Ġì Ĺ
Ġìŀ Ī
ìľ ¼
Ġì ĭ
ë¦ ¬
ë ¶
Ġê ·
ìĿ ¸
ì Ĭ
Ġì Ħ
Ġê ³
ë Ŀ
Ġë Ĥ
ìľ¼ ë¡ľ
ë ³
ìŀ Ĳ
Ġì ĺ
ë °
ìĭ ľ
ĥ ģ
ëĿ ¼
ì Ĥ¬
ìĸ ´
ìŀ ¥
£ ¼
Ġë ĮĢ
ìĽ Ĳ
Ġê· ¸
ë ¬
ëĵ ¤
Ġë ĭ
íĸ Ī
ì ²
ê³ ¼
ë ĮĢ
Ġì§ Ģ
í Ļ
ìĹĲ ìĦľ
ì ĺ
Ġì Īĺ
Ġ âĢ
Ġë ¶
Ġë ĵ
ë Ł
Ġê µ
ìł ķ
Ġë ³
ë ŀ
Ġì Ĥ¬
í ĺ
Ġ 1
ë¶ Ģ
ë© ´
ê² Į
ë§ Į
Ġì ľ
ì Ļ
ë ħ
ë ª
Ġë ª
ë į
ìĬ ¤
Ġê² ĥ
ë Ĳ
Ġìł Ħ
ì Ĩ
ëĤ ĺ
ìĿ ¼
Ġ íķľ
ļ Į
¹ Ħ
ëĭ Ī
ì ĥģ
ìķ Ħ
ìł ľ
Ġ 2
ì ¹
´ Ģ
Ġê ¸°
¡ °
Ġë ı
ìł ģ
Ġì ĸ
Ġê° Ģ
ê ¸
Ġìķ Ħ
ë ²
¤ ĳ
Ġìĭ ľ
êµ Ń
ĥ Ŀ
ìĦ ±
Ġ íķ
ì Īĺ
ìĹ ħ
Ġë ¬
Ġ <
Ġ íķĺ
ì £¼
êµ ¬
s e
ë ¯
Ġí Ļ
se p
| >
Ġ< |
Ġì ļ
Ġëĵ ±
íĻ Ķ
± °
ë³ ´
í ļĮ
ìł Ħ
Ġìł ķ
ëħ Ħ
ìĻ Ģ
ì °
Ĥ °
ê ·
ìļ Ķ
Ġë³ ´
Ġí ĺ
Ġì Ĩ
Ĩ µ
ìĹ Ī
ëı Ļ
Ġì °
ë© °
Ġìŀ Ĳ
ê ¹
âĢ Ŀ
ĠâĢ ľ
Ġì £¼
Ġê² ½
í Ĭ
ë¬ ¸
ĠëĤ ĺ
ìļ ©
ê³ Ħ
âĢ Ļ
ì Ĥ°
ì ¶
Ġì ¶
Ġì ¤ĳ
í Ħ
ĠâĢ ĺ
Ġê³ µ
ì§ Ħ
ëª ħ
Ġì ²
Ġëĭ ¤
ĠìĿ ¼
ĠìĿ ¸
í ĥ
Ġìł ľ
ì¹ ĺ
íķ ł
ìĨ Į
Ġìľ Ħ
íĬ ¸
ê¹ Į
Ġë¶ Ģ
ëŁ ¬
ìķ ¼
Ġ "
ìĦ ł
ë ¹Ħ
íĦ °
ê° Ħ
0 0
ëł ¤
Ġí ĸ
Ġì ĥģ
Ġë ¯
ìľ Ħ
Ġìĸ ´
Ġë§ Ĳ
ĠëĤ ´
ê³ µ
Ġë Ĳ
ìĭ ł
Ġë ²
íĸ ī
Ġêµ Ń
ì ¡°
Ľ Ħ
ëĵ ľ
ë £
Ġ '
ê¸ Ī
ëį °
í Į
± ´
ëĭ ¹
ìĹ ¬
Ġê ´Ģ
ê ´Ģ
Ġëª ¨
Ġ 3
Â ·
µ ľ
í ŀ
ì² ´
ë¬ ´
í Ķ
ëĤ ľ
ìķ Ī
ê° ľ
Ġì ¡°
ìļ °
Ġìķ Ĭ
Ġë į
Ġí ı
ëĭ ¨
Ġìĺ ¤
ĠìĦ ł
ë¯ ¼
Ġê³ ł
ĠìĨ Į
ĳ ľ
ë§ Ī
Ġ íķ´
ê ±°
íķ Ļ
ĠìĹ Ĩ
ëĲ ľ
ìĦ ¸
í ı
ĠìĿ ĺ
Ġë§ Ī
Ġì Ľ
ķ Į
ìŀ ¬
ëł ¥
Ġìľ ł
ìĽ Ķ
ê² ½
Ġë ¹Ħ
íŀ Ī
ĠìĹ ¬
Ġìĺ Ī
Ġë Ħ
ìĹ Ń
ìļ ´
Ġì µľ
ĳ Ĳ
Ġí Į
ĠìĹ °
ëĤ ´
ì ĥĿ
Ġê ¸
ìĺ ģ
Ġê ¹
Ġê° ľ
Ġì Ļ
Ġìĭ ł
Ġë§ Į
ìĹ °
ì§Ģ ë§Į
ìĭ Ŀ
Ġë ķĮ
ì ¡
Ġê ±°
Ġë ħ
ëĭ¤ ëĬĶ
ë¥ ´
Ġì Ĭ
ìĭ ¤
êµ Ĳ
Ġìļ °
Ġìķ Ī
í Ĩµ
ë¶ Ħ
ĠìĦ ľ
¶ Į
Ġë¯ ¸
ì Ī
ë¯ ¸
Ġë Ķ
ëĲ ĺ
ëį ĺ
Ġí Ĩµ
ìľ ł
ì° ¨
í ĳľ
Ġì ĥĿ
Ġë° ©
Ġì ¹
Ġë° ľ
Ġëı Ħ
Ġêµ ¬
ê¹Į ì§Ģ
Ġì ¢
ëŀ ĺ
ë Ħ
Ġí Ķ
ìķ ĺ
ëĭĪ ëĭ¤
í Ĵ
ëĿ¼ ê³ł
Ġì ´
Ġë Ĩ
¤ Ģ
Ġë¬ ¸
ì ¦
Ġê° ķ
Ġì§Ģ ëĤľ
ë©´ ìĦľ
Ġë¬ ´
ĠìĦ ¸
Ġëı Ļ
ìĬ µ
ìĺ ¤
ìĿ Į
ë° ľ
Ġë° Ķ
Ġ 4
Ġíĺ Ħ
í ģ
Ġí Ĭ
ê° ģ
ìĭ ¬
Ġ 5
ìĸ ĳ
ë° ©
Ġì Ĥ
ë¬ ¼
ì ¤ĳ
Ġì§ Ħ
ì² ľ
ê ¶Į
Ġê¹ Ģ
ĥ Ī
ì¶ ľ
íķľ ëĭ¤
ìĨ į
Ġíĸ Ī
Ġìĭ ¤
ìŀ ħ
Ġêµ Ĳ
ìĹĲ ê²Į
íĴ Ī
ìł Ĳ
Ġë¶ Ħ
ë¡ Ŀ
íĺ ¸
ĠìĦ ±
ê ±´
Ġìĺ ģ
ĠìĽ Ĳ
í İ
ëª ¨
Ġ2 0
Ġìŀ ¥
Ġë¶ Ī
ì² Ń
ëĭ¤ ê³ł
ëŀ Į
ë¶Ģ íĦ°
ê² ł
Ġê² °
ĠíĻ ķ
Ī ¬
íĥ Ģ
í Ĺ
Ġí ĥ
ëŁ °
Ġìĺ ¬
í ĽĦ
ìĦ ¤
± ħ
Ġë ĺ
ê· ¸
ìļ ¸
ĠëĶ °
Ġëĭ ¹
Ġê³ Ħ
ìŀ ĳ
ë¥ ¸
Ġëĵ ¤
Ġìŀ ¬
ìĸ µ
Ġì¶ Ķ
Ġê° Ĳ
ë° ĺ
ì ¢
ë² ķ
ìĦ Ŀ
ë Ķ
Ġëį Ķ
ĠìĬ ¤
Ġë° ĺ
ìŀ Ħ
Ġë° Ľ
ì ´
Ġëĺ Ĳ
Ġëħ ¸
ì§ ģ
ë£ Į
ê¸ ī
Ġí ĽĦ
´ ĳ
Ġì° ¨
½ Ķ
íķ ©
ì ¤Ģ
ë² Ī
ë¦ °
Ġê° Ļ
ê² ©
ì Ķ
ĠíĬ ¹
ëĬ ¥
ëł ¨
ĠëĲ ĺ
ĠëĮĢ íķľ
ëĭ ¬
í ħ
Ġí ģ
Ġìŀ ħ
ĠìľĦ íķ´
íĺ ķ
ê° Ĳ
ê· ¼
Ġë§ İ
Ġë§ ¤
ë ĳĲ
ĠëĤ ¨
ì¢ ħ
ìĪ ł
Ĩ ł
Ġê ±´
Ġë Ĭ
ìĺ Ģ
Ġ 6
Ġìł ģ
ë³ ¸
Ġì¶ ľ
íĶ Ħ
Ġë Ī
ìľ ¡
ê »
Ġìķ Į
ĠìķĦ ëĭĪ
ì² ĺ
ëĤ ¨
ëł ¹
Ġë ¹
Ġì ¦
ĠìĦ ¤
Ġí ļĮ
Ġë ©
Ġìł Ģ
ìķ ½
Ġëĭ ¨
ì ¸
Ġíķ Ļ
ëĿ¼ ëĬĶ
íĥ ľ
ĠìĹ ´
Ġí İ
íı ¬
Ġëĭ ¬
í ļ
ĠìĤ¬ ëŀĮ
íģ ¬
ëł Ī
ĠëĦ ¤
ëĵ ł
íĺ Ħ
ì§ Ī
Ġë ĳĲ
í Ĥ
ëĲ Ĳ
Ġë¬ ¼
ë¡ ł
Ġë° Ŀ
Ġíķľ êµŃ
Ġ â
ë§ ¤
Ġë° °
ëĤ ł
ì ħ
âĢ ¦
Ġì Ī
í ĭ
íĮ Į
Ġë° ķ
Ġê³ ¼
ê» ĺ
¤ Ħ
ëł ĩ
ĠëķĮ ë¬¸
Ġëª »
íĹ ĺ
ĠìĹ Ń
ëŀ Ģ
Ġíķ ł
êµ °
Ġì° ¸
ìĬ ¹
ìĬµ ëĭĪëĭ¤
ìł Ģ
ëĬĶ ëį°
Ġí Ŀ
Ġ 7
ĠíĨµ íķ´
Ġíı ī
Ġìŀ ĳ
ëĶ Ķ
ê° ķ
Ġ1 0
Ġìķ ŀ
ê² °
ì ±ħ
í Ŀ
Ġì§ ģ
Ġì§ ĳ
Ġíı ¬
íĻ ĺ
Ġíĸ ī
Ġíķ ¨
Ġìļ° ë¦¬
Ġê¸ Ī
ëŁ ī
Ġìļ ´
ë³ µ
± Ħ
Ġí Ī¬
ë§ Ŀ
Ġìļ Ķ
Ġë ģ
Ġì ĥĪ
ì¡ Į
ĠíĻ ľ
ì ¼
Ġì§Ģ ìĹŃ
Ġë°Ŀ íĺ
Ġ20 1
ì¦ Ŀ
ì° °
ë£ ¨
ëŁ ¼
Ġ 8
Ġì² Ń
ìĶ ¨
ìĻ ¸
Ġíķľ ëĭ¤
ë³ Ħ
Ġê·¸ ëŁ¬
ë² Ħ
ë° Ķ
ĠëĨ Ĵ
ĠëĮĢ íķ´
Ġìĸ´ ë
ĠíĶ ¼
ĠìĻ ¸
Ġë ¨
íļ į
Ġëª ħ
ë³´ ëĭ¤
íĮ Ĳ
Ġì´ Ŀ
ì £
± ¸
íĻ ©
íİ ¸
ĠìĥĿ ê°ģ
Ġë Ĵ
· ¨
í Ĩł
Ġë¯ ¼
¸ Į
ĠíĶ Ħ
Ġë°Ŀíĺ Ķ
Ġë§ ŀ
í ĥĿ
Ġë° ı
Ġê² Į
ìĺ Ī
Ġìł Ĳ
ëĭ ´
Ġíķ¨ ê»ĺ
Ġì¢ ĭ
Ġì¦ Ŀ
Ġí Ĺ
ë¶ ģ
ë¦ ½
ĠíĮ Ĳ
Ġê² Ģ
Ĩ į
ĠìĤ¬ ìĹħ
ĠìĤ ´
ëª ©
ëĲľ ëĭ¤
Ġì´ Ī
ĠíĮ Į
Ġ 9
ĠëĮĢ íĳľ
Ġì Ĥ°
Ġìĸ ĳ
ë ĥ
ì¶ ķ
íĶ ¼
íĸ ¥
ë° ķ
ì¡ ±
ĠìĦľ ìļ¸
Ġìłķ ë¶Ģ
ëį Ķ
ë¦ Ħ
Ġíķ Ħ
ĠíĻ Ķ
Ġë¬¸ ìłľ
íķ Ń
íĤ ¤
ë° °
ê ´ĳ
ëŀ ĳ
ì ³
ĠëĴ ¤
ĠëĲ ľ
ìĽ Į
Ġë ĸ
ìĺ ¨
Ġëª ©
Ġì² ĺ
íķ ¨
ëıĦ ë¡Ŀ
Ġê²½ ìļ°
ĠìĿ´ ë²Ī
Ġìĭ ¬
ĠìĿ´ ìĥģ
Ġê° ģ
ìĨ ¡
00 0
Ġë³ ¸
Ġìŀ Ħ
íĨµ ëł¹
Ġê° Ħ
ĠìĨ Ĳ
Ġì§Ģ ìĽĲ
ëĵ ±
íĻ ľ
ìł ¸
Ġëį °
ì´ Ī
íĭ °
Ġê´Ģ ê³Ħ
Ġì ½Ķ
ĠìĿ Į
ëħ ¸
ëĦ ¤
ë³ ĳ
ì¹ ´
ì§ ĳ
Ġëı Į
ĠìĤ ¼
ìľ ¨
ë¥ ĺ
Ġâ ĸ
Ġìĸ´ë ĸ
Ġì »
ë ¨
Ġë³ Ģ
ì ½Ķ
ĠìľĦ íķľ
ĠëĮĢ íĨµëł¹
ë¦ ¼
ëĭĪ ê¹Į
ĥ ī
Ġê°Ģ ëĬ¥
ëı ħ
ëł ¸
ĠíĻ ĺ
Ġê´Ģ ëł¨
ë ¹
ë ģ
Ġë¯¸ êµŃ
Ġì¹ ĺ
Ġê·¸ ëŁ°
ìľĦ ìĽĲ
Ġë² ķ
Ġì² ´
Ġìŀ ĺ
Ł ģ
ĠìĹ ħ
Ġê ´ĳ
ĠìĨ į
Ġê²½ ê¸°
Ġìĭľ ìŀĳ
íĺ ĳ
Ġê ±¸
ìĿ´ ëĤĺ
ë§ Ĳ
Ġë Ń
ĠëĪ Ī
ìł Ī
Ġ1 9
ê° Ŀ
ĠëĶ° ëĿ¼
ë¡ Ģ
ì Ĥ
Ġì§ĢëĤľ íķ´
ë ´
Ġëĵ ľ
Ġê· ¼
Ġì ¤Ħ
ìĸ ¸
Ġê¸° ìĹħ
Ġí Ĵ
Ġê· ľ
Ġíĺ ĳ
Ġí ŀ
ì Łģ
ì »
ìľ¼ ë©°
ê· ľ
Ġì° ¾
Ġì ·¨
Ġì§Ħ íĸī
Ġíķ ©
Ġì§Ģ ê¸Ī
ëĦ Ī
ĠìŀĲ ìĭł
ëħ Ģ
Ġì¢ ħ
Ġíĥ Ģ
Ġíĺ ¸
ê² ¬
Ġì ±Ħ
í Ī¬
íķ´ ìķ¼
ĠìĿĺ ìĽĲ
ëĿ ½
ëłĩ ê²Į
ĠíķĦ ìļĶ
Ġê°Ģ ìŀ¥
Ġìķ ½
ê¸ ¸
Ġì¤ĳ êµŃ
Ġë¶ ģ
Ġìĺ¬ íķ´
Ġìĭľ ìŀ¥
Ġ2 00
ĠìĿ´ íĽĦ
Ġì° ½
ĠìķĦ ìĿ´
ìĽ Ģ
Ġë§Į ëĵ¤
ĠìĦ¸ ê³Ħ
ëı ¼
ë³ Ģ
ì£ ł
ĠêµŃ ëĤ´
íı ī
ì²ĺ ëŁ¼
Ġíģ ¬
Ġìĥģ íĻ©
ê· ¹
ĠëĬ ĺ
Ġë² Ī
ìĻ Ķ
Ġì¶ ©
ê¸° ìĹħ
ã Ĩį
ĠìĿ´ ëĤł
Ġë ¡
ìľ µ
ìķ ħ
ëĥ Ĳ
ĠìĤ¬ ìĭ¤
ĠëĪ Ħ
2 0
ĠëĦ ĺ
Ġì ¤Ģ
ìĿ µ
ĠìĿ´ ëŁ°
Ġëĭ ´
Ġê³Ħ íļį
Ġë ¦
Ġíģ °
Ġëĭ¤ ë¥¸
Ġëĵ¤ ìĸ´
ì¦ Ī
ëĭ ĺ
Ġëª¨ ëĳĲ
ĠìĪ ľ
Ġí ĳľ
Ġìµľ ê·¼
ĠíĶĦ ë¡ľ
ì² ł
Ġê·¸ ë¦¬
ì¶ Ķ
Ġê´Ģê³Ħ ìŀĲ
ë Ī
íħ Į
ìĦ ¼
ĠêµĲ ìľ¡
ëĿ¼ ë©°
íĿ ¬
ĠìĹ Ĳ
ëĵ Ŀ
ìĤ¬ ìĹħ
Ġíİ ¸
ìł ĳ
Ġ1 1
Ġë ´
ë Ĩ
ĠíĽĦ ë³´
Ġìłķ ëıĦ
ë° Ľ
ì³ Ĳ
Ġìĸ ¸
Ġí ļ
Ġì ĵ
į ¼
Ġëħ ¼
ëĲ ł
ĠíĬ¹ íŀĪ
Ġíķĺ ì§Ģë§Į
ì¡ ´
Ġìĺ ¨
Ġë³ µ
Ġì Ķ
ìħ ĺ
ĠìĺĪ ìłķ
ëŀ ľ
ì° ½
ĠëĨ į
Ġíŀ ĺ
ëĬ Ĳ
Ġ1 2
Ġë¦ ¬
ĠìĻ Ħ
Ġìĸ ¼
ĠëŃ Ĳ
Ġìļ´ ìĺģ
ë² Į
ìĪ ľ
Ġê²½ ìłľ
ĠíĺĦ ìŀ¬
ĠìĬ ¹
Ġëı ħ
ìĭľ ìŀ¥
Ġìł Ī
ë¹Ħ ìĬ¤
ìĸ´ ìļĶ
ë ¸Į
ëĮĢ ë¡ľ
Ġ S
ì ĥī
ĠëĤ ł
ĠìĤ¬ íļĮ
ĠëĲ ł
ì¹ ¨
ĠêµŃ ë¯¼
ìķ ¡
ê² ¨
Ġìĭľ ê°Ħ
Ġëĭ¤ ìĸĳ
1 9
Ġì¶Ķ ì§Ħ
Ġë Ŀ
Ġíĺ ķ
ĠìĿ¼ ë³¸
ì¸ µ
ìĿ ĳ
Ġì ±ħ
ë² Ķ
Ġíķĺ ëĤĺ
Ġê·¸ ëŀĺ
ë¶ Ī
Ġêµ °
Ġì¹ ľ
ëŁ ½
ìĺ ¬
ĠìĤ¬ ìļ©
ĠìĿ´ ìłľ
Ġê° ĸ
ë Ĥ¬
ª ½
Ġëĭ¤ ìĭľ
ë¥ ł
íİ ĺ
Ġê²° ê³¼
ìķ ł
Ġì¹ ´
ê³ ³
ĠíĪ¬ ìŀĲ
ĠëĮĢ ìĥģ
Ġíĸ ¥
Ġìĭ Ŀ
Ġìĭ ¶
ĠëĲ Ĳ
ã Ģ
ìĹ Ķ
ĠíĹ Ī
Ġë² Į
Ġíĥ ľ
ë° ±
¸ Ķ
ê² Ģ
Ġ K
Ġ3 0
ã İ
ë§ ī
ìĹ ´
¿ Ĳ
ĠìĶ ¨
ì¸ ł
Ġê³ ³
ĠìłĦ ë¬¸
íĶ Į
ì µľ
Ġê°ľ ë°ľ
ì§ ¸
Ġë© Ķ
ĠëĶ° ë¥´
ĠëĬ Ĳ
Ġí Ĩł
Ġë§ ī
íģ ¼
ëĬĶ ëĭ¤
ĠìĿ´ ìļ©
ĠìĦ¤ ëªħ
Ġê·¸ëŁ¬ ëĤĺ
ìľ¼ ë©´
Ġë° ±
Ġê ¶Į
ľ ´
ĠíķĻ ìĥĿ
ĠëĦ Ī
ê² ĥ
ìĭ Ń
Ġì² «
Ġìķ ¼
Ġì ¸
Ġìł ĳ
ĠëĲľ ëĭ¤
ì§Ģ ìĹŃ
ëĬ ĺ
% )
Ġ1 5
ìĬ¤ íĬ¸
ĠíĻ į
Ġê¸ Ģ
Ġê·¸ë¦¬ ê³ł
Ġëģ Ŀ
ë¨ ¸
ë¡ľ ìļ´
Ġì¢ Ģ
ĠêµŃ ê°Ģ
Ġìŀ ¡
ì¹ ľ
ê±° ëĤĺ
Ľ Ī
Ġì°¸ ìĹ¬
ìĭľ ê°Ħ
Ġê¸° ë¡Ŀ
Ġë§İ ìĿ´
Ġì§ Ī
Ġê ¼
Ġë² Ħ
ĠìĹ° êµ¬
Ġê·¸ ëłĩ
ê· ł
ì¼ Ģ
ìĦ¼ íĦ°
ë¡ľ ëĤĺ
ìļ´ ëį°
Ġìķ ł
Ġíļ ¨
ëĿ¼ ëıĦ
Ġ A
Ġë ¸Į
Ġí ħ
ëĭ¤ ê°Ģ
Ġì¡° ìĤ¬
íķĻ êµĲ
Ġì ¡
ĠíĬ ¸
Ġëª¨ ìĬµ
ĠìĤ¼ ìĦ±
ì´ Ŀ
Ġ L
ìĸ´ ìĦľ
êµĲ ìľ¡
Ġíķ Ń
Ġìļ ©
Ġì¸ ¡
ī ´
ì ½
ìĹ Ĩ
ĠëĶ Ķ
Ġê¸° ëĮĢ
ĠëĿ ¼
Ġì º
ĠêµŃ íļĮ
Ġë§Ī ìĿĮ
Ġì» ¤
Ġë ľ
Ġê°Ģ ìļ´ëį°
Ġë§Ī ëł¨
Ġë¨ ¹
ìľĦìĽĲ íļĮ
Ġë¶Ģ ìĤ°
Ġì² ľ
ê° Ī
Ġê¸° ìĪł
Ġë¹ ł
ì ±Ħ
Ġíıī ê°Ģ
êµ ´
ĠìķĦ ëĭ
¾ ¸
Ġìłķ ì¹ĺ
Ġê¸ ¸
Ġì² ł
Ġíı Ń
Ġì £
ĠëĤĺ íĥĢ
Ġìµľ ê³ł
ë© Ķ
ĠìĿ´ ìĸ´
íĮ ¨
ĠìĿ´ ëłĩê²Į
Ġì¶ ķ
Ġê¸Ī ìľµ
ìĭľ ìķĦ
Ġë°ľ íĳľ
Ġë¬¸ íĻĶ
Ġë°ľ ìĥĿ
Ġë³ ĳ
ëŀ ¨
Ġìłľ ê³µ
ĠìĿ´ ìľł
Ġë ĳ
Ġê¸ ī
Ġìĵ °
í ĮĢ
ĠìŀĲ ë¦¬
ìļ ±
íķ´ ìĦľ
ĠìłĦ êµŃ
Ġëĸ ł
Ġê° Ī
Ġì ī
¨ ìĸ´
Ġâĸ ³
ĠìĤ¬ ìĿ´
Ġê²° ìłķ
ë¦ ´
ĠìĦł ìĪĺ
ëĭ¤ ë©´
ĠíĻķ ëĮĢ
Ġìĸ´ëĸ ¤
ëĬĶ ì§Ģ
Ġê°Ģ ì§Ģ
Ġë¯¼ ì£¼
ìĹ ¼
ê¸ ´
Ġì²ĺ ìĿĮ
Ġë³ ¼
ĠëĮĢ êµ¬
ëłĪ ìĿ´
Ġëª¨ ëĵł
Ġì£¼ ìŀ¥
ëŀľ ëĵľ
Ġê¸° ì¤Ģ
Ġìłľ íĴĪ
Ġâ Ĺ
ĠëĤ´ ìļ©
Ġì¦Ŀ ê°Ģ
ĠíĮĲ ë§¤
ĩ ´
Ġë³´ ìĿ´
ĠíĻķ ìĿ¸
ĠìĿ´ ë¯¸
ë ĳ
ìĤ ´
ĠìĿ Ģ
Ġìĸ´ ëł¤
ĠëıĻ ìķĪ
ìķ¼ ê¸°
ìĿĢ íĸī
íĥ Ħ
ĠêµĲ ìĪĺ
ĠìĦľ ë¹ĦìĬ¤
Ġìµľ ëĮĢ
ê·¸ ëŀ¨
Ġìĭľ ë¯¼
Ġê³ ¨
Ġë¶ģ íķľ
ìĿ´ ëĿ¼ê³ł
Ġí Ħ
ìĤ° ìĹħ
Ġëĭ¹ ìĭľ
ĠíļĮ ìŀ¥
Ġìļ ¸
Ġìŀ ł
Ġìĸ ĺ
ĠëĮĢ íķĻ
ë§Ī íĬ¸
Ġê²½ ì°°
Ġìłķ ì±ħ
ĠíĮ ¨
Ġì¤ĳ ìļĶ
ìŀ Ī
Ġì ½
ĠìłĦ ë§Ŀ
ĠíĺĦ ëĮĢ
íĺ ľ
ëŀ µ
ì° ©
ìŀħ ëĭĪëĭ¤
Ġ C
íĺ ģ
Ġë¡ ľ
ë£ ¹
ĠíĻľ ëıĻ
ĠìķĮ ëł¤
Ġëª ¸
ë´ ī
Ġì§Ģ ìłģ
Ġê·ľ ëª¨
ìĿ¸ ëĭ¤
ĠìĿ´ ìķ¼ê¸°
Ġì£¼ ë¯¼
Ġì§ģ ìłĳ
ĠëıĮ ìķĦ
Ġëª °
Ġê³¼ ìłķ
Ġë© ´
ëĨ ĵ
ĠíĶ¼ íķ´
Ġëĭ¤ ìĿĮ
Ġìĸ´ëĸ »
ĠíķĻ êµĲ
ëĪ Ħ
Ġ1 00
ë¬¸ íĻĶ
Ġê°Ĳ ëıħ
Ġê°ķ ì¡°
ì¼ ľ
Ġê°ķ íĻĶ
Ġì¤Ģ ë¹Ħ
ì ª½
Ġë ł
ëħ Ĳ
ìķ Ļ
ëĭ µ
Ġë² ł
Ġê´Ģ ìĭ¬
Ġê²½ ìŁģ
íħ ľ
ĠìĤ° ìĹħ
Ġ1 3
Ġíķľ íİ¸
Ġíı¬ íķ¨
Ġìĸĺ ê¸°
ì° ¬
ĠìĹ¬ ìĦ±
ĠìĹ Ħ
Ġìŀħ ìŀ¥
ĠëĨ ĵ
í į¼
Ġíĸī ìĤ¬
ë¡ ¯
ĠíĻľ ìļ©
Ġë¶Ħ ìĦĿ
ĠìĹĨ ìĿ´
ê¸ Ģ
ĠìĪĺ ì¤Ģ
ĠëĤ ľ
Ġë¨ ¸
ìłĦ ìŀĲ
į ¨
Ġìĺģ íĻĶ
ĠìĿ¼ ë¶Ģ
Ġê· ¹
ê¹ Ģ
ĠìĿ´ ë
Ġ1 6
Ġê·¸ëŀĺ ìĦľ
ĠìĻ ľ
ĠìĽ Ķ
Ġ1 8
ĠìĤ¬ ê±´
ê¸° ê´Ģ
Ġê³Ħ ìĨį
ĠìłĦ ì²´
ĠìĦ± ìŀ¥
Ġ1 4
Ġì½Ķ ë¡ľëĤĺ
ê³ ¡
ĠìĥĿ ìĤ°
ĠëĺĲ íķľ
ì¸ ¡
Ġëª» íķĺ
ĠìĥĪ ë¡ľìļ´
Ġì£ ½
ê° Ķ
Ġìĺ¤ íĽĦ
Ġë¬¼ ë¡ł
Ġì¤ĳ ìĭ¬
íĻ ķ
ĠëĤĺ ìĺ¤
Ġê³µ ê°ľ
ê±° ë¦¬
ëĤĺ ëĿ¼
ì¦ Į
Ġí Ĥ
ĠìļĶ êµ¬
ë° Ģ
ìĸ´ ëĤĺ
íı Ń
ĠëĤ ®
Ġêµ¬ ìĦ±
ìĨĮ ë¦¬
ĠêµŃ ìłľ
ĠíĻĺ ê²½
ĠìĺĪ ìĥģ
ìĭľ ìĦ¤
íĺ ¼
ëŀ Ĳ
ìĤ¬ íļĮ
ĠìĹ¬ ëŁ¬
Ġë°© ìĨ¡
ëı Į
í ĽĪ
Ġìľ ¤
Ġê´Ģ ë¦¬
Ġê³ł ê°Ŀ
ë ĥĪ
Ġê°Ģ ê²©
ĠìĹ¬ ê¸°
Ġì¶Ķ ê°Ģ
ìĹ° êµ¬
íĮ ħ
ê²½ ìłľ
ë² ł
ìĬ ¨
ì ĥĪ
Ġë§Į íģ¼
Ġê·¸ ëħĢ
ë ¸Ķ
ìłķ ë¶Ģ
Ġëĸ ¨ìĸ´
Ġíķ µ
ĠìĨ ¡
ĠìķĦëĭ Į
ì ĩ
Ġìľ ¡
ĠìĹŃ ìĭľ
Ġí ĭ
ĠíĻ ©
ĠëĮĢ ë¹Ħ
ëĦ Ĳ
Ġ (
ê³ ¨
Ġê´ĳ ì£¼
ì§ ķ
ìķĦ ìļĶ
ĠìĿ ĳ
ĠëĦĪ ë¬´
Ġê²Ģ ì°°
íĺ Ģ
íı °
ëĿ¼ ìĿ¸
íħ Ķ
Ġ2 5
Ġëł Ī
ë ľ
ĠíĶĦë¡ľ ê·¸ëŀ¨
Ġëħ¸ ëł¥
íĬ ¹
ìĤ ¼
ĠìĨĮ ë¹Ħ
ë Ĩį
ĠëıĦ ìĭľ
Ġê³µ ëıĻ
Ġ5 0
ĠìĹ´ ë¦°
Ġìłķ ë³´
Ġë³ Ħ
Ġì§Ģ ë°©
Ġì¡° ìĦ±
ĠìĿ¸ ì²ľ
Ġë³´ ìĹ¬
Ġíħ Į
Ġë°Ķ ë¡ľ
ì³ ¤
ìŀĲ ë¦¬
ìľ¼ ëĤĺ
ĠíĿ ¬
ìĹħ ì²´
ĠíļĮ ìĤ¬
ĠìķĪ ìłĦ
ì§Ģ ìĽĲ
ĠëĮĢíķ´ ìĦľ
Ġëı ¼
ĠëįĶ ìļ±
Ġ1 7
Ġíķ´ ìĻ¸
Ġíı Ĳ
ëıĻ ìķĪ
ĠìĦł ê±°
Ġëı Ī
ê´Ģ ë¦¬
ĠìĤ¬ ëŀĳ
ĠìĦł ìłķ
Ġëĵ ¯
ĠíĤ ¤
Ġìĥģ ëĮĢ
Ġìĥģ íĥľ
Ġë² Ķ
Ġê¸° ì¡´
ì ·¨
íĮĮ íĬ¸
Ġí ľ´
ĠìķĦ ë¬´
Ġë°© ë¬¸
Ġë¶Ģ ë¶Ħ
ĠìĿ¸ ìĤ¬
ìľĦ ê¸°
ëıĦ ìĭľ
Ġë Ľ
Ġë¹Ħ ë¡¯
ê°ľ ìĽĶ
Ġë¶Ħ ìķ¼
Ġìłģ ê·¹
ëıĻ ì°¨
ë° ĸ
Ġê°ľ ìĦł
ìĬ¤ íħľ
Ġìĸ´ëĸ» ê²Į
Ġ M
ê°Ģ ì§Ģ
Ġë¨ ¼
Ġë§ ¡
ĠìĥĿ íĻľ
Ġì§Ģ ìĨį
ĠìĪĺ ìĤ¬
ĠíĶ Į
ìŀ ¡
ĠíĺĦ ìŀ¥
ĠëĤ´ ëħĦ
ê³µ ìĤ¬
ëĮĢ íĳľ
Ġì¹ ¨
ĠìĦ± ê³µ
Ġë° Ģ
íļ ¨
ì¶ ©
Ģ ìĿ´
í ĥģ
ì¡° ìĤ¬
ëģ ¼
ë¡ľ ë²Į
Ġíļ¨ ê³¼
Ġê· Ģ
ìĨ Ĳ
Ġì£¼ ìļĶ
Ġí ĮĢ
ëĭ¨ ì²´
Ġê°ľ ìĿ¸
ê°ľ ë°ľ
Ġì ħ
Ġìĭ¤ ìłľ
Ġê°Ģ ì¡±
ëĤ ¸
ìĪ Ļ
ĠíĻķ ë³´
ĠíĬ¹ ë³Ħ
Ġë¯¸ ëŀĺ
Ġìłģ ìļ©
ìĭľ íĤ¤
íĻĺ ê²½
ì£ Ħ
ìĸ´ ìķ¼
Ġìķ ħ
Ġë ¿Ĳ
Ġ I
ĠìĦ¤ ì¹ĺ
ĠìķĦ ì§ģ
ĠëĽ °
íĿ ¥
ë§ ģ
ĠìĿ¸ íĦ°
ĠíĦ °
Ġíĥ Ħ
ìĽĲ ìŀ¥
ìĿ´ íĬ¸
Ġê¸° ìŀĲ
Ġìĺģ íĸ¥
Ġìĥģ ìĬ¹
Ġìĸ »
ëĦĪ ì§Ģ
Ġê¸° ê°Ħ
ĠíĮ Ķ
Ġë³´ ìĿ¸ëĭ¤
1 0
Ġê·¸ ê²ĥ
ë ķĮ
ì» ¤
Ġì¦ Ĳ
Ġì¡ ´
ê²½ ê¸°
ëį ķ
ê ±¸
ì ¿
íķ ĳ
Ġ 0
Ġíİ ¼
ĠìĺĪ ìĤ°
ĠìĹŃ íķł
Ġê ¿
íĺ ¹
ĠìĿ´ë ¤Ħ
ĠíĻ Ī
Ġìļ° ëł¤
Ġìŀĳ íĴĪ
ĠìĹ¬ ìŀĲ
ĠëĤĺ ìĺ¨
ìĶ ©
ìĽ ł
Ġëĳ ĺ
ĠìĿ¼ ë°ĺ
Ġì§ĢëĤľ ëĭ¬
ĠìĿ´ ë¦Ħ
ĠìĨĮ ë¦¬
ê¸° ìĪł
ľ ĺ
íļĮ ìĿĺ
Ġìĸ¼ êµ´
ë¦¬ ìķĦ
Ġìŀ¥ ê´Ģ
Ġì§ģ ìĽĲ
ì§Ħ ëĭ¤
ê·¸ ë£¹
ìĿ¸ ëį°
Ġìĭ¤ ìĭľ
ìħ ¨
Ġíĺ ¼
Ġê´Ģ ê´ĳ
Ġìĥģ íĴĪ
Ġë§Į ëĤĺ
ĠìĻ Ķ
Ġë°ľ ìłĦ
íĥ Ī
Ġê¸ ´
ìĿ´ ìĬ¤
ì§ ľ
Ġ2 4
Ġì±ħ ìŀĦ
í Ĩ
ë³ ¼
Ġì§ĳ ì¤ĳ
Ġíķ´ ëĭ¹
ĠìĹŃ ìĤ¬
Ġëľ »
ëį ¸
¶ ģ
Ġìī ½
Ġìķŀ ìĦľ
Ġê·¸ëŁ° ëį°
Ġê±´ ê°ķ
ìĹĨ ìĿ´
Ġ T
ê° Ļ
ĠìĿĺ ë¯¸
ìĿ¸ ì§Ģ
Ġëģ Į
ĠìĽ ĥ
ìĻ ķ
Ġê°ľ ìµľ
Ġìľł ì§Ģ
ĠíĴ į
Ġëª» íĸĪ
ĠìŀĲ ê¸°
Ġë§¤ ì¶ľ
ìĦ °
ìĿĺ ìĽĲ
Ġê·¸ ëłĩê²Į
Ġíģ ´
ì į¨
3 0
Ġëª¨ ë¥´
ì¹ ł
Ġí Ľ
íĴ į
Ġê±´ ìĦ¤
íĹ Ī
Ġë°© ìĭĿ
Ġëĵľ ëŁ¬
ĠìĬ¤ íĥĢ
ĠìĻ¸ êµŃ
Ġì ı
ĠìĹħ ì²´
Ġìłķ ìĥģ
ì ¤
Ġê¸Ģ ë¡ľë²Į
ĠìĪĺ ì¶ľ
Ġí ĥĪ
Ġë ī´
Ġìĺ¤ ëĬĺ
ë¶Ģ ë¶Ħ
Ġíķ´ ê²°
ë§Ī ëĭ¤
Ġê ±
ëł µ
ëĭ¬ ëŁ¬
Ġìĸ´ ëĬĲ
ë¶ Ļ
íŀ Į
Ġë³Ģ íĻĶ
ĠìĿĺ ê²¬
Ġ ãĢ
ĠíĴ Ģ
ë ¿Ĳ
Ġ4 0
ë¡ Ń
Ġ2 1
Ġíĺ Ĳ
Ġê²½ ìĺģ
ĠìķĦ íĮĮíĬ¸
ìĹ ĩ
ìŀ ĸ
ë²Ħ ì§Ģ
Ġ B
Ġê°ģ ê°ģ
ìĿĺ íļĮ
Ġë¯¼ì£¼ ëĭ¹
ëĥ ¥
Ġíİ ĺ
ĠìľĦíķ´ ìĦľ
Ġë¶Ģ ëĭ´
ĠìŀĲ ì²´
Ġëĭ µ
Ġìĭľ íĸī
íķľ ëĭ¤ëĬĶ
Ġë¨¼ ìłĢ
ì° ¸
Ġëª ĩ
Ġìĸ´ ë¦°
Ġíıī ê·ł
Ġê³µ ê¸ī
Ġê²° êµŃ
ê² ¼
Ġì°¸ ìĦĿ
ĠìŀĲ ìľł
ĠìĬ¤ ë§ĪíĬ¸
Ġì½ ĺ
ĠìĹħ ë¬´
Ġìĺ¤ ìłĦ
Ġíķĺ ë£¨
ì´ Į
ë°ĸ ìĹĲ
Ġë ķ
ëŁ¬ ìĬ¤
ì ¤Ħ
ĠìłĦë¬¸ ê°Ģ
ëĦ ·
ĠíĮĲ ëĭ¨
Ġë°© ë²ķ
Ġì°¾ ìķĦ
íķ Ħ
Ġìĺ¬ ëĿ¼
Ġë°© ìķĪ
ìłĦ íŀĪ
ë¨ ¼
Ġ2 2
ãİ ¡
ì¶ ĺ
ë¯¼ ì£¼
ĠìĻ Ģ
Ġê¸° íļĮ
ĠíĺĲ ìĿĺ
ĠìĦł ë³´
ĠëıĦ ìŀħ
Ġëª© íĳľ
ì£¼ ìĿĺ
ë ·
ĳ ¸
Ġìłķ ë§Ĳ
ĠìĦł íĥĿ
Ġìĸ¼ ë§Ī
ĠëĶ° ë¥¸
íĶ ½
Ġë¸Į ëŀľëĵľ
ìĻĢ ëĮĢ
Ġëħ¸ ëıĻ
Ġë Ł
Ġê³µ ìĹ°
ì º
Ġì¡° ê¸Ī
Ī ¼
ĠìĤ ¶
Ġëª© ìĨĮë¦¬
Ġìĭľ ì¦Į
í ĩ´
ëĮĢ íļĮ
Ġ2 3
ĠëĬĲ ëĤ
ĠëĤ¨ ìŀĲ
ĠìłĦ íĸĪ
ìĿĦ ê¹Į
ìĦ¸ ìļĶ
ĠL G
5 0
Ġë¬´ ìĹĩ
ĠëĮĢ íļĮ
ì¶ °
Ġ P
Ġê³ł ëł¤
½ ĥ
Ġìķ ķ
ë² ½
ì ģ
Ġíķ´ ìķ¼
ĠìĤ¬ ìŀ¥
Ġë´ ī
ĠíĴ Ī
ĠìłĦ ëŀµ
Ġì ¼
ĠëĤ´ ëł¤
ê ¾¸
ìķ Ķ
Ġìĭł ì²Ń
ë² ¤
ëĬĲ ëĥĲ
ë°ĺ ê¸°
íģ ´
Ġì¤ĳ ìĨĮ
Ġêµ¬ ì¶ķ
ĠìĿ¸ ìłķ
ĠìĪ ¨
ëĵ ¯
ìĹĲ ìĦł
Ġê ¾¸
íĪ¬ ìŀĲ
Ġì¶ľ ìĭľ
Ġ -
ĠëĮĢ ë¶Ģë¶Ħ
ëł¤ ê³ł
íķľ êµŃ
Ġíĸī ìłķ
Ġì°¨ ì§Ģ
ĠìŀĲ ìĹ°
Ġì§Ģ ëĤĺ
íĦ ´
ĠìĦ Ŀ
ĠìĿ´ íķ´
ĠëıĦ ìĽĢ
íĭ Ģ
ĠìĤ¬ ê³ł
ĠëĤĺ ìĻĶ
Ġëħ¼ ìĿĺ
Ġë¹Ħ íĮĲ
Ġê² ©
Ġì° ©
íĥ ķ
Ġë³´ ëıĦ
ĠëĮĢ ìĿĳ
Ġê¿ Ī
Ġë¡ ¯
ì§Ģ ë§ī
Ġìĥģ ëĭ¹
íĹ Į
% ,
íĤ ¨
Ġë ¸Ķ
ê¸Ī ìľµ
Ġë°° ìļ°
Ġë°ĺ ëĮĢ
Ġ2 7
Ġê² ¨
Ġíĺ ģ
Ġìº Ĳ
ê ´
Ġìłľ ìŀĳ
Ġë¡¯ ëį°
ĠS K
ê· Ģ
Ġì²Ń ìĻĢëĮĢ
Ġê°Ĳ ìĨĮ
Ġìłľ ê¸°
ìļ ķ
ĠìĿ¸ ê¸°
ëĿ¼ ë©´
ìĬ¤ íĥĢ
ìĻ Ħ
Ġë§ Ľ
Ġ G
Ġìļ° ìĦł
Ġ2 6
Ġê³µ ê³µ
ì ī
Ġë³´ ìĺĢ
ĠìĿ´ ìłĦ
Ġëħ¼ ëŀĢ
ĠìĤ¬ ì§Ħ
ìĿ¸ íĬ¸
Ġê²½ íĹĺ
Ġê°Ĳ ìĤ¬
íĻľ ëıĻ
ĠíĻĺ ìŀĲ
Ġíĺĳ ëł¥
Ġíķµ ìĭ¬
ĠëĤĺ ê°Ģ
ìĿ´ íĦ°
Ġì¹ĺ ë£Į
ìľ ¤
ìĹ Ħ
ĠëĪĦ êµ¬
Ġâĸ ²
ë¡ľ ë¶ĢíĦ°
Ġìĺģ ìĹħ
ĠëĤĺíĥĢ ëĤ¬
Ġë° ¤
ĠíĨµ íķ©
ë¡ľ ìĦľ
ìĬ ¬
Ġì ĩ
Ġì¤ĳ ìķĻ
Ġ2 8
Ģ ëĵľ
Ġê¸° ëĬ¥
¨ ë¦¬
ìłķ ë³´
íļĮ ìĤ¬
ìļ° ë¦¬
â Ī¼
ëĭ ¥
Ġêµ¬ ì¡°
ì£¼ íĥĿ
Ġì Į
ëł¤ ëĬĶ
Ġìĭľ ëĮĢ
Ġë¶ Ļ
ĠìĽ Ģ
ĠëĨ Ģ
ìĸ´ ëĤľ
Ġì§Ģ ì§Ģ
ĠìĨĮë¹Ħ ìŀĲ
Ġíķľ ëĭ¤ëĬĶ
ëıĻ ìĤ°
ëĿ¼ ìĿ´
Ġì£¼ ë³Ģ
Ġì£¼ íĥĿ
ë³ĳ ìĽĲ
ë³¸ ë¶Ģ
Ġì¶ľ ìĭł
ê ¼
Ġì¹ľ êµ¬
ĠíĺĦ ìĭ¤
Ġê³Ħ ìķ½
ĠìŀĲ ëıĻì°¨
ë¶Ħ ê¸°
Ġë§Ī ì§Ģë§ī
ë¬´ ìĽĲ
ì¹ Ļ
ìļ´ ëıĻ
Ġë°ĺ ë©´
ĠìĻ ķ
Ġìµľ ì´Ī
ì ĵ
ìľĦìĽĲ ìŀ¥
íı Ĳ
Ġë¶Ħ ìľĦê¸°
Ġì ª½
Ġìĸ´ ëłµ
Ġì ĥ
íļĮ ìŀ¥
âĢ ĺ
ì ©
Ġê±° ëŀĺ
Ġê³µ ê°Ħ
20 1
Ġë¶Ģ ì¡±
Ġë³¸ ê²©
Ġê²½ê¸° ëıĦ
ìħ Ķ
Ġë°Ķ ëĿ¼
ìłķ ì±ħ
Ġìĭľ ìĬ¤íħľ
í ľ´
ì² Ļ
Ġìĸ¸ ë¡ł
Ġìĸ´ ëĶĶ
ĠìĪĺ ìĿµ
Ġëĭ¬ ë¦¬
ĠìĿ´ ëģ
ìĿ¸ ê°Ģ
ìĨĮ ëħĦ
Ġë°© ì¹¨
Ġì°¸ ê°Ģ
ĠìķĪ ìłķ
Ġìłľ ì£¼
ĠíĿ Ķ
ĠëĤĺ ëĿ¼
B S
ĠëĨĴ ìĿ´
Ġìłľ ëĮĢë¡ľ
ĠíĻľ ìĦ±
íĦ ¸
Ġê²Ģ íĨł
Ġí į¼
ìķĦ ìķ¼
íķ© ëĭĪëĭ¤
Ġê±° ë¦¬
Ġê°Ģ ê¹Į
Ġìĭ ¸
Ġë° ĸ
Ġì¡° ìĦł
Ġì°¨ ëŁī
Ġê¹ ¨
ĠâĹ Ĩ
Ġëĵ £
Ġë°ĺ ìĺģ
Ġ19 9
Ġëħ ¹
ìĸ ¼
ĠìĿĺ ë£Į
ëł Į
Ġê° ĳ
Ġê°ģ ì¢ħ
Ġìłľ ìĭľ
ĠëĮĢ ìĭł
Ġê¸° ë³¸
íħ Ĳ
ĠìĪĺ ìļĶ
ĠëıĻ ìĭľ
Ġìłľ ëıĦ
Ġê ´
ĠìľĦ ê¸°
ë¹ ł
ĠìłĦ ìĭľ
Ġê¹ Ĭ
Ġê°ľ ìłķ
ĠëĮĢ ì±ħ
ĠëĮĢ íĺķ
ë ī´
Ġì£¼ ëª©
ìĥĿ íĻľ
Ġì¡° ì¹ĺ
Ġì¡° ì§ģ
ëĭ¨ ì§Ģ
Ġë°Ķ ëŀĮ
âĢĻ ,
Ġê³µ ê²©
ĠíĻķ ìĤ°
º ¼
ìĬ¤ ëŁ¬
ìĬ¤ ëŁ½
ë¦¬ ê·¸
Ġê² ª
¢ °
Ġìĭľ ìĦ¤
Ġìľł ì¹ĺ
ĠìĹ° ê¸°
ĠìķĮëł¤ ì¡Į
Ġì´ ī
ìĤ¬ ìŀ¥
Ġì§Ģ ê¸ī
Ġê°Ļ ìĿ´
ê±° ëĵł
ìĽ ĥ
Ġê°Ģ ì¹ĺ
ë¦ Ń
Ġìľł ëŁ½
Ġë¶Ħ ìĸĳ
Ġì²ĺ ë¦¬
ìĬ¤ íģ¬
Ġìŀĳ ê°Ģ
Ġì ±
ê³Ħ íļį
ĠìĿĮ ìķħ
ìŀĲ ìĿ¸
ĠìķĦ ë²Ħì§Ģ
ë¦° ëĭ¤
ĠìľĦ ìĽĲìŀ¥
ĠìĦ¸ ìĥģ
ĠëĬ ¥
Ġëį §
ê ¿
ĠìĹ¬ íĸī
Ġìĺ¨ ëĿ¼ìĿ¸
Ġíķ© ìĿĺ
ë¦¼ íĶ½
íķľëĭ¤ ê³ł
Ġ F
ëĶĶ ìĸ´
ĠìĿ¼ ìŀĲë¦¬
Ġê² ¬
ĠëĦ £
Ġìļ° ìĬ¹
Ġìŀ Ķ
Ġìļ¸ ìĤ°
ìĺ ¥
Ġí ĩ´
Ġë³´ ëĤ´
Ġ E
ë§ ¹
Ġë¨¸ ë¦¬
ìĶ Ģ
ë ¢°
Ġê²½ ëĤ¨
Ġíĳľ íĺĦ
Ġìŀĳ ìĹħ
ê° ĳ
Ġìļ´ ëıĻ
Ġíķ´ ìĦľ
ëª »
ìĿ´ ì§Ģ
ëĿ¼ ë§Ī
ëĪĦ ë¦¬
íı¬ ì¸ł
Ġ2 9
ĠìĿ¸ ìłľ
ĠìĽĢ ì§ģ
ĠìĪĺ ëıĦ
ì¢ Į
ĠìĿ¼ ìłķ
Ġëĵ¤ìĸ´ ê°Ģ
Ġìµľ ì¢ħ
Ġíĺģ ìĭł
ìĺĪ ìļĶ
ì§ Ŀ
ĠìĤ¬ ë¬´
ë³µ ì§Ģ
Ġì²Ń ëħĦ
ĠëĺĲ ëĬĶ
ê±´ ìĦ¤
ë°ľ ìłĦ
ĠìłĦ íĻĶ
® ¤
Ġë§Ĳ ìĶĢ
Ġì§Ħ ì¶ľ
ĠìľĦ íĹĺ
ì¦ ĺ
ĠíĿ Ĳ
íķĻ ìĥĿ
ë¨¸ ëĭĪ
ĠìĤ¬ ë¡Ģ
ê³ ¤
Ġìļ° ìĪĺ
ĠìĦľ ë¡ľ
ĠìľĦ ì¹ĺ
ĠíĹ ¤
Ġì§Ģ ìłķ
ĠìłĦ ê¸°
Ġë°Ķ ìĿ´
ĠìĿ¸ ìĥģ
ĠìĿĺ íĺ¹
ĠìĪ Ļ
ĠêµĲ íĨµ
ìĦ¸ ê³Ħ
ëįĶ ëĿ¼ëıĦ
Ġê¸° ê´Ģ
ĠìĨĮ ê°ľ
ìĦ¸ ëĮĢ
Ġê¸° ë°ĺ
Ġë¯ ¿
Ġ6 0
ĠìĿ¸ ê°Ħ
Ġë´ Ĳ
2 5
Ġì¦ ī
ĠìĿĢ íĸī
íĻ į
Ġê³µ ìĭĿ
Ġëª¨ ëį¸
ìĬ¤ ë¡ľ
Ġì» ¨
ìĦł ê±°
Ġë¹Ħ íķ´
Ġëį§ ë¶Ļ
ëŁ ´
Ġ D
Ġë§Į ëĵł
ëª °
ĠíļĮ ìĿĺ
ê·ľ ëª¨
ĠëĤ Ļ
1 8
Ġê³¼ ê±°
ìĦ Ń
ĠìĿĺ ìĤ¬
ë§Į íģ¼
Ġíķ´ ëıĦ
ĠìĹ¬ ë¶Ģ
Ġë² Ĺ
Ġê³ł ìļ©
Ġì§ ķ
Ġê²Ģ ìĤ¬
ë³´ íĹĺ
Ġëª» íķľ
Ġìŀ¥ ê¸°
Ġë³ĳ ìĽĲ
ĠìĿ ½
Ġìł Ĭ
Ġì§Ģ ëıĦ
Ġë¶Ģ ëıĻìĤ°
Ġë¬´ ìĬ¨
¨ ¸
ĠëĮĢ ìłĦ
Ġìĸ´ë ¨¸
ĠíĮ ¬
ë¦¬ ìĬ¤
Ġì²´ íĹĺ
ê°Ģ êµ¬
ĠìłĦ ëĭ¬
Ġìłķ ìĭł
ìķĦ ìĦľ
Ġìķ Ķ
ë°Ķ ìĿ´
ĠìĦ¤ ë¦½
ĠìĿ´ ëıĻ
ĠìĨĮ ìĨį
Ġíĺ ľ
ĠìĦ± ê³¼
ëĮĢ íķĻ
ëł Ģ
ĠíĿ¬ ë§Ŀ
ĠëĤĺ ëĪ
ĠìĿĮ ìĭĿ
ĠêµŃ ìłķ
Ġë§Ī ìĿĦ
Ġê°Ĳ ìĹ¼
ĠìļĶ ì²Ń
í ľĺ
íĶ Ī
Ġê³ §
ĠëĮĢ ìĦł
ĠìĿ´ ëŁ¬
íķľ íħĮ
íĺĳ íļĮ
ìĬ Ī
ĠìłĦ íĻĺ
ï ¼
ë¯¼ êµŃ
Ġê³µ ìĤ¬
Ġíķĺ ëĿ½
Ġìķ ī
Ġê·ľ ìłľ
Ġì¢ħ íķ©
Ġë°ľ ê²¬
Ġìº ł
Ġê¸° íļį
ì¼ °
Ġë³´ íĺ¸
ĠìĦł ë°ľ
Ġë¬´ ëĮĢ
Ġíĸī ë³µ
Ġë¯¼ ê°Ħ
Ġê²Į ìŀĦ
Ġì¶ľ ìĹ°
ãĢ į
ĠëŁ ¬
Ġê³ł ë¯¼
Ġê¼ ½
Ġê°Ģ ìŀħ
Ġë¬ »
ì¹ Ń
Ġìłľ ìĻ¸
1 5
ĠìĤ¬ íĥľ
ĠìĪľ ê°Ħ
ìĩ ¼
ì¹´ ëĵľ
ĠìĿ´ ë¥´
Ġë¹Ħ êµĲ
ëĶ °
ìļ´ ëĵľ
ĠëĤĺ ìĦľ
Ġì¶© ë¶Ħ
ĠìĽ Į
ë¹ Ī
ĠìĿ´ ê²Į
ê´Ģ ê³Ħ
Ġìŀ ĩ
ê·¼ íĺľ
ĠìĤ¼ìĦ± ìłĦìŀĲ
Ġëį§ë¶Ļ ìĺĢ
ĠíĻķ ì§Ħ
Ġìŀ¬ íĮĲ
ì¦Ŀ ê¶Į
Ġì¢ Į
ĠíĨµ íķľ
Ġê·¼ ëį°
Ġëħ Ħ
íĤ ¹
ì ¯
Ġìĭł ê·ľ
ĠìĦł ìĥĿ
e r
ëŀ «
ĠëĤ´ ëĨĵ
Ġ N
ìķ ķ
ĠìĹħ ê³Ħ
ĩ Į
ĠìĬ¤ ìĬ¤ë¡ľ
ĠìĹĦ ë§Ī
Ġê·¸ ëķĮ
Ġê·¸ ëĮĢë¡ľ
ê±°ëĵł ìļĶ
Ġì¤ĳìĨĮ ê¸°ìĹħ
± ìłķ
ĠëĤ´ ë¶Ģ
Ġì§Ī ë¬¸
ĠëĮĢ ì¶ľ
Ġê±° ìĿĺ
ĠìłĦ íĨµ
Ġì£¼ ìĿ¸
íŀĪ ëł¤
Ġê²° íĺ¼
ĠìĻ¸êµŃ ìĿ¸
Ġê¸° ìĸµ
ìĬ ´
Ġí ĽĪ
Ġìĸ´ë¦° ìĿ´
Ġê¸° ëĭ¤
Ġêµ¬ ë§¤
Ġìĸ´ëł¤ ìļ´
íĺ¸ ìĤ¬
Ġë¹Ħ ìļ©
ĠìĿ¸ íķ´
ëĶ ©
ĠìķĦ ëĵ¤
ìķĦ ëĵ¤
ê±° ëŀĺ
ì´ ī
ĠìŀĲ ë£Į
ê³ł ìĦľ
íıī ê°Ģ
âĢĻ (
ë¹ Ľ
Ġëĭ¤ ë§Į
Ġì¡´ ìŀ¬
ĠìĿ¸íĦ° ëĦ·
Ģ ë¡ľ
ê³µ ìĽĲ
Ġìĺģ ìĥģ
Ġì§Ģ ì¼ľ
Ġì´Ŀ ë¦¬
ìĦľ ë¹ĦìĬ¤
ĠìķĦ ìĭľìķĦ
1 1
ĠìĹ° ê²°
Ġê³µ ìłķ
i n
ìĸ´ ëĵ¤
ëŁ¼ íĶĦ
ĠëįĶ ë¶Ī
Ġë £
ê° Ĵ
Ġë³´ íĹĺ
ìĬ¤ ì½Ķ
íħĲ ì¸ł
ĠãĢ Į
ë· °
ĠíĹ Į
Ġë³´ ìľł
ĠíĻį ë³´
Ġìĺ¤ íŀĪëł¤
ĠìĬ ¬
Ġë ½
Ġì£¼ ìłľ
Ġê±° ì³Ĳ
ëĭ Ŀ
Ġì° ¬
ĠìĪ ł
Ġë¶Ī ê³¼
Ġê·¸ ëĥ¥
ĠìĿ´ëģ Į
ĠìĬ¹ ë¦¬
Ġë ¥
íķ´ ì¡Į
Ġíŀĺ ëĵ¤
ĠìķĦ ì£¼
Ġìłľ ìķĪ
íĨµ ìĭł
ĠìĪĺ ìĥģ
ĠìĹ´ ë¦¬
ĠëĶĶ ìŀĲìĿ¸
Ġëħ¸ ëŀĺ
ĠìĿ¸ ê·¼
Ġê± ±ìłķ
Ġ7 0
ĠëĤĺ ìĦ°
Ġìĺ¤ ë¥¸
ìĬµ ëĭĪê¹Į
Ġíĸ¥ íĽĦ
íķ µ
ĠìĹ° ìĨį
Ġê¼ Ń
ëįĶ ëĭĪ
Ġë¹ ¼
Ġíĭ °
ì¯ ¤
ĠìĿ´ ë£¨
ëł ´
ĠëĮĢ íĻĶ
Ġìĺģ êµŃ
Ġì¡ ¸
ìĿ´ ìĿµ
Ġë°© íĸ¥
Ġë¹ Ī
Ġìĸ´ë¨¸ ëĭĪ
Ġìµľ ìĨĮ
Ġì°¨ ìĿ´
B C
Ġëĭ¨ ì²´
Ġìĭľ ì²Ń
ĠíļĮ ë³µ
ĠëĤĺìĺ¨ ëĭ¤
Ġìłľ ì¶ľ
ĠìĪĺ ìŀħ
ĠíĿ ĺ
ì ĥ
Ġìķŀ ëĳĲ
1 2
Ġì¤ĳ ëĭ¨
ĠëĤ ©
Ġë¶Ī ë²ķ
ĠìĨĮ ìŀ¬
ìĸ´ ëıĦ
ìľ¼ ëĭĪ
ë ĸ
Ġëģ Ĭ
ìŀĲ ê¸°
Ġë§¤ ìļ°
ìĿ´ ë²Ī
íĶĦ ë¡ľ
ĠíĶ¼ ë¶Ģ
Ġë§Ī ì¹ĺ
ë¬´ ë¦¬
Ġìĭ¤ ìłģ
ĠíĿ ¥
ĠíĻķ ìłķ
%) ,
ĠìĹ Ķ
ìĹ° íķ©
Ġëĭ¹ ìĭł
ê³ł ìŀĲ
Ġìĸ¸ ìłľ
Ġë¹ Į
Ġëį ķ
Ġê ¶ģ
ë´ ¤
ëĬĶ ê°Ģ
ĠìŀĲ ê¸Ī
Ġê°Ģ ì§Ħ
í Ĥ¬
Ġíĺ ¹
ĠìĹ¬ ìłĦíŀĪ
Ġëķ ħ
ĠëĶ ¸
Ġì·¨ ìĹħ
ì» µ
ë¨ ¹
ìĭ ¸
íĸĪ ìľ¼ë©°
Ġê±´ ë¬¼
ìĭľ ë¯¼
ĠìĹĲ ëĦĪì§Ģ
ĠìĿ´ ê³³
Ġìĭľ ê¸°
ìĬ¤ íĦ°
ì¶ ¤
ìľ¼ë¡ľ ìĦľ
o n
íķĻ ëħĦ
ĠìĤ¬ ìłĦ
ëłĪ ìĬ¤
ëł¤ ë©´
Ġìŀĳ ëħĦ
ī ìŀ¥
Ġìľł ëªħ
ê³µ íķŃ
ĠìĹ ¼
Ġìŀ¥ ìķł
ë Ģ
ì¿ ł
Ġì£¼ ìĭĿ
ìķ ŀ
Ġì¡° ìłķ
ĠíĨµ ê³¼
Ġìŀ ĥ
Ġë°ĺ ìĿĳ
âĢ ľ
2 00
4 0
ĠìłĦ ëħĦ
ì§Ģ êµ¬
Ġì§Ģ íķĺ
êµŃ ë¯¼
íĻ Ģ
ê²½ ì°°
Ġë¶Ģ ëª¨
Ġê²½ ë¶ģ
Ġë§ Ŀ
. .
ìĭľ ì¼ľ
ìķĦ ê°Ģ
Ġê¸° ëħĲ
ĠíĮĮ ìķħ
Ġìĸ¼ë§Ī ëĤĺ
ìĨĮ ëĵĿ
Ġì ĥī
Ġìĺ¬ ëŀĲ
Ġìĺ Ĩ
Ġê³µ ë¬´ìĽĲ
Ġê·ľ ìłķ
Ġêµ¬ ì²´
ìķ Į
ê¸° ê°Ħ
ìł Ŀ
Ġìłľ íķľ
Ġê² ģ
ĠìĤ¬ ë§Ŀ
ĠìĿ¸ ìĭĿ
Ġì°¨ ë¡Ģ
Ġë³´ ëĭ¤
¬ ìĺģ
Ġê³¼ íķĻ
Ġëĭ´ ëĭ¹
ĠíĪ¬ ìŀħ
Ġëĵ± ìŀ¥
ìĬ ·
ĠìłĦ íĺĢ
Ġë¶Ģ ë¬¸
Ġìŀĺ ëª»
Ġëĭ¨ ê³Ħ
Ġë°ľ ìĸ¸
Ġì° į
Ġìħ Ī
Ġìĺ ®
6 0
ĠëĤĺ ìĦł
ĠìĨ Ķ
Ġë¶Ħ ëªħ
ĠëĬĲëĤ Į
ĠìĦ ¼
ìĽ ¨
ĠìĦľìļ¸ ìĭľ
Ġ201 2
ì½ ĺ
ë´ Ĳ
Ġìĩ ¼
Ġê°ķ ìĽĲ
ìľ¼ ë©´ìĦľ
ì§ ĵ
ìĪĺ ë¡Ŀ
Ġê·¸ ëıĻìķĪ
Ġë ŀ
Ġê³µ ìŀ¥
Ġëĵľ ëĿ¼ë§Ī
ì§Ģ ìĤ¬
Ġê²½ìŁģ ëł¥
Ġë³µ ì§Ģ
Ġ201 0
ĠëĤ¨ ìĦ±
Ġë°Ķ ëĢ
ë§Ī ìĿĦ
ë¦ ¿
Ġëĵ± ë¡Ŀ
8 0
ĠìĦ± ìłģ
ìŀĲ ì²´
Ġëľ ¨
Ġ201 5
ìĦľ ìļ¸
ĠëıĦ ë¡ľ
Ġìı Ł
ĠìĺĪ ìĪł
ĠT V
ê³¼ ìłķ
2 1
Ġê´Ģ íķľ
ĠìĿ´ ëĭ¬
ìłĿ íĬ¸
ëĮĢ ì±ħ
Ġëĭ¨ ì§Ģ
Ġê³µ ë¶Ģ
Ġìĭľ ìłĪ
ĠìĺĪ ë°©
ëŀĳ ìĬ¤
Ġëıħ ìĿ¼
ĠëĬ¥ ëł¥
Ġ3 1
ìī ¬
Ġì°½ ìĹħ
Ġì½Ķ ìĬ¤
ĠìłĦ ëĤ¨
ìĭ ±
ìķĦ ìĿ´
ĠìĤ¬ ëĿ¼
ĠìĬ¤ë§ĪíĬ¸ íı°
ìĩ Ħ
Ġë¹Ħ ìĬ·
êµĲ íĨµ
ìĸ´ ì§Ģ
Ġì°¨ ìĽĲ
ìĹĲ ìļĶ
ìĿ´ ìħĺ
ì§Ģ ìļĶ
ĠíĺĦ ì§Ģ
Ġí ĥĿ
Ġê·¼ ë¬´
íĺ Ī
Ġ201 4
ĠëĤ¨ ë¶ģ
ê°Ģ ëĬ¥
ĠíĬ¸ ëŁ¼íĶĦ
Ġì§ ĵ
Ġëĭ¤ ê°Ģ
Ġìŀ¬ ìłķ
Ġêµ īìŀ¥
Ġë ļ
ĠíļĮ ìĽĲ
ì¼ ĵ
Ġë¹ Ľ
Ġë© Ģ
Ġ ã
Ġëĭ¤ ë¥´
ë¥¸ ëĭ¤
Ġê·¸ ëŁ¼
Ġì ¿
Ġìłķ íĻķ
ĠìĽĲ ìĿ¸
Ġë¹Ħ ì¤ĳ
ìĤ¬ ê³ł
Ġíĺĳ ìĿĺ
ë°Ķ ìĿ¼
Ġìľł íĨµ
ĠìĹ¬ ë¡ł
Ġë§Ī ë¬´ë¦¬
ìķĪ ìłĦ
Ġìķ½ ìĨį
ëĳ Ķ
ëı Ī
Ġê°Ģ ìłķ
Ġìĭł ê³ł
ĠìĽĲ ëĤ´
Ġìłľ ì¡°
ĠëĮĢíķľ ë¯¼êµŃ
íİĺ ìĿ¸
ĠìķĦ ë¦Ħ
ìĵ °
Ġê° Ķ
ĠìĦ ¬
Ġê°Ģ ìł¸
ê³ł ìļĶ
ĠìĦł ë¬¼
ì» ¬
ìĦľ ê´Ģ
Ġë ĥī
ìłľ íĴĪ
ĠíĶĦ ë¦¬
ê°Ļ ìĿ´
Ġë¬¸ ìŀ¬
ëŀ Ļ
ãİ ŀ
ĠëĬ ¦
Ġê³Ħ ê¸°
ĠìĪĺ ìĽĲ
Ġë´ ¤
Ġíĺľ íĥĿ
Ġê ½ĥ
ë²¤ íĬ¸
ĠìĿ¼ ëĭ¨
Ġê°Ī ëĵ±
Ġíķ© ëĭĪëĭ¤
Ġê°Ģ ìĬ´
Ġì£¼ ëıĦ
ìĹ°êµ¬ ìĽĲ
ì²´ ìľ¡
Ġëĭ¹ ìĦł
íİĺ ìĿ´ì§Ģ
Ġê·¸ ë£¹
Ġìī ¬
ëĶĶ ìĺ¤
ìĺĪ ìĪł
ĠâĹ ĩ
Ġë°ķ ê·¼íĺľ
ĠìĿ µ
Ġê·¼ ë¡ľ
íı ¼
a n
Ġí ĳ¸
ĠìĮ ĵ
ë¯¼ì£¼ ëĭ¹
ĠìłĪ ì°¨
ĠìĿ¸ ë¬¼
2 2
Ġìĸ´ëł¤ ìĽĢ
ĠêµŃ íĨł
íı¬ ìĿ¸íĬ¸
Ġë§Į ëĵľ
Ġìŀħ ì£¼
ĠìĹ¬ ë¦Ħ
Ġíĺķ íĥľ
ĠìĿ¸ ëıĦ
Ġë°Ķ íĥķ
ìľ¼ë¡ľ ë¶ĢíĦ°
Ġêµīìŀ¥ íŀĪ
Ġ201 1
ëŁ Ń
ĠëĦ ĵ
ê ¶ģ
ĠêµĲ ìĤ¬
Ġê·¸ ë¦¼
ĠìĨĮ íĨµ
Ġëį ĺ
ĠìŀĲ ìĦ¸
ĠìķĦ ëŀĺ
ìŀĲ ê¸Ī
Ġìĭ¤ìłľ ë¡ľ
ìľ¼ë¡ľ ìį¨
ìŀĸ ìķĦìļĶ
Ġëħ¸ ìĿ¸
ĠëĤĺ ìĻĢ
Ġê°ķ ëł¥
ĠëĦĺ ìĸ´
ĠëĤĺ ìĿ´
ê³¼ íķĻ
ĠìĨĮ ìĭĿ
ê´Ģ ê´ĳ
Ġìĺ¤ ë¥´
Â ´
Ġíĸī ëıĻ
¾ Į
ì§Ģ ë°©
Ġëĳĺ ëŁ¬
ëıĦ ë¡ľ
Ġë¶Ī ìķĪ
Ġìĭľ ëıĦ
ĠìĻ¸ êµĲ
Ġëª© ìłģ
ëħ¸ ëıĻ
Ġìĺ¬ ë¦¬
êµŃ ìłľ
ì¼Ģ íĮħ
ĠìĨį ëıĦ
Ġê±° ê¸°
ĠìĿ¸ ìĪĺ
Ġë ¿
íķŃ ê³µ
Ġ201 3
ĠìĿ´ ê²ĥ
ĠìľĦ ë°ĺ
Ġ200 8
Ġë§¤ ëħĦ
ĠìĹ° ê³Ħ
ëĭ¨ ê³Ħ
Ġíİ¼ ì³Ĳ
Ġëĸł ëĤĺ
Ġì²´ ê²°
Ġìĭľ íĹĺ
Ġ8 0
ìŀ¬ ëĭ¨
Ġ200 9
ĠíĽĪ ëł¨
Ġ1 000
ì° Į
Ġì´ ¬ìĺģ
Ġëĭ¬ ëŁ¬
Ġê º¼
Ġ2 000
Ġìļ ķ
Ġìľ¡ ìĦ±
ëĤĺ ë¬´
Ġê¸° ì´Ī
ìłķ ì¹ĺ
Ġìĸ µ
Ġíķł ìĿ¸
ĠìĨĮ ëĵĿ
Ġë¶Ģ ìłķ
ĠìĬ Ī
Ġì¹´ ëĵľ
Ġíĺĳ ìĥģ
ìĦ± ìŀ¥
2 4
Ġì½ĺ íħĲì¸ł
7 0
Ġíķľ ëĭ¤ê³ł
íĻĶ ìłĲ
ĠìłĦ ìŀĲ
Ġì²Ń ìĨĮëħĦ
ĠK T
Ġëª¨ ìĸĳ
Ġëĭ¬ ìĦ±
Ġê·¸ ê²Į
ë§ ¨
ĠìĿ¸ êµ¬
1 3
ĠíĪ¬ íĳľ
Ġë¹Ħ ìľ¨
ìĬ¤ëŁ¬ ìļ´
Ġíıī íĻĶ
ĠíĶĦë¡ľ ìłĿíĬ¸
Ġê³ł ê°ľ
ì¡° ìłķ
ëĭĪ ìĬ¤
ĠìĿ¸ íķľ
Ġëģ ¼
ìłĦ ë¬¸
ìĦł ìĪĺ
Ġë³´ ìĪĺ
Ġê´ĳ ê³ł
Ġê¸° ìĤ¬
Ġëĳ Ķ
ĠëĤ¨ íİ¸
Ġë½ ĳ
ë°© ìĨ¡
ìŀĲ ìĽĲ
ĠìķĦ ë§Ī
ĠìłĦ ìļ©
Ġìĺ¤ ëŀĺ
ĠëĬĲ ëģ¼
ĠíĶĦ ëŀĳìĬ¤
Ġëħ¸ ì¡°
T V
Ġëĭ¬ ëĿ¼
ĠëıĦ ìłĦ
Ġë°ĶëĿ¼ ë³´
ĠíĻĪ íİĺìĿ´ì§Ģ
Ġì±Ħ ìļ©
Ġìĸ¸ ê¸ī
o r
ìĿ´ ëĵľ
ì» ¨
ì§ģ ìĽĲ
Ġìłķ ëĭ¹
Ġíĭ Ģ
Ġ201 6
Ġìĭ¬ ê°ģ
ë¶Ģ ëª¨
ĠìĬ¤ íı¬ì¸ł
Ġ201 8
Ġê¹Ģ ìłķ
Ġë³Ģ íĺ¸ìĤ¬
ëĤ ©
Ġìłķ ê¶Į
ëĭ¤ ìļ´
Ġì°½ ì¶ľ
ì§ Ĳ
ìĹ ĺ
ĠíĨł ë¡ł
Ġì ³
ĠëŁ¬ ìĭľìķĦ
Ġìĺ ·
ì¤Ģ ëĭ¤
ìĿ´ íģ¬
ê²½ ìĺģ
ì¤ ¬
ìĦ ¯
Ġë¶Ģ ìĿ¸
ìļĶ ìĿ¼
ì§Ģ íĦ¸
êµ¬ ëĤĺ
Ġì´Ŀ ìĦł
ì¤ĳ ìķĻ
Ġì§Ģ íĤ¤
ìł ł
Ġìĭ¬ ìĤ¬
í ĳ¸
ìĶ ¬
Ġë£ ¨
ìĭľ ìĬ¤íħľ
Ġë³¸ ìĿ¸
ĠìłĦ ìŁģ
ĠìŀĦ ëĮĢ
Į ë¦¬
Ġë§ ¥
Ġ201 7
ìĹħ ê³Ħ
ìĥģ íĴĪ
íĶĦ ëĿ¼
ëŀĢ ëĭ¤
Ġê·¸ëŁ¬ ëĭĪê¹Į
ìŀĲ ì¹ĺ
êµ¬ ìĹŃ
ëĦ¤ ìļĶ
ëĵľ ìĭľ
Ġìĭ Ń
ĠëĴ ·
ë²Ħ ìĬ¤
Ġë§ŀ ì¶°
Ġíĸī ìľĦ
Ġì¹ ¼
ëĭ¤ ë©°
Ġê¾¸ ì¤Ģ
ìĤ° ë¬¼
ĠìĿ¸ ëł¥
ê¹ ¨
ĠìĿ´ë¯¸ ì§Ģ
Ġì¡¸ ìĹħ
ĠìĹ° ìŀ¥
Ġìĺģ ìĸ´
íĮ Ķ
ê¸Ī ë¦¬
ĠìķĦ ëĤ´
Ġë°Ľ ìķĦëĵ¤
Ġê¸Ī ë¦¬
Ġí ľĺ
ĠìĿ´ìĸ´ ì§Ģ
Ġê²¨ ìļ¸
Ġìĺ ¥
1 6
Ġê³µ ìľł
ëĤ ¼
' ,
Ġëĭ¨ ìĪľ
ĠìĿ´ ê±°
ìłľ ëıĦ
Ġì¶Ķ ì²ľ
Ġ5 00
ĠëĮĢ ì¤ĳ
Ġëª¨ ë°ĶìĿ¼
Ġíĳľ ìłķ
Ġë³´ ìŀ¥
ì½Ķ ë¡ľëĤĺ
ĠíĶ¼íķ´ ìŀĲ
Ġíĺ Ī
Ġê³µ ëª¨
ĠìĪĺ ìĪł
ĠìķĦ ì¹¨
ë°ĺ ëıĦ
ìĺģ íĻĶ
Ġ O
ĠìĿ¸íĦ° ë·°
íĶĦ íĬ¸
ìĿ´ ìĸ´
w w
Ġìĭł ë¢°
Ġë¶Ī ëŁ¬
ĠìĺĪ ë¹Ħ
ĠìłĦ ë°ĺ
Ġ R
ì§Ģ ìĪĺ
ì¡° ì°¨
Ġë Į
Ġêµ¬ ìĨį
ë² ¨
ĠìłĦ ëł¥
Ġê¹ Į
Ġê°ķ ëĤ¨
íĺĳ ëł¥
ĠìĪĺ íĸī
Ġë°ĺ ëĵľìĭľ
ĠìĪĺ ìĹħ
2 3
íĿ ¡
íİ ´
Ġíİ Ģëĵľ
ĠëĮĢ ì²´
Ġë§¤ ìŀ¥
Ġë¹ł ìł¸
ê´ ´
ĠìļĶ ì¦ĺ
êµ¬ ìļĶ
Ġì§Ģ ìŀĲì²´
ìļ° ìĬ¤
ëŀ ¬
ëľ »
ĠìĦł ìĸ¸
êµĲìľ¡ ì²Ń
ìĪ ¨
Ġíĺ¸ íħĶ
ĠìĻĦ ìĦ±
Ġë ĩĮ
ëĭ¤ ë¥¸
ĠíĿ ĳ
ë Į
Ġ3 00
ì°¨ ë¡Ģ
ĠíķŃ ê³µ
ë§ ŀ
ĠíĻĶ ìŀ¥
Ġê°Ģ êµ¬
ë ļ
Ġì¡° íķ©
Ġì¶ķ ìłľ
Ġìĭł ê²½
ì¡° ìĦł
ĠëĤ´ ë¦¬
ìĽ ħ
ĠìĿ¼ ìľ¼
ĠìĦ¤ ê³Ħ
ìĤ¬ ìŀĲ
ë¯ Ģë¡ľ
ê³µ ëĭ¨
ĠìŀĲ ìĤ°
ĠíĺĦ ìĥģ
ĠìĿ´ íķĺ
Ġì ¤
5 00
Ġë¬´ ë£Į
ĠìĬ¤íĥĢ ìĿ¼
ìĭľ ì§Ģ
Ġâĸ ł
Ġì¡° ê±´
Ġì¶ķ êµ¬
Ġìĵ ´
Ġìµľ ìĦł
Ġìķ¼ ëĭ¹
ê ¾
ëĬĶëį° ìļĶ
ĠêµŃ ë°©
ê ½ĥ
Ġìľł ìĿ¼
Ġìĸ´ ì©
Ġìĭł ìļ©
ĠêµŃíļĮ ìĿĺìĽĲ
ìĭĿ íĴĪ
Ġë°ĺ ë°ľ
Ġì´Ŀ ìŀ¥
ì½ ¤
ëł ī
Ġë¶Ī íİ¸
Ġë°Ŀíĺ Ģ
Ġíķ´ ìĨĮ
íĸī ìĤ¬
Ġë°Ķ ê¿
ìŀĲ ëĬĶ
Ġì¶ľ ë§Ī
Ġ U
1 7
Ġì§ģ ìŀ¥
Ġê³¨ íĶĦ
Ġíĸ¥ ìĥģ
Ġë²Ķ ì£Ħ
ì° ®
íĺ Ķ
ĠìķĮ ë¦¬
1 4
Ġë³´ ê±´
Ġì§Ħ ì§ľ
Ġê°Ĳ ìłķ
ĠìłĲ ê²Ģ
Ġì¶ľ ìłĦ
Ġì¶ľ ë°ľ
Ġì¼ ĢìĿ´
íĨ ¤
Ġë§Ī ì°¬
ĠìĤ¬ ê³¼
Ġìŀ¬ ë¯¸
Ġëĵ¤ ìĹ¬
ĠìľĦ ìĽĲ
Ġë¹ł ë¥´
ëĳ ĺ
Ġë§ º
ëĤĺëĿ¼ ëĭ¹
ĠìĽĲ ìŀ¥
ì£¼ ìĭľ
Ġê°ĳ ìŀĲê¸°
Ġì¤Ħ ìĿ´
Ġê±´ ì¶ķ
Ġì§Ħ ëĭ¨
ìĿĺ ë£Į
ìŀĲ ëıĻì°¨
Ġìĺ Ľ
Ġíĺ¼ ìŀĲ
Ġíĥ Ĳ
Ġê³ ¡
ĠëĮĢ ë³Ģ
ĠëĤĺíĥĢ ëĤĺ
ëĮĢ ìĥģ
Ġë§Īì°¬ ê°Ģì§Ģ
ìĿĢ ëį°
Ġê¸° ìĹ¬
ĠìĻ¸ ë¶Ģ
ĠíĬ¹ ìĦ±
íĬ ¼
ê°Ģ ê²©
ĠìĤ´ íİ´
Ġë³Ģ ê²½
Ġê± ·
Ġíĸ¥ íķ´
Ġìľł ë¦¬
Ġëĭ Ī
íļĮ ëĭ´
Ġìĭ¤ íĮ¨
ì§Ģ ëĤľ
ìĽĮ íģ¬
ĠìłĢ íĿ¬
ê°Ģ ëŁī
ë Ń
ì¤ ĺ
ĠëĤĺ ë¬´
Ġë§¤ ìĿ¼
ë¨¸ ì§Ģ
íĽĦ ë³´
ê¾ ¼
Ġê¸Ī ì§Ģ
Ġì´ī êµ¬
ĠìĹ° ê°Ħ
Ġë¶Ī êµ¬
Ġì°¨ ë³Ħ
ì£ ½
ĠìłĦ ëĤł
ĠìĥĿ ëªħ
ĠìŀĲ ëħĢ
ĠìĹ ĺ
ëĵľ ë¦¬
ë©´ ìĿĢ
ê»ĺ ìĦľ
ê±° ìļ´
Ġì¶© ëĤ¨
Ġë¹ ļ
ëĭ¤ ë³´
ĠìłĪ ë°ĺ
íĶĦ ë¦¬
íķ´ ëıĦ
Ġëª¨ ì§ĳ
Ġë¥ ĺ
Ġë¶Ī ë¦¬
a r
Ġë°ľ êµ´
Ġì´Ī ëĵ±
ëł ¬
Ġì£¼ ë¬¸
ìŀ Ķ
Ġì į¨
Ġë² ¤
Ġìłĳ ê·¼
ìĸ´ ëĤ¬
ìĭľ ì¼°
ĠëŃ Ķ
ĠìĨĮ ìĦ¤
ê²Ģ ìĤ¬
ĠìĤ¬ ìĥģ
ĠìĿ´ ë²¤íĬ¸
Ġìĥģ ë°ĺê¸°
Ġìłķ ë¦¬
ĠêµŃ ë¦½
ê» ´
Ġìķ ¡
Ġì£¼ ê°Ģ
Ġìĭľ ê°ģ
Ġëıħ ë¦½
ĠìĿĺ ì§Ģ
Ġë¶Ģ ìĥģ
Ġë°° ì¹ĺ
ëĳ ¥
ĠëĤ ¸
ĠíĨµ ìĭł
ë¬¸ ìłľ
íļĮ ê²¬
Ġê ½
Ġì¹ľ íĻĺê²½
Ġìĵ ¸
ëģ Ķ
ë§ ¥
íĶĮ ëłĪìĿ´
ìĿ´ ìĤ¬
Ġë§Ī ì¼ĢíĮħ
ë²ķ ìĽĲ
íĨµ íķ©
ĠëĤĺ ë¨¸ì§Ģ
ì½ ©
Ġì² ¨
Ġëį° ìĿ´íĦ°
Ġìĥģ ëĭ´
Ġë¹ ¨ë¦¬
ë¦¬ ì¦Ī
Ġìĭ ±
Ġë§¤ ëł¥
ìĨ Ķ
ê³Ħ ìķ½
íİ Ģëĵľ
Ġê±° ë¶Ģ
ĠíĽ ¨
ëħ ģ
Ġë§Į ì¡±
Ġì± Ļ
ëĤĺ ê°Ģ
ì¡° íķ©
ĠìĽĲëĤ´ ëĮĢíĳľ
į ìłķ
ëĵ Ń
2 7
ĠëĿ¼ ìĿ´
ä ¸
êµ¬ ì¡°
ì¤ĳ êµŃ
Ġìµľ ìłĢ
ĠìĦ¸ ìĽĶ
ê´ Ħ
ë£ ¡
ê°Ģ ì¡±
ĠëĶ°ëĿ¼ ìĦľ
ĠëıĮìķĦ ê°Ģ
ì£¼ ëħĦ
Ġ ãĨį
ĠìĹ° ì¶ľ
Ġë¹Ħ ìĥģ
a l
êµŃ ê°Ģ
ĠíĬ¹ ì§ķ
Ġì£¼ ë¡ľ
ĠëĬĺ ìĸ´ëĤĺ
Ġí Ĩ
íķ´ ì§Ħ
Ġë´ Ħ
ìĭľ íĤ¨
ĠíĿĶ ëĵ¤
Ġíľ´ ëĮĢ
2 8
Ġíĥ ĵ
ëĭ´ íļĮ
ĠíĽ¨ ìĶ¬
Ġë²ķ ìĽĲ
Ġìŀł ìĭľ
Ġ200 7
ĠìĽĶ ëĵľ
Ġìŀ Ĭ
Ġëĸ¨ìĸ´ ì§Ģ
Ġì§ĳ íĸī
ìĭľ ëĮĢ
ĠêµŃ ë¬´
Ġíı¬ ê¸°
Ġê´Ģê´ĳ ê°Ŀ
e n
ì²Ń ìŀ¥
ĠíĬ¹ ìłķ
Ġêµ° ìĤ¬
Ġíİ¸ ìĿĺ
ìģ ľ
Ġì§Ħ ìłķ
Ġë° ĳ
Ġì²ł ìłĢ
2 9
ìľ¼ ëĭĪê¹Į
2 6
ĠìŀĲ ìĽĲ
Ġê°ķ íķľ
ĠìĿ¼ ìĥģ
êµ° ìļĶ
Ġë ĥĪ
ëĤ Ļ
Ġê´ ´
Ġëĭ¹ ìĹ°
Ġíĥ ĳ
ĠìŀĦ ê¸Ī
ë ĺ
ì² ¨
ĠìĬ¤ íĬ¸
Ġê³¼ ìłľ
ìĿ¼ ë³´
ĠëĪĪ ë¬¼
Ġíķĺ ëĬĺ
Ġíļ¨ ìľ¨
Ġê²ģ ëĭĪëĭ¤
Ġë°ĶëĢ Į
ĠìĿ¼ ìĸ´ëĤĺ
Ġë² ½
Ġê·¹ ë³µ
Ġë¹ ¨
Ġì°½ ìĽĲ
ĠëĮĢ ëĭµ
Ġëĵ ł
ĵ ¨
Ġì£ Ħ
Ġëĭ¤ ëĭĪ
ìģ ĺ
Ġë°Ķ ëĭ¤
Ġíŀ Ī
Ġë ®¤
ë¦ ī
íĮĮ íģ¬
Ġíķľ ëĤĺëĿ¼ëĭ¹
Ġìŀ¥ ìĨĮ
ĠìĻĦ íĻĶ
Ġì¿ ł
Ġê°ľ íĺģ
íĭ ±
Ġì²´ ê³Ħ
Ġíĺķ ìĦ±
ê·ľ ì§ģ
ê³µ ìŀ¥
ë¹ Ļ
ê°Ĳ ëıħ
Ġì» ´
Ġë°© ìĹŃ
Ġ H
Ġê¼ ¬
ĠíĮĲ ê²°
ĠìłĦ ë¶ģ
ëĭ¤ ëĭĪ
ĠíķĻ ìĬµ
ëħ ķ
Ġìĭľ ìĦł
Ġêµ ³
Ġì§Ģ ìĤ¬
Ġíıī ìĨĮ
Ġê¸° ë¶Ģ
íĬ ľ
ë²ķ ìĿ¸
N S
Ġë¶Ģ ì§Ģ
a t
Ġì¸¡ ë©´
Ġíķ´ ìĦĿ
ĠìŀĲ ì£¼
Ġëĺ ĳ
ĠìĨĮ ìĨ¡
Ġê´Ģ ê°Ŀ
ìŀ¥ ê´Ģ
Ġìĭľ ìłĲ
ìĺ¬ ë¦¼íĶ½
ìĸ´ ì§Ħ
Ġë²Ħ ìĬ¤
ìĿĦ ì§Ģ
ĠìŀĲ ê²©
ë¬¸ íķĻ
Ġì¶ľ ë²Ķ
Ġíķĺ ë°ĺê¸°
ĠëĶĶ ì§ĢíĦ¸
Ġë° ¥
ì½ ľ
ê² ģ
ĠìĿ´ ë¥¸
Ġë¶Ģ ë¥´
Ġì¶©ë¶Ħ íŀĪ
Ġì§Ģ ìĭĿ
ìĭ ¼
¥ Ĳ
ĠíĪ¬ìŀĲ ìŀĲ
Ġê³µ ìķ½
Ġê·¼ ê±°
ë¡ ±
Ġëĭ¬ ëł¤
íĴ Ģ
ĠìĿ¸ ìĥĿ
Ġ3 5
ĠíĺĦëĮĢ ì°¨
ê°Ģ ìĬ¤
Ġìĺ¬ ë¦¼íĶ½
ĠíĨµ íĻĶ
ĠìĹ¬ ìķ¼
Ġë°Ķ ëŀĢëĭ¤
ëľ ¨
ê¸° ì¤Ģ
Ġë°° ê²½
ì¹ ¼
Ġë¬¸ìŀ¬ ìĿ¸
ê²Į ìŀĦ
ëĭ ī
Ġë§Į ëĤľ
Ġë¶Ģ ë¶Ģ
ĠíĨµ ìĿ¼
ëĵł ì§Ģ
Ġë »
Ġìŀ¥ ë©´
ĠíĻķ ìĭ¤
Ġë³Ħ ëıĦ
ìĹ° ê¸Ī
ì²ľ ë§Į
ĠíĹĪ ìļ©
5 000
ìķ ¤
ë ķ
ĠìķĮ ìķĦ
Ġ9 0
Ġì «
Ġê¸° ë¶Ħ
Ġê² ¸
Ġê³ł íĨµ
íħ į
Ġìłĳ ìĪĺ
Ġê±´ ë¦½
ĠëĪĪ ê¸¸
Ġì·¨ ì§Ģ
Ġê³Ħ ìĹ´
ìĿ¼ ê¹Į
ìĹ°êµ¬ ìĨĮ
ĠëĤĺ ëĪĦ
Ġê±¸ ì³Ĳ
ê¸° êµ¬
ĠìĥĪ ë¡ľ
ë¯¸ êµŃ
ìĿ´ ëĦĪ
íķľëĭ¤ ë©´
Ġì¹ ł
Ġì§ §
ĠìĽĲ ì¹Ļ
ìŀĲ ìĤ°
ì´Ŀ ë¦¬
Ġì» ¬
Ġì£¼ìĿ¸ ê³µ
ĠìłĢ ëħģ
Ġêµ¬ ìŀħ
ê³µ ê°Ħ
ĠìĹŃ ëŁī
ĠìŀĲ ëŀĳ
Ġê·¸ ëŀ¬
ëĵ± ê¸ī
ĠìłĦ ë©´
íĬ¸ ëĤ¨
ëĮĢ êµ¬
Ġê³µ ê°Ĳ
ĠëĶ ±
íĶ¼ ìĬ¤
Ġê¸´ ê¸ī
Ġì§ĳ ëĭ¨
ĠìķĦ ìļ¸
ĠëıĻ ìĿĺ
ĠìĥĿ ê¸°
ìĭľ ì¦Į
ìĤ¼ ìĦ±
Ġê°Ģ ëĵĿ
Ġì¡° ê¸°
Ġ19 8
ìĭ¬ íŀĪ
ë Ĵ
Ġëı ķ
ĠêµĲ ì²´
Ġê°Ĳ ìķĪ
Ġë²Į ìĿ´
ëĵ ¬
ĠìĤ´ ìķĦ
Ġì¶Ķ ìłķ
ĠëĬĲ ê»´
ëĮĢ ì¶ľ
ì£¼ ë¯¼
ĠìĦ¸ ëĮĢ
Ġë²ķ ë¥ł
ĠíĬ¹ ìĪĺ
Ġì§Ģ ë¶Ħ
ĠíĮ¨ ìħĺ
Ġê¸ įìłķ
ĠìĿ´ë¤Ħ ì§Ģ
Ġìĭł ìĦ¤
Ġë¶Ģ íļĮìŀ¥
ĠëĪĦ ê°Ģ
ë ®¤
ìº Ĳ
Ġê¸°ëĭ¤ ë¦¬
Ġë°Ŀ íŀĪ
ĠìĥĿ íĥľ
íŀ Ĳ
ĠíĶĮ ëŀ«
Ġë§¤ ê°ģ
Ġê´Ģ ëŀĮ
Ġë¹ ħ
Ġ20 20
Ġìĺ¬ ëł¸
ĠìķĦ ëıĻ
ĠìĪĺ ìĦĿ
ë¥ Ļ
Ġë°Ķ ê¾¸
ìĹĲ ëĦĪì§Ģ
Ġê¸° ìļ¸
Ġê¸Ī ìķ¡
ë¶Ģ ìŀ¥
ĠìĽĥ ìĿĮ
Ġìłķ ê¸°
ëªħ ë°ķ
ê³µ ìĹħ
Ġìĭł ë¬¸
ì´Ŀ ìŀ¥
Ġê±° ëĵŃ
ê·¸ ëŀĺ
ĠìķĪ íĥĢ
ĠëĤĺ ê°Ī
Ġëħ¸ëıĻ ìŀĲ
ìĭł ë¬¸
Ġëĭ¹ ìŀ¥
ĠëģĮ ìĸ´
Ġìŀĳ ìĦ±
Ġì£¼ ë§Ĳ
íĨł ë¦¬
ìĤ¬ ëŀĳ
Ġì¶© ê²©
Ġê·¸ ë¦°
Ġìłķ ìĿĺ
ĠìĿ¸ ì¦Ŀ
Ġê· ł
Ġê¾¸ì¤Ģ íŀĪ
ë³´ íĺ¸
Ġê°Ģê¹Į ìĿ´
ê² Ĳ
Ġë°° ì¶ľ
Ġë²ķ ë¬´
Ġì³ Ĳ
ë· Ķ
ĠìłĪ ëĮĢ
íĬ¸ ìĽĮíģ¬
ë´ ĩ
' (
¤ ë²Ħ
ĠìĦł ê³ł
ĠêµĲ ê³¼
ë©Ķ ëĿ¼
ìħ Ģ
ë¶Ģ ìĤ°
Ġ t
Ġë¯¸ ì¹ĺ
Ġë¶Ī ê°Ģ
ëĭ¹ êµŃ
Ġì£¼ ì°¨
Ġë© Ī
Ġì§Ģ ìĭľ
Ġê¸´ ìŀ¥
Ġë¬¸ íķĻ
Ġìķ ±
Ġì£¼ ê±°
Ġë²ķ ìķĪ
ĠìŀĲ ìľ¨
íĦ° ë¦¬
Ġìĭ¤ ì²ľ
Ġêµ ´
íĸī ìľĦ
ë° ¥
ĠíĶĦë¦¬ ë¯¸
% (
ê³ł ê¸°
ìħ ľ
ĠíķĻ ë¶Ģëª¨
íĺģ ìĭł
ëģ Ħ
ê°Ħ ëĭ¤
ë§ İ
ĠëıĦ ì°©
Ġìĺ¤ ëŀľ
Ġì¢ħ ëª©
íĸĪ ìľ¼ëĤĺ
Ġ V
ìŀ¥ ìķł
ì§Ģ ê¸Ī
ìº ł
ĠìĿ´ ìĿµ
Ġì»¤ íĶ¼
Ġê°ľ ë§ī
ĠíĻķ ìŀ¥
ê±´ ì¶ķ
© ëĭĪëĭ¤
ĠìķĦìļ¸ ëŁ¬
Ġ `
ĠìĪĺ ë¦½
Ġê°ľìłķ ìķĪ
ĠìĻĦ ìłĦíŀĪ
Ġìŀ¬ ìĤ°
Ġê°Ģ ìĪĺ
ìĥĿ ëªħ
ĠìĥĪ ë¡Ń
Ġíķĺ ìĿ´
ĠëĨį ìĹħ
Ġê°Ģ ë¥´
Ġë§ŀ ì¶¤
Ġíķł ë¨¸ëĭĪ
ìĺģ ìĥģ
Ġì¦Ŀ ê¶Į
ë¬ µ
ĠìĿĺ ìŀ¥
ê°ľ êµŃ
Ġê´ ľ
Ġëĭ¹ êµŃ
Ġì·¨ ìĨĮ
Ġì½ ľ
ĠK BS
ëĭ Į
ì§Ģ ëıĦ
Ġë°Ŀ íŀĮ
ì¢ħ íķ©
ĠìŀĦ ìĭľ
ë§Ī ìłĢ
íı ´
ĠìĿĺ íķ´
Ġê³µ ì²ľ
ìłĦ ëŀµ
ĠìĿ¸ ê¶Į
Ġìķł íĶĮ
Ġì·¨ ìŀĦ
íĸī ìłķ
íĻĶ íķĻ
íĻ Ī
ĠìĻĦ ë£Į
ëĿ¼ ìļ´ëĵľ
ĠìĿĳ ëĭµ
Ġìķ¼ êµ¬
Ġì´Ī ê¸°
ìĭ¤ ìŀ¥
Ġë´ī ìĤ¬
Ġê¶ģ ê¸Ī
Ġëĭ¤ ìĨĮ
ìĿ į
ĠìĹŃ ëĮĢ
ĠíĻľ ìķ½
Ġëĵ¤ìĸ´ ê°Ķ
Ġê¸° ìĨĮ
ĠëĨĢ ëĿ¼
Ġê±° ì£¼
í ĵ¨
ìĭľ íĹĺ
ì¶ķ ìłľ
Ġì²ĺ ë²Į
ĠìĤ¬ìĭ¤ ìĥģ
ê°Ģ ì¹ĺ
ì» ´
Ġìĸĳ ìĦ±
Ġë§ ¨
ĠìĨĮ ìľł
Ġë¯¸ ë¦¬
Ġëĸł ìĺ¬
ĠìĿĺ ìĭ¬
ĠëĮĢ ë¡ľ
Ġìłķ ë¹Ħ
Ġëī´ ìļķ
ìļ´ ìĺģ
ìĽ¨ ìĿ´
ĠíĥĢ ìĿ´
Ġì§Ģ êµ¬
Ġë²Ĺ ìĸ´ëĤĺ
Ġë°ķ ìĤ¬
Ġíķľ íĻĶ
ìłĦ ê±°
ĠìĿ´ ìŀ¬
ìķĦ ëıĦ
ĠìľĦ íĺĳ
ìĪĺ ìĤ¬
ëĭ¤ ìĭľ
ĠìĭĿ íĴĪ
ĠëĮĢë³Ģ ìĿ¸
ĠìĪĺ ìļ©
ĠìķĪ ëĤ´
ìķ¼ êµ¬
ĠM BC
Ġê¶Į ëł¥
ĠëıĮ íĮĮ
ë©Ķ ëĭ¬
Ġëĭ¹ ì´Ī
Ġëĵ Ŀ
Ġìĭ¤ íĺĦ
ë¦Ń íĦ°
Ġìŀĩ ëĶ°
Ġë³´ ìĥģ
ì²ĺ ë¦¬
Ġëĭ¹ ë¶Ģ
ĠK B
Ġëī´ ìĬ¤
íĨ ¡
â Ĩ
ĠìĹ¬ëŁ¬ ë¶Ħ
ì²´ ê³Ħ
Ġëį ľ
Ġìķ½ ê°Ħ
ĠíĿ ¡
Ġê³ł ìľĦ
ĠëĤĺëĪ ł
Ġíı¬ íķŃ
Ġë°© ì§Ģ
ì° į
Ġìĺģ ìĹŃ
íķĺ ëĤĺ
ĠëıĻ ìķĦ
ì¹´ ìĺ¤
ĠíĦ ¸
Ġìĺ¬ ëł¤
Ġê·¸ëŀĺ ëıĦ
Ġ W
Ġë³´ ê³łìĦľ
Ġì¤ĳ ê°Ħ
Ġë©Ķ ìĭľì§Ģ
Ġë© ¤ë²Ħ
Ġë¯¸ ìĪł
Ġ201 9
ëª ¬
ë§ Ľ
ĠìŀĲ ëıĻ
Ġíĥľ ëıĦ
ë¬¼ ê´Ģ
Ġì§ĳ ê³Ħ
ĠëĤĺ ìĺ¬
ìĭľ íĭ°
Ġìĭ¬ ë¦¬
Ġë³´ íĨµ
Ġì¦Ĳ ê¸¸
Ġâĸ ·
Ġì¦Ŀ ê±°
Ġë²ł íĬ¸ëĤ¨
3 1
Ġ3 6
íĭ ´
Ġì¦Ĳ ê¸°
Ġê°ĸ ì¶ĺ
Ġë¹ł ë¥¸
Ġìĭ «
Ġê·¸ ë§Į
ì²ľ ìĭľ
Ġê·¼ë¡ľ ìŀĲ
Ġì§ģ íĽĦ
ë²Ħ ë¦¬
ìŀĦ ê¸Ī
Ġì§ ľ
ĠìĽĢì§ģ ìŀĦ
ĠíıĲ ì§Ģ
ĠìĿ¸ íķĺ
íħĮ íģ¬
Ġê¹Ģ ìĺģ
ìĭľ íĤ¬
ĠìĬ¹ ë¶Ģ
Ġíĥľ ìĸĳ
Ġìĩ¼ íķĳ
ĠëıĮ ëł¤
ìĤ¬ íķŃ
Ġìĭ¤ ì§Ī
ĠíĽĦ ìĽĲ
ĠìĬ µ
ëĬ¥ ëł¥
Ġì²´ ìłľ
Ķ íĶ¼
ĠíĴĪ ì§Ī
ĠìĹ´ ìĭ¬íŀĪ
Ġê³ł ëĵ±
Ġìķħ íĻĶ
ĠëıĻ ë¬¼
Ġë¬ ĺ
ĠìŀĲ ë³¸
ĠìĪĺ ëĬ¥
Ġíļ į
Ġíķ´ ìĸĳ
ëĮĢ íķĻêµĲ
c o
Ġì§Ħ ìŀħ
Ġê°Ģê¹Į ìļ´
ĠëŃĶ ê°Ģ
Ġëª¨ ìķĦ
Ġê³³ ê³³
ë© ĺ
ìĦ ¬
Ġëĭ¤ ë¦¬
s t
Ġë¶Ģ ìĹ¬
Ġê³ ¤
íĺĦ ì§Ģ
Ġì£¼ ëł¥
ì¡° ê±´
3 5
Ġì§ Ĳ
Ġëªħ ìĺĪ
ĠìºĲ ë¦ŃíĦ°
Ġìĺ¤ íĶĪ
Ġëį° ë·Ķ
Ġë°ĺ ë³µ
ëł ģ
Ġìłľ ìĿ¼
ĠìĿ¸ ê³µ
Ġë¬¼ ëŁī
Ġë§Į ìķ½
ĠìĿĺ ë¬´
i t
Ġëª¨ ìĹ¬
¼ ìĨĲ
íĺĦ ëĮĢ
ĠìĹ° ë§Ĳ
ì§ģ ìŀĲ
í Ģ
Ġê·¸ ëŁ´
ê°ľ íĺģ
ê ¶
ëĿ¼ ìĬ¤
ĠìĪ ²
ĠìĹ°êµ¬ ìĽĲ
Ġìĭł ì¢ħ
Ġìŀ¥ ìłĲ
êµŃ ìŀ¥
Ġíķľ ë°ĺëıĦ
ĠíĿĲ ë¦Ħ
Ġë¹Ħ ëĤľ
Ġìļ´ ìłĦ
Ġê°Ģ ëıĻ
Ġìľ µ
Ġëħ¸ ìĦł
ĠìĦł ì§Ħ
Ġë§Ī ìĭľ
Ġê°Ģ ìĿĦ
ëħ¸ ì¡°
Ġê°ĸ ì¶Ķ
ĠìĿ¸ íĶĦëĿ¼
ĠëĤ´ ëł¸
ĠëĶ° ëľ»
Ġíı¬ ìĬ¤ì½Ķ
ĠíķŃ ìĥģ
Ġë¶Ģ ì§Ħ
ê²½ ë¶ģ
ĠI T
Ġë¬´ ìĹŃ
Ġë§Ī ìĬ¤íģ¬
ë¶Ģ ë¬¸
ĠìłĦ ìĦ¸
T A
ë¹Ħ ìļ©
Ġíķľ ê³Ħ
íķ´ ìļĶ
Ġì£½ ìĿĮ
ĠìĿĺ ìĭĿ
íĺĳ ìĿĺíļĮ
ìłĦ íĻĶ
Ġíİ¼ ì¹ĺ
ĠìĬ¹ ìĿ¸
ìĸ´ ëĤł
ĠìĦ± ê²©
ĠíĻĶ ìłľ
ĠëĬĺ ìĸ´ëĤľ
Ġìĥģ ì§ķ
Ġê° Ŀ
Ġ J
Ġì»¤ ì§Ģ
Ġê° ¤
Ġìŀĳ ìļ©
Ġì² Ļ
Ġì į¼
Ġë¸Į ëĿ¼
ĠìķĦëĭĮ ê°Ģ
ĠìĦ¸ ê¸Ī
Ġë²ķ ìĿ¸
Ġíĺķ ìĤ¬
ì ·
Ġ3 3
Ġìĭ¤ ëł¥
Ġêµ¬ ê°Ħ
ĠìĦ¼ íĦ°
ìĤ¬ ìĿ¼
Ġë¯¸ ìĦ¸
íĥ ĳ
Ġíı ´
ĠìĹĦ ì²Ń
Ġìĥģ ìŀ¥
Ġëĭ¬ íķĺ
íĬ¸ ë¦¬
ĠëĤ´ ìĦ¸
ì£¼ ìĿ¼
Ġ200 6
ĠìĦľìļ¸ ëĮĢ
ëŀ Ħ
ĠìĤ¬ íķŃ
Ġíİĺ ìĿ´ìĬ¤
ìĤ¬ ë¬´
ĠëıĻ ê¸°
Ġìķķ ë°ķ
Ġíŀĺ ëĵł
Ġë© ĭ
ĠìļĶ ë¦¬
Ġëĸ¨ìĸ´ ì§Ħ
Ġì¹ĺ ìĹ´
ĠìĿ´ ìĤ¬
Ġìĸ´ ê¹¨
Ġë°ľ íĸī
Ġê·¸ ê±°
Ġì¶ ĺ
ĠìĺĪ ì¸¡
Ġê²Ģ ì¦Ŀ
ĠìłĦ íķ´
Ġì§ģ ìĹħ
ë¨¼ ì§Ģ
4 5
ì¶ķ êµ¬
Ġë°ĺ ëıĦ
Ġì¶ķ ìĨĮ
Ġë¶Ģ íĴĪ
ëĦ ĺ
ìĹ ½
Ġë¶Ģ íĥģ
ìĿ¼ ë³¸
ĠìķĦë¦Ħ ëĭ¤ìļ´
Ġì¦Ŀ ìĥģ
Ġë¦¬ ëįĶ
íģ Ĳ
ĠëĿ¼ ìĿ¸
Ġê°ķ ìłľ
ĠìĪĺ ìĪĺ
íĶĮ ëŁ¬ìĬ¤
ë°Ķ ë¡ľ
ëĭĪ ìķĦ
ĠëĿ Ħ
ìĪĺ ìĽĲ
ĠíĤ¤ ìļ°
Ġë³¸ ëĭ¤
ĠìĿ´ íĥĪ
ĠëıĦ ìĻĢ
9 0
C C
ëħ ¼
ìĩ¼ íķĳ
ê» ı
ì¹ĺ ë£Į
Ġëįķ ë¶Ħ
Ġê·¸ ê±¸
Ġê°ľ íİ¸
ê º¼
Ġ4 5
Ġì°¨ ëĭ¨
Ġìłľ ìŀ¬
ê·¸ ëŁ¬
ëĨ ¨
Ġì²Ń êµ¬
Ġë©Ķ ìĿ´
ìĺ¤ ë¥´
ĠìĮ į
ĠëĽ° ìĸ´
ãĢ ı
ìĪĺ ìĪĺ
ìĺĪ ìĤ°
ĠìĦłë³´ ìĿ´
I A
Ġë³µ íķ©
Ġë°Ķ ëĭ¥
Ġë¬´ ë¦¬
ìĿ´ ë²Ħ
Ġì¼ Ģ
Ġë³µ ê·Ģ
Ġë²ł ìĿ´
ìŀĲ ë£Į
ĠìļĶ ìĿ¸
ĠìĹ° ì£¼
ĠëĦ¤ ëĦ¤
Ġìĭł ìĨį
ìĽĶ ëĵľ
ĠìĤ¬ ëĤ´
ì²´ íĹĺ
Ġìŀ¥ ë¹Ħ
íĺĦ ìŀ¬
ĠëĮĢêµ¬ ìĭľ
Ġí ľ
íĭ° ë¸Į
Ġë§Ī ë¦¬
ëĪ Ī
Ġê³µ ê¸°
Ġê²½ ìĦł
íıŃ ëł¥
Ġìĥģ ìĥģ
3 3
r e
ëĿ¼ ë©´ìĦľ
ĠëĨ Ī
Ġíı¬ ìĿ¸íĬ¸
Ġë¨¸ ë¬¼
ĠìĹ¬ ëĭ¹
ĠëĮĢ íıŃ
ëı¼ ìķ¼
ĠëĬĺ ë¦¬
ëĬĶ ëĭ¤ëĬĶ
ìĺ¬ íķ´
ĠëĮĢ ê¸°
ìĦľ íĬ¸
ê°Ģ ëĿ½
Ġê°Ģ ë¡ľ
Ġìĭľ ìľĦ
ì½Ķ ë¦¬ìķĦ
Ġë°ĺëıĦ ì²´
Ġëĸ ¨
ĠíĽĦ ë°ĺ
ìĥĿ ìĤ°
Ġí ĥģ
ĠìłĦ íĺķ
ì· Ħ
1 00
ĠìĿ´ ëªħë°ķ
ĠìĪĺ ìłķ
ĠëĮĢ ìķĪ
Ġê¸ī ì¦Ŀ
ĠìıŁ ìķĦ
ĠíĿĺ ëŁ¬
Ġì´Ī ì²Ń
ë¶Ħ ìķ¼
ìŀ ī
Ġì ĮĢ
ĠìĤ¬ ìłķ
Ġì¤Ħ ìĸ´ëĵ¤
ë£ ¬
íķ´ ìĸĳ
ĠëĪĦ êµ°
ĠìĨĮ ë°©
íĽĪ ëł¨
ìķĦ ë²Ħì§Ģ
ì© į
ĠìĹ° ëĿ½
Ġê³ł ìĸĳ
ëĶ ľ
ĠìĤ Ń
ĠìĿ¸ ìŀ¬
Ġìĥģëĭ¹ íŀĪ
Ġã Ħ
ì ¾Į
ĠíķĦ ìĪĺ
Ġíĺ¸ ìĨĮ
ĠìĺĪ ê³ł
ĠíĹĮ ë²ķ
ĠìķĦ ë¹ł
Ġìĥģ ì²ĺ
Ġë¬¼ ëŁ¬
Ġëĭ¤ ìĪĺ
ë©´ ìłģ
ëŀ į
ĠëĳĲ ìĤ°
ĠìļĶ ê¸Ī
ìĹ¬ íĸī
Ġì¶© ë¶ģ
íķ Ģ
ëĭ¤ ìĿĮ
E O
ê²° ê³¼
Ġíħ Ĳ
Ġìĥģ ìŀĦ
ĠëģĿ ëĤĺ
ĠìŀĦ ëªħ
ĠìµľëĮĢ íķľ
íİ ľ
Ġì§Ģ ìĥģ
Ġê±° ë¡ł
íĵ¨ íĦ°
ĠìĪĺ íķĻ
Ġì¶Ķ ìĦ¸
ĳ ìĬ¤
íĬ¹ ë³Ħ
ìĿ´ íķĺ
ê¹ Ĳ
Ġê³¼ ìĹ°
Ġë²Į ìį¨
Ġìľł ëıĦ
ìĿĺ ìŀ¥
Ġë¬´ ê¸°
Ġê¹ Ķ
ĠìłĲ ìłĲ
ìĿ´ ìĥģ
Ġëĭ¨ ëıħ
ë¦ ĩ
ĠíĨµ ê³Ħ
Ġë¶Ģ ìŀ¥
Ġì¡° ë¡Ģ
ĠìĭĿ ìĤ¬
ê¹ Ŀ
ë°± íĻĶìłĲ
ĠìĿ¸ìłķ ë°Ľ
ë¯¸ ëŀĺ
ĠíĪ¬ ìĪĺ
Ġë³´ ì¡°
Ġë¶Ģ ê³¼
ê³µ ëıĻ
ĠëĪĦ ë¦¬
Ġê°Ģ ë¦¬
ĠìĪĺ ë¹Ħ
ë ±ħ
ëĥĲ ëĬĶ
ĠíĶĦë¦¬ë¯¸ ìĹĦ
Ġì´Ī ë°ĺ
Ġëĵ¤ ëł¤
ĠìĻĦ ë²½
ĠìķĦëĭ Ĳ
Ġê°ķìĽĲ ëıĦ
ĠíĶĮ ëłĪìĿ´
ĠìŀĲ ìłĦê±°
E D
Ġì¹´ ë©ĶëĿ¼
ĠìłĦ íķ´ì¡Į
ĠâĹ ĭ
ìĭľ ì²Ń
ìĹ° ëĮĢ
ĠëıĻ ë°ĺ
Ġíĺ¹ ìĿĢ
Ġëĵ¤ìĸ´ ìĺ¤
ĠëıĻ ìĽĲ
Ġê´ľ ì°®
ì į
Ġë¬ µ
ì²ł ëıĦ
ìĪĺ ëıĦ
ĠêµĲ ë¥ĺ
Ġê°ķ íķĺ
Ī ľ
ĠìĦ¤ ìłķ
ĠìĥĪ ë²½
ĠíĻ Ģ
Ġì²´ ìľ¡
Ġì§ĳ íļĮ
íĤ¤ ë¡ľ
Ġìłĳ ì´ī
ĠëĮĢ ìļ°
Ġê°ķ ìĿĺ
Ġê´ĳ ìĹŃ
Ġê³ł ê¸ī
Ġëıħ ìŀĲ
Ġëģ Ħ
Ġì§Ģ ë°°
ĠìĽĲ ëŀĺ
ĠìķĦ ìī¬
íķĺ ìĿ´
Ġë¸Ķ ëŀĻ
ĠíıŃ ë°ľ
ĠíĨł ì§Ģ
Ġë¹Ħ ë°Ģ
Ġê°Ģ ì¡Į
Ġìĭľ ë²Ķ
ĠìłĲ ìĪĺ
Ġê²½ ê³ł
Ġ3 4
ë£ ©
ĠìĿĺ ëıĦ
Ġê´Ģ ì¸¡
ĠíĺĦ ê¸Ī
ëĵ¯ ìĿ´
íļ¨ ê³¼
Ġê°ľ ëħĲ
íħĶ ëłĪ
ĠíĻľ ë°ľ
Ġëĸ¨ìĸ´ ì¡Į
Ġê²° ë¡ł
ĠìĿ¼ ìłľ
ë¶ģ íķľ
Ġë²Ķ ìľĦ
ìĺģ ìĹħ
ĠìŀĦ ìĽĲ
ĠìĽĲ ìłĦ
ĠìĿ´ ëĤ´
ì²ł ìĪĺ
Ġì·¨ ìķ½
ĠëĮĢ ë¶ģ
ĠëĤ ³
Ġì£¼ ê´Ģ
ĠíĨµíķ´ ìĦľ
Ġëĭµ ë³Ģ
ìļ° ëĵľ
ìķ ī
ë¬ ĺ
Ġëģ Ī
Ġê³ł íĸ¥
Ġìĭľì²Ń ìŀĲ
Ġë¶Ī ë§Į
i c
Ġêµ¬ ëĭ¨
ê±´ ê°ķ
ê°Ĳ ìĤ¬
Ġìŀħ íķĻ
ĠìĽĶëĵľ ì»µ
Ġê¹ ľ
3 6
Ġë¯¸ ë§Į
¨ ë²Ķ
Ġê³ĦìĹ´ ìĤ¬
Ġì§Ħ ë³´
ĠíĺĦ ìķĪ
Ġì±Ħ ê¶Į
Ġê·¸ëŁ¬ ë©´
ĠíĿ¬ ìĥĿ
ĠìŀĲ ì¹ĺ
ĠìĹ´ë¦° ëĭ¤
ĠìĦł íĺ¸
Ġëĭ¨ ìĿ¼
Ġì²¨ ëĭ¨
Ġ3 8
Ġìļ´ ìļ©
ëª ½
íĿ ĺ
íĺĦ ìŀ¥
ê¸° ìĹĲ
Ġìĭł íķľ
Ġê·¸ ëĭĪê¹Į
ĠíĹ ¬
Ġë Ĥ¬
ĠìĤ¬ íĩ´
ë¯¸ ìĪł
ĠíĻĶ ëł¤
Ġë¬¼ ê±´
íķĺ ê³ł
ëŁ¬ ë¦¬
Ġë³´ ëĥĪ
ìĬ¤ íĭ°
ì¼Ģ ìĿ´
Ġ5 000
ĠëĤ ¼
ìĤ¬ ê±´
âĨ Ĵ
ë¦¬ ìĺ¤
ìĥģ íĻ©
Ġì±Ħ ëĦĲ
ìĦ¸ ê¸°
ĠëĮĢ ìĤ¬
ĠìĿĳ ìĽĲ
ìĹ¬ ìĦ±
ĠA I
ĠìĿ¼ ëĮĢ
Ġë¯¸ ìĨĮ
Ġì²Ń ìķ½
ë¬¼ ì§Ī
Ġë®¤ ì§Ģ
Ġìłģ ìłĪ
ĠìĽĢì§ģ ìĿ´
Ġì§Ħ ìĭ¤
ë£ ¸
íĺ¸ íħĶ
ìĿ¸ íĦ°
ì¤ĳ ê³µìĹħ
ëįĶ ëĿ¼
Ġì¹´ íİĺ
Ġì¦Ŀ ìĭľ
Ġë ĥ
ìĤ¬ ìĭ¤
Ġìĭľ ìĿ¸
Ġë¯¼ ìĽĲ
Ġë§ ¹
Ġíķ© ê²©
ĠìĹħ ì¢ħ
ìĤ¬ ëŀĮ
ĠãĢ İ
Ġì± ĶíĶ¼
ë¹ Į
ĠìĿ´ íĭĢ
ĠíĤ¤ ìĽĮ
ë°ĶìĿ´ ëŁ¬ìĬ¤
ĠìĿ´ ìĽĥ
ĠêµŃëĤ´ ìĻ¸
ĠìĨĲ íķ´
Ġíĺĳ ìķ½
Ġëª¨ ìŀĦ
ê¸° ë¡Ŀ
ĠìĦł ë°ķ
Ġìºł íİĺìĿ¸
ĠìĹ° ìĬµ
ĠìĦł ìŀĦ
ë¦¬ íĬ¸
íĪ¬ íĳľ
ì¦Ī ëĭĪìĬ¤
ĠìłĦ íķĺ
Ġì¡° ìĸ¸
ìĤ° ìĭľ
ëĭ ·
ĠëıĻ ë£Į
Ġìłķ ì²´
Ġ :
Ġíĺĳ ì¡°
ëŀĢ íŀĪ
ĠíĻį ì½©
ĠìłĦ ê°ľ
êµĲ ìĤ¬
Ġëª» íķ´
íĻĺ ìŀĲ
Ġë°Ķê¿ Ķ
êµŃ ëĭ¹
ĠìĤ¬ ìķĪ
ĠìĦł ëıĦ
ĠìĦ¸ ìļ°
ĠìĪĺ ì£¼
ĠìĭĿ ëĭ¹
ìĬ¤ íı¬ì¸ł
ĠíĥĦ ìĥĿ
Ġìļ´ íĸī
ĠëıĻ ìĿ¼
ĠìĪĺ ìĭľ
Ġë¹Ħ ëĮĢ
Ġë²ķë¬´ ë¶Ģ
ĠìĨĮ ìŀ¥
ĠìĥĿ ê¸´
Ġì²ľ ìķĪ
Ġê·¸ ê±´
Ġ3 7
Ġë¬´ ìĥģ
ëĤĺ ìļĶ
ĠìĤ¬ë¬´ ìĭ¤
ìĤ¬ ì§Ħ
Ġ15 0
ìĹ° ë§¹
ĠìĨĮ íĻĶ
3 4
ĠëĤ Ń
ĠíĮĲ ìłķ
ĠìķĦ ê¹Į
Ġë³¸ ìĤ¬
Ġê²° ìĬ¹
Ġì¢ ģ
5 5
Ġê³µ íķŃ
ì§ľ ë¦¬
Ġìĸ´ ìļ¸
ĠìĤ´íİ´ ë³´
Ġë§Ī ê°Ĳ
Ġë¿ Įë¦¬
ĠìķĦë¬´ ë¦¬
ĠìŀĦ ì§ģìĽĲ
Ġë§¤ ìŀħ
Ġë§Į ëĤ¬
Ġê·¸ ë§Įíģ¼
ĠëıĦ ìĭ¬
ĠìķĦìĿ´ ëĶĶìĸ´
ë° Ń
ëĵľ ëŁ¬
ëª ¸
ĠìļĶ ìĨĮ
ìĽ ¨ìĸ´
ĠìĦ Ń
ĠëĵľëŁ¬ ëĤ¬
Ġìĥģ ê´Ģ
Ġ å
ĠíĽ Į
ë »
ĠëłĪ ìĿ´
I S
ë° ¤
3 7
Ġë²ķ ìłķ
Ġê²½ ì£¼
Ġë° Ł
Ġìĥģ ìĥĿ
ì§Ģ ëĮĢ
Ġíıī ìĥĿ
Ġë© °
ê²½ ìŁģ
Ġì§Ģ íľĺ
ĠíĥĢ ê²©
Ġê³ł ìĨį
Ġ Â´
Ġê²° ìłľ
ìłķ ìĥģ
Ġìłľ ê±°
Ġìĥģ ìľĦ
k m
íħĶëłĪ ì½¤
¼ Ī
Ġìłľ ìłķ
íŀ ĺ
ë¦¬ ìĸ´
ĠìĤ¬ìĹħ ìŀĲ
l e
Ġë²Ħ ë¦¬
Ġê¶Į ë¦¬
Ġ3 2
ĠìĪĺ ë§İ
ĠíĥĿ ìĭľ
ìµľ ê·¼
ê°ľ ìĦł
ĠìľĦ ì£¼
ĠìĽ ¨
Ġìĭ¤ ìĪĺ
íĮĲ ë§¤
Ġì¡° ìļ©
Ġì·¨ ìŀ¬
ĠëĲ ©ëĭĪëĭ¤
Ġìĭ¤ íĹĺ
ë°Ķ ë§Ī
P G
Ġëħ¸ ì¶ľ
Ġíİ¸ ìĦ±
ĠíİĺìĿ´ìĬ¤ ë¶ģ
Ġê·ł íĺķ
Ġì£¼ ìµľ
3 8
Ġìĭ¸ ìĽĢ
Ġ200 5
ëģ Ĺ
ëĭ Ĳ
ĠìĤ´ ë¦¬
ìĭ¬ ìĤ¬
ìŀĲ ìľł
ĠìĦ± ëĤ¨
Ġ4 00
Ġë³´ ìķĪ
I C
Ġìĥ ¤
Ġì ¥Ĳ
Ġì¶Ķ ìĦĿ
Ġê¶Į íķľ
2 000
Ġâĸ ¶
ëłĪ ê¸°
Ġë¹Ħ íĸī
ëŁŃ ìĭľ
ìł ¤
Ġê·¸ ëł¤
ë¡ ¤
ìķĦ ìĭľìķĦ
ê¹Į ìļĶ
ĠíĬ¹ íĹĪ
ĠìĦ¸ ëł¥
Ġíģ¬ ë¦¬ìĬ¤
ĠëĮĢíķĻ ìĥĿ
ìĨĮ ë¹Ħ
Ġë¯¸ ëĶĶìĸ´
ëĭĪ ìĸ´
ë© ¸
4 8
íĶĦë¦¬ ì¹´
ĠìĹ¬ ìĪĺ
Ġíĺķ ìĭĿ
ĠìķĦ ìĺĪ
Ġìľł ìĹĶ
Ġê±° ì§ĵ
ĠëĶ° ë¡ľ
íĺģ ëªħ
ê¸° ëĬ¥
íĶ Ķ
Ġê²½ ê³Ħ
ë²Ķ ì£Ħ
ĠìĿ´ ìĻ¸
Ġ3 000
Ġìłľ ëª©
Ġë¬´ ìĭľ
ĠëĪĦêµ° ê°Ģ
Ġë¬¸ ìŀĲ
Ġë¬ ¶
Ġë¶Īê°Ģ íĶ¼
ì¡° ì¹ĺ
ìĿ¸ ëł¥
ê³µ ìĹ°
Ġíģ¬ ê¸°
Ġê°ľ ë°©
ĠìĿ´ ìĬĪ
ĠìĿ´ë¥¸ ë°Ķ
ĠíĹĪ ë¦¬
Ġëĭ¨ ìĨį
in g
ĠêµĲìľ¡ ë¶Ģ
ĠìĺĪ ìłĦ
Ġìĺ® ê²¨
ĠìĦľ ë¯¼
ìĺ µ
ë¬´ ìĹŃ
Ġê°ľ ë³Ħ
ĠìĿ´ ê±´
ëĨ Ī
ĠìĨĲ ìĭ¤
ìĬ¤ íĨł
Ġì¤Ħ ìĸ´
Ġê°ľ ìŀħ
Ġì§Ħ ìĪł
ĠíĬ¸ ëłĮ
Ġíİ¸ ì§Ģ
ĠìłĦ ë¶Ģ
ĠS NS
ëĮĢ ìłĦ
ĠëĦ¤ íĬ¸ìĽĮíģ¬
Ġë¶Ģ ëĮĢ
íĶĦë¡ľ ê·¸ëŀ¨
ĠìłĢ ëł´
íĭ ¸
ëŀĮ íļĮ
Ġê°ľ ìĦ±
Ġíĳľ ìĭľ
h e
ĠC J
ìķ Ĺ
Ġìŀ¬íĮĲ ë¶Ģ
Ġì¹´ ì¹´ìĺ¤
ê¸° ê¸Ī
ĠíıŃ ëł¥
ĠìłĦ ê³µ
Ġë¶Ģ ìĭ¤
ëĳ ĳ
ëĤĺ ìĿ´
ĠìŀĲ ê·¹
ë´Ĳ ìķ¼
Ġê°ľ ìĦ¤
ĠíķľêµŃ ìĿ¸
Ġíļ ¡
ìĸ´ ì¡Į
Ġìŀ¬ ëĤľ
ĠìłĦ ìĽĲ
ìĺ¤ ëĬĺ
ĠìĹ ī
ìļ´ ìļ©
Ġìĭ¤ ëĤ´
ĠìĤ¬ìĿ´ íĬ¸
ìŀ ł
íĹ ¤
Ġëª° ëŀĲ
Ġìĥģ íĺ¸
Ġìĸ¸ ìĸ´
Ġë¶Ħ ë¦¬
ĠëĬĲëĤ Ħ
ĠìķĦëĭ Ļ
ĠìĿ´ìļ© ìŀĲ
ê¼ Ī
Ġì« ĵ
Ġì»¬ ëŁ¬
Ġê³µ ìĽĲ
ĠìĪĺ ìĭŃ
Ġì°¾ìķĦ ê°Ģ
ì¡ ¸
Ġëħ¸ ìĤ¬
ìĹ¬ ìķ¼
Ġíĺ¸ íĿ¡
3 9
Ġì´Ī ëĮĢ
Ġíĺ¸ ì£¼
Ġë°ľ íľĺ
ĠìĿ´ ëŀĺ
íĺĳ ìķ½
ìī ½
Ġì»´ íĵ¨íĦ°
Ġë¶Ģ ì²ĺ
ê¸° íļį
Ġì¶ľ ìŀħ
ĠíĹĪ ê°Ģ
Ġì§Ģ ìłĲ
ĠìĻĢ ìĦľ
ìĿ¸ ì²ľ
Ġíķ´ ëªħ
Ġëĵľ ë¦¬
ìłķ ê·ľì§ģ
ĠíĴį ë¶Ģ
Ġë¶Ħëªħ íŀĪ
Ġëļ ľ
Ġê°Ħ ëĭ´íļĮ
íĮ İ
ĠìĦł ëĳĲ
Ġìµľ ìļ°
Ġê·¸ ì³¤
ìĸ Ģ
Ġë³´ ìĻĦ
Ġìŀ¬ ê°ľ
Ġê¹Ģ ì¢ħ
ë ĩ
ë§Ĳ ë¡ľ
Ġìĭľ ë¦¬ì¦Ī
ìĻ ľ
ĠìĿ¸ ìĽĲ
ĠìĦ¸ ì¢ħ
ĠìĦł ìĤ¬
íĮĲ ìĤ¬
ëłĪìĿ´ ëĵľ
ĠìŀĦ ê¸°
ëį ľ
ĠìĽĲ ìŀĲ
ĠìĿ´ íĸī
Ġëĭ¤ ëħĢ
ĠìĪľ ìľĦ
ĠìĿ´ ìĬ¹
Ġê º
ìŀĲ ê³ł
ĠìĿĮ ìĦ±
ëŀĢ ëĵľ
ĠêµŃë°© ë¶Ģ
ĠìĨĮ ëħĢ
Ġê´ĳì£¼ ìĭľ
ë¬¸ íļĮ
Ġë¶Ħ ë¥ĺ
ĠìĦł ë°°
ë² ¼
ĠëĳĲ ëł¤
ìĪľ ìľĦ
ĠëĨį ê°Ģ
ww w
ĠëĤĺ ìĦ¤
Ġë°± ìĭł
ĠìķĪ íĮİ
Ġì§ķ ìĹŃ
Ġë³´ ëĤ¸
ìĿĺ ìĭĿ
Ġì¤Ģ ëĭ¤
ê³µ ê°ľ
íķĻ ìĽĲ
ìķĦ ì°¨
ìĬ¤ íĶĮëłĪìĿ´
Ġíŀ Ĳ
Ġìı ł
Ġì§Ħ ë£Į
ĠìķĪ ë³´
ì¢ħ ìĭľ
ê´ĳ ì£¼
ë³´ ê±´
Ġì» ¸
íŀĮ ëĭ¤
Ġë¬´ ëł¤
ë° į
Ġìĸ´ì© Į
ĠíĨµ ë³´
Ġë¶ĢìĤ° ìĭľ
Ġëĸ ¼
ĠíĻĶ ë©´
Ġê³ł êµĲ
ìĹ ł
Ġ3 9
ĠëĮĢ ëĭ¨
ì§Ģ ëĬ¥
ĠìĹ¬ ìľł
ìłĦ ìŁģ
ìħ ĭ
Ġê¸° ê³Ħ
4 9
Ġë°ľ ìĤ¬
Ġìĺ¬ëĿ¼ ê°Ģ
íķĻ ìĬµ
íĥĢ ìļ´
ìķĪ ìłķ
Ġíİ¸ ë¦¬
ë¬´ íĺĦ
ë¨¸ ë¦¬
Ġìłķ ìĽĲ
Ġê¹Ģ ìĦ±
Ġìĭ¤ ë¬´
Ġê¸°ëĮĢ ê°Ĳ
ĠìłĢ ìŀĲ
Ġëĸ¨ìĸ´ ìł¸
Ġê²Į ëĭ¤ê°Ģ
Ġ19 7
Ġë§¤ ëĭ¬
ĠëĤĺ ìķĦê°Ģ
Ġìĸ´ëł¤ ìĽĮ
ê³µ ìłķ
ĠëĦ Ĳ
ĠëŁ °
ĠìĦľ ë¥ĺ
ëį° ìĿ´íĦ°
Ġëª¨ ìľ¼
Ġì§ķ ê³Ħ
ìĦ¸ íĬ¸
4 7
ĠíĻĶ ìŀ¬
ĠíĨł ëĮĢ
ìŀĳ ìĹħ
3 2
ì² ©
ëķ ħ
Ġìĭ¬ ìĿĺ
ĠìĦĿ ìľł
ë¦¬ ìĬ¤íĬ¸
ĠëŃ ĺ
Ġê³ł ë°ľ
Ġë°° ìłľ
Ġ Â·
ĠìĿ´ìĸ´ ì¡Į
Ġëħ¹ ìĥī
Ġë¶Ģ ëĭ¹
i on
Ġë¬´ ë¦
íĨ ±
Ġì§Ī ë³ĳ
ê³¼ ìŀ¥
ĠíĺĦ íĸī
ì¹ľ ëĭ¤
ê³ł ìĨį
ë£¨ ìħĺ
Ġê²½ ëł¥
ĠìĿ´ë ķĮ
ìķĦ ëĭĪ
ì Į
ĠìķĦ ë¥´
ĠëıĻ ìĥĿ
ĠíĻķ ì¶©
ĠëĤł ìĶ¨
ĠìķĮëł¤ ì§Ħ
ĠëĽ° ìĸ´ëĤľ
Ġê³ł ëł¹
ĠG S
Ġ6 5
ĠìĥĿ ê²¼
ë®¤ ëĭĪ
Ġê¹Ģ íĥľ
ĠìķĦìĿ´ íħľ
íĿ Ĳ
ìŀĸ ìķĦ
Ġë³´ ê³ł
Ġìı ĺ
Ġê¼ ¼
ë³µ íķ©
Ġê°Ħ ëĭ¨
Ġìļ° ì£¼
ĠëĤĺ ì¤ĳ
Ġëĭ´ ê¸´
ĠìĦ¸ ìĽĮ
ìĵ ¸
Ġì§ģ ìłĦ
ëģ Ī
Ġì¡° ìĭ¬
íĮ ¬
Ġê° Ĵ
ĠìĺĪ ìķ½
ë²Ħ ë¦°
Ġìĸĳ êµŃ
ĠëĤ´ ë¦°
Ġê·¸ ê³³
Ġê°Ĳ ëıĻ
ĠëĦ ¥
Ħ ìĥĪ
Ġëĭ¨ ìľĦ
4 6
Ġë§Ī ì£¼
ĠëģĿ ëĤľ
ì²´ ìłľ
êµĲ ìĪĺ
Ġíĺ¼ ëŀĢ
ĠëĨį ì´Į
ĠìĥĿ ì¡´
ĠìĹ° ìĺĪ
íļĮ ê´Ģ
ĠëıĻ ëĦ¤
Ġìłķ ê·ľ
Ġëı ĭ
Ġë¶ ī
ĠëĪĦ ìłģ
Ġêº ¾
Ġëĵ¤ìĸ´ ìĦľ
ĠíıĲ ê¸°
Ġìĭľ ëĤ´
ìķ¼ ë§Ĳë¡ľ
ĠëĲľ ëĭ¤ëĬĶ
Ġíĺ¸ ëĤ¨
Ġëĭ¤ íĸī
Ġìłľì£¼ ëıĦ
Ġëª° ëł¤
ĠíĻĶ íķĻ
ĠìĿ´ ìłķ
Ġì¢ħ ë£Į
Ġìŀħ ì§Ģ
Ġë°Ķ ë¥¸
Ġìķŀ ìŀ¥
ĠìĬĪ íį¼
Ġì´Ī ê³¼
ë¸Į ë¦¬
ìĹ¬ ìĦľ
ë°© ìķĪ
Ġë º
Ġë°± íĻĶìłĲ
ì¡° ì§ģ
ĠìĿĺ íķľ
F C
- -
ìĺģ ìŀ¥
ê²Ģ ì°°
ĠìŀĲ ìĭĿ
Ġíĺ¹ ìĭľ
Ġì¹¨ ì²´
Ġíĭ Ī
Ġí Ģ
Ġëĭ¤ ìĦ¯
ĠëĤ´ ìĿ¼
ç ¾
ëĭĪ íĦ°
ĠìĹ´ ìłķ
Ġìŀ¬ ë¬´
Ġì²ĺ ë¶Ħ
ĠìķĦ ìļ°
Ġíİ ´
ĠëĮĢ ë¦¬
Ġìľ ¼
Ġê²° íķ©
ìł¸ ìķ¼
ë¹Ħ ìķĦ
Ġë°ĶìĿ´ ìĺ¤
íıī ê·ł
ëį ´
Ġìĺ¬ ë¦°
Ġì·¨ ëĵĿ
ĠëĮĢ ì²ĺ
Ġì ¾Į
ĠìľĦ ìķĪ
ĠìłĪ ê°Ĳ
Ġêµ¬ ë¶Ħ
Ġì¤ĳ êµ¬
ĠíĨµ ìłľ
ìĦ¤ íĮħ
T E
ëī´ ìĬ¤
Ġì°© ìļ©
Ġìķ ¨ë²Ķ
Ġëį ®
Ġì²ł ëıĦ
C D
Ġëĵ± ê¸ī
Ġ4 8
Ġê²Ģ ìĥī
ìĭľ ìĺ¤
ĠìĿ´ ê¸°
Ġì¶Ķ êµ¬
ĠëĨĴ ìĺĢ
ĠíĪ¬ ëªħ
ĠíĮĮ íĬ¸
ì§Ģ ë²ķ
Ġì°¬ ìĦ±
ë§Ī ë¦¬
6 5
ë³´ ìĿ´
ê¹ Ķ
Ġì±Ħ íĥĿ
k r
êµŃ íļĮ
ĠíĻĶìŀ¥ íĴĪ
ëĮĢ ìĤ¬
Ġì°½ ì¡°
Ġìĺģ ìĸĳ
Ġë§ŀ ì¶Ķ
ĠìłĦ íĪ¬
ìķĦ ëĤ´
ìłĦ ìĭľ
ëĩ ¨
ìĦ¼ íĬ¸
o u
Ġê±´ ëĦĪ
Ġìĺ¤ ë°Ķë§Ī
íĶ¼ íķ´
Ġë¶Ħ ëħ¸
Ġë¸Į ë¦¬
ì¶Ķ ì§Ħ
Ġìľł ì¶ľ
Ġëĭ «
Ġêº¼ ëĤ´
Ġê±° ëĮĢ
Ġëħ¸ íĽĦ
Ġëĭ´ ë°°
ĠìĦ¤ ëĵĿ
ĠìĿ´ ìĤ¬ìŀ¥
ìĹħ ìŀĲ
ë²Ħ ëł¸
íķĺ ìļ°ìĬ¤
ê¼ ¬
ìĿ¸ ìĤ¬
ëĭ¤ ë¦¬
ìŀ¥ ì¹ĺ
Ġìºł íĶĦ
ë°© ìĭĿ
Ġë°ĶìĿ´ ëŁ¬ìĬ¤
Ġëª» íķł
ĠìłĢ ì§Ģ
Ġì£¼ ìĿĺ
Ġëª¨ ìĥī
ê³¨ íĶĦ
ĠìĨĮ ì¤ĳ
Ġê·¼ ë³¸
Ġëª ½
ëĵ± ë¡Ŀ
ä º
Ġê³ ģ
ĠìĪĺìĪĺ ë£Į
Ġê³Ħ ìĤ°
Ġë§¤ ë§¤
ĠëıĮìķĦ ìĺ¤
ĠíĻĪ ëŁ°
Ġìĭ¤ ìĭľê°Ħ
ĠìĽ ¹
ĠìĿĺ ë¬¸
ìľĦ íĦ°
ëĴ Ģ
Ġë§Ī ì¹¨
Ġê²° ì½Ķ
ëĮĢ íķľ
ìŀ ĺ
Ġêµ¬ íĺĦ
Ġë³´ ê¸ī
ìĹĲ ìĬ¤
Ġì¹ Ń
ĠíķĻ ìĽĲ
ĠíĶ¼ íķĺ
ëĤĺ ë§Ī
ìĿĺ ìŀĲ
Ġìĺģ ìŀħ
íķł ì§Ģ
Ġì§Ī íĻĺ
Ġë§Į ëĤ¨
ĠìĹ´ ëł¸
ĠíĴĪ ëª©
ĠëĮĢ ê²°
ë´ī ìĤ¬
ë ĩĮ
Ġìĸ´ ì°Į
ìłķ ìĭł
´ ëĵľ
ìĿĮ ìķħ
ĠíĪ¬ ìĸ´
Ġë¬¸ìłľ ìłĲ
Ġë°° íĦ°ë¦¬
Ġíİ¸ ìķĪ
å ¤
Ġê³µ íı¬
Ġëľ¨ ê±°ìļ´
Ġì±ĶíĶ¼ ìĸ¸
ë¡ľ ëĵľ
Ġì¢ħ êµĲ
Ġê¸Ī ë©Ķëĭ¬
Ġìķ¼ ê¶Į
Ġë¯¸ìĦ¸ ë¨¼ì§Ģ
4 4
ĠìĹ° ê·¹
Ġì°¸ê°Ģ ìŀĲ
ĠíıĲ ìĩĦ
ĠëĮĢ ê±°
ìłĦ íĺķ
ĠíħĲ ëį°
Ġë¹ł ì§Ģ
Ġë¯¼ ì¡±
Ġë¹Ħ ë¦¬
ĠíļĮ ëĭ´
ëį ©
ì¿ ¨
ìłĦ ê¸°
Ġíķ© ë¦¬
ë¥´ ìĭł
Ġìķŀ ëĳĶ
Ġë¶Ģ ìĦľ
ëĦ £
Ġìĸ´ ìłľ
ĠìĿĺ íļĮ
ìļ© íĴĪ
ìķĪ íĥĢ
ĠìĻ ¼
ë¶Ħ ìĸĳ
Ġëªħ ëł¹
ĠìķĦë¬´ ëŁ°
ĠìłĲ ìľł
Ġ5 5
Ġë¬¼ ë¦¬
íĪ¬ ìĸ´
ëĺ Ĳ
ĠëĵľëŁ¬ ëĤĺ
ê¶Į ìŀĲ
Ġë§¤ì¶ľ ìķ¡
Ġê¹Ģ íķ´
ĠìķĮëł¤ ìł¸
Ġìħ Ģ
íĥĢ ìŀĦ
Ġë®¤ì§Ģ ì»¬
íķľ ëį°
ĠëĤ¨ ëħĢ
ë³´ ì¦Ŀ
Ġíıī ì°½
ĠëĵľëŁ¬ ëĤ´
ë§Ī ëĶĶ
ì¿ Ħ
ìŀĳ ìļ©
ëģ¼ ë¦¬
Ġëªħ íĻķ
ĠìłĦ ì£¼
ìłķ ëĭ¹
Ġì§ģ ë¬´
Ġê±¸ ë¦¬
ĠëģĿ ëĤ´
ĠëıĻ ë¶Ģ
Ġë©´ ìłĳ
Ġë¡ľ ë´ĩ
ĠìĹ¬ ê±´
ĠìĥģìĬ¹ ìĦ¸
Ġì£¼ ì£¼
ë³Ģ íĻĶ
Ġë¦¬ ê·¸
Ġê°ľ íĨµ
Ġëª© ìĪ¨
ìĺ¤ íĶĦ
ëĤĺ ëĭ¤
Ġë³µ ìŀ¡
ĠìĤ¬ ë²ķ
ëģĦ ëŁ¬
ëĨ ĢìĿ´
ìĤ¬ ìĿ´
ĠíĨµ ìĥģ
ìķĦ ë¦¬
Ġì¡° ëªħ
ĠëıĻ ìĺģìĥģ
Ġë¹Ħ ì¦ĪëĭĪìĬ¤
Ġêµ¬ ìĥģ
Ġìľł ìĤ¬
Ġì¶ ¤
ĠëĬĲ ê¼Ī
Ġìłģ ìŀĲ
ĠíĬ Ģ
Ġê¹Ĭ ìĿ´
Ġë¬´ ê²Į
ê¸ī ìĭĿ
Ġì Łģ
ĠìĬ¤íĬ¸ ëłĪìĬ¤
Ġ200 4
ĠíĿ ī
íıī íĻĶ
íĮ ©
ĠìĿ¼ ê°ģ
Ġì§Ģì§Ģ ìľ¨
ĠìĤ° íķĺ
ìĪĺ ì§Ģ
ĠìĦľ êµ¬
ĠíĿ¥ ë¯¸
ìĹħ ë¬´
Ġì§Ģ ìĪĺ
Ġë¹Ħ ìłĦ
ëĮĢ íĨµëł¹
ħ ëĭĪëĭ¤
ĠëıĻ ì°¸
Ġëªħ íĴĪ
ĠìĦłë³´ ìĺĢ
ëĤľ ëĭ¤
ê³µ ìĿ¸
ĠìĦł ì¶ľ
ëį° ìĿ´
Ġë¬´ë¦ İ
Ġìĭ¬ ìŀ¥
ĠìĦ± ëªħ
ĠëĤ´ ëĤ´
ìĭŃ ëĭĪê¹Į
ĠS BS
ĠìĦ± ëĬ¥
ë¡ľ ìĬ¤
Ġì§Ģ ëĤ´
ê¿ Ī
Ġëħ¼ ë¦¬
ĠëĮĢ ë§Į
ì¢ ĭ
Ġê¹¨ ëģĹ
ì ¨
Ġì į
íķĺ ìļ°
ëĿ¼ê³ł ìļĶ
Ġì§Ģíķĺ ì²ł
Ġê·¸ ëĤł
ĠìĦ ŀ
ĠìĦ¤ ë¹Ħ
Ġë§Į ëĤł
Ġìľł ëĭĪ
ê³Ħ ì¸µ
Ġê°Ģ ê³Ħ
Ġìļ© ìĿ¸
ĠìĹ° ëł¹
ĠíħĮ ë§Ī
ãİ ı
Ġìĥģ ë¬´
ì±ħ ìŀĦ
Ġì½ĺ ìĦľíĬ¸
ì° ¾
e t
ê¸ ĭ
ĠìĿ´ìĸ´ ì§Ī
ê¸° ìĤ¬
ĠìĪĺ ëĭ¨
ëł ·
Ġë§Ī ì¹ľ
íį¼ ìĬ¤
Ġë³´ ì¦Ŀ
Ġëļ «
Ġë³¸ ë¶Ģ
ê¸° ìŀĲ
Ġìĭľ ê¸ī
Ġì£¼ ìľĦ
ëĮĢ ì²´
Ġëª¨ ë¥¸ëĭ¤
ëĮĢ ê°ķ
ĠëĨ ĢìĿ´
Ġì¤Ģ ê³µ
Ġì§ĢëıĦ ë¶Ģ
Ġ æ
ìĹĲê²Į ìĦľ
Ġìľł ê¸°
ĠìĹ¬ ìĿĺ
Ġë¬¼ ë¥ĺ
ĠíĻĺ ìľ¨
Ġëª¨ ìķĺ
ĠìĻĦ ìłĦ
ìŀ¬ ìłķ
ê±° ëł¸
Ġìĺ¤ ë¦¬
Ġì§ĳ ìķĪ
ĠìĤ´ ìĿ¸
ĠìĿ´íĥĪ ë¦¬ìķĦ
Ġëħ Ģ
ìĨĮ ìŀ¥
ĠíĮĮ ê²¬
íģ´ ëŁ½
Ġìŀ¥ íķĻ
Ġëĭ¹ìĹ° íŀĪ
Ġë´Ĳ ìķ¼
Ġì¶Ķ ìĸµ
Ġ /
Ġì§Ģì¼ľ ë³´
ĠíĬ¸ ìľĦíĦ°
ì§Ħ íĿ¥
ìĹĲ ëĭ¤
Ġì¡°íķ© ìĽĲ
Ġëª¨ ìŀĲ
ìłķ ìĽĲ
Ġë¸ĮëĿ¼ ì§Ī
ĠìĤ¬ ìľł
ĠíĮĮ ìĹħ
ĠëĵĿ ìłĲ
Ġì°© ìĪĺ
ìĪĺ ìĦĿ
Ġì§Ģ ìĹ°
Ġíģ´ ëŀĺ
Ġíĳľ ì¤Ģ
ê¸Ī ìķ¡
ìĿ´ ìłľ
ë´ Ħ
Ġë²Į ìĸ´ì§Ģ
Ġê°ľ ë´ī
Ġê³§ ë°Ķë¡ľ
ìħ ī
Ġìľł ëł¥
Ġìłķ ì°©
ìĥ ¤
ĠìĦ± ë¶Ħ
ìĪĺ ìĤ°
Ġì¶© ëıĮ
ë¯ ¹
ëĶĶ ìħĺ
ë§ Ļ
ìľł ì¹ĺ
ë²ł ìĿ´
ìĹŃ ìĤ¬
ë¥ ľ
Ġê¸° íĥĢ
ìķĦ íĮĮíĬ¸
íı¬ ë¥´
Ġëª¨ ëĭĪíĦ°
Ġìĭł íĺ¸
ĠëħĢ ìĦĿ
ê¸° ì§Ģ
Ġëĥ ĦìĥĪ
ë²Ī íĺ¸
ê·¸ ëłĩ
ìĤ Ń
Ġìĭľ ìĽĲ
ëł¤ ìķ¼
6 6
ĠíĺĦ íĻ©
Ġëĵ¤ìĸ´ ê°Ħ
Ġíģ´ ëŁ½
ê·¸ ëŁ°
Ġìŀħ ë²ķ
ï ½
Ġë¬¸ ìĿĺ
íĮĮ ìĿ´
ìĪľ íĻĺ
ĠìĽĲ íķĺ
ë°ķ ë¬¼ê´Ģ
3 000
Ġì¤ ¬
ìŀ¬ íĮĲ
Ġì¡° ìŀĳ
Ġíĸī ë³´
ĠìĪ «
Ġë³´ ìĿ¸
ĠëĦ¤ ìĿ´ë²Ħ
Ġê±° ëĳĲ
Ġìŀħ ì¦Ŀ
í Ľ
ì¹ «
íķĻ ê¸°
Ġíľ´ ê°Ģ
ĠíĹĪ ìľĦ
Ġë§Ľ ìŀĪ
ĠëĨį íĺĳ
Ġë§ŀ ìĿ´
9 9
Ġë©ĶìĿ´ ìłĢ
ëĮĢ ë¹Ħ
êµŃ ëĤ´
ĠëıĮ ìŀħ
ĠìĦ¸ ë¶Ģ
Ġìĭľ ìĥģ
ĠíĽ ¼ìĨĲ
íĨł ë¡Ŀ
ĠíĬ¸ëłĮ ëĵľ
ì¨ Į
ĠêµĲ íļĮ
Ġìĭł ë¶Ħ
I T
Ġê³µ ëŀµ
ì¼Ģ ìĿ´ìħĺ
ëĿ¼ ìĦľ
Ġìļ© ìĹŃ
ë§Ī ìŀĲ
Ġê°Ĳ ìĭľ
7 5
Ġë¶Ģ ì±Ħ
Ġê¹Ģìłķ ìĿĢ
Ġë¹ Ĺ
3 00
ê³ ½
Ġêµ¬ íķĺ
Ġíķľ ì¸µ
Ġë§¤ ì£¼
ĠìĪĺ ìĨĮ
Ġ =
ĠëĤĺìĦł ëĭ¤
ĠíĴ ĢìĿ´
ĠìŀĩëĶ° ëĿ¼
ê¸° ëħĲ
Ġìľł ìŀħ
ĠìĹ° ëĮĢ
ëľ ¨ë¦¬
ìĪĺ ìĿµ
Ġë³µ ìĽĲ
Ġì¤ĳ ëĮĢ
Ġê°Ģ ëŁī
Ġê°Ħ ë¶Ģ
Ġìł ĸ
ĠìĹ° íľ´
ĠêµĲìľ¡ ê°Ĳ
ĠêµŃìłķ ìĽĲ
ĠìŀĲ ìĤ´
ĠìĹĶ ì§Ħ
Ġë³Ģ ëıĻ
ëªħ íļĮ
Ġì° Į
ĠãĦ ±
ì§Ī íĻĺ
Ġëĭ¨ ìĸ´
ĠìłĲ ì°¨
ĠíĬ¹ íĻĶ
ĠëĳĺëŁ¬ ìĭ¼
Ġë³´ ê´Ģ
ì²ĺ ë¶Ħ
Ġë©Ģ ë¦¬
íķĻ ê³¼
ê¸° ê¸°
Ġì¡° ìłĪ
Ġìµľ ìłģ
ìłķ ë¹Ħ
Ġêµ¬ ê¸Ģ
Ġì¹ĺ ëŁ¬
Ġì¢ħ ë¥ĺ
Ġê·¸ ìłĢ
ìŀ¥ ê¸°
ĠìĬ¤ íİĺìĿ¸
íĬľ ë¸Į
Ġê³¼ ìŀ¥
ĠëıĻ ëĤ¨
ĠìķĪ ì²łìĪĺ
Ġë°ĸ ìĹĲ
Ġì·¨ íķĺ
ĠìķĦ íĶĦ
ìĿ´ ëĭĿ
Ġìłķì¹ĺ ìĿ¸
Ġê¸ī ê²©
Ġë°° ëĭ¬
ëį ¤
ìľ Ī
Ġìłľ ìķ½
ĠìĪĺ ì¹ĺ
Ġíķ© ë¥ĺ
ì²ľ ìĸµ
Ġìĸ´ ë¥¸
Ġìĺ¤ íĶ¼ìĬ¤
å ħ
Ġë©´ ìłģ
ĠìĨĮ ëħĦ
Ġëĺĳ ê°Ļ
¸ Ĳ
Ġìĵ° ëłĪê¸°
ĠìĿ¼ ìĽĲ
ë°Ķ ëĭ¥
ìļĶ ê¸Ī
Ġê¹ľ ì§Ŀ
ĠìĿ´ë¤Ħ ì¡Į
íĥ Ĳ
ìŀ¥ ë¹Ħ
Ġë² ¨
Ġê°Ģ ìĬ¤
Ġêµ¬ ë¯¸
íķ´ ì§Ī
Ġì¶© ì²Ń
ìŀĲ ë§ĪìŀĲ
ĠìĤ¬ìĹħ ë¹Ħ
Ġë¬´ ëĦĪ
ĠìĦłë³´ ìĿ¸ëĭ¤
Ġë¹Ħ ìłķê·ľì§ģ
Ġìľł ëıĻ
Ġë°° ëł¤
ì¹ ¸
Ġëĭ¹ ìĿ¼
Ġê »
Ġíķ´ ìļ´
ĠìĹĦì²Ń ëĤľ
Ġíĥĳ ìŀ¬
ĠíĻĺê²½ ë¶Ģ
ì²´ìľ¡ ê´Ģ
Ġ4 6
Ġì¦ī ìĭľ
Ġì²ł íķĻ
ë°ĶìĿ´ ìĺ¤
íķ´ ìł¸
ĠíĨµ ì¦Ŀ
ĠìĤ¬ ë¡ľ
Ġê·¸ëŀĺ ìļĶ
ĠìĹ° íķ©
ê²½ ëĤ¨
Ġì§ĢëıĦ ìŀĲ
ĠëĴ¤ ì§ĳ
ì§Ģ ìĸ´
ĠìĪ« ìŀĲ
ëŀ Ń
Ġìĭł ìŀħ
Ġë¬¼ ì§Ī
ĠC EO
Ġìłģ ë°ľ
ê³µ íķĻ
ëª¨ ëį¸
Ġê²½ íĸ¥
ëħ¸ ì´Ŀ
Ġíĺĳ ìĹħ
ìłĦ ëĤ¨
Ġë©Ķ ëī´
ĠìĨĮ ë¬¸
ĠëĪĪ ì¹ĺ
ìĿĢ ìĿ´
ìķĦ íĬ¸
5 8
ìĬ¤íĭ° ë²Į
ĠìĤ¬ë¡ľ ìŀ¡
Ġì¤ ĺ
Ġíļį ëĵĿ
Ġâ ĳ
Ġë¹ Ļ
Ġë¹ł ì§Ħ
ë² ħ
Ġë© ĺ
Ġ4 9
ĠëģĮìĸ´ ìĺ¬
Ġëĭ¬ íķľëĭ¤
Ġ4 7
ĠP C
ë° ¸
ĠìĺĪ ëĬ¥
Ġìĭľ ìłķ
ëĬ ¦
Ġì¸¡ ìłķ
ìłĦ ì§Ģ
Ġìĭ¤ íĸī
ĠìĬ¤íĥĢ íĬ¸
ìĥģ ê³µ
Ġê°ĸ ì¶°
ê°ľ ìĨĮ
ëıĻ ë¬¼
ĠëĤĺ ê°Ķ
Ġíľ´ ìĭĿ
ĠíĻĶ ìĦ±
ìĭŃ ìĭľìĺ¤
Ġìłķ ìĭĿ
ĠìĤ¬ëĿ¼ ì§Ģ
Ġíĸ ĩ
íĺĳ ìĥģ
Ġë¯¼ì£¼ ì£¼ìĿĺ
ĠíĮĮ ë¦¬
ê±¸ ìĿĮ
Ġì°½ ìĿĺ
ì°¸ ìĹ¬
Ġíĸ¥ íķľ
Ġë¯¸ ìķĪ
ê³ł ë¦¬
ìĥģ íĥľ
Ġë¥ ´
ëĲĲ ìľ¼ë©°
ì°¨ ëŁī
ĠìŀĦ ìĥģ
Ġê¶Į ê³ł
Ġìĺ¤ ë¹ł
ĠìĨĮ íĶĦíĬ¸
íĺĦ ì§Ħ
Ġì´Ŀ ê´Ħ
ĠíĴį ê²½
ĠíĿĲ ë¥´
ĠK IA
ĠìĦ¸ íĬ¸
L G
Ġê³łëĵ± íķĻêµĲ
Ġìĸĳ ìĤ°
ĠëĮĢ ìŀ¥
Ġê·¸ ê°Ħ
Ġì»¤ ë®¤ëĭĪ
Ġìĭľ ìĤ¬
Ġ [
Ġê²° ìĿĺ
ìķ½ íĴĪ
ëıĻ ëł¥
Ġ1 20
Ġë» Ķ
Ġë¬¼ ê°Ģ
Ġìĸ´ ë¥´ìĭł
Ġã Īľ
ë ¸Ĳ
ĠìĦ¸ ìĽł
ĠëĮĢíķ´ ìĦł
ë© į
5 3
ë¹Ħ ìľ¨
Ġë°© ìĸ´
ë§Ī ì¼ĵ
ĠëĦĪë¬´ ëĤĺ
ìĭľ ìķĪ
Ġë°ķ ìłķ
Ġê°ģ ìŀĲ
Ġëķ Ģ
Ġíķ´ ìļĶ
Ġê±° ì¹ĺ
ë°Ķ ëŀĮ
Ġë§Ī ì³¤
ĠëĤ ¯
Ġë°ĺ ë°ķ
Ġì°¨ ê´Ģ
ĠëıĻ êµ¬
Ġìĥģ ìĹħ
Ġìĸ´ ì¨Į
ìĿ´ ëŀĢ
ĠìłĲ íı¬
5 9
íĹĪ ê°Ģ
Ġëħ¸ ë¬´íĺĦ
Ġê±¸ ìĿĮ
ìŀĦ ëĮĢ
Ġìŀł ìŀ¬
í Ī
íĢ ´
Ġìłģ íķ©
ĠìĿ´ ëłĩ
Ġì¹ĺ ë¥´
Ġìŀ¬ ë£Į
ìĹĲ ê²Ĳ
íĮĢ ìŀ¥
ëļ Ŀ
ĠìĻ¸ íĻĺ
íı¬ ëŁ¼
ç¾ İ
6 8
ĠëģĬ ìŀĦ
Ġì°¨ ì§Ī
Ġë¶Ģ ìĤ¬ìŀ¥
ìĬ¤ ë§ĪíĬ¸
Ġê°¤ ëŁŃìĭľ
ĠìĦ± ìĿ¸
Ġê³ł ìłķ
Ġë³Ħ ë¡ľ
ĠëıĮ ë¦¬
Ġê¸° ìĥģ
ìĹ° íŀĪ
Ġì¤ĳ ìłĲ
ìĩ ł
Ġíķ© ëıĻ
Ġìŀħ ìĭľ
ĠìĬ¤ íĨłë¦¬
Ġìłľ ê³ł
Ġì´Ī ìłĲ
Ġ200 2
ëıĦ ìĦľê´Ģ
5 7
Ġìĭł ìĦł
ĵ ê¸Ģ
Ġì½ĶìĬ¤ íĶ¼
Ġì§Ħ ë¡ľ
ê¸Ģ ë¡ľë²Į
Ġë³Ģ ìĭł
ĠìķĪ ëħķ
ĠìĹĨ ìķł
ë¥ Ń
ëģ Ŀ
Ġì¶ķ íķĺ
ìĹ¬ ìŀĲ
íİĺ ìĿ´
Ġë³´ ìĿ¼
ĠëıĦ ì¿Ħ
ì´Ŀ íļĮ
ĠìĹĲ ìĬ¤
Ġì¢ħ ìĿ´
Ġì¸ µ
ĠìĨĮ íĺķ
ëĲ ¨
Ġìŀ¬ ëĭ¨
ĠíıŃ íĸī
Ġë°ĽìķĦëĵ¤ ìĿ´
ì ±
Ġìĭ¤ ìłķ
Ġë¹Ħ ìĦľ
ë§Ī íģ¬
8 000
ï¼ Ĥ
ĠìĦľ ëªħ
Ġìŀ¬ë¯¸ ìŀĪ
Ġë²Į ìĺĢ
Ġê³ ½
Ġì¢ĭ ìķĦ
4 2
ĠìĻľ ëĥĲ
P C
ĠëıĦ ìĦľê´Ģ
ì²Ń ìĤ¬
ª ¼
ëŀĺ ëıĦ
ĠìĽ ħ
ì£¼ ì£¼
Ġìĭł ì²´
ê²½ì°° ìĦľ
Ġê°ķ ìĹ°
Ġê°ģ êµŃ
ĠìĤ¬ ê¸°
Ġê±´ ëį°
ĠìľĦ ì¶ķ
ĠìŀĲ ê¾¸
ìķĦ ëĿ¼
ĠìĿ¼ ë°©
Ġìĥģ ìĿ¸
ĠëĵľëŁ¬ ëĥĪ
ìĿ¸ êµ¬
5 6
Ġìľµ íķ©
ì¡° íĬ¸
Ġíķľ ìłķ
Ġìłķ íķĺ
ê°ľ ìĿ¸
ĠíĮĲ ìĤ¬
Ġì¤Ħìĸ´ ëĵł
ĠëĤĺëĪ Ķ
Ġëı¼ ì§Ģ
ĠìĿ¸ê³µ ì§ĢëĬ¥
Ġ5 9
ĠíĮĮíĬ¸ ëĦĪ
ĠìĹ¬ íĮĮ
ìĨĮ ìĨį
Ġê°Ģìŀħ ìŀĲ
ê³ł ê°Ŀ
Ġì£¼ì°¨ ìŀ¥
Ġê³ł ìĨĮ
Ġêµ¬ ìłľ
Ġë¯¸ êµ°
Ġìĩ ł
ĠìĹ° ìĪĺ
S K
Ġì¹¨ íķ´
ì¤ĺ ìķ¼
Ġíķ Ģ
ì§Ģ ê²Ģ
ìķ Ĭ
ìĤ¬ìĹħ ìŀĲ
Ġìļ´ ìłĦìŀĲ
ĠëŁ° ëįĺ
ĠìĹ° ê¸Ī
ë¶Ģ ëĮĢ
ê¼ ¼
Ġìĥģ ê°Ģ
ĠìĤ´ ìķĦê°Ģ
ĠìĻĦ ê³µ
Ġëªħ ëĭ¨
ê·¹ ìŀ¥
Ġë¯¸ ìĤ¬ìĿ¼
ì¹´ ìĿ´
ĠìĪĺ ë¦¬
ìĨĮ ìŀ¬
Ġìħ ĭ
ĠíĮĲë§¤ ëŁī
Ġëĭ¹ íķĺ
ĠíĥĢ ìŀĲ
ë¯¸ ëĶĶìĸ´
Ġê°Ĳ ê°ģ
Ġì¦ī ê°ģ
ëħ ¹
ĠìĹ¬ ìĿ¸
Ġíĥľìĸĳ ê´ĳ
ìĹ ĳìĬ¤
ìĸ´ ë¦°
ê·ľ ìłľ
4 000
ê°Ģ ìļĶ
4 3
Ġìĸ´ë ĳ
ìĦ¸ ìłĲ
ìĨĮ ìĨ¡
Ġìĭł ìĦ¸ê³Ħ
Ġëĭ¨ ê¸°
Ġê² ¹
ê´Ģ ëł¨
Ġìļ´ ëªħ
Ġì²Ń ìĨĮ
ê³ł ëĵ±
ëĭ´ ëĭ¹
ì§Ģ ì£¼
Ġì¦Ŀê¶Į ìĤ¬
6 000
ĠìĿ´ ìŀĲ
ĠíĮĢ ìŀ¥
Ġíİ ľ
ĠëıĻ íķ´
ìŀĳ ê°Ģ
ìķĪ ë³´
4 1
ìļ´ ìłĦ
Ġê¸° íĽĦ
Ġì¤ĳ íķĻêµĲ
ĠíĦ ±
Ġëª° ìķĦ
Ġë²Ķ íĸī
Ġëĳĺ ì§¸
ĠëĤ´ ëĭ¬
ì¤ĳ ìĭ¬
Ġì¶ľ ìĤ°
Ġì£¼ ì²´
ë¡ľ ìį¨
Ġìĥ Į
Ġíľ´ëĮĢ íı°
Ġê³¼ ëıĦ
ĠìĦ¤ ë¬¸
íĤ¤ ì§Ģ
ĠëĬĲëĤ Ģ
ìłĦ íķĺ
Ġìľł íĺķ
Ġê±´ ì¡°
ĠëĮĢ ë²ķìĽĲ
ĠìĦ± íĸ¥
Ġë°Ģ ëł¤
Ġë¯¸ ëĭĪ
Ġìķŀ ìĦ¸
Ġë§¤ ì²´
Ġì²łìłĢ íŀĪ
ĠíĪ¬ ìŁģ
ä¸ Ń
Ġì§Ģ ì§Ħ
ëĶ ĺ
Ġê°Ģ ìĭľ
Ġê³µ ì§ģ
ĠìĿ¸ ìĹ°
Ġëıħ ìĦľ
Ġìŀħ ì°°
ëĬĲ ëĿ¼
7 7
Ġíķ´ ìłľ
Ġíı¬ ìŀ¥
ĠìĥĿ ê²¨
a c
ĠìĨĮ ìĻ¸
Ġê±¸ ëł¤
Ľ ë¶Ī
ĠF TA
ì²Ń ìĨĮëħĦ
Ġëħ¸ íķĺìļ°
ĠíĨłë¡ł íļĮ
Ġë§Ī ìĿ´
Ġë ±
Ġì§Ģ ëĭĮ
Ġìľł ë°ľ
ìľł ìĤ°
ĠëĮĢ ëª©
Ġê·¸ ì¹ĺ
Ġíģ´ ëĿ¼
¼ íĦ°
Ġë§ŀ ìĦľ
ìľł ëŁ½
ĠìĹĲ ìĸ´
Ġ4 2
ì½Ķ ìĬ¤
Ġì§Ģ ëªħ
ìĤ¬ë¬´ ìĨĮ
ìľ¼ ë¯Ģë¡ľ
êµĲ íļĮ
Ġì²ľ ìĹ°
ĠìłĦ íĮĮ
ĠëĮĢ ê°Ģ
ĠìĦłì§Ħ êµŃ
Ġíıī íĥĿ
ĠíĥĦ íķµ
Ġìĵ° ëŁ¬
ĠìłĦ ëĭ´
ĠíĮ ½
Ġê³µ íĨµ
Ġìĸ´ëĸ ł
ì¤Ģ ë¹Ħ
Ġëıħ íĬ¹
Ġì¶ľ ìĦĿ
ĠìłĢ ì¶ķ
Ġë¶ģ ë¯¸
Ġë²¤ ì²ĺ
Ġìĥģëĭ¹ ìĪĺ
Ġìłľì¡° ìĹħ
ĠëĨĴ ìĹ¬
Ġëĭ¨ìĪľ íŀĪ
ìĿ¸ ê¶Į
Ġë³Ģ ìĪĺ
Ġë¸Įë¦¬ íķĳ
Ġìľł íĸī
Ġíķł ì§Ģ
ĠìłĦìĭľ íļĮ
ê°Ģ íı¬ë¥´
ìĹĲìĦľ ë¶ĢíĦ°
Ġìŀł ê¹Ĳ
Ġë ·
Ġê¸°ìĪł ëł¥
Ġíľ ©
Ġë©Ī ì¶Ķ
ĠìĬ¤ íĶ¼
Ġëĭ¹ íĸĪ
Ġ Q
ê³ł ìļ©
Ġëĭ ¿
Ġìĭł ì¤ĳ
ĠëĤ´ ìĪĺ
ĠìĨĶ ì§ģ
Ġë°° ëĭ¹
ìĿ¸íĦ° ëĦ·
Ġê°Ī ìĪĺë¡Ŀ
ê³µ ë¬´ìĽĲ
Ġì¦Ĳ ê±°
Ġìŀ¥ ì¹ĺ
ëĬĶ ëĭ¤ê³ł
ĠìķĪ ìĭ¬
Ġ7 5
ìĿ´ ì¦Ī
Ġìľł íĬľë¸Į
ìłĢ ì¶ķ
Ġë ¼Ī
ĠëĤ´ ê²Į
å ®
Ġ200 3
Ġìĺ¤ ìĹ¼
ìĺ¨ ëĭ¤
ë°° ìļ°
Ġìľł ê¶ĮìŀĲ
Ġë©Ķ ë¥´
Ġì²´ íı¬
ĠìĪĺ ì§ĳ
Ġë©° ì¹ł
ĠìĪĺ ë°±
Ġ Y
Ġê¹Ģ íĺĦ
Ġëĸł ìĺ¤ë¥´
ëĵľ ëĿ¼ë§Ī
ëĤ¸ ëĭ¤
Ġë²Ħ ëł¸
ìĹĲ ëıĦ
ë³ į
Ġëĵ¤ìĸ´ ìĻĶ
Ġê³µ ìĭľ
Ġì²ł ê°ķ
ê³¼ ìłľ
Ġê³ł ë§Ļ
Ġê²© ì°¨
ĠëĿ¼ ëĶĶìĺ¤
Ġíĺ¸ ìĿĳ
Ġíķ© ë³ĳ
ê·¼ ë¡ľ
ĠìĿĺ ë¢°
ìŀĲ ë³¸
Ġê·¼ ì²ĺ
ĠìĹ° ë´ī
ìĦ¸ íı¬
Ġë¹Ħ ë¡Ģ
Ġìĸ´ ìļ°
F A
ê³ł ìĿ¸
ëŀ« ëıĻìķĪ
ĠìķĦ ê¸°
Ġëĭ¤ ìĿ´
e s
Ġê°ķ ìĤ¬
Ġë¬¸íĻĶ ìŀ¬
6 7
Ġì°© ê³µ
8 8
Ġê²¨ ëĥ¥
Ġë¶ ķ
Ġìŀħ ìĽĲ
ë ¿
ĠíħĮ ìĿ´
Ġ6 00
ëĭ¤ ëŀĢ
ëįĶ ëĿ¼ê³łìļĶ
Ġíķľ ë²Ī
Ġìĺģ ëĤ¨
Ġìĭ¤ ìŀ¥
Ġì°¨ ê¸°
Ġê°Ĳ ìĦ±
Ġë¶Ī ê±°
ĠëĤ¨ ê¸°
Ġíĩ´ ì§ģ
ĠìŀĲ ëĦ¤
Ġëĭ´ ê²¨
ĠìĻĢ ìĿ¸
Ġë°© íķ´
Ġìĭ¬ ì§Ģìĸ´
Ġìĸ´ì© Ķ
Ġíķł ìķĦë²Ħì§Ģ
ĠíĽĦ ë°°
ìłĪ ì°¨
ĠìĿ¼ ìĭľ
Ġëļľ ëł·
ìĭł ì²Ń
ĠíļĮ ê³Ħ
Ġê½ ¤
ĠìºĲ ëĤĺëĭ¤
ĠíĮĮ ìĿ´
ĠìĨĲ ëĭĺ
ìŀ¬ ìłķë¶Ģ
ĠìķĦ íĶĦë¦¬ì¹´
Ġì§Ħ ìĥģ
Ġìĸ¸ ëĭĪ
ĠëĦĺ ì¹ĺ
Ġê¸° ì¡°
Ġìļ© ê¸°
ìĭľ ë¦¬ì¦Ī
ëĵ Ģ
ĠìĿ¼ ì°į
Ġê°Ģ ê²Į
Ġìĭľ ëĭ¬
ë¯¸ ëĦĲ
Ġì½ ©
Ġê¹Ģ ëıĻ
Ġëĵ¤ ìĿ´
o l
Ġê·¹ ëĮĢ
Ġì¡° ëĭ¬
Ġ4 4
Ġëįĺ ì§Ģ
ì§ĢëĤľ íķ´
ëĨį ìĹħ
ë³¸ ëĭ¤
ĠëĲľ ëĭ¤ê³ł
ìĭ¤ ìłĲ
ĠìłĦê¸° ì°¨
Ġê°Ģ ë³į
íķµ íĻĶ
Ġëĭ¬ íĸĪ
Ġê´ĳ ìŀ¥
ĠìĿ¼ìľ¼ íĤ¤
ìľł íĨµ
1 000
ĠìĿ´ë¤Ħ ì§Ħ
ĠíĥĦ ëł¥
ëĲľ ëĭ¤ëĬĶ
Ġëħ¼ ë¬¸
ë¡¯ ëį°
ìĿ´ ëŁ°
i s
ĠìĨĶ ë£¨ìħĺ
ĠëıĦ ë¯¼
Ġê±¸ ìĸ´
ì¹ľ êµ¬
Ġê²¨ ìļ°
íķĻ íļĮ
íĺĳ ìłķ
ĠëĤ© íĴĪ
Ġë²Į ê¸Ī
¤ ĺ
ĠëĮ ĵê¸Ģ
Ġìķ ¤
Ġìĸ´ëł¤ ìļ¸
ĠìĨĮ ìļĶ
ĠëĮĢ ë²ķ
ê³µ ê¸ī
Ġì£¼ íĸī
ê°Ĳ ìĹ¼
Ġìĭł ìŀĦ
Ġì¤ĳ ëıĦ
ëłĪ ìĿ¸
Ġìĭ¬ íĻĶ
ìĬ¤ íĤ¤
Ġê²Į ìĭľ
Ġì§Ģ ì¶ľ
co m
A I
ì¼Ģ ìĸ´
Ġìŀ¬ ë°°
ëĭ Ń
ĠíĮĮ ê´´
5 4
ìĸ´ ëĸ
ë£ °
Ġìĭł ìĿ¸
Ġìŀħ êµŃ
Ġ4 3
ë³´ ìĪĺ
ìĤ¬ ìĿ´íĬ¸
ĠêµŃ ë¹Ħ
Ġì¶Ķ ê²½
ĠìķĦ ìĽĥ
6 9
7 000
a m
ë§Ī ìĬ¤
ì§Ħ ëĭ¨
êµĲíĨµ ë¶Ģ
ĠìĿĺ ì¡´
ĠêµĲê³¼ ìĦľ
Ġê³ł ê¸°
ì£¼ ìĿ¸
Ġê°ģ ìĺ¤
Ġíķľ ë§ĪëĶĶ
Ġíķ ¸
ëĤĺ ê°Ī
5 2
Ġê²½ ë¹Ħ
ë°Ķ ì§Ģ
Ġê±´ ìĿĺ
ë§¹ ìłĲ
ĠíĿ °
Ġíİ¸ ì§ĳ
Ġë¬´ ìĦľ
Ġëª° ëĿ¼
ë²¤ ì²ĺ
ëľ ©
Ġìľłì¹ĺ ìĽĲ
íĻķ ìĭ¤
Ġì§Ħ íĻĶ
Ġìľł ê°Ģ
ĠìĤ° ë¦¼
ĠëĦĺ ê²¨
ĠìĿ¼ ì¢ħ
Ġìĭľ ì¤ĳ
Ġì ª¼
ĠìĹŃ ìłĦ
ìĦł ìĸ¸
Ġì¦Ŀ ëªħ
Ġë°Ķ ë¥´
ìŀĲ ìĹ°
6 4
Ġê²° ìĭ¬
Ġìķķ ëıĦ
ë¯¸ ëĤĺ
Ġìĺ¤ ëŀ«ëıĻìķĪ
Ġìĭ¬ íĮĲ
ĠìŀĲ ë¬¸
Ġì»¨ ìĦ¤íĮħ
ĠëĬĺ ìĸ´ëĤ¬
ìĥģ ëĭ´
ì¤ĳ ìĨĮ
Ġì°½ ìŀĳ
Ġì¶ľ ê·¼
ĠëĤ´ ëĨ¨
ĠëĮĢìĥģ ìŀĲ
Ġ5 2
Ġë§¥ ì£¼
æ ĸ
Ġëĭ¤ ë£¨
Ġì²ł íļĮ
ĠìĦł ìłľ
Ġëķ Ĳ
Ġë°ľ ê¸ī
Ġë¶Ģ ìŀĳìļ©
Ġì§ĢëĤĺ ì¹ĺ
Ġê´ĢëŀĮ ê°Ŀ
Ġëı¼ ìļĶ
ĠíķŃ ëª©
ĠìĬ¤ ìľĦ
ĠíĸĪ ìĹĪ
Ġê°ĲìĹ¼ ì¦Ŀ
ĠìĿµ ìĪĻ
ĠìĺĽ ëĤł
ê°Ĳ ìĽĲ
e d
Ġë¹ł ì¡Į
ĠìĪĺ íĹĺ
ĠëŃ ī
ĠìĹ¬ìĿĺ ëıĦ
ĠëĨį ìĤ°ë¬¼
e l
Ġìłķ ê·ľì§ģ
ìĭł ê³ł
Ġê°ľ íĹĮ
ë¶Ģ íĴĪ
ĠìĨĲ ê°ĢëĿ½
ê¶ Ĳ
ĠìĿ´ ë¥¸ëĭ¤
ĠìłĢ ìĨĮëĵĿ
Ġê³¨ ëª©
Ġì¤ĳ ëıĻ
ĠìĿ´ ìĦ±
ìĬ¤ íħĮ
Ġë² ¼
ê³µ íĹĮ
Ġì½Ķ ë¦¬ìķĦ
Ġì§Ħ íķĻ
ë ¤Ħ
Ġìµľ ëĭ¤
Ġë¿ Į
Ġíĥľ íĴį
ĠëĤĺ ìģľ
Ġì°¸ ìĤ¬
Ġì½Ķ ì¹ĺ
ĠìĿ´ ì¤ĳ
ĠìĬ¤íĥĢíĬ¸ ìĹħ
ĳ ¥
ĠëĤ¨ ê²¨
ĠíĬ¹ ê²Ģ
Ġìŀ¥ ë¥´
Ġì¶© ìłĦ
Ġë¶Ģ ê°ģ
ĠíĽĮ ë¥Ń
Ġê²½ ìĥģ
Ġë§Ī ìĿ´íģ¬
Ġë§¤ ìĪĺ
ĠìĽĲ ìłķ
Ġìĸ¸ìłľ ëĤĺ
ìºł íĶĦ
ìģ ¨
Ġê±° ëĴĢ
ĠìĻ¼ ìª½
Ġê¼ ´
Ġëªħ ìłĪ
ìĭľ ìĬ¤
ĠìłĦ ìłľ
Ġì³Ĳ ëĭ¤ë³´
Ġê°Ģ ìĥģ
Ġê¸Ī íĺ¸
íĶ¼ ìķĦ
ëĶ ª
Ġê´Ģ ìĦ¸
ìĿĺ ìĤ¬
Ġê±°ì§ĵ ë§Ĳ
Ġê·¸ë¦¬ ìĬ¤
ĠëĬĺ ìĸ´ëĤł
ĠìŀĲ ëĿ¼
Ġë¯¸ ì¹ł
ìĪ į
íĸĪ ìĹĪ
ì²ľ íŀĪ
Ġê°Ĳ ì¶ķ
ĠëıĮìķĦ ìĻĶ
íķĻ ìŀĲ
ĠëıĻ ìĸĳ
ĠìĬ¹ ì§Ħ
ìŀĲ ë©´
Ġë³´ ì¡´
ĠìĤ´ ëł¤
N G
O C
Ġíķľ ì°¸
PG A
ĠìķĦë¬´ ê²ĥ
Ġìľł íķ´
ìĦ¤ ê³Ħ
íĨµ ìĥģ
Ġê¹Ģ ì§Ħ
ë°Ķ ëĭ¤
Ġì§Ħ ì£¼
ìĹ°íķ© íļĮ
Ġì§Ģ íĳľ
ê¹ ĥ
9 000
Ġê¼½ íŀĮëĭ¤
ĠìĬ¤ ëĭĺ
ìļ© ì°¨
Ġì§ĳ ê¶Į
Ġê´Ģ ìłĲ
Ġë°© ìĤ¬
Ġëį ©
ë¶Ħ ê°Ħ
6 2
ìķĦ ì§Ģ
íĹ ¬
Ġìĭ¤ ì¢ħ
5 1
êµ¬ ìĨį
Ġì°¨ ìĦ¸ëĮĢ
ĠìĤ¬ë¬´ ì´Ŀìŀ¥
Ġì²ł ê±°
ìļ¸ ìĤ°
Ġëª¨ ìĿĢ
ĠëĲĺ ëıĮ
ëĭī ìĬ¤
ĠêµŃë¬´ ì´Ŀë¦¬
Ġì£¼ ìŀ¬
Ġíİ¼ ì³¤
ĠëĤ® ì¶Ķ
ĠìĨĮ ê°Ĳ
Ġ8 4
Ġë¦¬ëįĶ ìĭŃ
Ġìļ°ë¦¬ ëĤĺëĿ¼
Ġë¶Ļ ìŀ¡
D P
ìłĦ ëł¥
Ġìĸ´ì¨Į ëĵł
Ġíķĺ ê³ł
Ġë²łìĿ´ ì§ķ
Ġì¡° ê°ģ
ĠìĹ¬ ê¶Į
ĠíĻĶ ë¬¼
ã ĥ
ëł Ľ
Ġë¬´ ìĤ°
Ġë¶Ħ ìŁģ
íĿ Ķ
6 3
ë¹Ħ ìłĦ
ĠìĿĳ ê¸ī
r o
ĠíĻĺ ìĺģ
ëĭĪê¹Į ìļĶ
ĠâĢ ¦
ëĨ Ģ
ĠìĿ¼ íĻĺ
20 19
ĠìĪĺ ê¸ī
ìŀ¬ ìĤ°
ĠìĹ° ê´Ģ
ĠìĿ´ ê±¸
ĠìłĢ ìŀ¥
ìĸ´ ìł¸
6 1
Ġê·¼ ìľ¡
ìŀ¬ ìĥĿ
Ġìłķ ìŀĳ
ĠìľĦ ë¡ľ
ìĤ¬ ëĭ¨
Ġê¹Ģ ëĮĢ
ĠìĤ¬ ìĹ°
ëĵ¤ ìĿ´
Ġì¶© ì¡±
Ġê¸° ê¸°
ĠìĿ´ ì¢ħ
ĠìĽĮ ëĤĻ
ĠíĮ¨ ë°°
Ġê¹Ģ ê²½
ëĦ¤ ìĭľìķĦ
Ġì¹ĺ ë§¤
Ġ4 1
ìĬ¤ íĦ´
Ġìłķ ìĦ±
ĠêµŃ ìĤ°
ĠìĪľ ìĪĺ
íĤ ·
Ġì²ľ ì²ľíŀĪ
ĠìķĪíĥĢ ê¹Į
ĠìłĲ ìĭ¬
ê´ĳ ìŀ¥
ëŃ ĩ
Ġê¹Ģ ìŀ¬
Ġìµľ ìĭł
Ġê³Ħ ì¢Į
ë±ħ íģ¬
Ġëª© ìĤ¬
Ġì¢Į ìļ°
ë¥´ íĬ¸
Ġëĭ Ń
Ġê¹Ģ ì¹ĺ
Ġê²© ëł¤
Ġë°ĶëŀĮ ì§ģ
ĠìĽĲ íĻľ
ĠìľĦ ìĥģ
ĠìĿ´ ëŀĢ
Ġì¶Ķ ëª¨
ìłķ ì§Ģ
ĠíĽĦ ìĨį
Ġìĭ¤ ìĹħ
ëĨį íĺĳ
Ġë¹Į ëł¤
ĠìĿĢ íĩ´
ì£¼ íĸī
ĠìŀĲ ìłľ
ë¶Ģ ì²ĺ
íĻľ ìļ©
Ġíķľ ìĪ¨
ìłĢ ìĶ¨
Ġí ĳ
Ġê¹Ģ íı¬
ëŀ ©
Ġê³¼ ëª©
Ġê±¸ ëł¸
Ġíģ´ëŀĺ ìĭĿ
ê°Ģ ìłķ
ë¯¸ íĦ°
Ġìŀħ êµ¬
ê²° ìłķ
ĠìķĦ ë²ł
Ġê¸° ë¦Ħ
ìłĲ ê²Ģ
Ġëĭ ®
ĠëĲĺ ê²Į
Ġë¹Ħ íķµíĻĶ
ë¨¸ ìĬ¤
Ġëĭ¨ ìŀ¥
ĠìłĦ ë¬´
Ġìĭ± ê°Ģíı¬ë¥´
Ġë¶Ģ ëĶª
ë°Ķ ë¥¸
i l
ĠíĿĶ ìłģ
ĠëĤ¨ ë¶Ģ
Ġìŀħ ìĪł
ĠìľĦìĽĲ íļĮ
Ġìŀĳ ìłĦ
ê° ¤
Ġë°© ì¹ĺ
Ġëĭ¹ ëĤ´
ìłĦ êµŃ
ìĪĺ ìļĶ
ë§Į ê°Ħ
ê·¸ ëŁ¼
ĠìĪĻ ë°ķ
Ġê°Ģ ê³µ
Ġìĺģíĸ¥ ëł¥
íĿ¥ ìĽĲ
íĨµ íĻĶ
ĠìķĪ ìĸĳ
ìĸ¸ ìĬ¤
Ġëĵ¯ ìĿ´
ĠìĿ´ ë§ĪíĬ¸
Ġê¹Ģ ìĥģ
ĠìĿ¸ì²ľ ìĭľ
Ġì¡° íĻĶ
ìĺĪ ë°©
Ń ī
ëĸ ¡
Ġê°ķ íĸī
ìĭ± íĦ´
Ġìŀ¥ ëĤľ
ĠìµľìĨĮ íķľ
ì²Ń ëħĦ
íıī ìĸĳ
Ġì§ ļ
íİĺ ëĿ¼
ë¶Ħ ìĦĿ
Ġìłķ ì§Ģ
ëħ Ķ
Ġê³¼ ê°Ĳ
ìĬ¤ íĥĦ
ĠíĬ¹ ìľł
Ġëį° ë¦¬
ĠìłķíĻķ íŀĪ
ê²Į ìļĶ
ĠìŀĲ íļĮìĤ¬
íĻĶ ë¬¸
ê´ĳ ìĹŃ
ëļ ±
ĠìĻ¸ ë©´
ì£¼ ê°Ħ
ë¹ ħ
Ġëį° ëł¤
ĠìĿ´ íĺ¼
ĠêµĲ íĻĺ
ë³´ ìŀ¥
Ġë§ ĳ
Ġë°ķ ìĪĺ
Ġ e
ê·ł íĺķ
ëĭ «
Ġê³µìłķ ìľĦ
Ġë© ľ
ãĥ »
Ġê°ķ ìłĲ
Ġìķ ĵ
ĠìķĦ ëģ¼
ë°ķ ìĬ¤
Ġìķ Ļ
Ġëª «
ĠíĮ¨ íĤ¤ì§Ģ
Ġêµ° ìĪĺ
Ġëĭ¨ ì¶ķ
ìĪĺ ìĪł
> (
Ġë¯¼ ìĥĿ
íĮ ¡
I P
ĠìĤ¬ë§Ŀ ìŀĲ
ëĭ¤ ìĪĺ
Ġê°Ģ ìĨį
ĠìĤ¬ìĹħ ìŀ¥
Ġìŀ ī
ë ±
Ġìĺ¤ ê°Ģ
Ġê°ķ ë¦ī
ê¸° ë°ĺ
ê³µ ê³µ
Ġì²´ íģ¬
ìłľ ì£¼
ĠíħĮ ëŁ¬
ëį© ìĿ´
Ġìĸ´ìļ¸ ë¦¬
ĠëĤ´ ìłķ
ĠëĪĪ ë¹Ľ
Ġìĭ¤ íĥľ
ĠíĨµ íķĺ
ëĬĶëĭ¤ ë©´
ìĸ¸ ë¡ł
Ġì²´ ëł¥
Ġìĸĳ ìĥģ
ëıĻ ê°ķ
ë°ķ ê·¼íĺľ
Ġëħ¸ ë¦¬
ìĿ´ ìļ©
ĠìĹ ĩ
ĠìĬ¹ ê°Ŀ
íģ °
Ġê°Ģ ë§Į
Ġëĭ¹ìĦł ìĿ¸
Ġìĸ´ë¦°ìĿ´ ì§ĳ
Ġë¬´ ì¡°ê±´
Ġìĺ¨ ëıĦ
Ġìĺ¤ íķ´
ĠìĦłë³´ ìĿ¸
ìķĦ ì§ģ
ê¸° ë³¸
Ġì´ Ľë¶Ī
Ġìľł íķĻ
Ġë¹¼ ìķĹ
ë²¨ íĬ¸
Ġëĭ ¦
ë¡ľ ê·¸
ì´Ī ëĵ±
ìĻ¸ êµŃ
Ġì§Ħ ìĭ¬
Ġì´ī ì§Ħ
M W
Ġìĭ¸ ìļ°
ĠëĪĪ ìķŀ
ìĬ¤ ëŁ°
Ġê¼½ íŀĪ
ê²½ì°° ì²Ń
ëĮĢ ë¬¸
ĠìĤ¬ ëĵľ
T X
Ġìŀ¬ ê±´ì¶ķ
ëª ĩ
ìĿ´ ìŀĲ
ë¶ ķ
Ġì¦Ŀ ìłķ
Ġê¼¼ ê¼¼
ĠìĿ¸ ì§Ģ
ë¶Ģ ëĭ´
ĠâĢ ķ
ĠëĨį ë¯¼
Ġíķ´ ìĥģ
Ġê°ķ ìĦ¸
í ī
Ġì¡´ ì¤ĳ
ê¸° ê³Ħ
ĠíķĦ ë¦¬
Ġëł Į
íĮ ½
Ġê·¸ëŁ¼ ìĹĲëıĦ
ĠíĻķ ìĭł
Ġ8 5
Ġê³µëıĻ ì²´
íĥ ł
ëĳĺ ëŁ¬
Ġì¡° íķŃ
Ġìĺ ¹
ĠìłĦ íĽĦ
ìķĦ ëıĻ
ĠëıĦ ë°ľ
Ġëĭ¤ ë¦Ħ
ĠìĪĺ ëł´
Ġìŀ¬ ëĬ¥
Ġìķ¼ ìĻ¸
Ġì¶Ķ ìłģ
Ġì¤ĳ ìĪľ
ĠêµŃ ìŀ¥
Ġë¯¼ ê°Ĳ
Ġìĺ¤ íĶĦ
Ġë°° ìłķ
Ġìķŀìŀ¥ ìĦľ
ë°© íĸ¥
8 4
Ġê¸ī ëĵ±
Ġë¥ĺ íĺĦì§Ħ
ĠìĨĮ íĻĺ
ĠíĺĦ ìĹŃ
ĠìĿ¸ ìļ©
Ġê°ķ ê²½
Ġë³µ ìĪĺ
Ġì²Ń ì£¼
ĠìŀĲìĭł ê°Ĳ
Ġì¡° êµŃ
Ġë³´ì¡° ê¸Ī
ĠëĤ© ë¶Ģ
ĠìłĦ ìĹŃ
ĠíħĮ ìĬ¤íĬ¸
ĠN C
ĠëıĦ ë§Ŀ
Ġì¹¨ ëĮĢ
ìĪĺ ê¸°
Ġíķľ ì§Ħ
ìħĶ ìĦľ
ĠêµĲ ìŀ¥
Ġë¶Ī ëłĢ
Ġë³ĳ íĸī
Ġì§Ģ ì¹¨
ãİ Ŀ
Ġíĥľ êµŃ
ĠíĥĪ ëĿ½
ĠìĬ¤ íģ¬
Ġëĭ¹ ìĤ¬ìŀĲ
ĠìĶ »
Ġê²½ ë¡ľ
Ġì§Ģ ìĿ¸
Ġë³Ģ íķĺ
Ġê³ł ëıĦ
Ġê±° ìłĲ
Ġë°ľ ì£¼
c h
ìĿĦê¹Į ìļĶ
Ġìłķ íķ´
Ġìµľ ìķħ
Ġ #
ëĤ´ ëħĦ
ĠìĽĲ ìľł
ĠëĤĺíĥĢ ëĥĪ
ĠìĹ°ìĺĪ ìĿ¸
ĠìĨĮ ìĥģ
Ġìĺ¤ë¥¸ ìª½
Ġì¶ĺ ì²ľ
ìĤ¬ íĥľ
ìĭ¤ íĹĺ
ĠìĥĪ íķ´
Ġìļ´ íķŃ
Ġì»¤ ëĭ¤ëŀĢ
ìĮ į
Ġêµ¬ ëıĦ
Ġìĺ ³
Ġê¸Ī ê°ĲìĽĲ
Ġíķ´ êµ°
ĠìķĦìĿ´ íı°
Ġë³´ ìľ¡
ê° ĸ
en t
Ġê³Ħ ìłĪ
ĠìĦł ìłĦ
ìĺ ·
ĠìĻ¸êµĲ ë¶Ģ
íĬ¹ íŀĪ
ë¡ ¬
ĠìĨĮ ìĿĮ
ĠëģĬìŀĦ ìĹĨìĿ´
ĠìĿĺ ê²°
Ġíķľëĭ¤ ë©´
êµĲ ë¥ĺ
ëĶĶ ìŀĲìĿ¸
ĠëĤĺ ëŀĢíŀĪ
ĠìĬ¤ íħĮ
ĠëĬĺ ëł¤
íĨł ë¡ł
Ġíĺķ ìłľ
ĠêµŃ ìĦ¸
ĠëĤĺ ë¦Ħ
ìĿ¼ ìŀĲ
ìĭľ ì½Ķ
T F
ĠëıĦ ìķ½
Ġìī¬ ìļ´
Ġìĭľ ëĦĪì§Ģ
Ġë¶Ģ ìľĦ
ĠìĤ´ ì§Ŀ
êµ° ìĪĺ
Ġìŀ¬ ìĽĲ
Ġíĸī ìłķë¶Ģ
Ġíıī ìĸĳ
ĠëĤĺíĥĢ ëĤ´
Ġìĺ¤íĶ¼ìĬ¤ íħĶ
ëħ¸ ìĿ¸
Ġê·¹ ëĭ¨
ìĪ Ń
ìĦ¸ ëł¥
ĠìĹ° ìĦ¤
Ġì±Ļ ê¸°
Ġìķŀ ìĦł
ëĨ Ĵ
Ġ5 8
ĠìķĦë¬´ ëŀĺëıĦ
ĠìĹ° ëĭ¤
Ġê·Ģ êµŃ
Ġëģ ĵ
Ġìĭ¤ ë§Ŀ
ĠìĹ ł
ë³´ ê³ł
ì§ĢìĽĲ ê¸Ī
ĠëģĦ ëįķ
Ġëĭ¹ ë¶Ħê°Ħ
Ġê²½ê¸° ìŀ¥
ëĦ ¥
ĠíĦ¸ ìĸ´
Ġì´Ŀ ìŀ¬
Ġëª° ë¦¬
Ġê¸°ìļ¸ ìĿ´
ĠìĨĮíĶĦíĬ¸ ìĽ¨ìĸ´
ĠìĿ¼ ìĸ´ëĤ¬
ë¬´ ê¸°
ëŁ° ìĬ¤
Ġê±¸ ë¦°
ĠìĦľ ì´Ī
ĠìĭĿ ë¬¼
Ġëĳ ¥
ĠC C
ìŀ¬ ëĤľ
ë¦¬ ëĿ¼
Ġê³ł ìĥĿ
Ġíŀĺ ìŀħ
Ġê³¼ ìĿ¼
ĠêµĲìľ¡ ì²Ń
ë°ľìłĦ ìĨĮ
Ġê¿Ī ê¾¸
Ġíİ¸ìĿĺ ìłĲ
ìłĦë¬¸ ê°Ģ
ĠêµĲíĨµ ìĤ¬ê³ł
Ġ5 7
Ġì§Ħ ìĺģ
Ġëĭ¹ íĻ©
Ġ199 0
ĠìĿ¼ ìĸ´ëĤľ
Ġê° ļ
Ġì§ĢëĤľ ì£¼
ĠëĦĺìĸ´ ê°Ģ
Ġê°Ģ ëģĶ
Ġìµľ ìĥģ
ë ī
ĠíĻĶìŀ¥ ìĭ¤
Ġê°Ģ ë°©
ë²Ī ìĹĲ
ĠëĮĢ íķĺ
ĠíĥĢìĿ´ íĭĢ
íĺĳ ìĿĺ
ê ±
ĠìłĪ ìĭ¤
ê³ł ìĤ¬
ëĭ¨ ìŀ¥
ĠìľĦ íĥģ
Ġëĵ¤ìĸ´ ê°Ī
Ġê¸° ìļ´
Ġìĸ´ ëĳĲ
ĠìĦŃ ì·¨
ĠíĶĦ ëłĪ
Ġìĺģ ê´ĳ
ĠíĿ¥ íĸī
20 20
Ġë¶Ģ ëĵľëŁ¬
Ġë§Ī ë²ķ
Ġìŀ¥ ìĭĿ
Ġë³´íĹĺ ë£Į
Ġìĥģ ê¸Ī
Ġë¶Ģ íĻľ
Ġíĳľ ëªħ
D I
Ġê°Ħ íİ¸
ì ¥Ĳ
ĠëĦĺ ê¸°
Ġê³ł ìĪĺ
Ġê±° ì¹ľ
ĠìĿ Ħ
ĠëĦ ·
ĠI C
å ı
ë°© ë²ķ
ĠìķĮìķĦ ë³´
Ġê°Ģ ë²¼
Ġêµ³ ìĿ´
ëĤ¨ ëıĦ
Ġìŀ¥íķĻ ê¸Ī
Ġê³µ ì£¼
ìĭľ ëĭ¤
ĠëĤł ìķĦ
Ġê³ł ë¬¸
ĠëıĻ ëł¥
Ħ ìĬ¤
ë¶Ģ ì§Ģ
Ġì½Ķ ëĦĪ
íĸī ë³µ
Ġë¶Ģ ìŀĲ
ëį° ë¯¸
ĠëĮĢ ìĻ¸
ĠìłĦ ìķ¡
Ġíķľ ëķĮ
Ġê³¨íĶĦ ìŀ¥
Ġê°ľ ì²Ļ
Ġë¶ģ êµ¬
Ġê±´ìĦ¤ ìĤ¬
7 2
Ġê°Ĳ ìĥģ
ìĺ¤ íĶĪ
ë°ķ ëŀĮíļĮ
ĠìłĬ ìĿĢìĿ´
Ġê¹Ģ ê¸°
Ġì§Ģ ìľĦ
ëĤ Ń
ĠìĿ´ë¤Ħ ì§Ī
íķĺ ì§Ģë§Į
ĠìĹ° ë£Į
Ġë¹Ħ ë¡Ŀ
ĠìĿĳ ìĭľ
Ġê ¶
ë°Ľ ì¹¨
ĠìĿ´ ë¡ł
Ġê°Ģ ì§Ī
ëĵĿ ìłĲ
íķĺ ë©´
Ġì¹¨ ë¬µ
Ġì¼ĢìĿ´ ë¸Ķ
íĬ¸ ë¡ľ
Ġì½ĶìĬ¤ ëĭ¥
Ġì±Ļ ê²¨
Ġë¬´ ê´Ģ
Ġëª¨ ë¥¸
U V
Ġë°ľ ëĭ¬
ëĶ ±
Ġê²© ë¦¬
ê·¸ ë¦¬
ìĸ´ ë¶Ļ
Ġê³ł ìľł
ìĪ ²
ĠìĹ° ë°©
ĠìŀĲ ë°ľ
Ġê°Ģ ê¹Ŀ
ĠíĿ¡ ìĪĺ
ĠìŀĲ êµŃ
Ġìŀĳ ëıĻ
ìĿ¼ ìŀĲë¦¬
ìĹ° íĮ¨
Ġëĵľ ëĿ¼ìĿ´
ĠìĨ¡ ëıĦ
Ġê¸° ìģ¨
Ġê±´ ìĪĺ
Ġìĭľ ìĦ¸
Ġëĵ¤ìĸ´ ìĦł
ìľ¼ ìĭľ
Ġëĭ´ ë³´
ìłľ íķľ
o m
ìļ© ì§Ģ
Ġëĭ¤ ìļ´
ĠìĨĮ ì§Ģ
Ġìłķ ìĦľ
Ġìļ© ìĤ°
ìĸ´ ì§Ī
Ġëĭµ íĸĪ
Ġêµ° ëĮĢ
Ġìķł ì´Ī
ëĭ¹ ìĭł
Ġì¤Ħ ìĹ¬
Ġëĭ¹ ëĭ¹
Ġì¡° ë§Įê°Ħ
ĠìĿ¸ ë¥ĺ
ï¼ Į
Ġë¯¼ ìĭ¬
ĠìĦ¸ ìļ´
íĳ¸ ëĵľ
Ġìľł ì¡±
Ġì¶Ķ ëĿ½
Ġíķ ĳ
Ġê³µ íĻĶ
Ġê¸° ìķĦì°¨
ĠìĿĺ ìŀĲ
Ġëĭµ ëĭµ
Ġëĭ¬ ìķĦ
O U
ĠëıĻ ìŀĳ
ĠìĪĺ ìĺģ
Ġëį° ìĿ´
íĥ ±
Ġê ¾
Ġê²½ ë§¤
ë°¸ ë¦¬
Ġëĵ¤ìĸ´ ìĻĢ
ĠëĤ «
ì°½ ìĹħ
Ġê¹Ģ ìļ©
Ġìŀ¥ êµ°
ìħī íĬ¸
Ġíķľ ì°½
ì¹´ ëį°ë¯¸
ĠìĿ¸ëıĦ ëĦ¤ìĭľìķĦ
ìĨį ëıĦ
ĠìŀĲ ìĤ¬
ĠìĤ´ íķ´
ĠìķĦìī¬ ìĽĢ
Ġì§ĢìĹŃ êµ¬
Ġìŀħ ìĤ¬
ì°¨ ìŀ¥
ĠëĶĶ ìĬ¤íĶĮëłĪìĿ´
ëĵł ê°Ģ
ì°½ ì¡°
Ġìŀ ¦
ĠíķŃ ìĿĺ
Ġêµ¬ìĦ± ìĽĲ
ìłľ ì²ł
Ġìĭ¬ íķĺ
Ġìłĳ ëª©
Ġíķľ ìª½
ë§¤ ë§¤
Ġë¸Ķ ë£¨
íĦ ±
ë©Ķ ìĿ¼
Ġëĸł ëĤ¬
N A
Ġíİ¸ íķĺ
Ġë¹ µ
Ġìľł ë¡ľ
Ġ9 9
ĠìŀĲ ìķĦ
Ġìłķ ë©´
ķ ìĭľì½Ķ
íķĻëħĦ ëıĦ
Ġê·¸ ëĤĺë§Ī
ìķĦ ìĽĥ
ë°© ì§Ģ
ĠìĿ¼ ê´Ģ
ìĺģ íĸ¥
Ġìŀ¥ ì°©
Ġë¸Ķ ë¡Ŀ
ìĤ¬ ìļ©
Ġê³ł ë§Ī
Ġë¬´ ëłµ
Ġì£½ ìĿ´
ì§Ħ ë³´
Ġìĭľ ê³Ħ
Ġì²ĺ ì§Ģ
Ġíĺģ ëªħ
ç Ķ
ĠìĿ´ ê²¨
íĺĦ ìĭ¤
ĠìĿ´ëģ Ħ
Ġìļ° ìļ¸
Ġì»¤ë®¤ëĭĪ íĭ°
Ġì£¼ ë¶Ģ
ê´ĳ ê³ł
ê³ ±
Ġì°½ìĽĲ ìĭľ
ëŃ Ĳ
íķľ ì§Ģ
Ġíķ´ ìĪĺ
Ġê°ľ ìŀ¥
Ġê°Ŀ ê´Ģ
ĠìĽĮ ìĭ±íĦ´
Ġëĸ ¡
Ġê°Ģ ìĿ´ëĵľ
ĠìķĦë¦Ħ ëĭ¤
ĠëıĮìķĦ ìĺ¨
Ġë¹Ħíĸī ê¸°
Ġë¶Ħ ëĭ¹
ĠëĴ¤ ëĬ¦
ĠìĹ¬ ì§Ģ
íĿ¬ ë§Ŀ
ĠìĿĮ ì£¼
Ġ" âĢ¦
Ġë°ľ ëª©
íļĮ ê³Ħ
ìĤ¬ ë¡Ģ
Ġëĭ¹ íķľ
Ġìĭľ íĤ¤
ìĭ¤ ìłģ
Ġìħ °
Ġê¹Ģ ìĹ°
ì£¼ ìŀĲ
Ġìŀħ ìłĲ
Ġì§Ģ ëª©
¹ ìĭľ
Ġíı¬ ëŁ¼
ìĸ´ ëĤ´
ĠìĦľ íķ´
ìĤ°ìĹħ ëĭ¨ì§Ģ
Ġë© į
Ġë°ĺ ìĦ±
Ġì¤ĳ ë°ĺ
Ġì§Ģ ëĤ¸
Ġì¶© ìĭ¤
ĠíĮĮ ìĽĮ
ëĦĲ ëĵľ
ĠëıĦ ëĮĢì²´
ë¶Ģ ëıĻìĤ°
ìĭ¬ ë¦¬
ìĿ¸ ì¦Ŀ
Ġë§Į ê¸°
ìĦ¤ ë¹Ħ
ĠìĹĺ ë¦¬
ĠN H
ĠìĽĮ íģ¬
Ġì¹ ¸
ĠìĨĮ ìħľ
Ġ4 000
ĠìĨĲ ìĥģ
ĠëĩĮ ë¬¼
ĠìļĶ ê±´
ìĽĮ ìĦľ
ìŀĲ ìĿ´ëĦĪ
ĠìĪľ ì²ľ
ĠíĻķìĭ¤ íŀĪ
æ ľ
ĠëıĮìķĦ ë³´
Ġê°Ģ íķ´
ëĭ¹ ìĭľ
Ġìĥī ê¹Ķ
Ġìŀ¬ ìĥĿ
ĠìĹĦ ê²©
íıŃ íĸī
ê³ł êµĲ
Ġ25 0
ìĪĺ ìĹħ
ĠíĻ Ģë¡ľ
Ġìłķ ë°Ģ
Ġë¬´ ìĤ¬
ĠëĤ´ ë¹Ħ
Ġì·¨ ê¸ī
Ġê¹ İ
ë¥´ íģ¬
ëĿ¼ ë¦¬
ĠìĹ°êµ¬ ìĨĮ
Ġì¢ħ ë¡ľ
ë§Ī ëĭ¹
ë²Ħ ê·¸
Ġìĭľìĥģ ìĭĿ
ìĨĮ íĶĦíĬ¸
Ġë©´ ìłľ
Ġìĥģ ìļ©
ĠìłĢ íķŃ
Ġìķ¼ ê°Ħ
Ġëĸł ëĤľ
Ġ7 00
íļ¨ ìľ¨
Ġìľł ë§Ŀ
ĠìķĦëĭĻ ëĭĪëĭ¤
Ġê³µ ìĿµ
ì£¼ ìĭĿ
ëĮĢ êµĲ
ìĿ¸ ìĽĲ
Ġê´Ģ ì°°
Ġë©´ ìĹŃ
ĠíĿĶ íŀĪ
ìĨĮ ìĦ¤
Ġë§Į ë§Į
Ġì¼ ľ
Ġìĸ´ìļ° ëŁ¬
ĠìŀĦ ìĭł
Ġë¶Ģ ì²ľ
íĥĢ ìĽĮ
ĠìĻ ĢìĿ´
íİ Ļ
ãİ ľ
Ġìĩ Ħ
ĠâĹ ı
ĠìŀĲ ì¹«
ĠìĿ´ ìĪĺ
ê°Ħ ëĭ´íļĮ
Ġêµ° ìĿ¸
ĠI P
Ġ8 00
6 00
ëĵľ ë¦°ëĭ¤
ĠëĲĺ ì°¾
ì ĮĢ
Ġë§Ī ìĤ°
Ġìĺ® ê¸°
0 2
Ġì¦Ŀ ìĸ¸
ìŀ¬ ë£Į
Ġìĭľ ê³µ
ĠëĴ· ë°Ľì¹¨
Ġì£¼ ìĦĿ
ìľ¼ ëł¤
Ġ5 1
å ľ
Ġë§Īì¹¨ ëĤ´
Ġì°½ ë¦½
ìĪĺìĪĺ ìĥī
â Ħ
ĠP D
Ġë²Į ìĸ´ì¡Į
ĠìķĦëĭĲ ê¹Į
ë¹ µ
Ġëª¨ëĭĪíĦ° ë§ģ
ĠìĺĪ ê¸Ī
ĠìĦłê±° êµ¬
ĠìĻľ ê³¡
ëıĻ êµ¬
Ġë¶ĪìķĪ ê°Ĳ
ìĬ¤íĥĢ ìĿ¼
Ġë§ī ëĮĢ
ĠëĤĺíĥĢ ëĤľ
ì¤ Į
Ġì§Ģ ë¦¬
Ġìĭł ëĿ¼
ĠìķĦ ìłĢìĶ¨
ĠìłĦ ëĭ¹
Ġìľł ìĹ°
ĠìłĢ ê¸°
Ġ200 1
Ġë¶Ģ ìłģ
ĠìķĦëĭĪ ë©´
Ġë¦¬ ìĬ¤íģ¬
ĠëĮĢ ë¦½
ìĿ´íģ¬ ìĹħ
íĺ¸ ìĿ¸
Ġì»¤ ì¡Į
ìĿ´ ë¯¸
ĠìĿ į
Ġìĸ´ëĳ ł
ĠíĿ Ļ
ĠìĤ¬ëĿ¼ ì¡Į
Ġëĸłìĺ¬ ëŀĲ
ìĽĶëĵľ ì»µ
ìĸ´ë¦° ìĿ´
7 8
Ġë³¸ ìĦł
ĠìĤ¬ ë¬¼
ê±°ëŀĺ ìĨĮ
Ġìŀ¬ ë²Į
Ġê³ł ìĬ¤
ë³´ ëıĦ
ëĥĲ ê³ł
Ġëĭ ¥
k g
ĠëĨĴ ìĿ¼
ĠëĮĢ ëŁī
ìĹ¬ ë¦Ħ
ìĪĺ ì¤Ģ
ĠìĤ¬ ìļ°
Ġ5 4
ìĺ¤ ìĹ¼
9 8
ĠìĤ¬ìĿ´ ë²Ħ
Ġê² ī
ĠëĮĢ ëĮĢ
Ġìĭł ì¶ķ
ĠìĬµ ê´Ģ
Ġë²Į ìĸ´ì§Ħ
Ġëĥī ìŀ¥
Ġê¸Ī ê°ķ
ìĦľ êµ¬
Ġë³´ìĹ¬ ì¤Ģëĭ¤
Ġê¸° ìĽĲ
Ġëªħ ìĭľ
ĠL ED
Ġë¬´ ìĦł
êµĲ ê³¼
ĠìŁģ ìłĲ
Ġë°ĺ ëł¤
ì±Ħ ëĦĲ
íĥĦ ìĨĮ
ê¸Ī ì§Ģ
Ġë³ĳ ìĤ¬
Ġë¶ķ ê´´
Ġìĥģ íķĺ
Ġìłģ ìłķ
ìķħ ê´Ģ
Ġ" (
ìĿĮ ìĭĿ
êµ¬ ìŀ¥
Ġì¦Ŀ ìĿ¸
ĠíĻľ ëł¥
íĥĢ ë¯¼
i v
Ġê¹¨ ëĭ¬
ĠìķĦ íĶĶ
Ġìĥģ ìĺģ
İ Ħ
ĠìłĦ ìĽĶ
ìĿ¼ ë¦¬
ë²Ķ ìľĦ
ìĥĿ íĥľ
ìĸ´ ëĦ£
Ġë¬´ ì£Ħ
Ġë°ľ íļ¨
ĠìĦľ ë¶Ģ
Ġì²Ń ë¬¸íļĮ
Ġê³Ħ ìĭľ
Ġë²ł ìĬ¤íĬ¸
Ġìŀ¥ ìĤ¬
íķ´ ì§Ħëĭ¤
ĠíĥĢ ëĭ¹
Ġìłľìŀĳ ì§Ħ
ĠìĮį ìļ©
Ġëĭ¤ê°Ģ ìĺ¤
Ġëĵ± íĮĲ
ĠìĨĮ ìĪĺ
Ġì´Ī ëŀĺ
ìĥģ ê¸Ī
ĠìŀĲ ì¡´
Ġê°Ģ ìłĦ
ĠìĽĲ ë£Į
Ġê³µ ìĤ°
ìĤ¬ ìĽĲ
Ġìĭł ë¶Ģ
ĠëĦĲ ë¦¬
ĠêµŃ ë©´
Ġì²« ëĤł
Ġê¸ī ìĹ¬
Ġê´Ģ ëĤ´
Ġì±Ħ ìĽĮ
ëĿ¼ íĨ¤
ì½ĺ íħĲì¸ł
íħĮ ìĿ¼
ìĭł ìļ©
Ġê±° ìłĪ
Ġê°Ħ ëĭ¤
Ġì£Ħ ìĨ¡
ĠíĿĺ ë¦¬
ĠL H
ĠíķŃê³µ ê¸°
ĠëĤĺ ëī
u n
ĠíĿĶëĵ¤ ë¦¬
Ġê³Ħ ëĭ¨
Ġë¬¼ íĴĪ
Ġìĸ´ì©Į ë©´
ĠëĤ´ëł¤ ê°Ģ
íĭ° ì¦Į
Ġìĭľ ìĭł
Ġíķľ ëıĦ
ì§Ħ ìĺģ
Ġ6 8
ĠíķĻ ê³¼
Ġìĭł ë°ľ
ìĹĲ ìĿ´
Ġì´Ŀ ëł¥
ëĴ ¤
ĠëĤ¨ ê²¼
ëĭ¨ì²´ ìŀ¥
ĠëĽ° ìĸ´ëĤĺ
ĠìĤ° ì±ħ
Ġëħ¸ íĬ¸
Ġìĭ¬ íķľ
Ġìķķ ìĪĺìĪĺìĥī
íĻķ ìĿ¸
ĠìĦ¸ íĥģ
Ġê°ĸ ì·Ħ
ìĿ¼ ë°ĺ
Ġíıī ë²Ķ
Ġë¶Ģ ì´Ŀë¦¬
ì°¨ ë³Ħ
Ġì§ĳ ê°Ĵ
Ġìĩ¼íķĳ ëª°
ĠíĥĪ ì¶ľ
íļĮ ë³µ
Ġìĺģ ìĽĲ
ëĲľ ëĭ¤ê³ł
ĠìĿ´ ìłł
ĠìĪĺ ìĦ±
ĠëıĦ ì¤ĳ
ë¸Į ëŀľëĵľ
ëĮĢ íĸī
i g
ìĦ¸ ìĥģ
ëĿ¼ ëĭĪ
ë¬´ ëĮĢ
Ġì£¼ íķľ
ĠíķĦë¦¬ íķĢ
ĠëıĻ ê³Ħ
Ġì£¼ ìŀĲ
ï½ į
ìľ¼ ëł¤ê³ł
Ġê°ľ ê´Ģ
Ġëªħ ì¹Ń
ê´Ģ ìľĦ
Ġìŀ¬ íķĻ
íĬľ ëĶĶìĺ¤
Ġë°ľ ìĿĺ
Ġë¬´ ëįĶ
ĠìĦ °
Ġëŀ ľ
Ġê°Ģ ëĤľ
ìŀ İ
ìłĢ íŀĪ
Ġê¹Ģ ë¯¼
ë¸Įë¦¬ ëĵľ
ê°Ģ ìļ´
ìĪĺ ì¶ľ
ĠìķĪ ëıĻ
Ġê·¼ ëĮĢ
Ġë°ķ ë¬¼ê´Ģ
Ġë§ŀ ëĮĢ
Ġìłģ ìĿĳ
Ġì§ĢëĤĺ ê°Ģ
ëĮĢíķĻ ìĽĲ
ìĦ± êµ°
Ġë· °
ĠíĻ© ê¸Ī
ìĿ¸ëį° ìļĶ
Ġëĵł ëĭ¤
Ġì§Ħ ì§Ģ
Ġìĥģ íĻĺ
íķ© ìĿĺ
Ġì°¸ ê³ł
Ġê°ķ ìļĶ
ĠìĿ´ ìĺģ
ìĹ¬ ê±´
ĠíĮ¨ íĦ´
ĠëĤ´ ëĭ¤
ë¶Ģ ì±Ħ
ĠìĹ ¿
ĠìĹĲ ìĿ´
Ġê·¹ ìŀ¥
Ġëª» íķľëĭ¤
Ġëĵ¤ ë¦¬
íħį ìĬ¤
ëĪ Ķ
ë¯¸ìĪł ê´Ģ
Ġìĥģ íĸ¥
ĠëĤ´ ë°Ģ
ĠêµĲ ìĭ¤
ìĿ´ ëĿ¼
Ġìłģ ìĸ´ëıĦ
Ĺ ¥
Ġìħ Ķ
Ġìłķ ë¬´
ĠìķĦ ìī½
Ġì¡° ìĨį
ĠìŀĦëĮĢ ë£Į
ĠìĿ´ ë¯¼
ĠíķĻ ìĪł
Ġì³ ¤
Ġ15 00
Ġê¸° ê¸Ī
Ġíķ´ ê³ł
ĠìĿ¼ë°ĺ ìĿ¸
íħĮ ë¦¬ìĸ´
ìŀħ ëĭĪê¹Į
Ġíį¼ ìĦ¼íĬ¸
Ġë³¸ íļĮìĿĺ
L ED
Ġê°ķëĤ¨ êµ¬
Ġê´Ģ íĸī
ë¹ ¨ë¦¬
Ġì¤ĳêµŃ ìĿ¸
ëĶĶ ìķĦ
ĠëĽ° ìĸ´ëĵ¤
Ġìķķ ëł¥
íĿ¥ ë¯¼
íĻĪ ëŁ°
ìĥ ĺ
ìŀħ ìŀĲ
Ġê³µ ê³ł
íķ´ ìļ´
Ġíĥĳ ìĬ¹
êµĲ ìĭ¤
ĠëĪ Į
íĴ ĢìĿ´
íĹ ¨
ë³´ ëĵľ
7 9
ë³´ ê³łìĦľ
ëıĻ ìĽĲ
Ġëı¼ ìķ¼
ìĬ¤ ëłĪ
ë¦½ ëĭĪëĭ¤
Ġë§¤ ëĭĪ
ĠìĿĺ ë¥ĺ
ìĹ° ìĬ¹
Ġë¬´ ì²Ļ
ìľĦ íĹĺ
ëª¨ ìŀĦ
a s
Ġìłĳ ìĨį
Ġì§Ģ íĸ¥
ê·¼ ë¬´
Ġë§Į íĻĶ
ĠíĽ Ķ
ëĬ Ħ
ìĨĮ ë°©
ì²ĺ ìŀ¥
Ġíĳ¸ ë¥¸
Ġìĺģ ìŀ¥
ë¦¬ íĭ°
ĠíĨ ±
ìĨ Ł
Ġìłķ íĻ©
ĠíĿĳ ìŀĲ
Ġë» Ĺ
ëªħ ëł¹
Ġë³¸ ì§Ī
Ġ20 21
ĠìĺĪìĤ° ìķĪ
Ġëĭ¤ ì§Ĳ
Ġê°Ĳ ë©´
ìĸ´ ì´Į
Ġë§Ī ëĭ¹
ĠëłĪ ëĵľ
Ġìŀ¥ ìĪĺ
íĨ ¨
ĠìĹ¬ ìĤ¬
Ġê³µ ìĿ¸
ê¸´ ëĭ¤
Ġíİĺ ìĬ¤íĭ°ë²Į
Ġì¶ľ ìŀ¥
ê² ¹
Ġê°Ĳ ì¶Ķ
ê² ¸
Ġìĭł ìŀ¥
ê·¸ ëıĻìķĪ
ĠíħĮìĿ´ ë¸Ķ
ë¬´ ìĦ±
ĠëĤĺ ê°Ħ
Ġë©Ķ ëª¨
Ġ19 80
ĠìĹ° ìĿ¸
íĺ¸ ê¸°
Ġë´Ĳ ëıĦ
Ġì° °
Ġë°ķ ì°¨
Ġê³ł ë°±
ĠìĿ´ë¤Ħì§Ģ ì§Ģ
ìŀ¡ ìĿ´
ĠìĥĿ ê³Ħ
Ġíķľ ìłĦ
ìŀ¬ ìĿ¸
Ġê²¬ ìłľ
Ġíķ© ì³Ĳ
Ġíĥľ ìĸ´ëĤĺ
Ġì§ Ŀ
Ġë¶Ħ ìĤ°
Ġëª© íı¬
ìĺģíĻĶ ìłľ
ĠìĨĮ ìľĦ
ë§Ī ìĿĮ
ĠëĤ¨ ìĸĳ
ĠíķŃ ìĨĮ
Ġ5 6
ĠìĤ¬ ë¦½
Ġë©Ķ ìĿ´íģ¬ìĹħ
at ion
ë©Ķ ë¦¬
ĠìĹ¬ ê²¨
Ġ6 4
Ġë°± ìķħê´Ģ
Ġíħ Ķ
ĠìĪĺìĥģ ìŀĲ
ĠëıĻ ë¶ģ
Ġê·¸ ë¶Ħ
Ġìĭł íĻĶ
ĠìĦ¬ ìľł
M F
ĠìĿ´ ë£¬
Ġê°ķ ëıĦ
ë İ
ĠìĦ¸ ë¯¸ëĤĺ
Ġê°Ģ ëł¤
ĠëĶ° ì§Ģ
ĠíļĮ ìĪĺ
Ġíģ´ëĿ¼ ìļ°ëĵľ
ĠíĻĶ ìĿ´íĬ¸
ĠìĦłë³´ ìĿ¼
íĻĶ ìŀ¬
Ġ5 3
Ġìłģ ë¦½
ĠìĹ¬ ê°Ŀ
ĠìĥĿ ìĥĿ
Ġë© ¸
Ġì¤ĳ ê²¬
Ġìŀ¥ ìķħ
Ġìĥģ ì£¼
Ġë§ ĺ
Ġìĸµ ìłľ
Ġìĸĳ ì¸¡
ê³łëĵ± íķĻêµĲ
ìĽĲ ìĿĢ
Ġíĭ° ì¼ĵ
ĠëĦ¥ ìĦ¼
ê²½ê¸° ëıĦ
ĠëĨĵ ì¹ĺ
ìĪĺ ëĭ¹
ĠìĿĮ ë£Į
ĠìĹĩ ê°Ī
Ġëĭ¹ ìĽĲ
ê³Ħ ìĹ´
Ġì§ĢìĽĲ ê¸Ī
Ġìŀ¥ ë¡Ģ
ìľł ì§Ģ
ĠìĤ¬ ëł¹
ĠìĺĪ ìĦł
Ġë§¤ ìĽĶ
ĠëĤ¨ êµ¬
Ġì¹Ń ì°¬
Ġë¨¹ ê±°ë¦¬
Ġëĭ¤ ì±Ħ
ëª¨ ìħĺ
ìĿ¸ ìĥģ
ëĿ¼ ìĿ´íĬ¸
ìĽĲ ëĮĢ
ëŀĳ ìĿ´
ĠëĽ°ìĸ´ ëĦĺ
ĠìĪĺ ë©´
Ġê³µ ë°©
Ġëª¨ ë¥¼
íİĺ ìĿ´ìĬ¤
Ġë°ĶëĢ Ĳ
íĦ° ë¯¸ëĦĲ
ìĬ¤íĬ¸ ëĿ¼
Ġì¶ľ íĮĲ
ĠìĽ ¬
Ġì¡ ±
Ġìŀĳ ê³¡
Ġë¯¸ ì¹ľ
Ġê³łìĬ¤ ëŀĢíŀĪ
Ġë³Ħ ëĭ¤ë¥¸
201 5
Ġê³ł ìłĦ
ì¤ĳìĨĮ ê¸°ìĹħ
ì·¨ ìĹħ
Ġë¬¸ êµ¬
ìĨĮ ìĭľ
Ġê¸° ìŀ¬
ĠìĪĺ ë¶Ħ
íı¬ íĬ¸
ìĽĮ íķĺ
ì§Ģ ë¶Ģ
Ġì½ĺ ìħīíĬ¸
íĨµ ìĿ¼
ĠìĹ´ ê¸°
íĪ¬ ëªħ
ì½Ķ ëĵľ
Ġì§ Ļ
ĠìĿ´ ëª¨
ìľµ íķ©
ë§¤ ê¹Ģ
ìĬĪ íį¼
Ġë¹Ħ íķĺ
Ġíı¬ íĦ¸
Ġíı¬ ì°©
Ġë°ķ ì§Ģ
Ġê´ĳ íĻĶë¬¸
ë£¨ ì¦Ī
Ġìľł ìłĦìŀĲ
Ġìĭľ ìĪł
Ġì¶Ķ ì²¨
ì¢Į ê´Ģ
Ġíķľ ê°ķ
Ġì¤ĳ ê³ł
ĠëĮĢ ëĭ¤ìĪĺ
Ġ9 5
Ġìĸ´ëł¤ ìĽł
Ġì§ģìŀ¥ ìĿ¸
Ġíĸ¥ íķĺ
íķł ê¹Į
ĠíĶ¼ ë¡ľ
ìĦ¸ ìĿ´
Ġì²« ì§¸
ĠìĥĿ ê¸¸
ë°Ģ ë¦¬
ĠíĥĦ íĥĦ
ĠíĪ¬ ê¸°
íĥĢ ìŀĲ
Ġëĭ¹ìĦł ìŀĲ
ĠìŀĲë¦¬ ë§¤ê¹Ģ
ìķĦ ë¬´
ĠêµŃ ìĸ´
Ġìľ¡ ìķĦ
Ġê·¸ëłĩ ì§Ģë§Į
ĠìķĦ ìĭľìķĪ
M C
ìĪĺ ìŀħ
ĠìĪľ íĻĺ
Ġëªħ ë¶Ħ
ìĿ¸ ì¹ĺ
Ġìľ¤ ë¦¬
ĠìĤŃ ìłľ
ĠìłĦ ìĪĺ
Ġë¬¸ ê±´
ìĹĶ íĦ°
êº¼ ë²ĪìĹĲ
ë¯¸ ìĤ¬ìĿ¼
Ġ6 7
Ġìļķ ìĭ¬
ê¹ ¥
ĠìĿ´ íĥľ
ì²¨ ëĭ¨
ìĭ¸ ìĽĢ
ĠíĺĪ ìķ¡
ìĽĮ ëĵľ
Ġì£¼ ë¨¹
ëľ¨ ëł¸
Ġ20 22
Ġíĺĳ ë°ķ
Ġíķľ ë¥ĺ
Ġìľł ìķĦ
ìĭľ ë§Ī
Ġíķľ ë¯¸
ĠíĮ¨ ëĦĲ
Ġê¹Ģ ê´ĳ
201 8
ë¨¼ ìĬ¤
ëłī ìĬ¤
Ġì¦Ĳ ê²ģ
Ġì¹ĺë£Į ìłľ
Ġë¬´ ìĸ¸
S A
ĠìĿ´ìĸ´ ì§Ħ
ĠìĺĪ ìĻ¸
Ġì±Ħ ìļ°
íı¬ êµ¬
Ġë¹Ħ ìĭ¼
ĠëĦ¤ íĭ°ì¦Į
ĠìķĦ íĶĪ
â Ĺ
Ġë°ľ ë§¤
ìħĶ ìķ¼
ê°Ģ ë£¨
Ġìĥģ ê¶Į
ĠëĳĺëŁ¬ ìĭ¸
íĸī ëıĻ
Ġë© ķìĭľì½Ķ
Ġ é
Ġì£¼ ë¥ĺ
ê·¸ ë¦°
Ġê¸° ìģĺ
ìĹĦ ë§Ī
Ġì§Ģ ëĥĪ
ĠìĤ¬ íĿĺ
Ġê°Ħ íĮĲ
ĠCC TV
Ġì¶ľ ê°Ħ
Ġë¦¬ ëª¨
Ġìŀł ìĭ¤
ì§ĳ íĸī
Ġìĸµ ìļ¸
ëĦ¤ íĬ¸ìĽĮíģ¬
Ġë©´ ëĭ´
ìłľ ìĿ¼
Ġì¤Ħ ìĿ¼
ëıĻ ì¡°íķ©
Ġíķľ êº¼ë²ĪìĹĲ
ĠëĶ ´
íĬ¹ ìľĦ
Ġ18 0
Ġìĭľ ëĤĺ
ĠìłķìĿĺ ëĭ¹
Ġë°Ķ ëĭ·
ĠìĥĿ ë¬¼
ĠìĽĲ ë¦¬
ĠìķĪ ê±´
ĠëĬ Ļ
Ġë§Ī ëķħ
ĠìĦľ ëĳĺëŁ¬
Ġëĵ¤ìĸ´ ìĺ¨
ì¤Ģ íĳľ
Ġëįĺ ì¡Į
Ġê³ °
Ġì£¼ ìłĢ
Ġë°ľ ê°Ħ
íķ´ ìĻ¸
ìĿĺ íķĻ
ê³µ ìłľ
Ġíķ¨ ìľł
Ġê²¬ íķ´
Ġê³µ ìĦ¸
ĠìĪĺ ê°ķ
Ġ X
ĠìĽĲ ì²ľ
Ġëª¨ ë²Ķ
ĠìĻľëĥĲ íķĺë©´
êµ¬ ë¦¬
o f
ëŀľ íĬ¸
å °
ê²Ģ íĨł
Ġì¦Ĳê±° ìĽĢ
Ġìłķ ìĦ¸
ĠíĨ ¡
Ġëĭ¤ ìĿ´ìĸ´
ê·¸ ëłĪìĿ´ëĵľ
Ġì¦Ŀ ëĮĢ
ì¶Ķ íĸī
ìĤ¬ ìłķ
Ġìĭ¬ ìłķ
ĠìĥģëĮĢ ë°©
Ġìŀ¬ ë°ľ
Ġê¸° ì§Ģ
ìĤ¬ ëł¹
ĠìĿ¼ ìĦł
Ġêµ ½
ĠìĤŃ ê°Ĳ
ëĦ Į
Ġê±¸ ë¡ľ
Ġë°° ìĨ¡
ìĺ¤ ë¥¸
Ġì¸¡ ê·¼
Ġì¶Ķ ìĤ°
ĠìĦłìĪĺ ëĭ¨
Ġìķł ìłķ
íķĦ ìļĶ
Ġëĭ ĺ
Ġì¢ħ ìĤ¬ìŀĲ
ĠìĦł ë³Ħ
Ġê±° ìĦ¸
ĠìĥĿìĤ° ëŁī
ìłĢ ìĬ¤
Ġì±Ħ ë¬´
Ġê¸Ī ìĨį
Ġëĵ Ģ
Ġë¡ľ ëĵľ
Ġë¶Ħ ê¸°
B A
ĠìĬ¬ ë¡ľ
Ġëĵ±ë¡Ŀ ê¸Ī
Ġê·¸ ìķ¼ë§Ĳë¡ľ
Ġì£¼ ë°©
ĠíĻ© ìłľ
Ġê°Ģ ìĤ¬
Ġíķ´ ìķĪ
ĠìĪĺìĽĲ ìĭľ
ê²½ ì£¼
ĠìķĦ ëĤĺ
Ġë¬¸ ìĦľ
ëĿ¼ ìĹĺ
Ġë²Ī ìĹŃ
Ġì£¼ ìĨĮ
ë¸Ķ ë¡Ŀ
íħ Ģ
å Ń
ĠëĶ° ìł¸
Ġëĭ¨ íĸī
Į Ĺ
Ġìĺ¤ ë¥¼
ìĹ¬ ê¸Ī
Ġë°Ķ ê¹¥
ĠìķĪ ë°©
ëįľ ëŀĢëĵľ
ĠëĨĢ ëŀĲ
ë¶Ģ ë¶Ģ
íĪ °
ìĤ° ëĭ¨
ĠìĬ¹ ìļ©ì°¨
ĠëıĮ ëł¸
Ġê°ĳ ìŀĳ
ĠìĿĳëĭµ ìŀĲ
ë¦Ń ìĬ¤
Ġíı¬ ìĬ¤íĬ¸
ĠëĤĻ ëıĻê°ķ
ìĺ ¹
ìłľ ìŀĳ
ìĨĮ íĨµ
Ġëĵľ ë¡ł
íĴĪ ì§Ī
ĠìĪĺ ìľĦ
ëĤĺ ìĺ¤
ĠìĽĶ ê¸ī
ĠìĿ¸ ìłĳ
ĠíĥĦ ìĨĮ
ë°ľ íĳľ
ê³ §
Ġë©ĺ íĨł
ìĸ´ ë¦¬
ëĮĢíķľ ë¯¼êµŃ
Ġê´ĳ ëªħ
Ġê³łëł¤ ëĮĢ
ìĸ¸ ëįĶ
Ġìµľìļ° ìĦł
Ġ6 6
ĠìĿ´ ë¦¬
ì» ·
Ġê·ľ ëªħ
íĪ¬ ìĪĺ
7 4
ë¦¬ ì¼ĢìĿ´ìħĺ
Ġëªħ ìĦ±
Ġê´Ģ ì¤ĳ
Ġì£¼ ê°Ħ
Ġê³µ ì¤ĳ
ĠëĲł ì§Ģ
ìłĦ íĻĺ
ëĮĢ ìļ°
Ġíĺĳ íļĮ
Ġë²Ī íĺ¸
ì£¼ êµ°
201 6
ĠíĹ Ľ
íķĺ ëĬĺ
ĠìĹ° ìĦ¸ëĮĢ
Ġëª» ì§Ģ
ĠëıĦ ëįķ
Ġìŀ¬ ê³ł
ëįĺ ê°Ģ
ĠëĶĶ ìŀĲìĿ´ëĦĪ
Ġê³µ ê¸°ìĹħ
ĠìĻ¸ ì¹ĺ
ì İĦ
ĠíĬ¹ íĺľ
ëĿ¼ìĬ¤ íĭ±
ĠëĤ ļ
ìłķ ëıĦ
Ġë¶ģ ë¶Ģ
ëĨį êµ¬
ëĸ ¼
ì¹´ íİĺ
Ġë°ĺ ìłĦ
ëĶ ¸
Ġëĭ¨ ëĭ¨
Ġë¡ ł
ë©Ķ ìĿ´ìħĺ
Ġìĥģ íķľ
ĠëĿ¼ ê³ł
ĠìĽĲìŀĲ ëł¥
ë¬¼ ìĤ°
í Ī¼
ĠìĻ¸ ëª¨
ĠìľĦíķ´ ìĦł
Ġìĥ ĺ
Ġë©ĭ ì§Ħ
ĠìłĢìĨĮëĵĿ ì¸µ
Ġê´Ģ ìĹ¬
ì§Ģ ëĭĪìĸ´
ĠìĿ´ ë¡Ģ
ĠìĪĺ ì§Ī
Ġíķľ ê¸Ģ
Ġê´Ģ ìłĪ
Ġë³´ ìłĦ
Ġíĸī ì§Ħ
ê²½ìĺģ ìŀĲ
Ġ6 3
Ġë°ĽìķĦëĵ¤ ìĹ¬
Ġ6 9
E S
ĠìĬ¤ ì¼Ģ
Ġë¶Ģ ëŁ¬
Ġìĥģ ìĭ¤
Ġë° ´ëĵľ
Ġì¢ħ ìłĦ
ëª¨ ëĵł
ĠëĤ´ ì£¼
ĠëıĦ ëĦĲëĵľ
Ġê°Ĳ ì§Ģ
Ġì¹ĺ ìľł
ê¸° ë¶Ģ
ĠìĨĲ íĿ¥ë¯¼
ĠìĤ¬ íĽĦ
Ġìĸĳ ìĭĿ
Ġë²Į ìĿ¸
Ġíķ´ ë²ķ
Ġê´Ģê´ĳ ì§Ģ
Ġê¸ī ìĭĿ
ìĿ¸ ìĭĿ
Ġê²Į ìŀ¬
Ġë°° ìĥģ
Ġê°Ģë§Į íŀĪ
ĠìĪĺ ìĹ¬
ĠìĿĮìĭĿ ìłĲ
ëĮĢ ìĿĳ
íı¬ ë¨¼ìĬ¤
Ġíķ¸ ëĵľ
Ġê³µ ì§ģìŀĲ
ê¸ī ìĹ¬
Ġì±ħìŀĦ ì§Ģ
Ġì¢ĭìķĦ íķĺ
ìļ° ìĪĺ
Ġëª¨ ëŀĺ
Ġì§Ģ ì£¼
ĠìĬ¤íģ¬ ë¦°
ĠìĹ´ ë¦´
íħĮ ìĿ´ëĦĪ
Ġ7 2
a y
Ġë³´ìĹ¬ ì¤Ģ
ĠìĹħ ê·¸ëłĪìĿ´ëĵľ
Ġëħ¼ ìŁģ
ìħĶ ëĦĲ
ì¡° ë¦¬
ë° Į
ìĽĲ ìłĦ
ì ı
Ġë§Ī ìĬ¤íĦ°
ĠíļĮ ëıĻ
Ġìļ° ì¦Ī
Ġì¹ĺ ìĨŁ
Ġê¹Ģ ìĪĺ
ë³´ ì¡°
íıī ëĵ±
Ġì¡° ë¦¬
Ġìŀ¬ íĻľ
Ġëĵ¤ìĹ¬ ëĭ¤ë³´
ĠìŀĦ ë¬´
ìłĦ ìĦł
ë¡ľ ìĽĢ
Ġìĭ¤ íļ¨
ĠìĹ¬ ìĦ¯
ĠìķĦëĭĻ ëĭĪê¹Į
ĠìłĦ êµĲ
ìĤ¬ ë²ķ
Ġë°Ķ ìľĦ
ìĬ¤ ì¿¨
ĠE U
ĠíĥĢ ìŀĦ
Ġíİ¸ ìŀħ
Ġê°Ģ ë§¹ìłĲ
Ġê¸° ëıĦ
ìľł ìĨĮ
Ġíģ¬ ëĭ¤
P S
Ġì½Ķ íĬ¸
íĿ ĳ
ìłķ ê¸°
ĠíĮ¨ ëŁ¬
Ġìĸ´ëĸ ¨
ĠëıĻ íĻĶ
íĤ ´
ë©´ìĦľ ëıĦ
Ġìŀ¬ ì§ģ
Ġ m
ë°° ìĥģ
Ġê²°íĺ¼ ìĭĿ
ĠëĦĺìĸ´ ìĦ°
Ġêµ¬ ìĦĿ
Ġëĭ¹ ì²¨
Ġë¶Ļ ìĹ¬
ĠìľĦìķĪ ë¶Ģ
ëĨį ê°Ģ
ĠëĤ´ ìĻ¸
ìºĲ íĶ¼
Ġìĭ¤ ë¦¬
ë¶ģ ëıĦ
Ġë¬´ íķľ
201 7
Ġìłľ íľ´
ëĿ¼ ê¸°
Ġêµ¬ ìĹŃ
Ġíķĺ ìĸĢ
Ġì¡°ìļ© íŀĪ
Ġêµ¬ ë©į
ĠìķĪíĥĢ ê¹Ŀ
ìľ Ļ
Â ²
O S
ìµľ ê³ł
8 9
Ġ è
Ġê°Ģ ì¤ĳ
Ġë¹Ħ íĥĢë¯¼
Ġíĥľ ìĸ´ëĤľ
ĠëĿ ł
ìŀĳ íĴĪ
ĠìĿ´ ì£¼
ìĸ´ ë¨¸ëĭĪ
Ġê°Ģë¥´ ì¹ĺ
ë» Ĳ
Ġìľ Ī
ĠíķŃ ë§Į
ĠìĬ¤ íĭ°
Ġê´ĳ ìĸĳ
ĠìĹ´ ì°¨
íķĺ ë£¨
ĠìłĦ ì§ģ
ĠìĤ´ìķĦ ëĤ¨
ĠìĪĺìĭľ ë¡ľ
Ġëŀ Ń
Ġìĺ µ
ĠìĬ¤ìľĦ ìĬ¤
Ġëĭ´ëĭ¹ ìŀĲ
ĠìŀĲ ìĺģìĹħ
ëĳ ¬
ì²ľ êµ°
ìĥĿ ë¬¼
ëĤĺ ëĪĶ
Ġë¬´ ìĿ¸
ĠëĤł ì¹´
ê¸Ī ìĨį
201 2
ìĹħ ì¢ħ
ĠìķĦìĿ´ ëıĮ
ìĦľ ì¹ĺ
ĠìĦ¸ íı¬
ĠìĿ¸ íĦ´
ĠëĳĺëŁ¬ ë³´
Ġê³ł ìŀ¥
ĠìĦ± ìĭ¤
Ġë®¤ ì§ģ
M A
Ġë§Ī ë¥´
Ġê¸° ìĺ¨
Ġìĭľ ê°Ģ
ĠìĿ¸ íħĮë¦¬ìĸ´
ê³µëıĻ ì²´
ëĦĪ ìĬ¤
ì§Ģ íķĺ
ĠíĦ° ìł¸
Ġëıħ ëıĦ
Ġ13 0
Ġìľł ìĤ°
ĠìĿ´ ìĬ¤
Ġë§ŀ ì¶ĺ
ë°© ìĹŃ
ëĳĲ ê¸°
ĠìĿĺë£Į ì§Ħ
ĠíĶ¼ ìĿĺìŀĲ
ì¶ľ ìĤ°
ĠëĪĦ ë¥´
h t
ë¡ł ê°Ģ
ĠìķŀìĦ¸ ìĽĮ
ĠìĦ±ìŀ¥ ìĦ¸
ĠíĦ° íĤ¤
ë¹Ħ ìĦľê´Ģ
ĠìķĪ ìĦ±
Ġì¾Į ìłģ
E C
ìłĦ ë¶Ģ
Ġì´Ŀ íļĮ
ĠíĻĶ íķ©
ìºł íį¼ìĬ¤
Ġë³´ íĸī
Ġì°¨ ìŀ¥
Ġì§Ģ íĺľ
Ġìĭł ê¸°
Ġìĸ¼ ìĿĮ
ĠëĨĵ ìĹ¬
ĠíĨł ë¡ľ
ĠìĿ¸ ë¯¼
Ġì§Ĳ ìŀĳ
Ġìłľ ìŀĲ
Ġë§ī íĮĲ
ĠëĳĶ íĻĶ
Ġì¡° ìľ¨
ĠëĤ´ëĭ¤ ë´¤
Ġê°ķ ëł¬
ĠëĨį ìŀ¥
ëĤĺ ê°Ķ
íĥĿ ìĭľ
o t
ĠíĭĢ ë¦¼
ĠìłĦ ì§Ģ
ê²¨ ìļ¸
ìļķ ìŀ¥
ìłł ê°Ģ
Ġë°ķ ìĽĲ
ĠíĮĮ íĭ°
Ġíĥģ ìĽĶ
Ġêµ µ
Ġìĸ´ ìĦľ
ï¼ į
Ġê³¼ ìĭľ
ĠìĨ Ł
Ġê¸Ī ë°©
ĠìĿ¼ íĸī
ëıĻ ìĥĿ
8 5
Ġì²Ń ìŀ¥
ìĦĿ ìľł
Ġëªħ ìĿĺ
Ġì±ħ ìłķ
ĠíķĺìĿ´ ë¸Įë¦¬ëĵľ
ĠìĪĺ ì°¨ë¡Ģ
æ ķ
ìĪĺ ëĭ¨
ĠìıŁìķĦ ì§Ģ
ìĬ¤ íĮħ
Ġìľ¡ êµ°
Ġìŀ¬ ë°Į
ĠìĤ ½
Ġìĺ¬ ë°Ķë¥¸
ĠìĪľ ìĦľ
ĠëıĻìķĦ ë¦¬
Ġì°½ ë¬¸
ì§Ģ ìĭĿ
ãİ¡ )
íģ´ ëŀĺ
Ġëĭ¤ ë£¬
ĠêµĲ ìĽĲ
an d
ëĤ´ ìļ©
Ġê¹Į ëĭŃ
7 1
ĠëıĦ ëª¨
Ġìĥī ìĥģ
ĠíĨł ìļĶìĿ¼
Ġìłĳê·¼ ìĦ±
ê²½ìŁģ ëł¥
Ġìĵ° ìĿ´
ĠíĹ¤ ìĸ´
Ġê±´ ìłĦ
9 5
ĠìłĦ ê²©
ê±´ ë¹Ħ
ĠìĬ¤ ìĽ¨
Ġì²´ ê°Ĳ
ĠìĿ¼ìłľ íŀĪ
ĠëĤĺ ìķĦ
Ġê³łìĸĳ ìĿ´
ĠìķĦ íĬ¸
Ġë²Ķ ìĿ¸
Ġë§¤ ì§Ħ
ìłķ ê¶Į
Ġë§Ī íģ¬
ĠìľĦ íķĺ
ìķ ±
Ġê³Ħ ì¸µ
Ġì§Ģ ê²½
Ġì±Ħ ìĨĮ
Ġë°ľ ê¸¸
ĠëĿ¼ìĿ´ ë¸Į
Ġëª© ê²©
Ġë©Ģ íĭ°
ìĽĥ ìĿĮ
Ġë¶Ģ ë¦¬
ĠìĤ¬ ì°°
ĠíĴį ìĦ±
Ġê²½ì°° ê´Ģ
ëĭ¨ ìľĦ
ĠìĪĺ ëħĦ
Ġê°¤ ëŁ¬ë¦¬
Ġë¬¸ ìŀ¥
ĠìĭľëĤĺ ë¦¬ìĺ¤
ìĬ¤ëŁ¬ ìĽĮ
a d
ëĬĲëĥĲ ëĬĶ
ìĿ¼ ì§Ģ
ê³łìĨį ëıĦë¡ľ
ĠìĥĪ ëģ¼
ĠëĦĺ ìĸ´ìĦľ
ëĵľ ë¡ľ
ĠìĹ¼ ëĳĲ
ĠíĸĪ ìľ¼ëĤĺ
ĠíĨµ íĸī
ĠëĤ´ ë³´
ĠìĦ± ìĤ¬
ĠëĤ¨ ê¸´
Ġìĸĳ ìª½
ĠìĦ¸ ëł¨
ĠìĹ ĳìĬ¤
Ġì°¸ìĦĿ ìŀĲ
ĠìĹ° ìķł
ĠëıĻ íĸī
Ġë°ķ ìĺģ
Ġì§Ģ ëĤ¬
ë§Ī ì¼ĢíĮħ
ĠìĪĺ íĻķ
Ġê¸īê²© íŀĪ
Ġë¶Ļ ìĿ´
Ġìĺ¤íĶĦ ëĿ¼ìĿ¸
ìļ° ìĬ¹
Ġì§Ģ ëĭĪ
ìĿ´ ëŀĳ
Ġíĸī íĥľ
Ġìłģ ëĭ¹
Ġë§Ī ìĿ´ëĦĪ
o T
ìĹ° ìĪĺ
Ġê¸ī ëĿ½
ĠìĽĲ ê²©
ĠëıĻ ìĦľ
Ġìĺ¤ íĨł
ĠìķĪ ëĭ¤
ìĨĮë¹Ħ ìŀĲ
Ġê¹ ĥ
Ġì¶Ķ ê²©
Ġëľ¨ ê²ģ
ë¬¼ ê°Ģ
Ġìľ¤ ìĦĿ
ë³´ ìķĪ
ê°ľ ìłķ
ëłĪìĿ´ ìħĺ
Ġíħ į
Ġíı¬ íĬ¸
ëŁ¬ìĬ¤ íĦ°
ì£¼ ìĸ¼
ĠëĶ ľ
ĠëĦ Į
Ġíĺķ íİ¸
ĠìĿ´ ëħĲ
Ġìº ĺ
ĠíĻķ ë¥ł
ĠìĹ° ìĥģ
ê¶Į ëł¥
Ġëªĩ ëªĩ
ìĦ¼ íĭ°ë¸Į
Ġì²Ń ìĽĲ
ĠìĹ´ ìķħ
Ġìĭł ìŀ¬
Ġìĺģ ìĽħ
ìľĦ ìķĪ
ĠíķľêµŃ ìĿĢíĸī
Ġìĭľ ì¼ľ
íī ģ
ìĻ¸ êµĲ
Ġë¶ĢëĵľëŁ¬ ìļ´
Ġë¬´ ëł¥
Ġíģ´ ë¦°
Ġëĥīìŀ¥ ê³ł
ê²½ê¸° ìŀ¥
ĠìĿ´ë ¤ĺ
4 00
201 4
Ġ"âĢ¦ âĢ¦
ĠíĶĦë¡ľ ëª¨ìħĺ
Ġíİ¼ì³Ĳ ì§Ħëĭ¤
Ġë¦¬ ìĸ¼
Ġ199 8
ĠíħĶ ëłĪ
ê°ķ íĻĶ
Ġìĸ ½
íİĺ ìħľ
ì¼ Ī
Ġê¹Ģ ë³ĳ
Ġìĥģ ìĭĿ
8 00
ì²´ ìĿ¸
Ġê±´ ëĦ
Ġëıħ ìłĲ
Ġìłķ ìĪĺ
Ġíį¼ íı¬ë¨¼ìĬ¤
Ġì¦Ĳ ê²¨
ĠìķĦë¦Ħ ëĭµ
L S
Ġìļ´ ìĨ¡
ĠìĪĺ ìĥī
Ġìĭ± ê¸Ģ
ĠìĤ¬ ëª¨
ê°Ĳëıħ ìĽĲ
ĠìĹ° ëĤ´
Ġ6 2
ê²¨ ì§Ħ
Ġê¸ī ê°Ĳ
ìĤ¬ ê¸°
ĠìŀĲì¡´ ìĭ¬
Ġìļķ ë§Ŀ
Ġê³ł ìĿ¸
Ġë¹Ľ ëĤĺ
ë§¤ ìĪĺ
ëľ °
Ġêµ° ë¯¼
íĥĢ ìĿ´
Ġë¹Ħ ê²°
ĠëĨį ìĤ¬
Ġëª¨ ìĭľ
Ġê³µ ë°±
Ġíĺ¸ ê¸°
Ġì±ħ ìĥģ
Ġë³´ ê°ķ
Ġì§ĢìĹŃ ë¯¼
Ġê²½ ìľĦ
Ġë²¤ ì¹ĺ
ĠíķĻ ìĹħ
ï¼ ħ
ìĹ¬ ëĮĢ
Ġíĥľ ê·¹
20 10
ëĵł ëĭ¤
Ġê¸° êµ¬
Ġëĭ¨ ìĽĲ
Ġëĭ¤ ë¥¼
ĠíĻĶ ìĥģ
Ġê°Ģ ì§ľ
ìĦł ìĥĿ
Ġë²Ħ íĭ°
ëıĦ ë¯¼
Ł ìĪĺ
ĠíĥĿ ë°°
Ġì£¼ ê³ł
ë¬¸ ìŀ¬ìĿ¸
Ġì¦Ŀ ì§Ħ
ĠF A
Ġìĺ¨ ìĭ¤
ĠìĤ¬ ê°ģ
ë¹ Įë¦¬
Ġìĺ¨ ê°ĸ
Ġê°ĲìĤ¬ ìĽĲ
Ġê±´ ì§Ģ
ĠëĨį ë¦¼
Ġëª¨ ìĿ¸
Ġê±° ëĳĶ
Ġíķ «
ìĥ ·
ĠëĮĢ ë¥Ļ
Ġëĵ± ì§Ģ
Ġìĭľ ê³¨
201 3
ĠìķĦ ê°Ģ
ĠìĦľ ìĦľ
ĠìŀĲ ë¶Ģ
Ġìĺ¨ ëª¸
ĳ ¤
Ġêµ¬ íĺ¸
Ġíķ´ ì²´
Ġë° ¸
Ġìĭľ ì§ĳ
íĭ° ìĬ¤íĬ¸
ìĹ° ë£Į
Ġë¡ ¤
Ġê³ł ë¥´
é ģ
íĬ¸ ëŀĻ
ĠìĬ¤ íĤ¤
ì£¼ ëıĦ
ĠëĳĲëł¤ ìĽĢ
ĠìľĦ ìĥĿ
ĠëįĶìļ± ìĿ´
ëĲľëĭ¤ ë©´
ëĳ¥ ìĿ´
ëĦ ĵ
å į
Ġë©Ķë¥´ ìĬ¤
ĠëĤ¨ ìª½
Ġ6 000
Ġìľł ë£Į
ëĶĶ ìĬ¤íĶĮëłĪìĿ´
Ġë§¤ ì¹ĺ
ĠìĿ´ ë³ĳ
Ġ199 9
ĠìĹ´ ëł¤
Ġê³ł ìĭľ
êµĲìľ¡ ê°Ĳ
ëĵľ ëŁ½
ĠìĽĲ ì£¼
íļĮ ìĽĲ
ĠëıĻ ë§¹
Ġëĸłìĺ¬ ë¦¬
ì§Ģ ìĥģ
ë°Ķ ìĿ´íĬ¸
Ġì²Ń ìĤ°
ìº Ķ
Ġì£¼ê³ł ë°Ľ
Ġêµ¬ ê²½
Ġìļ© ìĦľ
ĠìĥĿ ìķł
Ġë°ķ ëŀĮíļĮ
Ġë¡ľ ë§¨
íĥĢ ìłĲ
ëł¥ ìĤ¬
Ġìķł ëĭĪ
Ġê¸´ ë°Ģ
ĠëĿ¼ìĿ´ íĶĦ
Ġì¦Ĳ ê±°ìļ´
ĠìłĦ ìĦ¤
íĿ ł
ĠìĬ¤ íĶĦ
Ġê¼¬ ì§ĳ
Ġì»¤ ì§Ī
Ġëª¨ ê¸Ī
ĠìĪĺ íĺľ
ĠíĮĮ ì£¼
ëĵľ ëł¸
ëĭ´ ë³´
ìĤ° íĻĶ
8 7
ì§Ģ ë¡ľ
Ġê¸Ī íĴĪ
ìłĢ ê¸°
Ġëĭ¤íĸī íŀĪ
ê ½
Ġë§Ī ìķ½
æ °
Ġíļ¡ ëł¹
ĠìĹ° ìĿ´
ĠìĿ´ ëŁ´
Ġê´´ ë¡Ń
Ġìŀ¥ ìĦ±
íĮ Ŀ
Ġìļ° ìľł
ĠíıĲê¸° ë¬¼
ĠìłĦ ìĭł
ĠíĮ Ŀ
ê²° ìłľ
Ġ199 7
IS T
Ġíķł ê¹Į
Ġë¬´ìĥģ ê¸īìĭĿ
Ġíģ¬ë¦¬ìĬ¤ ë§ĪìĬ¤
ìłľ ìķ½
ë¦¬ ì¡°íĬ¸
ĠíĻĺ ìĥģ
ĠìĦ¸ ë¬´
ê³¼ ê±°
ĠíĹ ĺ
íĥľ ë£Į
Ġìŀ¬ íĺĦ
íĻĶ íıĲ
ĠãĢ Ĭ
Ġëĭ¬ ëŀĲ
ĠìĤ´ íĶ¼
ìļ° ì£¼
Ġì¤Ħ ê¸°
Ġê³ł ì§ĳ
íĬ¹ êµ¬
Ġê°Ĳ ëĭ¹
ĠëĪĦ ëĤĺ
ĠâĢ Ļ
Ġê°ĲìĹ¼ ë³ĳ
ëĬ ¬
Ġìĸ´ ë¦¬
Ġìľł ìĬ¹
Ġìĭłíķľ ìĿĢíĸī
Ġëįĺ ìł¸
ĠíĬ¹ë³Ħ ë²ķ
ĠìĹ´ íĴį
Ġë°©ë¬¸ ê°Ŀ
Ġìĭľíĸī ëł¹
ĠìĪĺ ìĬµ
ĠêµŃìĦ¸ ì²Ń
ĠìĤ° ìłķ
Ġìĸĳ ë³´
Ġë°Ģ ì§ĳ
E CD
ìłķ ìĿĺ
ëĬĲ ë¦¬
ì²ľ ì§Ģ
ãĢ ĭ
ëĶĶ ì§ĢíĦ¸
Ġë¶Ģ ëĵľëŁ½
Ġìļ© ëıĦ
Ġê±´ ëĦ¤
ë° ´ëĵľ
ĠìķĮ ëł¸
ĠíķŃ ê³µìĤ¬
ĠìĽĲ ê³ł
ĠM C
ĠìĿ´ë£¨ ìĸ´ì§Ģ
Ġë¹Ħ ìĭ¸
ĠìĨ¡ íĮĮ
ìĦ¸ ì¢ħ
Ġë¯¸ íĿ¡
ĠìĬ¬ íĶĶ
ìĿ¸ ê°Ħ
Ġë²ķ ì¡°
Ġë¨¸ ë¦¿
Ġë¨¼ ì§Ģ
í ĳ
ĠìĦ¸ ìłľ
Ġì§Ħíĸī íķł
T S
ĠëĦ¤ ëįľëŀĢëĵľ
ĠìŀĲìĦ¸ íŀĪ
ìĻ¸ ìĦł
Ġì¶ľ ëıĻ
íĪ¬ìŀĲ ìŀĲ
Ġê³ł ì¡°
ĠíĶ¼ ìķĦ
ĠìĬ¤ íĥł
ê°ķ ìĽĲ
M S
ĠíĮĮ ê²©
Ġíĳľ ë©´
Ġìķ½ ë¬¼
ê³µ ì²ľ
ĠìĿ´ìĬ¤ ëĿ¼ìĹĺ
Ġê³ ±
Ġìłķ íķľ
ì°½ ìĽĲ
ìĹŃ ëŁī
Ġë³µ êµ¬
ĠëĮĢì¤ĳ êµĲíĨµ
ĠìļĶ ìĸĳ
Ġìĭľëĭ¬ ë¦¬
ìĥģ ìĬ¹
Ġë°° íı¬
Ġëľ ¬
ĠëĤ´ëħĦ ëıĦ
Ġë©´ ìĦ¸ìłĲ
Ġìłĳ ì¢ħ
Ġë³´ ëĤ¼
ì§ķ ê¸Ī
ĠëĤ´ ê±¸
ĠìĤ° íķĻ
Ġìĥģ ìłķ
ĠìĿ´ ëª©
ĠìĿ´ ìĬ¬
ĠíĶĦ ë¦°
Ġëı¼ ìĦľ
Ġìľł ê°Ĳ
ĠíĥĢ ìľ¨
ì°¨ ìĽĲ
Ġìŀ¡ ìķĦ
Ġë°ķ ìĦ±
9 7
ĠíĺĦ ì§ģ
Ġë§¤ ëıĦ
Ġê°Ģ ëĿ¼
Ġê¹Ķ ëģĶ
ĠìĪ¨ ì§Ħ
Ġìµľ ê°ķ
ìļ´ ìĦľ
Ġìķŀ ëĭ¹
ë§ µ
c m
ĠíĨµìĿ¼ ë¶Ģ
ĠëıĻ íĸ¥
Ġìĭł ëıĻ
Ġíĺ¸ íıī
Ġê°Ĳ ìĪĺ
ëĥĲ ë©´
ëĮĢ ìŀ¥
Ġëĭ¤ìĿ´ìĸ´ íĬ¸
Ġì¤ĳ ê¸°
ìŀĲ ê²©
Ġìķ¡ ìħĺ
Ġìĭ¤ ìļ©
ĠìĿ´ ë¥¼
Ġë¬´ ìŀ¥
ĠíĥĪ ëĭ¹
ĠíĿ ©
Ġì´Īëĵ± íķĻìĥĿ
Ġë½ Ĳ
ìĭľ ë¦½
ĠìłĢ íķĺ
ë¯¼ ì¡±
ĠëĤ ¡
Ġê²½ì°° ì²Ń
Ġê³µê°Ĳ ëĮĢ
ĠêµĲ ìĦŃ
Ġê½ Ĥ
Ġê¸° ê°ģ
Ġë°Ģ ìĸĳ
ĠìĹ° ëıĻ
ĠìĽĶ ìĦ¸
íĺĦ ìĥģ
ë© Ģ
Ġì¤ĳ ê³Ħ
ĠíĽĦ íļĮ
Ġ11 0
Ġë°± ìĦ±
ĠëĪĦ ë¦´
ëĿ¼ íģ¬
íķĺ íķĺ
Ġê¹Ģ ì§Ģ
Ġìłķ ìľł
ĠíĦ° ì§Ģ
Ġê¶ģê¸Ī ì¦Ŀ
Ġìŀł ìłķ
Ġë³´ ë³µ
ëĿ ł
ëŀľ ì°¨
ì§ĳ íļĮ
ĠìĿ¸ ìĦ¼íĭ°ë¸Į
ëıĦ ìĸ´
ĠëĳĲ ëĵľëŁ¬
Ġëª¨ ìĿ´
Ġê°Ģ íķĺ
Ġê²¬ ìĿ¸
ë¶Ģ ìĿ¸
Ġìľł ìļ©
ĠíĮ ©
ĠìĿ´ ëĮĢ
Ġë©Ķ ìĿ¸
ë°± ì§Ī
íĥĢ ìĿ´ìĸ´
Ġíķĺ ì²ľ
ĠíĥĢ ìĿ´ìĸ´
ĠëĤ´ìĦ¸ ìļ°
G B
ëŀľì°¨ ìĿ´ì¦Ī
ĠëģĪ ëĭ¤
ì§Ħ ë£Į
Ġë¶ģ ì¸¡
ë¬¼ ëŁī
ìĨĮ ìĹ°
ĠíĿ ł
T O
Ġì²Ń ì·¨
ë§Ī ìĿ´
ë¬¸íĻĶ ìŀ¬
Ġìļ© ìĸ´
ìħĶ ì¸ł
ëĭ¤ ë©´ìĦľ
ĠëıĦ ìĦľ
Ġì° ¢
Ġ7 7
Ġìķ µ
ëıħ êµĲ
ê´ĳ ë¶Ģ
Ġì¦Ŀê°Ģ ìĦ¸
ĠB MW
ĠI B
ĠKT X
Ġê¸° ì¦Ŀ
P A
Ġì°¾ìķĦ ë³´
Ġë³´ íİ¸
Ġëĭ¹ ëĩ¨
ĠìĦľ ìĸĳ
ĠS UV
Ġë§Ī ëĶĶ
ê¼ ½
Ġìłľ ë³´
ĠëĤĺ ìģĺ
Ġë¹¨ ê°Ħ
íĬ¸ ë¡¤
ĠëıĦ ëĭ¬
Ġê°ķ ì¢Į
ĠìĥģíĴĪ ê¶Į
ëĵľ ë¦´
Ġì¦Ŀ ìĦ¸
Ġìµľ ìĪľ
Ġì²Ń ìĤ¬
ìĺµ ëĭĪëĭ¤
ìŁģ ìĿ´
Ġìķ¼ ìĥĿ
ì²ĺ ìĿĮ
Ġë´ ħëĭĪëĭ¤
D A
ĠìĨĮ íıŃ
Ġê³µ ì¡°
Â ł
ëħ¸ëıĻ ìŀĲ
" âĢ¦
Ġê·¸ë¦¼ ìŀĲ
Ġ of
ĠëĮĢë²ķ ê´Ģ
Ġê°Ģë²¼ ìļ´
ëı¼ ì§Ģ
ìŀĲ ìŀ¬
ĠëĪĦ ìĽĮ
Ġë²Ħ ë¦°
Ġê´Ģ íķł
Ġì¶ľ ìłľ
íĨµ ìłľ
Ġëĭ¹ ê¸°
Ġê¾ Ģ
ëħ¸ íĬ¸
Ġë¦ °
ĠìĿ¸ ê±´ë¹Ħ
Ġíķľ ëĳĲ
Ġë¯¸ ë¤Ħ
Ġë§¡ ê¸°
Ġìĭ ¹
Ġê³¼ íĥľë£Į
ëĭ¨ ëĭ¤
Ġ v
ìĥ µ
Ġìľł ê°Ģì¡±
ëħ¸ëıĻ ë¶Ģ
ëª¨ ì§ĳ
ĠìľĦ ìĦ±
Ġìĺģ íĺ¼
Ġì¡° ì§Ģ
ë°ĺ ëĮĢ
Ġê¸´ìŀ¥ ê°Ĳ
Ġê·ľ ì¹Ļ
Ġê°ľ ê·¸
Ġ b
Ġìĺ¤ íİĺëĿ¼
Ġìļ° ëĮĢ
ì§Ģ íĳľ
Ġë¶Ģ ìĬ¤
Ġê±´ì¶ķ ë¬¼
ë¹Ħ ë¦¬
æ Ń
ĠëĨį êµ¬
ìĿ´ ìłĦ
ê´ĳìĹŃ ìĭľ
ëĤ ®
âĢ §
ĠìŀĲê²© ì¦Ŀ
ëĺ ĳ
Ġì²ĺ ë°©
ê¸° ìķĦì°¨
Ġì¡° ìĦ¸
ĠëıĮìķĦ ìĻĢ
E R
Ġê·¸ ê¹Į
ëĭ¹ íķĺ
ëŀį ëĭĪëĭ¤
-- --
Ġì¤Ģ ìĪĺ
Ġì²ł ìĪĺ
Ġëªħ ë¬¸
ì±Ħ ê¶Į
ĠìķĪ ìĤ°
ìŀĳ ìłĦ
ĠëĳĲ ë£¨
Ġë¹¨ ëĿ¼
Ġê³ł ì§Ģ
íĻ ī
ĠìĽ °
7 3
Ġê²½ìĺģ ì§Ħ
Ġê¸°ëĭ¤ ëł¸
ìŀ¥ ìĤ¬
ĠìĹ° ìĿ¼
Ġë©Ķ ëĭ¬
Ġì¢ħ ì¢ħ
ëĨĴ ìĿ´
Ġ6 1
ĠíĹĪ ëĿ½
' âĢ¦
ĠìĹŃ ìŀĦ
ëıĦ ì²Ń
Ġë§Ī ìļ´ëĵľ
7 6
Ġìłķ ìĭľ
Ġëªħ ë°±
Ġìłĳ ìĸ´ëĵ¤
Ġíķ© ìŀĳ
ãİ¡ (
ĠêµŃ ìłģ
Ġë³¼ ê±°ë¦¬
Ġëªħ ëª©
Ġìĸ¸ ìłłê°Ģ
ì´Ŀ ìķ¡
ë§¤ ìŀ¥
Ġìľ¡ ë°ķ
Ġëĭ¨ ë§Ĳ
Ġëļ Ŀ
Ġì ¥
ĠìĹ¼ ëł¤
ë¶Ģ ì¡±
ĠìķĦë§Ī ëıĦ
ĠíĬ¹ë³Ħ íŀĪ
Ġê²° ëĭ¨
ìĿ¸ ëıĦ
ĠìĥĿ ìĿ¼
Ġìĺ¤ëŀľ ë§Į
ĠëĿ¼ìĿ¸ ìĹħ
K B
Ġíķĺ ìľĦ
íĮ¨ ìħĺ
ì°¨ íĶ¼
ì¶© ëĤ¨
Ġì¶ľ êµŃ
Ġë¯¸ ì³¤
ĠìĿĺ ìĥģ
ĠìĹ¬ ìłĦ
Ġê¸°ëĭ¤ ëł¤
Ġë°Ķê¿ Ģ
ĠìĤ°ìĹħ ëĭ¨ì§Ģ
ĠìĦľìĦľ íŀĪ
Ġì¤ĳ ë¶Ģ
Ġíİ¼ì³Ĳ ì§Ģ
ë° ĳ
Ġíķľ ëıĻìķĪ
Ġê¹ĢëĮĢ ì¤ĳ
ìĺĪ ìłķ
ĠëĪĦë¦¬ ê¾¼
ĠíķľêµŃ ìĸ´
íķĻ ë¶Ģ
Ġë¶Ī íĻ©
i d
ã Īľ
201 1
Ġê¾¸ ë©°
Ġë¶Ģ íĮ¨
ĠëķĮ ë¡ľ
ì²´ìľ¡ íļĮ
ë¦¬ íı¬
ëĭ¤ ìĿ´
ĠìĿĮ ìĽĲ
ĠëĤ´ëł¤ ëĨĵ
ĠìĤ¬ìļ° ëĶĶ
Ġìŀ¬ ê³Ħ
íĺ Ĳ
ĠìĨį ìĨį
Ġë¯¼ ìĦł
Ġíĺ¸ ìĪĺ
Ġê°ľ ìĭľ
ë¯¸ ëĶĶ
Ġëĭ¬ëĿ¼ ì§Ģ
ĠìĨĶ ë¡ľ
ĠìĦĿ íĥĦ
ë³µì§Ģ ë¶Ģ
ì¼Ģ ìĬ¤íĬ¸ëĿ¼
ìĭľ ê°ģ
Ġì¡´ ê²½
ĠìķĦëĤĺ ìļ´ìĦľ
Ġì°½ ëĭ¨
Ġìĺ¤ ì§ģ
ìľł ìĺĪ
ìį ©
Ġìľł ê´Ģ
Ġê°Ĳ ìĭ¸
Ġê³¨ ëĵľ
ĠëĤ´ ë¦´
Ġíķľ ìļ°
l o
ëĳĲ ë¥´
ĠìķĦ ëĥĲ
íį¼ ëŁ°ìĬ¤
ĠìĬ¤ íĬľëĶĶìĺ¤
Ġë¬´ìĸ¸ ê°Ģ
Ġì»¨ íħĮìĿ´ëĦĪ
S NS
ìĤ¬ ê´Ģ
Ġê°Ĳ ì°°
ĠêµŃ ì±Ħ
Ġëŀ ĺ
Ġë°° ìļ´
Ġìļ¸ìĤ° ìĭľ
ĠíĤ¤ìĽĮ ëĵľ
ĠìĥģìŀĦ ìľĦ
Ġê³ł ë¦¬
ĠíŀĲ ë§ģ
Ġìłķ ë¡Ģ
Ġ p
ĠìķĦë¦Ħëĭ¤ ìĽĢ
Ġì§ģ ë©´
Ġë°Ķê¿ ¨
Ġì°¾ìķĦ ìĺ¤
Ġëħ¼ ìĪł
Ġê²Ģ ì¶ľ
êµ¬ ëł¤
Ġê¹¨ ëĭ«
Ġêµ¬ ë¦Ħ
Ġìĥģ ìĭľ
ëĮĢ ê¸Ī
ì²Ń êµ¬
Ġ7 4
Ġê²Ģ ê±°
ĠêµŃ ê²½
ëģĦ ëŁ½
Ġê¸° ìĦ±
Ġê³µ ë¬¸
Ġê³¼ ìĦ¸
ĠíĻķ ê³ł
ĠíĨµ ìĤ°
íĭ° ëĤĺ
Ġê¼¬ ë¦¬
ĠìĨĮ íĻĢ
ĠëĵľëŁ¬ ëĤľ
Ġë¨¸ ë¬´
Ġê¸¸ ìĿ´
Ġê° ĩ
íĩ´ ê·¼
ĠìĹĲìĸ´ ì»¨
Ġíļį ê¸°
c t
ìľ¼ ëł¤ëĬĶ
Ġìıł ë¦¬
Ġt v
ĠíĮĮ ìĿ¼
Ġê³¤ ëŀĢ
ìĦ± ëĬ¥
ì£¼ ë¡ľ
Ġë°Ķ ê¾¼
ì£¼ ê¸°
Ġìĭł íĺ¼
ï §
ìļĶ ìĽĲ
Ġëª¨ ìĿĺ
Ġë¶Ħ ëĭ´
Ġìľł ëıħ
ì§Ģ ìłĲ
Ġë¹Ħ ì¹ĺ
Ġê°Ħ íĺ¸ìĤ¬
íĤ ¥
ëħ¸ ìĦł
ìĨĮìĭľ ìĹĦ
íĥĢìŀĦ ìĬ¤
ìļ© ìĹŃ
ê°ľ íİ¸
Ġëĵľ ëĶĶìĸ´
ĠìĦł íĸī
ĠíĿ¥ ë¶Ħ
ìĭĿ ëĭ¹
ĠíĨ¡ íĨ¡
ëĭ Ľ
ìĭľíĤ¨ ëĭ¤
ê¸° ìĨĮ
Ġëĵ± ìĤ°
Ġê³µ ìŀĳ
ĠìĨĮ ì§ĳ
ĠëģĮ ëł¤
ëłĪ ëĵľ
Ġì§Ħ ìłĦ
ĠíĹ¬ ìĬ¤
é ĩ
ëĤ´ ë¦¬
Ġë§Į ìĿ¼
å ±
ëįĶ ìĬ¤
Ġíĺ Ģ
Ġëª¨ìĸĳ ìĥĪ
Ġê¶ ¤
Ġê³¨ ëĿ¼
Ġë§Į ìĦ±
ĠíĨł íģ¬
ĠíĻį ì¤Ģíĳľ
ĠìĨĮ ê¸Ī
Ġì£¼ ìĹ°
E U
Ġë¶Ħ ìĹ´
Ġê³µëª¨ ìłĦ
Ġ8 8
Ġ f
ìłľ ì¡°
ĠëĤľ ëĭ¤
Ġìĭ ¼
ĠìĿ¼ë³¸ ìĿ¸
Ġ" '
ĠìĽĲ ê°Ģ
Ġëľ ¯
Ġë°© íķľ
Ġëī´ ëĶľ
ĠìĿ¼ ìļĶìĿ¼
ìĪĺ ë¦¬
Ġìĸ ĩ
Ġë¬¼ëŁ¬ ëĤĺ
ĠìĿ¼ ì¹ĺ
ĠëĤł ê°ľ
ĠìĤ¬ëĿ¼ ì§Ħ
Ġìľł íļ¨
ĠìĦł ì°©
ĠìĹ ĳ
ĠìĿ¼ìľ¼ íĤ¨
Ġë¶Ģ ìĸĳ
Ġëª° ëŀĺ
ĠíĻľ ê¸°
êµ¬ ìĦ±
Ġëĸ¨ìĸ´ ì§Ī
ì²Ń ë¬¸íļĮ
Ġë°© ìľĦ
ê³ł ëıĦ
ëĮ Ķ
ĠìĦł íı¬
Ġë°ĺ ì§Ŀ
Ġë°ĿíĺĢ ì¡Į
ëĤĺ ìĻĢ
Ġíķ© ìĦ±
ëĭµ ëĭĪëĭ¤
ĠëĦ ī
ĠíıŃ ìĹ¼
Ġì¶ķ ìłģ
ì¤ĳ íķĻêµĲ
Ġê°Ħ ìłĳ
Ġë§ŀ ë¬¼
Ġì»¤ íĶĮ
Ġë¶Ģ ì°©
ĠìłĢ ëŁ°
Ġì¶ľ ìŀĲ
Ġìĭł ì°¨
ĠìķĪ ê²½
ĠíĶĮ ëŀĺ
ë¯¸ êµ°
D C
Ġê°Ģê¹Į ìĽĮ
ì¹¨ ì²´
e m
ëį° ìĬ¤
Ġìĺ¨ìĭ¤ ê°ĢìĬ¤
ëĵľ ë¦¼
ìĤ¬ ìĿ¸
ìĺģ ìĹŃ
ìĹħ ìĨĮ
Ġë¬´ ìĦŃ
Ġíģ¬ ë£¨ì¦Ī
Ġì§Ģ ë¶Ī
Ġê·¸ ë¦ĩ
ĠëįĶ êµ¬ëĤĺ
ë§¤ ëıĦ
ĠëģĬ ìĿ´
ê¸° ì¡´
ë²Ī ì§Ģ
Ġë¯¼ ìłķ
Ġìŀħ ë§Ľ
íĻĶ ìŀ¥
Ġíķ´ ìŀĦ
Ġìłķ êµŃ
Ġë·° íĭ°
ìĹ¬ ê¸°
ĠíĬ¹ ê°ķ
ìłĦ ì²ł
Ġëª¨ íĦ°
Ġ14 0
ĠëıĦ ì¶ľ
ĠëĦĪ íĿ¬
ĠëıĦ êµ¬
ëĥ ī
Ġ8 000
ĠìĤ¼ìĦ± ë¬¼ìĤ°
Ġì§Ī ìĦľ
u t
ĠìĿĮ ë°ĺ
Ġë°ľ íĥģ
ĠìĿ´ ë¶Ħ
ĠKB O
Ġìļ¸ ë¦¬
Ġ19 70
Ġê³ł ëĮĢ
ê¸ į
Ġê³µ ëĭ¨
Ġíķľ ìĸĳ
ëĿ¼ ì§Ģ
Ġê·¸ ëĮĢ
ĠìķłíĶĮ ë¦¬ì¼ĢìĿ´ìħĺ
Ġë¹Į ëĶ©
Ġê´ĳ ë³µ
Ġì£¼ ê¸°
Ġëĭ¤ê°Ģ ê°Ģ
Ġìĺ¬ ë¦´
Ġì¶ľ ìĥĿ
o p
ê²¨ ëłĪ
ĠíĶĮ ëĿ¼ìĬ¤íĭ±
Ġêµ¬ ë¦¬
Ġê·¹ ìĭ¬
ê´Ģê³Ħ ìŀĲ
Ġë¶Ī ìĭł
Ġìº Ķ
ëĤ¨ ë¶ģ
ĠìĺĪ ìĿĺ
Ġë¬´ ìļ©
ĠëĮĢì²´ ë¡ľ
Ġì ī´
äº º
Ġíĺ¸ê¸° ìĭ¬
Ġì¤ĳ ìĭľ
Ġë°ľ íĮĲ
ë¹ ¨
ĠL TE
ìķł ìļĶ
Ġê½ ī
ë¸Į ëĿ¼
Ġ7 000
Ġëĭ¤ íģĲ
ĠìľĦ ëĮĢ
Ġë°ķ ìĬ¤
Ġìĥģ ìĽĲ
íķ¨ ê»ĺ
Ġë²Ħ ëĶĶ
Ġë¶ģ ìª½
ĠëĮĢíķľ íķŃê³µ
ĠIC T
Ġìĸ´ëĸ¨ ê¹Į
Ġê¶Į ìľĦ
ĠìĬ¤ìĽ¨ ëį´
Ġ7 8
Ġë¶Ī êµĲ
ĠìĿ¼ ìĤ°
ìĦľ ë¦¬
ìŀ ĩ
Ġê´Ģ ê±´
ĠìĪ Ń
ĠìľĦ ìŀ¥
Ġíķĺ ëıĦ
Ġë¨¹ ìĿ´
ëŀĺ ê³¤
ê·¸ëŁ¬ ëĤĺ
ĠíıŃ ë¡ľ
9 4
ë ½
Ġëĭ¬ ëł¸
ë§ ĺ
Ġì±ħìŀĦ ìŀĲ
Ġíķ´ ìĦ¤
Ġê¹Ģ ìĦł
ĠìĿ¸ ë¬¸
Ġë¶Ģ ê·¼
Ġê³Ħ ìĭł
Ġë°ĺ íĻĺ
ëį° ìļĶ
ĠìľĦ ë²ķ
Ġìĭł ëħĦ
ĠíķĺëĿ½ ìĦ¸
ĠìĪĺ ìŀ¥
íĥľ íĶĦ
ĠíĬ ¼
ìĿ¼ ìľ¼
ìľ¼ ë¡ł
ë§ŀ ì¶¤
Ġê°ĢëĿ¼ ìķī
Ġë¶Ī íĸī
Ġë¨¸ë¦¿ ìĨį
ìĦ¬ ìľł
Ġê¸° ìĪĻ
Ġë¯¿ ìĿĮ
ĠíĶ¼ìķĦ ëħ¸
Ġ20 30
Ġê¸° ìłģ
ĠíĨµ ìŀ¥
Ġt he
ì°½ ì¶ľ
ìĭľ ìłĪ
Ġê³µ ìĺģ
ìľł ê°Ģ
Ġëª ¬
Ġë§¤ ë¬¼
Ġë¬´ ëĦĪì§Ģ
200 9
Ġë°Ķ ìģľ
Ġíľ© ìĭ¸
Ġê¹Ģ ìŀ¥
i r
ì½ĺ ìĦľíĬ¸
íĨł ì§Ģ
Ġíľ ł
ìĬ¤ ì¹´
Ġê±¸ ì¹ľ
Ġê° ĵ
ìĸ´ ì¹ĺ
Ġìĭľ ë¹Ħ
ìĸ´ ì§Ħëĭ¤
ê±¸ ìĿ´
Ġê¸° ìĦ¸
ĠíĿ¡ ìĹ°
Ġê±¸ ë¦´
ìłķ ë§Ĳ
ĠëĤ¯ ìĦł
Ġìĺ¤ëĬĺ ëĤł
ëł¤ ìĦľ
Ġê¸°ìĹħ ìĿ¸
ë ®
Ġê°Ħ ìłĪ
T I
Ġì£¼ ë¦Ħ
Ġíı¬ ë¥´
Ġê³¨ ìŀĲ
ĠíĮĮ ìŀ¥
Ġì²Ń ì¶ĺ
Ġìħĭ ì§¸
ë¶Ģ ì§Ħ
Ġì° Ķ
Ġìĺģ ê°Ĳ
Ġ .
ĠìĹ¬ë¦Ħ ì²ł
ĠíĶ¼ íķł
Ġì¡° ì¢ħ
ĠìĨĮ ë§¤
Ġêµ° ìĤ°
íı´ ë¦¬ìĺ¤
íķ ı
ìĿ¼ ë¶Ģ
ĠíķĻ ëł¥
Ġë¹Ħ ê·¹
ê³µ ìŀĲ
ĠìĨĮ ì£¼
Ġìļ° ìľĦ
Ġêµ¬ìłľ ìĹŃ
Ġì» µ
Ġë§ ģ
Ġë¹Ħ ìĦľê´Ģ
ë²ķ ìķĪ
Ġë¬´ìĦľ ìļ´
ĠëįĶ ë¸Ķ
Ġìľł ìĺĪ
ĠëĲľëĭ¤ ë©´
Ġë§Įì¡± ëıĦ
ëłĪìĿ´ ìĭľìķĦ
ëĭ¤ìĭľ íĶ¼
ĠìĦ± ì¶Ķíĸī
íĻľ ìĦ±
Ġë¶Ģ ì¶Ķ
ĠìĹĲ ìĿ´ìĬ¤
ĠíĹ Ĳ
Ġíĺķ ìĥģ
ĠëıĦ ìłĢíŀĪ
ë²¤ ìħĺ
ĠêµĲ ì°¨
Ġëĭ¬ëĿ¼ ì§Ħ
ĠíĹĮ ìĭł
ĠìĿ¼ìľ¼ ì¼°
Ġë°° íĽĦ
ì§ĳ ëĭ¨
ë©Ķ ìĿ´
ìĤ¬ ìĥģ
Ġëĭ¨ ë°±ì§Ī
Ġìĸ´ëĬĲ ìĥĪ
ĠíĬ¸ ë¡ľ
ì§Ģ ê¸°
ì£¼ ìĺģ
Ġëª»ì§Ģ ìķĬ
ìļĶ íĥĢ
ĠëĤ¨ ìķĦ
ëª¨ ë°ĶìĿ¼
Ġëį ¤
Ġ7 9
ĠìŀĦ ì°¨
Ġë¹ĦëĮĢ ìľĦ
Ġì¹¨ ëª°
Ġìŀĩ ëĭ¬
Ġì°¨ ëĿ¼ë¦¬
Ġë¬ĺ ìĤ¬
Ġ7 3
ìĥĪ ë¡ľìļ´
ĠëĮĢ ìĦ¸
ìĺĪ ê¸Ī
ĠëĮĢíķĻ ìĽĲ
Ġíĸ¥ ê¸°
Ġìłľ ì¹ĺ
Ġíİ¼ ì¹ł
Ġìłĳ íķĺ
Ġê²° ìĦ±
ìĭĿ ê°Ħ
ë¸Ķ ë¦¿
Ġ d
ì»¤ íĶ¼
ìĭľ ê¸°
ìĸ´ ìĬ¤
Ġì§Ģìĥģ íĮĮ
ĠG M
ĠëĿ¼ ëĬĶ
Ġê³ł ë¬´
ĠìĿ¼ë¶Ģ ëŁ¬
ĠìŀĲ ì§Ħ
ĠíĿ¬ìĥĿ ìŀĲ
ëįĶ êµ°ìļĶ
ëłĪìĿ´ íģ¬
Ġë²Į ìĹ¬
ĠëĤŃ ë¹Ħ
å Ĳ
ëĮĢ ê¸°
ĠìłĦ ë°©
ĠìĨĮ ëıħ
a g
ĠìĿ´ ëĵ¬
ĠëĮĢ ì¹ĺ
ìĿ´ ëıĻ
ë¬¼ ë¥ĺ
ë³´ ìĥģ
ë¡ľ ì§Ģ
Ġê°Ģë¥´ ì³Ĳ
ë¡ľ ë¦¬
ĠìĿ´ ë©ĶìĿ¼
ĠìłĦ ëĿ½
ìĤ¬ ë¦¬
ìĹ¬ ëĭ¹
Ġë¯¸ìĪł ê´Ģ
Ġ7 1
Ġê¿ Ģ
ĠìĻ¸ ì¶ľ
ĠìĿ¼ ìĿ¼
ĠëıĮìķĦ ê°Ķ
ĠíĶĦ ëŀľì°¨ìĿ´ì¦Ī
. "
Ġë¯¸ ë£¨
ëĮ Ĳ
Ġì¢Į ìĦĿ
ĠëĤĻ ì°°
Ġë§ĪìĿ´ëĦĪ ìĬ¤
ĠíĬ¸ ë¦¬
ĠíĨµ ìĺģ
ìĽ °
Ġë°ķìłķ íĿ¬
ë¯¸ ìķĪ
íķĺ ìľĦ
Ġìłģ ìĭľ
ìĦł ì§Ħ
Ġ7 6
Ġìĸ´ ë¦´
ëĿ¼ìĿ´ íĶĦ
Ġì§Ģ ëĬ¥
êµĲ ì²´
ĠìĪĻ ìĨĮ
ĠëĮ ĦìĬ¤
Ġë¶ĪëŁ¬ ìĿ¼ìľ¼
ĠìĻ¸ ì³¤
Ġë°© ìĺģ
Ġìķ½ ìŀĲ
êµ¬ ëĭĪ
ìłĦ ëĭ¹
ĠìĿ´ ëł¥
æ Ŀ
ë¯¸ ëĭĪ
Ġê²½ ê´Ģ
ĠëĤĺ ë¹ł
ĠìķĦ íĭ°ìĬ¤íĬ¸
Ġìłľ êµŃ
íĪ¬ ìŁģ
Ġìļ° ìłķ
ĠìĿ´ëĵ¬ íķ´
m m
ĠìĿ´ ë§Ī
ì ĳ¥
c e
ĠìĿ´ ìłģ
ĠìĬ¤íĶ¼ ëĵľ
ĠìĨĲ ìŀ¡
íĮĮ ìĹħ
Ġêµ¬ ëĳĲ
Ġìĥ Ģ
Ġìĺģ ìĦ¸
ê³µ íĻĶ
êµ¬ ëĭ¨
íĻį ë³´
Ġêµ¬ ì²Ńìŀ¥
Ġê·¼ ìłĪ
ĠìĿ¸ ìĦ±
ĠëıĦ ë°ķ
Ġê°Ŀ ìĭ¤
Ġëĭ¬ ë¦°
Ġë°© íĨµ
ĠìĨĮ ìļ©
Ġìĸ¸ë¡ł ìĤ¬
ë ¼Ī
ĠíŀĪ íĬ¸
Ġíĩ´ ê·¼
ê°ķ ìĤ¬
Ġê°Ģ ìļĶ
Ġë³ĳ ìĹŃ
Ġê´Ģìĭ¬ ìĤ¬
ëıĻ ìŀĲ
Ġë´Ĳ ìļĶ
Ġì¡° ì§Ĳ
ê°Ĳ ì¹ĺ
Ġë¶Ģ ìŀ¬
Ġìľł ìĿ¸
ìĻĦ íĻĶ
Ġê²½ ìľł
ĠìĪĺ ëł¹
Ġë°ľ ëł¹
ëĭ¤ ë§Į
ë¶Ģ ìĦľ
Ġëªħ ìĨĮ
ë¬´ ìĬ¨
Ġì·¨ íĸ¥
8 2
ìĪĺ íķĻ
íļĮìĿĺ ìĨĮ
Ġìļ° ìĦ¸
ĠíħĮ íģ¬
8 6
ĠìĹŃ ìĦ¤
Ġìľł ì§Ħ
Ġì§Ģ ë¥´
Ġë¸Ķ ë¡ľê·¸
Ġì¶Ķ ì¶ľ
ëĭ· ì»´
é Ŀ
Ġë°ķ ì¢ħ
Ġìŀħ ìĨĮ
Ġë¹Ħ ë¡ľ
ĠëĬĲê»´ ì¡Į
Ġë¶Ħ íķł
ĠëĤ´ ë©´
Ġëĭ¤ ê°ģ
ëĦ ī
Ġì§ĢìĽĲ ìŀĲ
ĠìĿ´ ê²¬
ĠëĶ° ìľĦ
ìĤ° ì§Ģ
êµ¬ ê°Ħ
Ġë§¤ëĭĪ ìłĢ
ì°Į ê°Ĳì¹ĺ
ĠìĹ° íıīê·ł
ĠìłĪ ë§Ŀ
Ġì¤ĳ ë³µ
Ġë§¥ ëĿ½
ĠíĸīìĤ¬ ìŀ¥
Ġë°ĶìĿ´ ëĵł
ĠëĮĢ ìŀħ
ìĿ¼ ëŀľëĵľ
ìĦ¸ ìĬ¤
Ġëĵľ ë¦¼
Ġë°Ķ ëĳĳ
ĠìĤ¬ êµĲìľ¡
Ġê¹Ģ ìĬ¹
Ġë¶Ħ ëŁī
ĠìĬ¤ íİĺìħľ
Ġìį ©
ê³Ħ ì¢Į
ĠìĪľ ìĭĿê°Ħ
Ġìķ½ ìĦ¸
o o
Ġíļ ŁìĪĺ
ìłĢ ìļ°
Ġëĭ¨ íĺ¸
ĠëłĪ ìĬ¤íĨł
ĠëłĪìĬ¤íĨł ëŀĳ
ĠíĻķ ë¦½
Ġëĵ¤ìĸ´ ê°Ħëĭ¤
Ī ëĭ¤
ĠìĻ¸ ìĭĿ
Ġë°ľìłĦ ìĨĮ
ê·¸ ë¦¼
Ġê¹Į ëĭ¤
ĠíĽĮ ì©į
ĠëıĦ ì²Ń
ê±¸ ë¦¬
Ġê°Ĳ ìŀĲ
Ġ s
ĠìłĦ ìŀĦ
ìĺ¤ ë¦¬
ĠëĮĢ ìĽĲ
Ġë°ľ ë³ĳ
9 6
Ġê³µìĹ° ìŀ¥
ĠëĨĢëĿ¼ ìļ´
ĠìĹ° ë£¨
å¤ §
Ġìĸ´ëĳĲ ìļ´
ë³Ģ ê²½
ëĵ¤ ìĹ¬
Ġíķ´ ë°©
Ġì¤ĳ ëıħ
Ġê°Ī ìķĦ
Ġìķħ ìŀ¬
ë°© íķĻ
ĠìĤ¬ ëĥ¥
Ġìĭ¬ ìĥģ
Ġê³ł ê°Ģ
ìĨĲ ìĭ¤
Ġìłľ ìĸ´
âĢĻ âĢ¦
Ġë°Ķ ë³´
íĥĢ ë¥´
ĠìĿ¼ ìĸ´ëĤł
ĠëĮĢêµ¬ ê²½ë¶ģ
Ġìŀħ ëł¥
ë²ł ìĿ´íĦ°
Ġìĭ¤ ì²´
Ġì¤ĳ ìĸ¼
ĠìĽĲ íĻĶ
â ĸ
Ġê¸° ëŁī
ëĤ¨ ë¶Ģ
Ġë³´ê±´ ìĨĮ
Ġìłķ íĨµ
ìł¸ ìĦľ
Ġì§Ģ ë¶ķ
Ġìľł ì£Ħ
Ġë¬¸ ëĵĿ
êµ¬ ë§¤
ĠëĨĵ ìĿ¸
ĠìĿ¼ìĿ¼ ìĿ´
ëĳĲ ìĤ°
Ġë°Ķ ì§Ģ
Ġëŀ ©
ĠìĺģíĻĶ ìłľ
Ġìŀ¬ íĤ·
Ġì²Ń ìłķ
ĠìŀĲ ë§¤
Ġë°Ģ ë¦¬
ìºĲíĶ¼ íĥĪ
ë¹Ħ ëĵľ
ĠíĮ¨ ìĬ¤
Ġê¶Į ìľł
ìĸ´ ëĿ¼
ĠS M
ìłĦ íĨµ
u s
êµ¬ ì²Ńìŀ¥
Ġìŀ¥ê¸° ê°Ħ
ĠìĤ¬ ìĿ¸
Ġíĸ¥ íĸĪ
Ġìį¨ ìķ¼
Ġtv N
Ġê³µê²© ìĪĺ
Ġë°ľ ê±¸ìĿĮ
ĠëĴ Ģ
Ġë¶Ī ê½ĥ
Ġìŀħ ê±´
S T
ĠëĲĺ íĴĢìĿ´
ë¡ľ ìĽĮ
Ġëħ¹ ìĿĮ
ë¦¬ ì¦ĺ
Ġìĸĳ ëıĦ
ĠëĿ¼ ë©´
Ġìľł ìĦ¸
Ġê³µ êµ°
ĠìķĦë¥´ ë°ĶìĿ´íĬ¸
íĬ¸ ëŁ¼íĶĦ
Ġì¶ķ ìĤ°
ìĭľ ëĤ´
ì§Ī ìĦľ
Ġì£¼ ìłĦ
ì ¥
Ġê¸° ì°¨
ĠìľłëĭĪ íı¼
ĠìķĦ ì¹´ëį°ë¯¸
Ġë°ķìĽĲ ìĪľ
Ġë¶Ī íİľ
Ġìº Ħ
ä ¹
E A
Ġë²Ħ ëł¤
íıĲ ê¸°
9 2
Ġë¶Ī ì°¸
Ġìĺ¬ëĿ¼ ìĺ¤
ê°Ģ ë¦¬
G M
u r
ĠëıĻ ê²°
ë°© ë¬¸
íı¬ ìĬ¤íĬ¸
Ġê¾¸ ëł¤
S S
å ·
Ġë°ķ ìĥģ
íĭ Ī
F TA
ĠëĨį ëıĦ
ĠëłĪ ìĿ´ìĬ¤
ë¶Ģ ìĥģ
Ġëĵ± êµĲ
ĠíĺĪ ê´Ģ
Ġë¨¸ë¬¼ ëłĢ
ĠëĦĺ ê²¼
Ġì¹ĺ ìķĦ
Ġìľł íĺ¹
ë¥ ¨
Ġê°ģ ë³Ħ
ëĵ¤ ìĸ´
Ġìľł ìĦ±
C EO
ĠìĤ° ë¶Ī
ĠëĲĺ ìĤ´
ĠìĨĲ ìī½
ëĤĺ íķŃê³µ
íĸ¥ íĽĦ
ĠìĦ± íıŃëł¥
Ġìĸĳ íķ´
Ġê¸ī ìĨį
Ġìľ¡ ìĥģ
Ġëį ´
ĠíĬ¹ ìĿ´
ìĺģ ìĸ´
Ġì¤Ħ ì¤Ħ
ëĶ° ëĿ¼
ĠìĦ±ëĤ¨ ìĭľ
Ġë¥´ ëħ¸
ĠëĶ°ëĿ¼ ê°Ģ
ĠíĶĮ ëŁ¬ìĬ¤
Ġê¸°ëħĲ ìĭĿ
íĿ¥ êµŃ
ĠìĦł ëªħ
Ġìĭľ ìĨį
ĠëĤł ì§ľ
ĠíķĻ ëħĦ
Ġí Ī
ìĻ¸ ê³¼
Ġìĭ¤ ê°Ĳ
ĠëĬĺ ìĸ´
ĠìĪĺ ë¡Ŀ
Ġë¡¯ëį° ë§ĪíĬ¸
ĠìĤ¬ ê²©
Ġì¹ľ ìłĪ
Ġì£¼ ìĹŃ
íĤ¤ ìĬ¤íĥĦ
ĠëıĻëĤ¨ ìķĦ
ĠìĿ¸ íĺķ
ìĤ¬ ì§Ģ
å ĮĹ
ìĿ¸ ëĵľ
Ġë¬´ ê±°ìļ´
Ġì¤ĳ ìŀ¬
ëĦ ¬
ĠìĿĺ ìĻ¸
Ġëª½ ê³¨
Ġì§Ģì§Ģ ìŀĲ
ĠíĹĪ ë¸Į
Ġëıĭ ë³´ìĿ´
ìĿ¸ íĶĦëĿ¼
ĠìĿĺ ìķ½íĴĪ
Ġê±¸ ë§ŀ
ëŀ ´
Ġì£¼ ë¬´
Ġìĸ¼ ë¥¸
íı¬ ìĬ¤
Ġì²´ ë¥ĺ
ĠìļĶê¸Ī ìłľ
Ġë¶Ģ íķ©
Ġì¦Ŀ ìĦ¤
ìĦ± ê³¼
Ġê¸°ìĥģ ì²Ń
ĠíĨµê³Ħ ì²Ń
ĠëĤ´ ìĭł
ìĭł ìĪĺ
Ġëĵ¤ ëł¸
ĠìĬ¤ ìĬ¹
ê·ľ ìłķ
Ġì¹ĺ ëªħ
Ġëĵł ëĵł
Ġëĭ¬ëĿ¼ ì¡Į
ĠëĤ´ëł¤ ìĺ¤
ĠìĹ¬ ìĭł
Ġê±° ìłľ
ëıĻ ê¸°
íķ© ë³ĳ
Ġìĺ® ê²¼
ĠìĭĿ ëŁī
Ġëħ¸ ë¦ĩ
Ġì°¸ ìľ¼ë¡ľ
ĠìĿ´ë¤Ħì§Ģ ê³ł
ëł ĺ
x x
ìĽĲ ìŀĲ
Ġë²Ħ ìłĦ
íĬ¸ ëĿ¼
Ġëĺĳ ê°ĻìĿ´
ìĹ¬ ë¶Ģ
N C
ê°ķ ëĤ¨
ìħĢ ëŁ¬
Ġíķľ ëĪĪ
Ġëıħ ëł¤
ĠìĹ İ
Ġì°¾ìķĦ ëĤ´
Ġìĥģ ìŀĲ
ìĤ¬ ìĬ¤
Ġ ç¾İ
Ġíģ Ĳ
ë¦¬ ìķĪ
ì§ ±
ì§Ģ ìĺ¤
ĠìķĦ íĮĮ
ĠíķĻ ë¬¸
ì²Ń ìĻĢëĮĢ
ĠìłĦ ìĤ¬
ĠìĬ¹ ìłĲ
ìľ¼ ìĭł
Ġê·¸ íķ´
ĠíĥĢ ìĿ¸
Ġê´Ģ ìŀ¥
ì¢ħ ëª©
ìĸ´ëĸ ¤
íĽĦ êµ°
ĠìĿ´ë¤Ħì§Ģ ëĬĶ
Ġê°ľ ìĨĮ
ĠíĶ¼ ê³łìĿ¸
Ġì¤ĳìĨĮ íĺķ
ĠìķłëĭĪ ë©ĶìĿ´ìħĺ
ĠìłĦ ëĿ¼
ĠìĺĪìĪł ê°Ģ
ìłĦ ìļ©
ĠìĨĮ ê·ľëª¨
Ġíķĺ íĸ¥
Ġ11 9
ë¨¼ íĬ¸
ë§Į ì¡±
ĠíķĻ ìŀĲ
Ġìľł íı¬
Ġê¹Ģìłķ ìĿ¼
Ġìĥģ ìĦ¸
Ġê¹ĢìĹ° ìķĦ
ĠìĿ¸ ëªħ
Ġìºł íį¼ìĬ¤
Ġìĸ ¹
Ġë³Ģ íĺ¸ìĿ¸
ĠíĴĢ ë¦¬
ìĪĺ ê¸ī
ĠìĪĺìļĶ ìŀĲ
S C
Ġìµľìļ° ìĪĺ
ëĤĺ ìĻĶ
Ġë¦ ´
ĠìĬ¤íĥĢìĿ¼ ë§ģ
Ġê±° ìĭ¤
Ġíķµ ìĭ¤íĹĺ
Ġë°©ìĨ¡ ìĤ¬
Ġê³¼ ìŀī
Ġë°ķ ì°¬
ìľ ½
Ġì²Ļ ì¶Ķ
ìĿ´ ì¹ĺ
Ġìĸĳ ìŀĲ
Ġìĺ¤ ë¥ĺ
ĠíĻĶ ëĳĲ
Ġë µ
Ġíķľ ê²°
H D
Ġê³łìĸĳ ìĭľ
Ġì¢Ģ ì²ĺëŁ¼
Ġê·¸ ëŀľëĵľ
ĠëĮĢ ì§Ģ
Ġê±° ìļ¸
ĠíĬ¸ ëŁŃ
ĠìŀĶ ëľ©
Ġëĭ¨ ìłĲ
Ġíİĺ ìĿ´ì§Ģ
Ġê¼¼ê¼¼ íŀĪ
ì¶ķ ìĤ°
8 3
ë²Ħ íĬ¸
ĠíĬ¸ ëłĪìĿ´
ĠìŀĲ íĥĿ
ìłĢ ë¦¬
ìķĪ êµ°
Ġë¯¸ ëĵľ
Ġëħ¸ ëŀĢ
ĠìĨĶì§ģ íŀĪ
Ġìĸ´ ì§Ģ
ĠìĦł ìłĲ
ê³ł ìĭľ
Ġì»¨ ìĨĮìĭľìĹĦ
ìľ¼ ìħ¨
Ġë¹Ħë¡ľ ìĨĮ
ìľ¼ ëł¤ë©´
ëļ ľ
Ġíı´ ë¦¬
Ġì¦Ŀ ìķ¡
Ġì¤ĳ ë¦½
Ġêµ¬ ì²Ń
ĠìĪĺ ê±°
Ġ199 5
ä »
ĠíıŃ íĥĦ
íı¬ íķŃ
Ġë Ĺ
Ġíĳľ ì°½
Ġê²¬ ëĶĶ
ìľ¡ ìĦ±
Ġê³ł ì¶Ķ
ĠíĺĦ ìĪĺ
Ġë¶Ī ìĸ´ëĦ£
ĠíĥĢ ìĦł
ĠëĤĺíĥĢ ëĤł
íķĺìĿ´ ëĭīìĬ¤
ëĭ¤ ìŀĦ
7 00
ĠíıŃ ëĦĵ
Ġì°¨ ë¶Ħ
ëį Ł
Ġë°© íķĻ
ĠíĶ¼ ìļ°
ê·¸ëŁ° ëį°
ĠëĤ´ìłķ ìŀĲ
ìłķ íĺ¸
ëĵ Ī
ĠìķĦëĭĮ ëį°
Ġìļķ êµ¬
ĠêµĲ ìłķ
Ġìļ© ëŁī
Ġë³´ê±´ ë³µì§Ģë¶Ģ
Ġëĭ¤ ëħĶ
ëĳĲ ë¦¬
ĠF C
Ġë¦¬ ì¡°íĬ¸
Ġìĭ¤ ìłĦ
ê¸Ģ ëŀľëĵľ
ĠìĹ° ì´Ī
Ġê°Ģ íĮĮ
íĳľ ì¤Ģ
ì°¨ ê´Ģ
ìĭĿ ë¬¼
Ġëĵľ ë¬¼
Ġê³µ íĮĲ
ìĥģ ê°Ģ
ëıĦ ìłĦ
æ Ĺ¥
íİ ł
Ġê° ±
Ġìĺģ ëĵ±
ìĬ Ľ
ìĭľ íĬ¸
i m
Ġìķ½ íĻĶ
ĠíĮĮ ë¬¸
ĠA P
Ġê°Ģíķ´ ìŀĲ
ëĭ¹ íķľ
ìĨĮëħĦ ëĭ¨
ĠëĵĿ íĳľ
Ġìĸĳ ê·¹
ë©ĺ íĬ¸
Ġíĳ ¹
ëª© íĳľ
Ġë¶ ĵ
Ġ16 0
Ġë°ĺ ê¸°
Ġë°© íĥĦ
ĠìłĪ ëĮĢë¡ľ
ê³µ ìĭĿ
ĠìĤ Ĳ
Ġìį °
Ġê³¨ ëĵł
Ġê²¨ìļ¸ ì²ł
a p
ĠìĿ¼ ê°Ģ
ĠëĨĢ ëŀĢ
Ġìĸ´ ì°¨íĶ¼
Ġê±´ êµŃ
ìķ¼ ëĭ¹
Ġìĭ £
ìłĦ ë§Ŀ
Ġê³µ ë¡ł
ìĹ¬ ëŁ¬
ìĿĳ ëĭµ
ĠíķĻ ê¸°
Ġë³µ ìļ©
Ġëĵ¤ìĸ´ ìĺ¬
ĠìĿ¼ ê³±
ĠìŀĲë¶Ģ ìĭ¬
ìĭľ íĸī
ìľłì¹ĺ ìĽĲ
Ġìŀ Ń
ĠìķĪ ìª½
ëĮĢ íĻĶ
ĠíļĮ ìłĦ
ĠíĹ¤ ëĵľ
t er
Ġë¶Ģ íıī
Ġì¹ĺ ë¥¸
ĠìĦľ ìĭĿ
ĠìĿ¸ ì²´
Ġâ Ķ
ĠêµŃ ê°Ĳ
Ġìłķë§Ĳ ë¡ľ
ã ħ
Ġíķ´ ê²½
ĠìĿ´ ì§Ģ
ê¹Ģ ìłķ
Ġì§Ģ ì¼°
ì§Ģ ê¸ī
ìŀĲ ë¬¸
íĨµ ìŀ¥
ë©´ ìĦ¸ìłĲ
ìĦ¸ ìĽĶ
ĠëĮĢ ê°ľ
ĠìĦľ ë²Ħ
ìĽĲ ìĿ¸
Ġë©Ī ì¶°
ĠíĮĮ ëıĦ
Ġì£¼ ë¨¸ëĭĪ
å ¯
ĠìĹ¬ê¸° ìłĢê¸°
Ġë³´ íĥ
ĠìĨ ľ
ĠìĿ´ ìĪľ
ë§¤ ì¹ĺ
Ġëģ Ķ
ĠëķĮ ë¦¬
Ġëħ¸ ëł¤
ì¶ľ ë§Ī
ì»¤ ìĬ¤
Ġì¡°ìĦł ìĿ¼ë³´
Ġì°½ ê³ł
ë°© ìļ¸
íĥľ íıīìĸĳ
ê²© ë¦¬
ĠìĦ¼ ìĦľ
Ġì¢Į ìłĪ
Ġê¹Ģ íĺķ
Ġ19 0
ìĺ¨ ëĿ¼ìĿ¸
ĠëĲł ê¹Į
Ġë§Ĳ ëłĪìĿ´ìĭľìķĦ
ìĬ¤ëŁ¬ ìĽł
ì¿ ¼íĦ°
it y
íĨ¨ ë¦Ń
Ġíı ¼
Ġíķ´ íĤ¹
ĠìĿĺ íķĺ
Ġê³Ħ ê³¡
Ġìŀĺ ëĿ¼
Ġê¸Ģ ìŀĲ
Ġíı¬ ë¶Ģ
Ġìŀ¡ íŀĪ
ã ı
Ġì²Ń íĥģ
8 1
êµĲ ìķĪ
ĠëĤ¨ íķľ
Ġì Ńī
Ġì²Ń ëł´
ëĮĢìĥģ ìŀĲ
Ġë§¤ ë¦½
Ġíı¬íĬ¸ íı´ë¦¬ìĺ¤
ĠìĿ¼ ê´Ħ
Ġìĭ¬ íķ´
ë¹Ħ ëĶĶìĺ¤
ìĭ ¹
ì¡° ìŀĳ
ĠìĿ¼ ì°Įê°Ĳì¹ĺ
Ġê²½ íĴĪ
Ġìļ° ìĹ°íŀĪ
Ġìĭľ ìĿ¼
ĠìĿ´ìĬ¬ ëŀĮ
Ġì»¨ ëĶĶìħĺ
Ġíı¬ ëıĦ
ĠíĥĢ ìŀħ
ĠìĿ´ìĸ´ ìł¸
ìĭľ ìľĦ
ĠíĮĮ ê³ł
ĠíĢ ´
ìĦ± ê¸°
ë²ł ìĿ´ìħĺ
Ġê°ĢìĿ´ëĵľ ëĿ¼ìĿ¸
ĠëĤĺëĪ ´
Ġ8 2
ĠìĿĺ ìłķë¶Ģ
ĠìĦ± ìĪĻ
A R
ĠìŀĲ ë¦½
ë§Ī ëĬĶ
Ġì¶ľ íķĺ
Ġë¶Ģ ëģĦëŁ¬
íļ ¡
Ġë¬´ íļ¨
Ġìľ ¨
ëĦĪ ë¬´
Ġìŀ¬ íķ´
ë´ī ìĤ¬ìŀĲ
Ġìĺģ êµ¬
ë¯¸ ìķł
ä ½
ìĪĺ ì²ĺ
ĠëĮĢ íĸī
ĠìĿ´ìĸ´ ì§Ħëĭ¤
ëłĪ ìĿ¼
ìĿ´ ëħ¸
Ġê°Ģìł¸ ê°Ģ
Ġë³ĳ ëł¥
Ġë¯¸ ë¶Ħìĸĳ
Ġê´Ģ ë£Į
ĠL A
ëĮ ģ
Ġìļ© ì§Ģ
Ġ k
Ġê¹Ģ ë¬´ìĦ±
ĠìŀĩëĶ° ë¥´
ìķĦ ì£¼
ĠíļĮìĽĲ êµŃ
íľ´ ê°Ģ
Ġê²ģ ëĭĪê¹Į
O P
ìĬ¤íĨł ìĸ´
ĠìķĦ ìĤ°
ì¡° ëªħ
íĶĦ ëłĪ
ìĹ¬ ê³ł
Ġë¬´ ëĭ¨
Ġíķ´ìļ´ ëĮĢ
Ġëĭ¬ ì½¤
9 00
Ġë¬¼ ê³łê¸°
ì§Ħ íķĳ
ĠìłĢ ê°Ĳ
ĠíĻĪ íĶĮëŁ¬ìĬ¤
Ġë³´ ìĦĿ
ì¤ĳ ê³Ħ
Ġë²ķ ìłľ
Ġë° ´
Ġë§Ŀ ìĦ¤
ĠìķĦê°Ģ ìĶ¨
ĠëĨ Ķ
ĠíĬ¹ ë¡Ģ
Ġ *
ê·ľ ëªħ
Ġì¤ĳ ëħĦ
ìĬ Ĳ
ĠìĿĺ íķĻ
Ġë¶ Ĳ
ìĿĺ ê²¬
ĠM B
ĠëĨį ëĭ´
Ġë¹Ħ ëªħ
ĠìĭĿ êµ¬
ĠìĩĦ ìĭł
ĠìĦľì´Ī êµ¬
ĠìĻĢ ì¤ĳ
Ġëĭ¨ë§Ĳ ê¸°
Ġê¹Ģ ì¤Ģ
ĠìłĦ ìĪł
Ġëĵľ ë¦´
ĠíĮ½ íĮ½
Ġë°Ķ íĢ´
ĠìĿ´ ëĿ¼íģ¬
ì´ ¬ìĺģ
ê·¼ë¡ľ ìŀĲ
ĠìµľìłĢ ìŀĦê¸Ī
Ġìŀ¥ ë³ĳ
I D
Ġë©´ ëª¨
Ġíĥ Ķ
Ġì§ģ ê¶Į
ìĥģ ìŀĲ
íģ¬ ìĬ¤
ëłī ìħĺ
êµ¬ ì²Ń
æĸ ĩ
íģ¬ ëĿ¼
Ġë¹Ħ ëĭĲ
ĠëĤ® ì¶°
Ġìĭł ëıĦ
ê·¸ ëĿ¼
ĠìĦ¸ ìĿ´
Ġíĥľ ë¸Ķë¦¿
ĠíĶĮëłĪìĿ´ ìĺ¤íĶĦ
ĠìĻ¸ ê³½
Ġíķ´ê²° ì±ħ
Ġì·¨ìŀ¬ ì§Ħ
Ġë°ľ ìĨ¡
" ,
Ġê´ĳ ìĤ°
ĠëĮĢ ì£¼ì£¼
ĠìĺĪ ìģĺ
ëŃ Ħ
ĠêµŃ ìķħ
Ġì»¨ íĬ¸ë¡¤
ĠëģĮìĸ´ìĺ¬ ë¦¬
Ġìŀ¥ ë¯¸
Ġë¶Ģ ê°Ģ
íĳ ¼
u l
Ġìĥī ëĭ¤ë¥¸
Ġíģ¬ ë¦¼
ëı ĭ
Ġìĸ´ ëĶĺ
ë¶ģ ë¶Ģ
íģ¬ ë¦¼
ìĥģ ìĦł
ĠìĪľ ìĿ´ìĿµ
Ġê²½ íĺ¸
ĠìķĦ íķĺ
ìĬµ ê´Ģ
Ġëıħ ìŀ¬
ìłĲ ìĪĺ
Ġê°ģ ê´ĳ
íħĮ ëŀĳ
Ġìĭľ íĿ¥
ìĺ¤ ë¡±
Ġì´Ŀ ìĪĺ
ë²ł ë¥´
ì§Ī ëłĢ
Ġê¸Ī ìĹ°
Ġ w
ìĿĢ ì§Ģ
ì£¼ ê°Ģ
ìŀĳ ë¬¼
Ġìĥģ ìĨį
Ġë°Ģ ìłĳ
ĠìĽĮíģ¬ ìĪį
Ġì°¾ìķĦ ìĻĶ
ìĹ ī
Ġìŀ¬ ì°¨
ĠìĪĺ ìĨ¡
Ġìĭł ìķ½
Ġì¤Ħ ê³§
ĠìĪ¨ ê¸°
ĠC N
ëıħ ë¦½
ì¹ľ íĻĶ
ĠíĶĦë¦¬ë¯¸ ìĸ´
Ġíĩ´ ì§Ħ
ìĦł ë¬¼
ë³Ģ ìĿ¸
Ġì£¼ ìľłìĨĮ
ë© ľ
ìĬ¹ ë¶Ģ
Ġë³Ħ ëªħ
Ġë¶Ģ íĴĢ
Ġë¶Ģ íķĺ
Ġê°Ħ ê²©
Ġíĳ¸ ë¥´
Ġíĺĳ ìłķ
ĠìĨĮ ëĤĺë¬´
Ġë°ľ ëĿ¼
Ġ12 00
ĠëĤ´ ê°ģ
ëª© ìłģ
è Ī
ìĹ° ìĦ¤
ë³´ ìłĦ
ĠíĦ¸ìĸ´ ëĨĵ
Ġë§ī ëĤ´
Ġìļ¸ ìĿĮ
ĠìĹĦ ì¤ĳ
Ġë°ķì§Ģ ìĦ±
Ġì°¾ìķĦ ìĺ¨
Ġëľ¨ ê±°
Ġë° Ń
Ġê¸° ëıħêµĲ
ëŁ ¿
Ġêµ ¿
o w
ç Ļ
ë¦¬íı¬ ëĭĪìķĦ
ĠìĦ± íıŃíĸī
ìŀ¬íĮĲ ìĨĮ
ĠìĪĺ ëª©
ì§ĳ ëĭĪëĭ¤
ĠëĤľ ë¯¼
9 3
êµ ¿
ĠìłĦ ìłģ
Ġëĭ¤ë¦Ħ ìĹĨ
ì¡° ë¡Ģ
ë°ĺëıĦ ì²´
æ Ī
Ġìłķ ëĭµ
ĠëĤĺëī ĺ
ìĬ¬ ëŁ¬
ĠL NG
ëĤĺ ëĵ¤
ìľł ë¡ľ
ëĤ´ ê¸°
ìĿĮ ë£Į
ĠìĻ¸ ìĭł
Ġëıĭ ë³´
ìĦ¸ ìķĪ
Ġê²½ì°° ìĦľ
Ġê·¸ë§Į ëĳĲ
ĠíĹĮ ìŀ¬
ĠëĬĲëĤĢ ëĭ¤
Ġìĸ¸ ëįķ
ìĪĺ ìĺģ
Ġìŀ İ
Ġë¬¼ ëł¤
ĠíķĻ ê³Ħ
ĠìķĦìĭľìķĦ ëĤĺíķŃê³µ
ëĭ¤ ìĸĳ
Ġìľł ë°©
ë¬´ ì§Ģ
ê¼ ´
ĠíĬ¸ ëŀĻ
ì¹´ ëĿ½
ëĮĢ íĺķ
T BC
Ġìĺģ ëıĻ
ëĶĶ ìĬ¤
ĠíĨł ëģ¼
ĠìĽĲ ê¸Ī
ĠìķĦ ìĬ¤
íİ¸ ìĿĺ
ë§¥ ì£¼
Ġì¶Ķ ì¸¡
ì§Ħë³´ ëĭ¹
Ġì¡° íļĮ
êµŃ ë¦½
Ġê·¸ëŀĺ ìķ¼
ĠëĮĢ íķĻêµĲ
ĠìĨĲ ê¼½
u m
ì¤Ħ ê¸°
ĠëĮĢ íĶ¼
Ġë°° ìĽł
ê·ľ ì¹Ļ
ìĬ¤ ë¦¬
Ġë°ĺ ê°ĳ
Ġê·Ģ ìĹ¬
Ġìĭł ë¹Ħ
ë¯¼ ê°Ħ
ëª¨ ìĶ¨
Ġë°ķ íĥľ
S I
Ġìĥģê´Ģ ìĹĨìĿ´
ì»¨ ëĮĢ
Ġ8 6
ĠëŀŃ íĤ¹
ìľł ìķĦ
ĠìĻ¸êµŃ ìĸ´
Ġì²´ ëĤ©
Ġì±Ħ ì·¨
ì¡° ëĭ¬
Ġê¸° ìķĦ
Ġìłķ íĸĪ
ĠìĿ´ ìĥī
ì§Ģ íľĺ
ëįĺ ì§Ģ
ĠíĮĮ ëŀĢ
íķ´ ìĦł
ê³¼ ìĦ¸
Ġê°Ĳ ê¸°
ĠìļĶ ìĽĲ
M B
ëĲ ©ëĭĪëĭ¤
Ġì¹ĺ íĤ¨
ëł¤ ëįĺ
Ġë± ĥ
Ġê¸° ë²ķ
ëıĦ ìĨĮ
ĠëĶĶ ìł¤
Ġ8 7
Ġì¶ľ êµ¬
ĠíĤ¤ ìĬ¤
Ġìĭľ ì²´
ì¡° ìĦ±
ë°ķ ê³Ħ
ë°Ķ ê²Ĳ
ê¸°ìĪł ìĽĲ
Ġê±° ì¹ł
Ġì¤ĳ ê°ľ
Ġëįĺ ì§Ħ
ì¤Į ë§Ī
Ġë§ŀëĮĢ ê²°
ìŀ¥ ìĨĮ
ìĪĺ ìłķ
ìĿ´ ìķ¼ë§Ĳë¡ľ
Ġìŀ¬ ìĦł
ĠíĮ¨ëŁ¬ ëĭ¤ìŀĦ
ĠíĶ¼ ê³¤
ìĥģ íĻĺ
Ġv s
Ġìľł ë¬¼
Ġê°Ģ ì£½
Ġê²Įìĭľ íĮĲ
ìĿ´ ëĿ¼ëıĦ
ëĮĢ ìļĶ
íķľ ê°Ģ
ĠìķĪ ê²¨
Ġì°¨ ëł¤
ĠìĿ´ ìľ¤
ê¸° ì´Ī
Ġìľł ìłĦ
Ġì½ ¤
Ġì£¼ ì¶ķ
Ġëħ¼ íıī
Ġë§Ī ëĿ¼íĨ¤
" (
Ġìłķ íķ´ì§Ħ
Ġë¹Ī ê³¤
ĠìłĦ ìĹ¼
Ġíĥ ķ
Ġìĺ¤ ë¸Į
Ġë¬´ ëį¤
Ġê²½ ìĤ¬
Ġì¹ĺ ë°Ģ
Ġì¸¡ ìĿĢ
ìľ¼ ëŁ¬
íķ© ë¦¬
Ġë³´ ëŀĮ
Ġì ĳ¥
Ġê¸Ī ìļĶìĿ¼
íıī êµ°
ĠíĹ¬ ê¸°
ë¹Į ëĶ©
ĠìĦľ ë©´
íĥĢ ìĪĺ
Ġ8 3
Ġê³µ ì¡´
Ġìĭł íĿ¥
Ġëħ¸ ë²¨
ëĤ¨ ìŀĲ
g o
Ġíĳľ ê²°
ìĭŃ ìŀĲ
ìŀ¬ íķ´
ĠëŁ¬ ë¸Į
ê±´ ë¬¼
íĮĮ ë¦¬
Ġìķħ ì·¨
ìłĦ ë¶ģ
ì½Ķ ìĸ´
or e
ìĸ´ëĸ »
Ġê°ķ êµ¬
ĠëŁ Ń
ĠëģĶ ì°į
ĠìĹ° ë¹Ħ
Ġíı¬ ê´Ħ
C O
ĠìłĦêµĲ ì¡°
Ġê¶Į ìĹŃ
Ġê¹Ģ ì£¼
ĠìłĢì§Ģ ë¥¸
ĠëĤ¨ ëĭ¤ë¥¸
Ġíį¼ ì§Ģ
Ġê°ľ ìĽĲ
Ġë°ĺ íķ´
ê¸Ī ìŀĲë¦¬
ĠìĿ´ ìĿ¸
ëł Ĳ
ê³µ ê³ł
ĠíĥĲ ë°©
ĠìĿ´ ê²½
Ġë©´ ë°Ģ
ĠëĮĢ ì¡°
ê²° íĺ¼
íĹ¨ íĭ°ëĤĺ
Ġì§Ħ ëıĦ
Ġê¹Ģ íĿ¬
ĠìĮĵ ìĹ¬
Ġì£¼ ì¶¤
ĠëıĮìķĦ ê°Ī
ĥ ë°Ń
Ġìľł ìłģ
ëıĻ ìĿĺ
ìĭ¬ íĮĲ
ëĸ ¨ìĸ´
ëģ Į
Ġë°± ì§Ģ
Ġë¶Ī ê³µìłķ
ëª¬ ëĵľ
íĻķ ìĤ°
ĠìĽĲ ìŀĳ
Ġìķ¡ ìĪĺ
a b
K T
ĠêµĲ íĻ©
Ġëĵ¤ìĸ´ ìĦ°
ìĿĢ ê°Ģ
Ġë³Ģ íķ¨
Ġë°° ìļ¸
ì»¤ ëħķ
ë¹Ħ ì¹ĺ
Ġë°°ìļ° ìŀĲ
ê³¼ ëª©
ìĻ¸êµŃ ìĿ¸
Ġê°Ĳ íĥĦ
Ġë¨¸ë¦¬ ì¹´ëĿ½
ê° ±
ĠìĹ° ì²´
Ġìĭł ìĥģ
ĠíĶĦ ëĿ¼ìĿ´
ìļĶ ì¦ĺ
ĠíĽĦ ì¿ł
Ġìŀħ ëĭ¨
Ġì°¨ íĬ¸
Ġì°© ê°ģ
ĠëĮĢ ê¸Ī
ĠíĽĦë³´ ìŀĲ
ĠíĿĳ ìĿ¸
Ġë²ķ ëł¹
Ġê³¼ ì§ķê¸Ī
Ġì²ľ ìŀ¬
Ġì½ľ ëĿ¼
Ġê³µ ë¡ľ
ĠíĨ ¤
Ġìĺ¬ëĿ¼ ê°Ķ
Ġíĭ° ìħĶì¸ł
Ġìĺģ ì£¼
ł ì§Ģ
Ġë°Ķ ìģĺ
ĠìķĦìĿ´ ìĬ¤
Ġë¯¸êµŃ ìĿ¸
ëĪĦ êµ¬
Ġê³Ħ ìłķ
Ġì¤ĳ ì§Ģ
Ġë°ľ ëłĪ
ëĮĢ ë¦¬
ìł ĵ
Ġì½Ķ ë¯¸ëĶĶ
ĠêµŃ ì±ħ
ĠíĥĢ ê²°
ê°Ĳ ìĭľ
ĠíĥĲ êµ¬
ìĻĢ ìĦľ
ìĸ´ ë¡ľ
ìŀĳ ëħĦ
Ġë°° ìĽĮ
ĠëģĮ ìĸ´ëĵ¤
Ġê¸°ìĪĻ ìĤ¬
Ġíĥ ±
ĠìĨĮ ìķ¡
ĠëģĦëįķ ìĺĢ
Ġìŀħ ì²´
Ġì¢ħë¡ľ êµ¬
Ġëĭ¤ ì§Ģ
ê°Ģ ìŀ¥
ĠìĻķ ìŀĲ
Ġë³µ ë¬´
Ġê³ł ìĭ¬
Ġê°Ī ëĿ¼
Ġëĭ¬ ëŀĺ
íĽ ¼ìĨĲ
Ġì¤ĳ íĺķ
ĠìĦłì°© ìĪľ
ĠìķĦëĭĮ ì§Ģ
9 1
ĠìĪľ ì°¨
ĠìľłìĬ¹ ë¯¼
ĠìŀĲ ìĻ¸ìĦł
ĠìĿ´ ìª½
Ġíıī ìĿ¼
ĠìĺĪ ìģľ
Ġëĸ ´
ĠìĤ¬ëĿ¼ ìł¸
Ġìĸ´ ìĥī
ĠìĹĶ íĦ°
Ġ199 4
Ġëĭ¤ ìłĢìĬ¤
ì¦ Ĳ
ì§ĳ íĬ¸
Ġì¶Ķ íĽĦ
ë¥´ ëª¬
µ ¸
Ġëª ¹ìĭľ
Ġìķ½ íķľ
Ġê²½ ìĭł
Ġ9 8
ĠëĬĺ ëł¸
ë¡ľ ìļ°
âĦ ĵ
ĠëĮĢ ìĹ¬
ĠëĤł ë¦¬
ì±Ħ ìļ©
Ġê³µ ìłľ
Ġê¿ °
ë²Ħ ëĵľ
ê¹ Ĭ
Ġì§Ģ ì¹ľ
ĠìłĪ ìķ½
Ġëª¸ ë§¤
Ġì£¼ ìĤ¬
ĠìłĦ ìĿ¼
ĠíĦ° ì¹ĺ
ìĺ Ľ
ìĿ¼ ìłķ
ì§ĢëĭĪìĸ´ ë§ģ
ë©Ķ ìĭľì§Ģ
ĠìĦ¬ ìĦ¸
ĠëĦĵ íŀĪ
ĠìŀĦ ìļ©
ĠìłĦ ìĨ¡
ĠëĦĺìĸ´ ìĦł
ĠìĹ¬ ìĻķ
ë³ĳ ëĮĢ
Ġìļ° íļĮ
Ġíķľ ë°©
ĠìĿĳ ëª¨
Ġë§Ī íĬ¸
ĠêµŃ ê³ł
Ġì·¨ ë¯¸
Ġìŀ¥ ìĿ¸
ë¹ Ĺ
ĠíķĺëĤĺ íķĺëĤĺ
Ġ8 1
Ġê°Ģ ìĦ¸
ĠI n
Ġê°Ģ ì¶ķ
ĠíķŃìĨĮ ìĭ¬
ì§Ģ ëħ¸
ìĭľì¼ľ ìķ¼
ĠíĺĦ ê´Ģ
ìŀĦ ìĬ¤
ĠìĿ¸ ë¬¸íķĻ
Ġìºł íķĳ
íı¬ ìĭľ
Ġê²½ ê°Ĳ
ëĦ¤ ìĬ¤ì½Ķ
ì² «
Ġë¡ ±
ĠíĬ¹ ì§ĳ
Ġì²ĺ íķľ
ìĹ´ ì°¨
ĠìĹ´ ìĩł
L PGA
ĠìĭľìĦ¤ ë¬¼
Ġìķ½ ìłĲ
Ġíİ¼ ì¹ľëĭ¤
ĠíĥĪ íĩ´
Ġìŀłìŀ¬ ëł¥
Ġìŀ¥ ë§Ī
ar t
ìĥģíĴĪ ê¶Į
ìĪľ ê°Ħ
Ġì°¨ ë¦¼
ìĤ¬ ìłĦ
Ġê°ķ íĺ¸
ëłĪ ìłĢ
Ġ199 6
Ġìľ Ĺ
íķĦ ëĵľ
Ġì¤ĳ ì¦Ŀ
ë¬´ ì§Ħ
ĠëıĻë¶ģ ìķĦ
ìŀĲìľł êµ¬ìĹŃ
Ġì²´ ì¤ĳ
íį¼ ëĭĪ
ì¹ĺ ê¸°
ĠëĤĺìĻĢ ìĦľ
ëĵľ ëł¤
íĻĶ ë¬¼
íĻķ ëĮĢ
ë¥¼ ë¦°
ĠíĮĲ ë¡ľ
Ġìľł ìĥģ
ĠìĦł ìĽĲ
Ġíķĺ ìĽĲ
Ġë¬¸ ê²½
ĠìĦ± ë²Ķì£Ħ
ëĬ ł
Ġì¶Ķ ìĭłìĪĺ
Ġìĭľ êµ°
Ġì¤ĺ ìķ¼
Ġë§ī ìĥģ
ìĺģ êµŃ
Ġê±¸ ë¦¼
Ġíľ´ ê²Į
ĠìĪĺ ì²ľ
Ġì·¨ìĹħ ìŀĲ
ìŀĲ ëħĢ
Ġì°¨ ì¢ħ
ëĮĢ ìľĦ
ĠëıĻìķĦ ìĿ¼ë³´
ĠíıŃ ìĬ¤
ìĺ¤ ìĬ¤
ë¶Ģ ë¥´íģ¬
Ġíķĺ ìĪĺ
ĠìĬ¤ ì¹´ìĿ´
ìļ´ ëĭ¤
Ġë¡ Ŀ
Ġë³´íĹĺ ê¸Ī
Ġì¿ł íı°
Ġë°° ë¶Ħ
Ġì§Ģ ë¬¸
ĠìĬ¤ íĨł
ëĭ¹ íĸĪ
ìŀĲ êµŃ
ĠíĻĺ íĺ¸
Ġíĳľ ê¸°
ĠíĨµìĭł ìĤ¬
Ġìľł ì¾Į
ĠìĨĮ ìĽĲ
ì§Ī ëŀľëĵľ
ĠI S
ê³µ ìķ½
ìĬ¤ íĭ±
êµŃ ì§Ģ
ìłľ ìŀ¬
Ġ9 00
Ġìĭľ ë¦¬ìķĦ
ëįĶ ëŁ¬
ê³µ ëª¨
ëª¨ íĦ°
ĠëĨį ìĸ´ì´Į
ĠëĤ© ëĵĿ
ìĺĢ ìľ¼ë©°
ë©ĺ íĦ°ë¦¬
ëį° ìĿ´íĬ¸
ĠëĮĢ ìłĳ
ëĤł ëłĪ
Ġê¸° ìĸ´
Ġê³ł ì³Ĳ
Ġê±¸ ê¹Į
ê°Ģ ìĿĦ
æ ĺ
íĪ¬ ìĬ¤
Ġì¤Ħì¤Ħ ìĿ´
.. .
Ġìĺ¤ ì¼ĢìĬ¤íĬ¸ëĿ¼
ìĹħ ìĽĲ
íĺľ íĥĿ
ë°ķ ìĤ¬
ĠëĤ© ì¹ĺ
Ġíķ©ê²© ìŀĲ
ì µ¸
Ġë´ī ìĩĦ
ë§¤ ì²´
ĠìĦł ê´ĢìľĦ
ìĤ¬ ì¹´
ĠìĪĻ ìłľ
Ġíķľ ëį°
ìĿĢëį° ìļĶ
ĠìĦłë³´ ìĹ¬
I FA
íĨł íĨł
Ġë¹Ħ ëĶĶìĺ¤
ĠìĺĪ ëħĦ
ĠìĦ¸ ìĿ¼
Ġíĳ ¼
ĠìĤ¬ê°ģ ì§ĢëĮĢ
Ġëĵľ ëłĪìĬ¤
íĤ¤ íį¼
Ġìĸĳ ìĭ¬
ë¯¸ ìĦ¸
h a
ìĿ¼ ìĪĺë¡Ŀ
ìľł ê¸°
Ġë¹¼ ëĨĵ
ĠìĿ¼ ì²´
íĩ´ ì§ģ
ìĹĳìĬ¤ íı¬
ĠëĤĺ ëħ¸
è »
ĠìĨĲ ê¸¸
Ġìłľ ë°ľ
ĠíĮĶ ë¦¬
ëŁ¬ ìĭľìķĦ
Ġìł ¸
ĠíĮĮ ìĤ°
ĠíķĻ ëĮĢ
ë¸Ķ ëŀĻ
íķľ íĻĶ
ëħ¸ëıĻ ì¡°íķ©
Ġìĺ¤ ëĶĶìħĺ
Į ë¦°
Ġê·ľ íĥĦ
ë Ľ
ì²Ń íļĮ
ìĪĺìĪĺ ë£Į
H O
ĠìĬ¬ë¡ľ ê±´
Ġíĺĳ ìĿĺíļĮ
ĠëĦĪ ë¨¸
ĠìĽĶ ìļĶìĿ¼
Ġíľ© ìĵ¸
ë¹Įë¦¬ íĭ°
ĠìĿ¼ ê¸°
Ġê³ł ìĦ±
Ġê±¸ë¦¼ ëıĮ
Ġë³´ ì¢Įê´Ģ
Ġê³ł ìĤ¬
ëĮĢ ìĽĲ
Ġê¸° ìŀ¥
Ġìĸĳ ëħĲ
ĠìĦ ¹
Ġê°Ħ ì§ģ
Ġëĭ¤ê°Ģ ìĻĶ
ìļ© ëŁī
Ġì¹´ì¹´ìĺ¤ íĨ¡
Ġê³¼íķĻ ìŀĲ
íķ´ ìķĪ
ìĥģ ë¶Ģ
ìĽĲìŀĲ ëł¥
Ġìĭł ìĥĿ
ĠìĦ¸ ìĪĺ
ê°Ħ ìłĳ
Ġë³¸ ëŀĺ
ëĶ© ìĬ¤
ĠëĦī ëĦī
ĠìĿ´ìŀ¬ ëªħ
Ġìºĺ ë¦¬íı¬ëĭĪìķĦ
ĠíĶĦ ëĿ¼
ëįĺ ëį°
ê³ °
ĠíĨµ ë¡ľ
ĠìĿ´ ê¸¸
íĭ° ìĬ¤
íķĻ ëł¥
Ġì°¬ ë°ĺ
Ġëħ¸ëıĻ ëĭ¹
ĠìĿ´ ë£°
ĠíĻį ìĦ±
ê·¸ ë§Į
Ġìĭľ íĭ°
ĠL CD
Ġì°¨ ê°Ģìļ´
ĠíĻ© ëĭ¹
íĺĪ ìķķ
ì§Ģ ìłķ
ĠìĤ¬ ëªħ
ĠìĹ ®
Ġë§ĪìĿ´ íģ´
ĠêµĲ ê°Ĳ
Ġíĺ¸ ìŀ¬
ĠìķĦìī¬ ìļ´
Ġìĭľê°Ģ ì´Ŀìķ¡
Ġëĭ¨ ìłķ
ĠìĹŃ íķĻ
Ġë¯¼ ì¤ĳ
ĠìĤ¬ íĺķ
ĠìĦ± íĺķ
Ġì°½ êµ¬
ĠìĨĮ ê·¹
ĠìĿĺ ìłľ
íĥĢ ë¦¬
ë¯¸ ì¹¼
ìĹĲ ìĸ´
Ġë¶Ī ëŁī
ë¬´ ìĭ¤
Ġì¡´ìŀ¬ ê°Ĳ
ĠíĻľ ì§Ŀ
ĠìĤ´ ë¦¼
ĠìĪĺë¹Ħ ìĪĺ
ìĹ° ìŀ¥
ë¦¿ ìĪĺ
ĠëĤ´ ëĭ¤ë³´
ĠíļĮ íĶ¼
íİĺ ìĬ¤íĭ°ë²Į
ĠìĹ¬ ì£¼
ĠìĤ¬ ì§ģ
Ġë¿ ľ
ĠìĿ¼ ìĸ´
ĠëıĻ ìĦ±
Ġëĭ´ ê²¼
ĠëıĮ ë³´
Ġì°© íķľ
Ġì² ¼
ï ¤
Ġíķľ ìĿĢ
ë¯¼ ì§Ģ
ìĹ £
ĠìłĢ ì¡°
Ġìĭ¤ ìĬµ
ëľ¨ ë¦°
Ġëıħë¦½ ìļ´ëıĻ
Ġë°ĺ ëĤ©
ĠëıĻ ìłĲ
ëĭ¤ ì§Ģ
ë¶Ģ ë¡ľ
ê°¤ ëŁŃìĭľ
ãĢ ī
Ġìĭł ìĦ¸
Ġìļ° ë¦°
ĠëıĦìĭľ ëĿ½
Ġê´Ģê³Ħ ìĹĨìĿ´
V P
ìłķ ëıĻ
Ġíŀĺ ìĵ°
Ġíļ¨ ìĦ±
Ġë¬¼ ìĿĮ
âĢ ķ
ĠS TX
ëĲĲ ìľ¼ëĤĺ
Ġíģ´ë¦° íĦ´
Ġìŀħì£¼ ë¯¼
ëıĻ ëĦ¤
íĮ ľ
Ġê¹Ģ ìĿ¼
Ġíİ¸ ê²¬
ĠìķĦ ë¦¬
Ġë°© ê³¼
ĠìĤ¼ìĦ± ê·¸ë£¹
ìłģ ìľ¼ë¡ľ
íĺķ ìĤ¬
ĠìķĦë§Ī ì¡´
ë¶Ģ ê°Ģ
íĺ¸ íĿ¡
Ġë²ķìĿ¸ ìĦ¸
Ġìº ¡
ĠëĤ´ ìŀ¥
Ġì¦Ŀ íıŃ
Ġê´Ģ íķ´
íİ Į
Ġê°ķ ì§Ħ
ĠT F
Ġê°Ģë¡ľ ë§ī
ëı Ĺ
Ġë¡ľ ë¹Ħ
Ġì°¾ìķĦ ë³¼
Ġê·¸ ëĬĺ
Ġíĺ¸ ëŀĳìĿ´
ì½Ķ ìĺ¬
ëĤľ íŀĪ
ëī´ ìĸ¼
ê¼ Ń
ì¤ĳ ê°ľ
ê³µ ë¶Ģ
ëĤĺ íĥĢ
Ġìĭ¤ ë¬¼
ĠíĦ° ëľ¨ëł¸
Ġ n
Ġìłľ ëĦ¤
ëĮ Ħ
Ġë°± ìłľ
ĠëĨĴ ìĿ¸
Ġë³Ģ íĸĪ
Ġíİ Ħ
ëıĻ ë¶Ģ
è ¨
ĠìłĦ ê²½
ĠìķĦìĽĥ ëıĦìĸ´
Ġìĺ¤ ë¡ľì§Ģ
ìĤ° ëıĻ
ìĦł ë°ľ
Ġì¦Ŀ ìĹ¬
ëıħ ìĿ¼
Ġìłķ ë¬¸
ĠìĪĺ ìĭł
Ġì¡°ìĨį íŀĪ
Ġã ħ
ìĭ¤ ìĹħ
Ġìŀ¬ íİ¸
ĠK CC
Ġê¸° ë»Ĳ
ĠìĹ¼ ì¦Ŀ
Ġíķĺ ëĵľ
ĠìĿ´ ìĽĲ
Ġìŀ¡ ì§Ģ
ì§ķ ê³Ħ
ï ¦
íİ Ģ
ìŀĲ ìĭł
Ġì¶ķ ìĤ¬
ìĹĲ ëĭ¤ê°Ģ
ĠìĬ¤ íĮĮ
Ġëª© ìļķ
ê²Ģ ì§Ħ
ìķ¼ ëĵľ
Ġì¶Ķ ìľĦ
Ġì¶ľ íĩ´ê·¼
ĠíĻį ìĪĺ
ë¯¼ì£¼ ì£¼ìĿĺ
ĠíĻĶ ë³´
Ġê°ķëł¥ íŀĪ
ìłģ ìŀĲ
ĠìĨĮìľł ìŀĲ
ê·ł ê´Ģ
Ġìļ° íĺ¸
ìŀĲ ìľ¨
Ġê²°ìĬ¹ ìłĦ
ë©´ ìłĳ
ìłĲ ìľł
Ġì¶ľ íĮĲìĤ¬
Ġìĸ´ ê¸ĭ
R A
ĠJ TBC
ĠìŀĲì¹ĺ êµ¬
ĠëĤ´ìĦ¸ ìĽĮ
Ġíķ ı
ĠëªħíĻķ íŀĪ
ìĭŃ ëĭĪëĭ¤
> ,
Ġìŀĥ ìĸ´
Ġê²Į ìĿ´
Ġë¯¸ ìļ©
Ġë¶Ģ ë¥¸
íħĮíģ¬ ëħ¸
Ġë°° ìĭł
ì¶Ķ ìĸ´
Ġìłķ íĻĶ
Ġì°¸ ëª¨
Ġì²´ ì§Ī
ĠìĨĮ ëª¨
íĢ ĺ
ìľł ë¦¬
Ġë°Ķë¡ľ ìŀ¡
ĠìĤ¬ ìĻ¸
Ġíİĺ ìĿ´
Ġíĳľ ì§Ģ
ê·¸ ê²ĥ
Ġê°Ģ ëĬł
ĠìĿĮìĭĿ ë¬¼
ë¡ľ ë´ĩ
G A
ë£¨ ìĪĺ
ë³ ķ
Ġë¹Ħ ì¶°
Ġ3 50
ãĨį êµ°
Ġë¬´ ê²ģ
Ġìŀ¥ ëł¤
ĠíĭĢë¦¼ ìĹĨ
ĠìĤ¬ ìĽĲ
ìĵ ´
ĠëĪĪ ëĨĴìĿ´
íĶĦ ëĿ¼ìĿ´
Ġëĭ¨ ìĭĿ
íĶĦë¡ľ ìłĿíĬ¸
Ġìĺģ íĨł
Ġê±°ëĵŃ ëĤĺ
ë²Ħ ëł¤
ë²Į ìĿ´
ĠìĿ´ ëĮĢë¡ľ
Ġê³Ħ ëŀĢ
Ġìĭľ ê³µìĤ¬
Ġë²Ħ íĬ¼
Ġì§Ģ ìŀ¥
Ġë¶Ģ ëıĦ
ë©´ íĹĪ
ĠìķĦ ëŀį
ĠìĨĮ ìĬ¤
ë£¨ ë¯¸
Ġìķħ ê¸°
Ġìĭł ì¡°
ĠìľĦ ëł¥
ë²ł ë¦¬
Ġíı¬ íĨł
ĠìĤ¬ ë°©
íı¬ ìŀ¥
Ġìłľ ìķķ
Ġë°Ķ ëŀįëĭĪëĭ¤
Ġ25 00
Ġê±´ ê°Ģ
ìĪĺ ìĥģ
ĠìĤ¬ ëĤĺìĿ´
Ġì¢ħ ìĿ¼
Ġë°ķ ë³ĳ
Ġìļ° íİ¸
Ġë¶Ģ ìŀĦ
ĠëĮĢëĭ¨ íŀĪ
Ġíĺ¸ ì¡°
ìĿ´ ìķ¼ê¸°
D S
êµĲê³¼ ìĦľ
ìł Ĭ
ĠëĬĺ ë¦´
íģ´ëŀĺ ìĬ¤
ĠìľĦ ì¡°
Ġëĭ¬ëł¤ ê°Ģ
ì£¼ ê±°
ë¥´ ê¸°
Ġì¤Ħ ìĺĢ
Ġëĵ± ìŀ¬
Ġê¿ ĩ
ë¸Ķ ë£¨
íķŃ ë§Į
ìĭ¬ ìĿĺ
Ġë¶Ģ ìľĦìĽĲìŀ¥
Ġì¡ Į
200 8
Ġì§Ħ ëıĻ
Ġìłķ ëıĻ
Ġêµ¬ íķ´
ìĹ° ê¸°
ĠìĨĮë¦¬ ì³¤
Ġ9 7
Ġì½Ķ ëĵľ
ëłĪìĿ´ íĦ°
ë¥´ ë¥´
ĠêµŃ ìĻ¸
ĠìĪ¨ ì§Ģ
Ġìµľ íĽĦ
ìĭľ ëĭ¹
ĠíĻĶ ìĤ´
Ġê³ł ë¶Ģ
Ġíģ¬ ë¡ľìĬ¤
ĠíĪ¬ êµ¬
Ġë³´ íĥľ
Ġìłľ ìĿĺ
P P
ìĦłê±° ë²ķ
âĹ ĭ
Ġ9 2
é Ľ
ë²Ħ ëĭĺ
ĠëĮĢ ê¶Į
Ġì§Ī ì£¼
ĠëıĻ ìĦł
Ġ9 6
ê¸° íļĮ
Ġíģ´ ëŁ¬ìĬ¤íĦ°
êµŃìłľ ê³µíķŃ
Ġëħ¸íĬ¸ ë¶ģ
ì²Ń ìĽĲ
Ġëį ¸
ĠìĥĪ ìĤ¼
Ġê·¸ ìłľ
ĠëĤ´ ìĹŃ
ĠìĨĮ ìĭł
ĠìĭľëĤ´ ë²ĦìĬ¤
ĠëĤ¨ ì§ĵ
ìĤ¬ìĹħ ë¹Ħ
ìĦł íĥĿ
Ł ĵ
Ġê·Ģ ëĨį
Ġëŀľ ëĵľ
Ġí Ĥ¬
ëĦ¤ ìĬ¤
Ġì°½ ëĭ¹
Ġë©Ķëª¨ ë¦¬
ì§Ħ ì¶ľ
Ġëĵ¤ìĸ´ ìĦ¤
Ġíĩ´ ì¶ľ
ĠìºĲ ìĬ¤íĮħ
Ġê°ģ ê³Ħ
ìľ¤ ë¦¬
ĠíıĲ ìĹħ
ĠêµĲ ìŀ¬
íĮĮ ìĽĮ
ĠìĪĺ ìĤ°ë¬¼
ìľ Ĺ
Ġíĥľ ê¶Į
ìĬ¤ íĨłë¦¬
Ġë²ł íħĮëŀĳ
ëĤĻ ìĹ°
ĠëĮĢ ê²Ģ
Ġìļ° ìķĦ
Ġì°½ìĹħ ìŀĲ
ê³ł ëĬĶ
Ġë§ŀ ë¶Ļ
ë§¤ ì¶ľ
ĠëĦĵ íĺĢ
íĥ± íģ¬
ë²ł ìĬ¤íĬ¸
ĠìĨĮìĦ¤ ê°Ģ
Ġì§ĳì¤ĳ ëł¥
ìĺ¬ ëŀĲ
ê²¨ ìļ´
ĠìĽĲìŀĲ ìŀ¬
ë¦¬ ìļ°ëĵľ
ĠìķĪíĥĢê¹Į ìļ´
ìļĶ ë¦¬
ĠíĦ° ëĦĲ
Ġíĸĩ ìĤ´
Ġë¶Ģìłģ ìłĪ
ë³´ ìľł
ĠV R
Ġì¤ĳ íķĻìĥĿ
ìĥģ ëĮĢ
ĠëĤļ ìĭľ
ì°½ ëĭ¨
ìħĢ ë¡ľëĤĺ
Ġìĭł ì²ľì§Ģ
ĠìĿ´ ì¤Ģ
Ġë§Į ë£Į
ë¡ľ ìĦł
Ġëĭ¹êµŃ ìŀĲ
t p
Ġë¹Ħ íĭĢ
Ġì²ľ ìŀ¥
Ġë§ī ê±¸ë¦¬
ĠìĹĺë¦¬ ë²łìĿ´íĦ°
ĠìĬ¤ íĤ¨
ìĦ¸ ìŀĲ
íıĲê¸° ë¬¼
ìŀĲ ì±ħ
Ġìĭľ ì§Ħíķĳ
Ġìłķ ëħĦ
ê´Ģ ìłĪ
ìĭĿ ìĤ¬
ì¶Ķ ì²ľ
ĠìĤ° ìĨĮ
Ġê·¸ ìª½
Ġê°Ģ ëŃĦ
ìĤ¼ìĦ± ìłĦìŀĲ
Ġìĥģ ìĿĺ
ë¬´ ìļ©
ĠëĲĺëıĮ ìķĦ
íĺ¸ ëĤ¨
ĠìĿ¸ ëĶĶ
ëª¨ ë¹ĦìĬ¤
* *
Ġê²° ìĭ¤
ë°ľ ìĥĿ
Ġìĺ¨ ëĭ¤
ĠìĨĲ ëª©
ĠìĿ´ëģ Ī
ëĮĢ ìĦł
Ġì¤ĳ ì§Ħ
Ġê²°ê³¼ ë¬¼
Ġë°ĶìĿ´ ìĸ´
ìĭł íĺ¸
Ġ ç
ĠìĿ´ ìĦĿ
å ¸
ī į
ĠìĽĮ íĦ°
Ġì¡° íĺĦ
ìĭľ íĶ½
Ġê¸ī íŀĪ
Ġê±°ëŀĺ ìĨĮ
ë³´íĹĺ ë£Į
Ġë§Į ìłĲ
ëĶĶ ìĽĢ
ĠìĪĺ ëªħ
Ġìļ°ìļ¸ ì¦Ŀ
Ġë§Ī êµ¬
ĠíĮ¨ ìĬ¤íĬ¸
ĠìĻ łì§Ģ
Ġ17 0
ĠíĻ© êµĲìķĪ
Ġíľĺ ë°ľ
Ġì¤Ħìĸ´ ëĵľ
íķ´ ëĭ¹
Ġìĺ¬ëĿ¼ ìĻĶ
ĠìĿ¼ìľ¼ ì¼ľ
ê³µ ìľł
ê¶Į ëĭ¨
â ħ
Ġë°Ģ ìĸ´ë¶Ļ
Ġêµ ¶
Ġëħ¹ íĻĶ
ë° ĭ
Ġ in
Ġë³´ ë¬¼
Ġê°Ĳ ìĺ¥
Ġíķ© ê³Ħ
ĠìķĦ ë©Ķë¦¬
ëĬĲëĥĲ ê³ł
Ġêµ¬ ìĽĲ
ĠíĽĦ ë°ĺê¸°
Ġìŀ¡ íĺĢ
ë¦ ħëĭĪëĭ¤
Ġê³¨ íĤ¤íį¼
Ġê³¼ ì²ľ
ìĻĢ ìĿ´
ìĬ¤ íĨ±
ìĿ¸ ëĭ¨
Ġë°ķ ì§ĢìĽĲ
ĠìĤ° ëĭ¤
ĠíĥĢ íĺĳ
Ġíĭ° ë¹Ħ
ĠìĪĺ ë²ķ
ĠìĥĿ ìĦł
Ġì¡° ë³Ħ
ĠìłĢ ìŀĳ
êµ¬ ìĦĿ
ìłĦ ê³µ
Ġë°ĽìķĦëĵ¤ ìĿ¼
ĠìĤ°ìĹħ ìĿĢíĸī
Ġì¹¨ ìĪĺ
Ġì»´ ë°±
å ¿
ĠìķĪ ê°ľ
ë¶ģ ìŀĲ
ĠíĮĮ ê¸ī
ĠìĪĺ ë£Į
ë°± ë§Į
ĠìĿ´ ìĨ¡
ìĨĮëĵĿ ìĦ¸
ë¶ ĵ
ĠìĹ¬ íķĻìĥĿ
ĠíĻĺ ìĬ¹
ëĳĲ íĻĺ
Ġìłĳ íķľ
Ġ8 9
ê³ł ê¸ī
ìĤ Ĳ
ìĦ± ìłģ
íĺĳ ëıĻì¡°íķ©
ĠìĿ´ìļ© ê°Ŀ
ĠëĤłì¹´ ë¡ľìļ´
ê°Ģ ìĪĺ
I B
Ġê°ľë§ī ìłĦ
Ġë³´ì¦Ŀ ê¸Ī
Ġëĭ¤ íĪ¼
Ġìłľ ìŀĦìĬ¤
Ġì·¨ íķ´
ĠìĺģìĽĲ íŀĪ
ìĽĲ ì§Ģ
Ġë°ķ ìļ©
ĠìĹī ëļ±
ê¹Ģ ì¹ĺ
D B
ĠìĿ¼ ê°Ħ
ë¹Ħ íĸī
Ġë¡ľ ì¼ĵ
Ġíķ´ ë³Ģ
ĠìĤ° ìŀ¬
Ġìŀħì£¼ ìŀĲ
ĠìĶ ¹
ë®¤ ì§Ģ
ĠìĿ´ íĻĶ
I G
ĠëıĦ ë¦¬
Ġê°ľìĿ¸ ìłĦ
ì ĳ¤
ĠìĬ¤ íİĻ
Ġ19 60
Ġìľł ëĦ¤ìĬ¤ì½Ķ
ĠãĦ ´
ĠìıŁìķĦ ìł¸
ì£¼ ìĦĿ
Ġë§¡ ê²¨
ëĽ °
Ġì¡° ì²ĺ
Ġì§Ī ìĿĺ
ĠíĿĺ ëłĢ
ĠìĦ± ì·¨
Ġëĸł ìĺ¤ë¥¸
ĠìĹŃ ëıĻ
ì£¼ìĿĺ ìŀĲ
Ġê²Ģ ìłķ
ìľĦ ì¹ĺ
ĠìĿ´ ì§ĳíĬ¸
Ġìĭľ ëıĻ
ĠìłĦ ì§Ħ
ë³Ģ íĺ¸ìĤ¬
Ġíı¬ ìĬ¤íĦ°
ë¶ģ êµ¬
Ġë°° ì¶Ķ
ĠíĨµíķ© ì§Ħë³´ëĭ¹
íĦ° ëĦĲ
ìĤ¬ ëĵľ
ĠìĦľ ìłĲ
Ġë°©íĥĦ ìĨĮëħĦëĭ¨
íĻĢ ëĶ©ìĬ¤
Ġìĭľ ìķ¼
âĢ ¤
ì¦Ŀ ì§Ħ
ì½ ķ
ìĤ¬íļĮ ëĭ¨ì²´
ëĭ¤ ëĵ¬
ĠêµŃë¯¼ ìĿĢíĸī
M O
ì Ńī
êµŃ ìĪĺ
Ġìłľ ëıĻ
Ġëĸł ëĤł
Ġê¸°ë¶Ģ ê¸Ī
Ġë°ķ ìĿ¸
Ġë§Ī ëĬĺ
Ġì§ĳíĸī ìľłìĺĪ
ĠìĿ¸ ì§ĢëıĦ
ĠíĮĲ êµĲ
Ġê¸Īê°ķ ìĤ°
Ġê³µ ì§Ģ
Ġëĭ¤íģĲ ë©ĺíĦ°ë¦¬
ĠìĹī ëį©ìĿ´
ë§Ī ìĿ¼
ĠëĦĺ ì³Ĳ
Ġìľł ëĮĢ
ĠíĻĶ ê°Ģ
Ġì¡° ë§Ŀ
ĠìķĦë¥´ íĹ¨íĭ°ëĤĺ
ĠìķĦ ì¤Įë§Ī
ĠìĹ´ íĿĺ
å± ±
ì§Ī ëŁ¬
ë® ¬
Ġê³Ħ ìĬ¹
Ġì§Ģì§Ģ ì¸µ
Ġ9 4
Ġì« Į
M Z
ìĹ¬ ë¡ł
Ġë³´ ì¶©
Ġê³łìĨį ëıĦ
Ġê¸°ìĹħ ì²´
Ġìĸĳ íĺ¸
Ġìŀĳê³¡ ê°Ģ
íĶĮ ëłīìĬ¤
ĠëĦĺ ê¸´
ì§Ħ êµ¬
Ġì½ §
ĠìĪĺ ëĭ¹
ĠëĪĮ ëŁ¬
ìĨį ê¸°
Ġìĸĳ ìľ¡
Ġê²½ íĿ¬
ê³µíĻĶ êµŃ
Ġìłľ ì¡°ìĤ¬
Ġì¤ĳ ìĤ°
ë§Ī íĨł
íĶĮ ëŀ«
ht tp
ëĵľ ëĿ¼
Ġì² ©
ĠëıĻ ëĮĢë¬¸
Ġ ä¸Ń
ë¬¸ ìłĲ
ĠìłĦ ìĤ°
Ġìŀī ê¸Ģëŀľëĵľ
ĠE TF
Ġë¶Ī ë¹Ľ
ë¯¹ ìĬ¤
Ġìŀħ ìĪĺ
Ġì§Ģì¼ľ ìķ¼
ĠëıĻ ìª½
Ġíİ¼ ì¹ľ
Ġìĭł ìĽĲ
Ġíİ ł
íļĮìĿĺ ìĭ¤
ì½ľ ë¦¿
ì§Ģ ì¹¨
Ġê» į
Ġëª° ëł¸
ë¹ Ķ
êµ° ìĤ¬
íĨµ ê³Ħ
ĠìĿµ íŀĪ
ĠëıĦ ëĤ´
Ġê³ł ìĿĺ
Ġê¹Ģ ëªħ
Ġìĭł ìĦ±
ë°Ķ ë¥´
ëħĦ ì¸µ
ìĦ¸ íĽĪ
ìķĦ ë§Ī
ê°ģ ìĦľ
Ġë©´ íĹĪ
Ġëĺĳ ëĺĳ
ê¶ Ī
Ġë°Ķ ì§Ŀ
ìĹ° ìĬµ
ĠìĦł ìŀ¥
Ġë§Ĳ íĪ¬
Ġë¦¬ ìĬ¤íĬ¸
ì «
L A
Ġì£¼ ìĥģ
Ġìĸĳ ì§Ī
Ġë¦¬ ëĵľ
Ġìĥ ·
ê¹ ľ
ëĵľ ë¦°
Ġìķķ ì¶ķ
ëķ Ģ
íĻķ ë³´
íģ´ ë¦¬
ĠíĦ¸ìĸ´ ëĨ¨
Ġë¬¼ ê²°
ìķĦ ë¦Ħ
ĠíĽĦ ìľł
Ġì¼Ģ ìĸ´
ìĭł ìłĢ
Ġë¸ĮëĿ¼ ìļ´
ĠìħĶ ì¸ł
ë¹Ħ ìĥģ
ë§ŀ ìĿ´
Ġìłķ ëª½
Ġìī Ĳ
ĠëĿ¼ ìļ´ëĵľ
Ġìĸ´ëĸ ¡
ĠíĶĦëłĪ ìŀĦ
ĠìĤ¬ ë£Į
ĠìĺĪ ë§¤
ëŀŃ íĤ¹
ê°Ģ ê³µ
ĠìĤ¬ ìĦ¤
Ġìļ¸ ëł¤
Ġê°Ģ ìĤ°
Ġì´Ī ê³ł
Ġë³Ħ ê°ľ
ĠíļĮìĤ¬ ì±Ħ
ìľ¼ ìĦ¸ìļĶ
ìĿĦ ìĪĺë¡Ŀ
Ġìļķ ìĦ¤
ì° Ķ
íĶĮ ëĿ¼
Ġë³´ ê¶Ĳ
ĠíļĮë³µ ìĦ¸
Ġìľ¡ ì²´
Ġë°© ê¸Ī
Ġìľł ìĿĺ
Ġì§ĳíĸī ë¶Ģ
ĠëĿ Īëĭ¤
Ġë¹Ħ ìľł
Ġìłģ íĺĢ
ì²´ ìłĦ
A E
ĠíĽĦ íĩ´
ĠìıŁìķĦ ì¡Į
ĠìĦ¸ ìŀħìŀĲ
ë²ł ìĿ´ìĬ¤
Ġë¬¸ ì²´
ĠìĿ¸ ì¢ħ
Ġíİ Ģ
Ġíĳ¸ ëĵľ
ĠìĤ¬ ìŀĲ
Ġê±° íĴĪ
êµĲ ìĦŃ
ĠëĮĢ ë¶Ģ
ëĵľë¡ľ ìĿ´ëĵľ
Ġì·¨ íķľ
Ġì½Ķ ìĺ¤ë¡±
Ġëĭ¨ íİ¸
ìĿ´ëħ¸ ë²łìĿ´ìħĺ
Ġíķ© ë²ķ
ĠìĨĮ ë§Ŀ
ĠëĤ´ ìī¬
Ġ9 3
iv e
ë± ĥ
Ġë©° ëĬĲë¦¬
ë¶Ī ë²ķ
ë¦¬ ìĹĲ
å ¹
Ġìµľ ìŀ¥
Ġìľł ìŀ¬
Ġê° ¯
Ġì¹ĺ ìļ°
ì Ń
Ġìŀł ìĪĺ
Ġêµ¬ ìĤ¬
ĠìľĦ ì´ī
ĠìĿ¸ ìĤ¼
Ġê³ł ìŀĳ
Ġíĸī ìļ´
ìĬ¤ íĶ¼
ĠëĵľëŁ¬ ëĤ¸
ĠìĥĿê¸´ ëĭ¤
Ġë¬¸ ëªħ
Ġì§Ģ ìļ°
ìļ´ íĬ¸
Ġìĭ¤ ì¦Ŀ
ĠìĿ´ ì°½
ĠëĤĺëĪ Ī
ëĲł ì§Ģ
Ġì» ·
ĠìĽ¹ íĪ°
Ġì¤ĳìĭ¬ ì§Ģ
Ġë°° ëŁ´
Ġíį¼ ìł¸
ëĿ¼ êµ¬
ìĨĮ ê°ľ
Ġê´ĳ ë²ĶìľĦ
Ġë§ĪìĿĮ ê»ı
Ġë³´ ë¥ĺ
ĠìĿ´ íĺĦ
Ġë°ľ ìĥģ
Ġë¬µ ë¬µ
Ġë³´ ë¦Ħ
â Ķ
ìļĶ ìĨĮ
Ġì¡° ë¥ĺ
ĠíĶĮ ëĿ¼
Ġë³ ¶
ĠìĹ° íıī
ëħ¸ ìĬ¤
Ġì½Ķ ëłĪ
ìļĶ ìĿ¸
Ġê±° ìķ¡
Ġìĥģ íķ´
ĠìĦľ ìª½
ĠíķĻ ìľĦ
Ġìŀ¥ë¡Ģ ìĭĿ
ëłĮ ì§Ģ
Ġë³µ ëıĦ
ĠêµĲ ì§ģìĽĲ
ĠíĽĦ ìŀĦ
ĠíĴĢ ìĸ´
Ġë§¤ ë²Ī
ĠëıĻ ìĥģ
Ġìĭł ìŀĳ
ĠìłĢ ëłĩê²Į
Ġì¼ĢìĿ´ ìĬ¤
íĮ¨ ëĵľ
Ġìŀ¥ ê±°ë¦¬
ĠëĤĺíĥĢ ëĤľëĭ¤
Ġíľ´ ìĸĳ
ĠìĬ¤ ì¹´
íĶ¼ ìĨĮ
ëĤ¨ ëĮĢ
ĠìĦľ ìłķ
ê» ĳ
Ġíķľ ê»ı
Ġë¦ ½
Ġë³´ ê¸ĪìŀĲë¦¬
ìĿ¸ê°Ģ ìļĶ
ĠìŀĶ ëĶĶ
Ġë¸Į ë¡ľ
íĬ¹ ìłķ
ì²ł íķĻ
ê°ķ ìłĦ
ëĤĺ ë¬¼
ìĪĺìĤ° ë¶Ģ
ĠM OU
ìĺĪ ê³ł
ĠëıĮ ë´Ħ
ĠìĹħ ëį°ìĿ´íĬ¸
Ġ &
e st
ĠíĺĦìĪĺ ë§ī
ëĸ ł
ĠêµĲ ìĹŃ
Ġíķĳ íģ¬
ëĺ ¥
ìĬ¹ íĻĺ
ìļ´ëıĻ ìŀ¥
ë¯¸ ìĬ¤
ĠìĿ´ìŀ¬ ìļ©
ĠìĪĺ ìĤ°
Ġê¸° ë¦¬
Ġìļ¸ ë¦ī
0 1
Ġë¶Ģ ì¹ľ
ĠìĨĲ ë°Ķëĭ¥
ĠíĻĶ íķ´
ĠìĹ° ìķĪ
Ġìĺ¤ ìĿ¼
ê²½ íĹĺ
ìĬ ĺ
ì¹ ©
Ġê³¼ ë°ĺ
ĠìĹħ ìĨĮ
Ġëĭ¹ ì§Ħ
ĠG DP
Ġìĺ¨ íĨµ
Ġê²¹ ì¹ĺ
ìĥģ ìĤ¬
ĠëĮĢìļ° ê±´ìĦ¤
ĠëĤ´ìĦ¸ ìļ´
Ġë¯¸ ë¯¸
Ġìĺ¥ ìĥģ
ìĭł íĥģ
ĠìĬ¤ ìľĻ
ĠíĬ¼ íĬ¼
Ġëª¨ ëĵĪ
ë°© íķ´
ĠíĬ¹ ìľĦ
Ġì£¼ìłĢ ìķī
Ġ c
ìĭľ ê²½
Ġì§ģ ìĦł
Ġìłľ ë²ķ
ê³ł ìĸĳ
ĠíĶĮëŀ« íı¼
Ġê²Į ìĿ´íĬ¸
ê³¡ ëıĻ
ê° ¯
ìłĳ ìĪĺ
ì£¼ êµĲ
Ġëª¨ ëĵľ
i f
ĠìĦ± ê¸Ī
ì§Ħ ìĿ´
ë°Ķ ê¿Ī
ĠìĥĿ ìĦ±
ê³ł ëł¹
ìłľ êµŃ
ĠìĿ´ë¤Ħ ìł¸ìķ¼
ĠíĺĲ ìĺ¤
ëĨį ìŀ¥
ĠìłĲ ëł¹
Ġ ï¼Ĥ
Ġê°Ħ íĺ¸
ìĹĶ ëĤłëłĪ
ĠìĽĲ ìķĪ
Ġê³łëĵ± íķĻìĥĿ
ì»¨ ìĦ¤íĮħ
íĿ¬ ìłķ
ëĮĢ ì¤ĳ
ĠìĦ± ë§¤ë§¤
ĠìĺĪ ìĪĺ
ë¬ »
Ġë¦¬ ìĦľì¹ĺ
ìľ¼ëĭĪê¹Į ìļĶ
ëĤ´ ìħĶëĦĲ
Ġê±´ìĦ¤ ìĹħ
ĠìŀĲ ìłķ
Ġê³ł ëŀĺ
ìħ °
v er
ìĹ Į
ëŁ¬ ë¸Ķ
Ġì§Ģ íĺķ
Ġë§Ī ë¹Ħ
Ġë°ľ ìĹ´
ì²ľ ìķĪ
Ġíķĺ ìĹ¬ê¸Ī
Ġìĺ¤ë¦¬ ìĺ¨
ĠìĦłê±° ë²ķ
Ġëĭ¹ íķ´
ìĿ¼ ëŁ¬
ĠíĤ¤ ìĽł
íķ´ ê²°
Ġì§ĳ ì°©
Ġì¡° ì¹´
ç ¥
ĠëıĦ ëĳĳ
ìĦľìļ¸ ìĭľ
R I
ëĤĺ ê°Ħ
ĠìľłëŁ½ ìĹ°íķ©
ìĤ´ ìĿ¸
íĶĦ ëŀĳìĬ¤
ĠìĨ¡íĮĮ êµ¬
Ġíļ¨ ëł¥
Ġë¹łìł¸ ëĤĺê°Ģ
Ġíľ´ ìĿ¼
Ġëº ı
ì²ĺ ë²Į
ë¬´ ìĤ¬
ĠëĮĢ êµŃë¯¼
ìĽĲ íļĮ
ĠìĬĪ íĮħ
íķ´ ê³ł
ĠëıĮìķĦ ëĭ¤ëĭĪ
Ġì´ Į
ìĪĺ ì¹Ļ
ìĪľ ìĿ´ìĿµ
Ġëĥī ìłķ
ĠìķĮ íĮĮ
ĠO ECD
Ġì¡° íĺķ
ë§¤ ìĿ¼
ìĦľ ë¶Ģ
Ġí ĵ¨
ìĪĺ íĸī
ê°ľ ëħĲ
Ġë¶Ħ ì£¼
Ġ9 1
Ġêµ¬ ë¡ľ
ê³µ ê²©
ĠìĦ¸ ëĭ¨
ĠíĽĦìĽĲ ê¸Ī
Ġ198 8
Ġìĭľ íĬ¸
ĠìŀĲìķĦ ëĥĪ
ĠìĬ¤ íĭ¸
Ġê±°ëŀĺ ëŁī
Ġê±¸ìĸ´ ê°Ģ
Ġê¸° ë¥´
ì§Ģ íļĮ
ëł¤ ëĭ¤
ĠëĤĺ íĿĺ
Ġìłķ êµĲ
è ¡
ĠëĤł ëł¸
Ġê°Ģìł¸ ìĺ¤
Ġë²Ħ ëĿ½
ê°Ģ ê²Į
į ìĬ¤
ĠíĥĢ ìĦĿ
ëĤ´ ìĿ¼
Ġëħ¸ëıĻ ì¡°íķ©
ĠìĬ¤íĶĦ ë§ģ
Ġë§Ī ìħ¨
æķ ħ
ëłĪ ëĤĺ
íķĻ ê·ľ
Ġì¡° ìĹħ
Ġê³µ ì²ŃíļĮ
íķ´ ìĦĿ
ìį ¹
ëĵľ ë¦½ëĭĪëĭ¤
íĥĿ íĬ¸
Ġë°© ë¶ģ
Ġë°ĺ ë¬¸
ê°Ģ ìłĦ
ĠêµŃë¬´ ë¶Ģ
ĠëĶ° ëıĮ
ĠëĮĢ ë¦¼
ĠìķĦìļ° ë¥´
Ġë¸Ķë¡Ŀ ì²´ìĿ¸
Ġìĥģ ìĤ¬
ãİ ¢
ìļ° ìĦł
Ġìĭł ìĤ¬
ĠëĤ´ ì§Ģ
ìłĢ ëĦĲ
íĶĮ ë£¨
Ġìłķ ìļ°
ìĺ¬ ë¦¬
Ġë¶Ģ ë¥¼
Ġë°ķ ìŀ¬
Ġìĺ¨ ì²ľ
ëŀĺ ìļĶ
ìĺģ ìĪĺ
ìĺ¬ ë¦°
å ¼
ĠìĿ´ ìĤ¬íļĮ
ìłĦ ì²´
Ġìĭł ëħĲ
Ġì»¤ ì§Ħ
Ġë¸Ķ ëĿ¼
ĠëıĻìķĦ ìĭľìķĦ
ìĸĢ ë§Ī
Ġë¯¼ ê´Ģ
Ġì´Ī ë¡Ŀ
ë£¨ íĥĢ
ìĦ± ë¶Ħ
ìŀ¥ íķĻ
Ġìĸĳ ìĤ¬
ĠìĨĮìĭĿ íĨµ
Ġìĺµ ìħĺ
ĠìĿ´ ê²¼
ĠíĮĮ ëĿ¼
ĠìĽĲ íĺķ
íĻĶ ìĦ±
ĠìĿ´ ê°ķ
íĤ¤ ìĬ¤
Ġê²© ìĥģ
Ġê²° ì§ĳ
Ġíıī ëĵ±
ĠíĴį ëł¥
ĠìĻ¸ íĻĶ
ë°Ķ ìļ´ëĵľ
ĠëįĶ ìľĦ
ĠìĽ¨ ìĿ´
ëª¨ ëĳĲ
ĠëĤĺ ì£¼
å Ī
ë²Ħ ë¦´
Ġíĸī ìŀ¥
ëª¨ ìĬµ
Ġëĭ´ ìŀĦ
ĠíĬĢ ìĸ´ëĤĺ
Ġë°ľ ì¡±
Ġê°Ģìł¸ ëĭ¤
Ġìķħ ìļ©
ì¢ħ ìĿ¼
ĠëĮĢ ë°ķ
ĠìĻķ ë³µ
Ġê³µíĨµ ìłĲ
ĠëĮĢë²ķ ìĽĲìŀ¥
ĠëĨį ìĦ±
Ġê¹Ģ íķľ
Ġë¡ľ ë§Ī
êµŃ íĨł
ìĭł íķľ
Ġë°ĺ ì°¬
Ġëį° ìĿ´íĬ¸
ìĭł ê²½
ëĤĺìĿ´ íĭ°
Ġë¹Ħ íĬ¸
i p
ê²Ģì°° ì²Ń
ì±ħìŀĦ ìŀĲ
Ġê¸° ëĳ¥
ëıĦ ìĭ¬
Ġë²ł ë¥¼ë¦°
ìŀħ ì°°
ĠíĥĪ ë°Ķê¿Ī
ĠíıŃ ëĿ½
Ġíĸ¥ ìĪĺ
ì± ĶíĶ¼
Ġê°Ĳ íŀĪ
Ġì»¬ ëłīìħĺ
Ġê°ľë§ī ìĭĿ
ëķ Ĳ
ì¹´ ë©ĶëĿ¼
ë°° ëĭ¹
Ġìĸĳ íĮĮ
Ġê°Ħ ìĭł
ĠìĿĮì£¼ ìļ´ìłĦ
Ġë± Ģ
ĠìĹĦ ìłķ
Ġì¤ĳ ìľĦ
ĠO LED
ìļĶ ìĸĳ
ìĭ ¶
ĠìĿ´ ê´ĳ
Ġíķ´ ìĤ°
Ġìłĳ ìłĦ
ìĸĳ êµ°
Ġìłķ ìĦł
ëŁ¬ ë¸Į
Ġíħ ĥë°Ń
ê¸° ìķ¼
Ġìľł íĿ¥
Ġëħ¸ ë¥´
ĠìĹ° ì¤ĳ
ëłĢ ëĭ¤
ĠìĪ¨ ê²¨
Ġë¬´ ì§Ģ
íĮ¨ ìĬ¤
Ġì¤ĳê³ł ì°¨
Ġíĺķ íıī
ì£¼ ë¥ĺ
Ġë§Ĳ ë¦¬
Ġíĥľ ìļ°
Ġëª¨ë¥¸ ëĭ¤ëĬĶ
íĺ¸ ìĺģ
Ġê¸Ģ ìĶ¨
ĠëĤĺëĪ Į
Ġê°Ģë¦¬ íĤ¤
Ġë§¤ ëī´ìĸ¼
ì´ī ì§Ħ
Ġì¹ĺ ìķĪ
O T
ĠíĴĪ ê²©
ĠìķĮ ëľ°
íĮĮ ìĪĺ
ìĽĮ íĸĪ
íħĮ ë§Ī
ë²ķ ë¥ł
ĠíĹĪ ë¬¼
Ġìĸ´ë ķĮ
ĠìĪ¨ ì¡Į
ĠìĤ° ì§Ģ
Ġëª° ëĿ¼ëıĦ
ë§Į ê¸Ī
ĠìĦ¸ ê·ł
âĢĻ .
ĠI MF
Ġìĸ´ ëł¸
Ġíķ¨ ë¶Ģë¡ľ
Ġë°ķ íĥĪ
ĠìĬ¤ íĥľíĶĦ
Ġê¼½ íĺĶ
Ġê¸° íķĺ
e w
ĠíķĺëıĦ ê¸ī
Ġíĥľ ìĸ´ëĤ¬
Ġíĺ¼ íķ©
Ġìłķ ì§Ħ
Ġë©Ķ ë¦¬
Ġì§Ħ íķ´
ĠìĤ´ ê·ł
ê²½ ìĽĲ
ìľ¼ ë¦¬
Ġë¯¸ ìĬ¤
Ġìĭ¤ ëªħ
Ġêº¼ ëĥĪ
Ġë°ĶëĢ Ķ
íı´ ë¦¬
ëĵ £
Ġíı¬ ìĪĺ
Ġë²ł ìĿ´ìĬ¤
ĠìĬ¹ ê²©
Ġìŀ¬ ì¦Ī
ëı Ķ
Ġ20 25
íķĦ ëįĶ
Ġìĸ´ ìĦł
Ġìŀ¬ ìŀĦ
Ġë¥´ëħ¸ ìĤ¼ìĦ±
Ġì¡° ê²½
ìĦ± ê³µ
ìĨĲ íķ´
ì§Ģ ì¶ľ
ĠëıĮ íĴį
Ġíĸĩ ë¹Ľ
Ġë°Ģ ì°©
ĠëĤ´ìĦ¸ ìĽł
ìķĦ ì¹¨
ìħĶ ë¦¬
Ġë¯¸ ìĬ¤íĦ°
ĠíĢ´ ì¦Ī
ĠíķŃ êµ¬
ĠíĽĦìľł ì¦Ŀ
Ġì§Ģ ê°ĳ
ĠS W
ì´Ŀ ìĥĿìĤ°
Ġìĺ¤ë¥¸ ëĭ¤
ĠìĿ¸ ê°Ģ
ĠìĭĿ íĥģ
Ġíĩ´ ìŀĦ
Ġì§Ģ íĤ¬
Ġëī´ ì§Īëŀľëĵľ
ĠI oT
íĺĦ ì§ģ
ëĨ Ķ
ê²Ģ ìŀ¥
ĠìĭľìľĦ ëĮĢ
Ġê¸ī íķĺ
ê±°ëŀĺ ìľĦ
ìłķë³´ ìĽĲ
Ġëĭ¤ ëĭĲ
Ġëĭ¨ ìłĪ
Ġê¹Ĭ ìĪĻ
Ġëĭ¬ëĿ¼ ì§Ī
Ġëª¨ íĹĺ
ìĸĳ ìĦ±
ĠìĿ¼ ëªħ
Ġìļ´ëıĻ ìŀ¥
íĥľ ìĸĳ
Ġê²Ģ ìĤ¬ìŀ¥
ĠíĤ¤ ìļ¸
Ġê¶ģ ê·¹
Ġì§Ģë¦¬ ìĤ°
Ġê·Ģ ì¡±
ìŀ¬ ìĽĲ
Ġë§Ľ ì§ĳ
ì§Ģ ìŀĲì²´
ĠìĤ¬ ë©´
ìĪĺ ìĤ°ë¬¼
ë¬´ ìŀ¥
Ã Ĺ
ê·¸ ê±´
ìĦľ ë¥ĺ
Ġìĭ¤ë¦¬ ì½ĺ
ì§Ģ ìĿ¸
ê²½ ë¹Ħ
ëĬĶ êµ¬ëĤĺ
ë°° êµ¬
Ġë§Ī ì°°
Ġìĭľ íķľ
Ġê¹Ģ ë¬¸
' .
Ġë¶Īê±° ì§Ħ
Ġì§ģ ê²°
Ġëĸ ¨ë¦¬
ĠìĨį ì¶ľ
ê´Ģ ìĭ¬
Ġë¹Į ë¦¬
ìŀĲ ìłĦê±°
Ġ"âĢ¦âĢ¦ ."
Ġì´Ŀ ìķ¡
ĠìĶ Į
Ġê°ģ ì§Ģ
Ġìķħ ìĺģíĸ¥
ìı ĺ
Ġëħ¸ ìĪĻ
Ġê²½ ê³¼
ĠìĹĲ ì½Ķ
íĿ¬ ë¡±
Ġë³´ ëĭµ
ì¤ į
Ġêµ° ëį°
ãİŀ )
Ġíķ´ ì¹ĺ
Ġìľ Įë¦¬
ĠíķľêµŃ ìłĦëł¥
ĠìĦľ ë°©
ĠìĨĮ ë©¸
ĠíĤ ¹
ĠíĥĪ ëª¨
ĠìĹ° ìĩĦ
Ġë©´ìĹŃ ëł¥
Ġê°Ģ ëĭ´
Ġëĭ¤ ì¤ĳ
Ġëĵ¤ìĸ´ìĦł ëĭ¤
íĥĢ ëĭ¹
Ġìŀ £
ìļ° ë¯¸
ëĭ¤ ë¥´
ĠëıĦ ì§ĢìĤ¬
ĠìĨĲ ìŀĲ
ëıĻ ë§¹
ĠëĶ± ëĶ±
Ġìłķ ìłĲ
ĠëłĪ ìłĢ
ĠìĪĺ ëł¨
ĠëĮĢìłĦ ìĭľ
Ġì§Ģ ë£¨
ĠíĶ¼ ëł¥
ĠìĿĳ ìļ©
ê°¤ ëŁ¬ë¦¬
ĠìĤ¬ ìĸĳ
ì¹ľ íĻĺê²½
ê²½ íĻĺ
Ġì¢ħ ìĹħìĽĲ
Ġë¶Ī ê¸¸
R S
íĢĺ ìĸ´
ĠëĤĻ ê´Ģ
ì¤Ģ íĺ¸
ĠëĤ´ë¹Ħ ì³¤
ĠìŀĲë³¸ ì£¼ìĿĺ
ë¶Ħ ìŁģ
Ġê¹Ģ ìľ¤
ê°Ģ ëıĻ
æ µ
ĠëķĮ ëł¤
ê°Ģ ìļ´ëį°
ì¤ĳ ëıħ
ë³ ¶
ìĿ¸ ë¬¼
Ġì¡° ìĥģ
ê³ł ìĥĿ
Ġëħ¸ íĻĶ
ĠìĿ´ ì§Ħ
Ġìŀħ ëĮĢ
íģ¬ ë¦¬íĬ¸
ĠìĬ¤ ë¬¼
Ġì§Ģë°© ìĦ¸
Ġëªħ ëıĻ
Ġê³¤ ëĳĲ
0 5
Ġìļ° íķľ
ĠëŃĶ ì§Ģ
Ġìĩł ê³łê¸°
Ġì¶© ëĭ¹
ëħ¹ ìĥī
Ġë¶Ģ ìĹĮ
ê¾¸ ë¡ľ
ĠìĿ´ ë§Į
Ġë£ °
ĠìĨį íķľ
Ġë°ķ ì§Ħ
ìķĦ ë¹ł
Ġì¡° ë¬¸
Ġë²ł ë¥´
ëĦ ¨
Ġì·¨ íķł
ãİ ¥
ĠìĬ¤ ìºĶ
ï ¥
Ġê¸° íĺ¸
ãĨį ì¤ĳ
ĠìĪĺ íĺ¸
ĠíĬ¹ ìĥī
ĠëĤ¨ ìļ©
Ġíķĺ ëıĻ
Ġê·¸ ëł¸
è Ģ
Ġìłģ íŀĮ
ë£ »
Ġ199 2
Ġíķ´ìĸĳ ìĪĺìĤ°ë¶Ģ
ĠìłĢ ë§Īëĭ¤
ĠíĺĦ ëªħ
ê°Ī ëĵ±
ĠìĦ± ê·łê´Ģ
ĠC BS
Ġë´ī íĪ¬
ìĹĲ íĶĦ
Ġìļ© ë³ĳ
æ Ļ
Ġê³¼ ëĭ¤
Ġíŀ Ļ
Ġë¶Ī ì¾Į
Ġíļ¨ ëĬ¥
ĠíķĢ íħĮíģ¬
ĠëĮĢë¦¬ ìłĲ
Ġìĸĳ ì£¼
Ġë¯¸ëĵľ íķĦëįĶ
ĠìĹ° ìŀĦ
ĠíĻį ìĤ¼
ĠëįĶ ëŁ¬
Ġì«ĵ ê²¨
Ġê¹Ģ ì°½
Ġìĺ¤ ë§Į
ê´Ģë¦¬ ë³¸ë¶Ģ
ê²½ ìĦł
Ġê°ľ ìĽĶ
Ġë§ī íĺĢ
Ġë§ŀë¬¼ ëł¤
ëľ ¸
Ġíķľ ìĭľ
ìĺģ ì§Ħ
ìĬ¹ ìĿ¸
Ġë§Į ì§Ģ
ìĺ¤ íĽĦ
åľ ĭ
ë°ķ ìĿ´
Ġíķĺ ìļ°ìĬ¤
ëŀĺ íĶĦíĬ¸
ìľĦ ëĮĢ
Ġìĭł ê³¡
ì¹´ ì¹´ìĺ¤
ìłķ ìĭĿ
ìĥģ ìĿ¸
ĠìĹ´ ë§¤
ìĬ¤íĬ¸ ë¦¬íĬ¸
ĠíĨ¡íĨ¡ íŀĪ
ê³ł ë¬¸
Ġë¯¸ ëĭ¬
ĠìĪĺ ì§ģ
Ġìŀ¥ ë²½
ĠìĨĮ íĮĮ
ĠìķĪìłĦ ìĤ¬ê³ł
Ġì§ĢëĤĺ ì¹ľ
ìĤ¬ëł¹ ë¶Ģ
ìľĦ ìĥĿ
Ġì´ī ì´ī
Ġì¹ ©
ĠìłĢ ì¶ľìĤ°
Ġì§Ī ëłĢ
ê²Ģ ì¦Ŀ
Ġíĳľ ì¶ľ
ìĿ¸ ìŀ¬
ĠìĹ¬ ëł¥
ĠìĤ¬ ìļ´ëĵľ
ìĿ´ íĽĦ
ĠíķĦ ìŀĲ
Ġìł ł
Ġê³ł ì¹ĺ
Ġìĥģ ê³µ
ĠìĦłíĺ¸ ëıĦ
Ġë¹ł ì§Ī
ĠëıĻ ë¬¸
ìĨĮ ëħĢ
Ġë²ķ ê´Ģ
íĬ¹ ìĪĺ
ëıĹ ë¬¼
ĠE BS
ë¦¬ ìĸ¼
ê·¸ëŀĺ ìĦľ
ĠëıĻë°ĺ ìĦ±
Ġë¡ľë§¨ ìĬ¤
ĠìĪĺ ì§Ģ
Ġìłķ ì§ģ
ëĤ´ ëł¤
Ġìłľìŀĳ ìĤ¬
Ġë°ĺ ìĤ¬
Ġìļ© ìĿ´
Ġëĳ ¬
ĠìłĦë¬¸ ìĿĺ
ë³´ ëĶĶìķĦ
ì½ §
ĠìłĦ ìĦł
ì§Ģ ìĨį
ìĪĺ ìĨĮ
Ġëĸł ëĵ¤
ë¸Ķ ë¦¬
ĠìĹ¬ ìłķ
Ġì¡°íķ© ìŀ¥
ê·łíĺķ ë°ľìłĦ
ë ¤ĺ
íĬ¸ ëĦĺ
ĠëıĦ ë§Ī
Ġë ±ħ
ĠU S
ë± ī
Ġë³Ģ íĺķ
Ġì¶© ìĦ±
Ġì¶Ķ ë¯¸ìķł
ê¸° ìĺ¨
ĠìĹ¬ìĪĺ ìĭľ
ìĦľ ë¡ľ
íı¬ íĦ°
Ġê±° ëĳĺ
ĠíħĶëłĪ ë¹ĦìłĦ
Ġê·¸ ëĿ¼ìļ´ëĵľ
Ġê·¸ ìµ¸
Ġíı¬ ì§Ģ
í ĵ
Ġìĭľ ìĹ°
ĠíķĦ íĦ°
Ġì¶Ķ ìĿ´
ĠìŀĦìĭľ íļĮ
ëŀ Ĺ
ë³´ ìľ¡
ĠëıĻ ì§Ģ
ĠëĮĢ íķŃ
Ġì¹ĺ ê³¼
ĠëłĪìĿ´ ìłĢ
Ġê¹ ¨ìĸ´
ëİ Į
ĠìĤ° ì¶ľ
ĠëĤł ëł¤
ëŁ¬ ëĵľ
Ġê³ł ë¹Ħ
íķľ ë°ĺëıĦ
Ġë³Ģ íķ´
Ġíĥľê·¹ ê¸°
Ġê°ģ ê¸°
ìĬ¤ëŁ¬ ìĽĢ
Ġëª¨ ìļķ
Ġì°¾ìķĦ ìĻĢ
Ġë¬¼ ìĸ´
ĠìĦľ ë¥¸
Ġíķ© ìĤ°
Ġìĥģê´Ģ ìĹĨ
Ġëº Ģ
íĸī ì§Ħ
ë§Į ìķ½
ļ ê½ĥ
ĠìĤ´ìķĦ ëĤĺ
Ġíĸ Ħ
ĠìĹĦì²Ń ëĤĺ
êµ¬ ë§Ī
Ġê³Ħ íĮĮ
ĠíļĮ ìĥĿ
ĠëĤ¸ ëĭ¤
ëĤ´ ìĻ¸
Ġëĭ¨ ìĹ°
Ġë¡ľëĵľ ë§µ
Ġê¹Ģ íĺľ
ãİ¡ ,
ëĨį ëĭ¨
ë¥ µ
ëħ¸ëıĻ ëĭ¹
Ġìľł ë³´
ìĹ° ê·¹
Ġíķľ ë³µ
íĶ¼íķ´ ìŀĲ
ê¸Ģ ëĿ¼ìĬ¤
Ġê²½ìłľ íķĻ
Ġë¶Ģ ë¥¸ëĭ¤
ĠíĥĿ ì§Ģ
íĨłë¡ł íļĮ
ĠêµĲ ë³µ
Ġë¯¼ ìŀĲ
Ġìĵ´ ëĭ¤
Ġìĭł ëĤĺ
ĠìĤ¬ ëĵ¤
Ġê°ľ íķĻ
ĠìĬ Ľ
Ġë§Ī ë¥¸
ìº ¡
Ġê²½ ìĿ¸
Ġìŀł ëĵ¤
Ġê²Į ìĬ¤íĬ¸
ê´Ģ ìŀ¥
ì¢ħ ìĿ´
íı¬ ì§Ģ
Ń ëĭĪëĭ¤
Ġì°¸ ìłĦ
ĠìºĲ ì£¼ìĸ¼
L L
ê±´ ìĪĺ
ĠìĥĪ ê²¨
íħĮ ìĿ´ìħĺ
Ġëª¨ ìĺĢ
Ġíķ´ ìĺ¨
ëį ±
Ġê·¸ ëĭ¤ì§Ģ
Ġê´Ģ ë¬¸
Ġë§Ī ì¼ĵ
Ġì±ĶíĶ¼ìĸ¸ ìĭŃ
ĠìĽĲ ë¡ľ
ĠëĽ ´
A P
Ġì§ķ ìĪĺ
Ġë¬¸ íĦ±
Ġìĺģ íķĺ
ĠíĮĮ ìĥĿ
ê³µ ë¦½
ĠìĭłìĨį íŀĪ
Ġìłĳì´ī ìŀĲ
ĠìĹ¬íĸī ê°Ŀ
Ġê³ł ìķ¡
íį¼ ìĭľíĶ½
ĠìĤ´ìķĦ ìĺ¨
Ġë³¸ íļĮ
Ġëº ¨
Ġê°Ħ ìĤ¬
ĠìĿĺ íķ´ìĦľ
Ġìĸ¼ ìĸ´ë¶Ļ
ì¤ĳ ê¸°
ëįĶ ëĿ¼ë©´
Ġë¶Ī ì¶ľë§Ī
ĠìŀĦ íķĺ
ĠíĨł ìĸĳ
Ġì¶© ì£¼
Ġê°Ģ ê¾¸
ĠìķĦ íĻī
ĠëıĮìķĦ ìĺ¬
ë²ħ ìĬ¤
Ġìŀħ ìĸĳ
ĠíĦ° ëľ¨ë¦¬
ĠìĮĵ ìĿ¸
Ġê³µìłķ ê±°ëŀĺìľĦ
Ġì°¨ ë¦¬
Ġëĭ¨ ê¸°ê°Ħ
Ġë°° ìĪĺ
íľ´ ìĿ¼
Ġê°Ħìĭł íŀĪ
Ġìī ¼íĦ°
ĠìŀĦ ìĿĺ
íĹ¬ ìĬ¤
ë³´ ê¸°
Ġê¸ ģ
Ġë²Ī ì§Ģ
Ġê¸° ëĵĿ
Ġìĩ¼ íĬ¸
Ġìļ° ìĹ°
Ġìłľ ìŀĲë¦¬
Ġìłľ ìĿ´
ĠìĹ¬ ëįŁ
ĠìĹŃ ìĦ¸
ĠíĻĺ ê¸ī
ìĬ¬ ëĿ¼
Ġë¶Ģ ìĿĺìŀ¥
ìłľ ìĿ´
ĠìĽĲ ì¡°
ìĺĢ ìľ¼ëĤĺ
Ġë³¼ ëĦ·
Ġì¹´ íĥĢë¥´
ìĬ¤ íĶĦ
ìĦ¸ ìĦľë¦¬
Ġìŀ¬ ë¹¨ë¦¬
é Ļ
ì§Ħ ë¡ľ
Ġë§ŀ ì·Ħ
íĺĦ íĻ©
Ġê°ľê·¸ ë§¨
Ġ a
ĠíĨł ì¢ħ
ĠëıĮìķĦ ìĦ°
Ġíĥľ íıīìĸĳ
ë°° ì¹ĺ
ë¹Ħ ì¦ĪëĭĪìĬ¤
ĠëıĻ êµ´
ĠìĿ´ ëĤĻìĹ°
ìķĦ ë¥´
ĠíĽĦ ë¬¸
ĠëĦ¤ ìĿ´
ĠíĥĢ ê¹ĥ
Ġëª¨ ìĪľ
ĠêµŃ ë¬¼
Ġìĭ¤ìĪĺ ìļĶ
ìĿ´ ìĬ¤íĬ¸
íĶĦ ëŀĢ
íĶĮ ëŀĺ
ĠìĿ´ë£¨ ìĸ´ì§Ħ
ĠìŀĦ ì§Ħ
Ġíľĺë°ľ ìľł
ì¦ ī
Ġê·¼ ìłĳ
ìŀĲ ëıĻ
¤ ¼
Ġê¸° íĶ¼
ĠìłĦ ë³µ
Ġìĭ¸ ìĿ´
ĠìķĮ ëłĪ
Ġì²ľ íķĺ
Ġìĸĳ ë°ĺ
ĠìĥĿ ë¦¬
ĠëĿ¼ìĿ´ ë²Į
ĠìĦľ ìĪł
ë¥ĺ ìŀ¥
ìŀ¥ ë©´
Ġìĺ¬ëĿ¼ ìĺ¨
Ġ199 3
Ġìĥģ ìĬµ
ĠìĨĮ ì§Ħ
ìĹ° ìĪĺìĽĲ
ëª¨ ëłĪ
Ġì§Ģ ìĦ±
ĠíıĲ ëł´
ĠëĤ¨ ì¸¡
ĠìķĪ ëĵľë¡ľìĿ´ëĵľ
ê·¸ ëłĪ
ìĵ° ëłĪê¸°
íĻĶ ëł¥
Ġíı¬íķŃ ìĭľ
Ġëĵ¤ìĹ¬ ëĭ¤
ìĿĢíĸī ìŀ¥
ìļ© ìĪĺ
ĠíĮĮ íģ¬
ìĦľ ë¯¼
ĠD NA
ìĭł ì¢ħ
ĠìłĦ ë¡Ģ
Ġê°ķ ìŀĲ
Ġê°ķ ìķĦì§Ģ
Ġë°ľ ë¶Ģ
Ġâ ĺ
Ġìĭłì²Ń ìĦľ
ìĿ´ ëªħë°ķ
Ġì§Ī íĥĢ
Ġë§Ī ëĭ¤
Ġê´Ģëł¨ ìŀĲ
ĠìĿ¸ ìĩĦ
al l
ìķĪ ì²łìĪĺ
ĠìĿ´ëĮĢ íĺ¸
ĠìĤ° ìķħ
ìĦ¼ ìĬ¤
ìķ¼ ë§Ī
ëŁ° íĬ¸
Ġë¶Ī ë¦°ëĭ¤
Ġê³ł êµ¬ëł¤
ĠëĤ´ ë±ī
ĠìŀĶ ìķ¡
Ġ11 2
ĠíĽĦ ìĨĲ
ëįĶ ë¸Ķ
ĠëĮĢ ëªħ
Ġ i
ãı Ĭ
ëĤ Į
ĠíķĦ ë¦Ħ
Ġíķł ë¦¬ìļ°ëĵľ
ĠíĮĲ ë¬¸ìłĲ
ĠìĹŃ ìłĲ
ĠìķĦë§Ī ì¶Ķìĸ´
íİ¸ ìĦ±
ĠëĴ¤ ì§Ģ
ìĿ¸ ê³µ
ìĤ´ ìĿ´
ìĹĶ ìŀĲ
é Ģ
Ġê°ķ ëıĻ
ê°ĲìĹ¼ ì¦Ŀ
G DP
Ġë¯¸ ìħĺ
ĠëĤ´ëł¤ ê°Ķ
Ġë¯¸ ì²ĺ
Ġìķµ ì»¤
Ġìļ© ìĿĺìŀĲ
íĽ ¼
ĠíĶ¼ ìŀĲ
Ġì¦ Ī
ĠíĻĶ ìĽ¨ìĿ´
Ġê²½ìŁģ ìĤ¬
ì¡° ê°ģ
Ġê³¼ ìĭ¤
Ġëª¨ìĿĢ ëĭ¤
Ġì¹´ ì§Ģëħ¸
ĠíĻĺ ìĪĺ
íļĮ ìłĦ
ëıĮ ìĿ´
ìĹĶ ì§Ħ
Ġê²½ê¸° ëł¥
íĮ į
íĶĮë£¨ ìĹĶìŀĲ
ë¶Ģ ì´Ŀë¦¬
ĠìĹ¬ ë°°ìļ°
Ġëĵ¤ëł¤ ìĻĶ
ĠìĨ¡ ê¸Ī
ì§ ĸ
ë³´ ê´Ģ
ĠìĦ± ì£¼
Ġëħ¸ ìĺĪ
ìĹ¬ ê²¨
ĠS S
Ġë§¤ íĬ¸
IC T
Ġì§ģ ê²©
Ġê¹Ģì¢ħ ìĿ¸
Ġíģ´ ë¦¬
ë³´ ëĤ´
Ġê¹Ģ ì²ľ
ìĥģ ìĹħ
Ġë§Ī ìĭł
Ġíĺ¸ ìłĦ
ê²½ ìłķ
ĠìĹ° ë©´ìłģ
ìķĦ ìĤ°
ĠìĿ¼ë³¸ êµ°
ĠìĿ´ ëªħ
Ġíķµ ë¬´ê¸°
Ġì§Ħ ìķķ
ĠíĽĦ ê¸°
A S
Ġìķ½ êµŃ
ĠëĤ© ìŀħ
Ġë§ī íŀĪ
íĭ° ì§Ģ
ç Ħ
ìĻĦ ìłĦ
Ġêµ¬ íĺķ
Ġëĵľ ë¬¸
Ġì´Ī ìĽĶ
ëĮĢ ë³ĢìĿ¸
ëĭ¨ ìĨį
ĠìĽĲ íĶ¼ìĬ¤
íķĻ ìĪł
ĠìĪĺ ê°Ĳ
ĠëĮĢ ëįķ
Ġëĭ¨ ìĦľ
ĠìĿ´íķ´ ê´Ģê³Ħ
ĠíķŃ ìķĶ
ĠêµĲ íĽĪ
Ġëĥī ëıĻ
Ġê²¹ ì³Ĳ
ëĦ¤ íĬ¸
ê³µ ëĮĢ
Ġë§ĪìĿĮ ëĮĢë¡ľ
ìķĦ ëª¬ëĵľ
ĠìĤ¬ìļ© ìŀĲ
Ġì¹ľ ìłķ
íĺĦëĮĢ ì°¨
ë¬¼ ë¡ł
ĠìĦ ¹ìĭľ
ë¯¼ íĺ¸
ĠìłĦ ì²ł
Ġëĭ¤ ë¬¼
Ġë°Ŀ íŀĲ
Ġê¸Ģ ìİĦ
Ġì¹ĺ ëłĢ
Ġíİ ĳ
ì¤Ģ ìĺģ
ìĿ´ ìŀ¬
Ġê±´ëĦ ¸
ĠíĥĲ ìĤ¬
Ġê´´ ë¬¼
íıŃ íĥĦ
ëį §
ĠìķĪ ì£¼
íĪ¬ ê¸°
ĠìĤ¬ ë§ī
ìĥģ íĺ¸
ìĬµ ê¸°
Ġìĺ¤ ë¦Ħ
Ġì§ľ ì¦Ŀ
ìķ½ ìĭĿ
Ġìķ¼ ê¸°
ë¹Ħ ìĦľ
Ġê³łìĨį ëıĦë¡ľ
Ġì£¼ ìĸ´ì§Ħ
ìľ¼ ë¦¬ëĿ¼
Ġìĥ Ĳ
ìĿ´ ê²ĥ
ĠëĤľ ë°©
ìĪĺ ìļķìŀ¥
ìķĦ ìķĦ
Ġëĭ¨ ê³¨
R T
ìĦ± ëĤ¨
ìľĦ ìĦ±
ëħ¸ ëŀĺ
ĠëĤ¨ìĸĳ ì£¼
ĠíļĮ ìĥģ
ĠìķĦë¬´ íĬ¼
Ġê±° ì¹¨
ì§Ģ ì§Ģ
ê¸° íĽĦ
ìĭľ ìĬ¤ì½Ķ
ĠëĨĢ ëŀį
ĠëıĮ ìĹ°
ĠëĵľëĿ¼ìĿ´ ë¸Į
o c
Ġë©Ķ ê°Ģ
Ġë³Ģ ëªħ
ĠëĪĪ ìĹ¬ê²¨
ĠìĦ¤ ëłĪ
ì£¼ ì°¨ìŀ¥
Ġì Ĳ
ĠíĻľë°ľ íŀĪ
ìłľ ê¸°
Ġë¶Ħ íı¬
ĠìĻ¸ ê´Ģ
Ġëĭ´ íķ©
Ġê¸° ë¯¸
ĠìłĦ ìŀ¥
ìĦ± ìĿ´
Ġëı¼ì§Ģ ê³łê¸°
Ġë§Ī ìĦ¸ìļĶ
ĠìĿ¼ ì¡°
Ġë³¸ ìĹ°
ìĬ¤íĥĢ íĬ¸
ĠíĿĺ ëł¸
Ġë¦¬ ëĵ¬
ìĺģ ë¦¬
íĶ¼ìĨĮ ëĵľ
Ġë¶Ģ ëıĻ
Ġìķł ìį¨
Ġìĭľ ì±ħ
ĠìĹ¬ ëĬĲ
ê³µ ì£¼
ì§Ģíķĺ ì²ł
Ġì´Ī ì½ľë¦¿
Ġì¹ľ ê·¼
Ġë¹Ħ ìŀĲ
ĠëĪĪ ë¶Ģ
ê´Ģê´ĳ ê³µìĤ¬
Ġê°Ħ ì£¼
ìĹ¬ ìĪĺ
ĠìĿµ ëªħ
Ġíĸī ìķĪ
ĠìķĶ íĺ¸
Ġì´ī ë°ľ
ĠíĹ Ŀ
ĠìĿ´ ëĵĿ
ëıĦ ëĭ¹
ìĥģ ìŀ¥
ĠìĪĺ ìĽĶ
íĥĢ ì§Ģ
ìŀĲ ëĦ¤
ë¿ Įë¦¬
Ġë¬´ ìŀĳ
ĠíĬ¹ ìĤ¬
ìĦ¸ ìļ°
ë§Ŀ ìĿ´
ĠìŀĶ ì¹ĺ
ëıĻ ìķĦ
ìķĦ ì¹´ëį°ë¯¸
è ¦
ìĿĺ ìķ½íĴĪ
ë°Ķ ìľĦ
Ġìĭ± íģ¬
ëĭĪ ê¹Ĳ
ĠíĤ¤ ì¦Ī
ĠìĦĿ ë°©
ìĤ¬ ê³¼
ĠìĨĲ ìĪĺ
Ġë¦¬ ì½ľ
ë©Ķ ë¥´
ëı¼ ìĦľ
íĶĮ ëŀľ
Ġê¹Ģ ëĳĲ
Ġê°Ħ ìĭĿ
Ġíķ¨ ìłķ
Ġê·¸ ë£¨
Ġìĭłìļ© ì¹´ëĵľ
ĠíĨ °
Ġ198 7
Ġëĭ¨ì²´ ìŀ¥
Ġì²´ ìĺ¨
ĠìłķìĦ¸ ê·ł
Ġë§Ĳ ëĿ¼
ĠìĽĲ ëıĻëł¥
Ġìķ½ ìłķ
ìĽĲ ì¹Ļ
ëį ®
ìłķ ë¦¬
ĠìĹħ ìłģ
ìĭ¤ ì²ľ
Ġê±° ê¾¸ë¡ľ
M BC
ìĭľ ëıĦ
ĠìĤ¬ìĿ´ ì¦Ī
ëĮĢ ì£¼ì£¼
G C
ĠìĮĵ ìĿ´
ë² ³
Ġë¶Ģ ê²°
âĦ ĥ
Ġì§Īë³ĳ ê´Ģë¦¬ë³¸ë¶Ģ
Ġìį¨ ìĦľ
Ġ9 000
Įë¦° ì§Ģ
Ġê´Ģ ìķħ
ê³µ ì§ģìŀĲ
êµŃ ìłģ
ĠìĨĮ ëĭĪ
ìĬ¤íħĮ ìĿ´íĬ¸
Ġë°ĺ ê²©
Ġì§Ħìłķ íķľ
Ġê²½ ìĹ°
ĠìĿ´ ìĤ°íĻĶ
ĠìĺĪ ì»¨ëĮĢ
Ġì§ĳ íķĦ
Ġìĭłì²Ń ìŀĲ
ĠëĳĲ êº¼
Ġëĭ¹ ìĤ¬
ĠìĪĺìĦ± êµ¬
Ġ ï¼į
ì§ģ ìĹħ
ì½ľ ëĿ¼
ëģ ½
ì²´ êµŃ
Ġê²Ģ ì§Ħ
ìĬ¹ ìłĲ
ĠíĻĺ ê¸°
ë°© ìĸ´
ëĦĲ ë¦¬ìĬ¤íĬ¸
Ġìĺ¬ ìĬ¤íĥĢ
ĠìĽĢì§ģ ìĿ¼
ë£¨ë¯¸ ëĬĦ
ìĿ¸ ìĥĿ
ìĽĲ ëĭ¨
íį¼ ëĵľ
Ġìĺ® ê¸´
íģ´ ëĿ¼
ìľ¼ ëĿ¼ê³ł
Ġìłķ ê²½
Ġìĺ¤ ìĬ¤íĬ¸
Ġê°ķ íķ´
ä¸ Ģ
Ġê°ľ êµĲ
ìłĳ ì¢ħ
ĠíĺĦëĮĢ ëª¨ë¹ĦìĬ¤
Ġìŀ¥ ìĭľê°Ħ
Ġì·¨ íĸĪ
Ġë¶ĢìĤ° ëĮĢ
ê¶ ¤
ì¢ Ģ
ĠìĬ¤ ë¬´
Ġíķľ ìŀĲ
ĠìŀĲ ëŀĢ
ĠíĮĮ ìĨĲ
íĺĦ ëıĻ
Ġíħį ìĤ¬ìĬ¤
ì¼ĢìĿ´ íĮħ
ì²´ ìĬ¤íĦ°
ĠìĬ¹ ì°¨
Ġê¸°ìļ¸ ìĹ¬
Ġë§ī ë°Ķì§Ģ
Ġê°ķ ìĪĺ
Ġëĭ¤ íĪ¬
Ġìĸ´ëĶĺ ê°Ģ
Ġì¢ħ ìĤ¬
Ġìķ½ íķĺ
ĠìĹĲ íĶ¼ìĨĮëĵľ
Ġíķľ ë°ľ
ëĭ´ ë°°
íĹĮ ë²ķ
ìŀĲì±ħ ìłĲ
ì°¨ ê¸°
Ġìĺģ ìĺĪ
Ġëª¨ìŀĲ ëĿ¼
Ġê²° íķ¨
Ġìĺģ ë¬¸
Ġê³µ íĹĮ
ìĦľ ìĬ¤
ĠCN N
ì» ¥
ëĿ¼ ëĶĶìĺ¤
Ġê¸° íķľ
å ¾
ë¬¸ ìĦľ
ĠD J
Ġìļ° ëļĿ
Ġë©Ķ ìĭłìłĢ
Ġë¡ľ ìĬ¤
ĠìĤ¬ ì£Ħ
ĠëĤ´ ì¤¬
Ġíģ° ìĿ¼
ë°Ķ íĢ´
ìŀ £
Ġëª¨ ë°ľ
ĠìĹĳìĬ¤ íı¬
íĺķ ìłľ
Ġëĭ¬ íķł
ìĸĳ ìĭĿ
ì°¨ ìĿ´
Ġê¹Ķ ëł¤
Ġë¶Ļ ìĺĢ
Ġì¤ĳìķĻ ìĿĢíĸī
Ġê³łëł¹ íĻĶ
Ġ199 1
ĠìŀĲ ìĿ´
êµŃ ë°©
Ġê°ķ ìĦ±
ĠëĤ¨ ë¯¸
Ġëª© ëıĻ
ìķ ¨ë²Ķ
ìĥģ ìĪĺ
Ġê·łíĺķ ë°ľìłĦ
Ġíķĺ ëĤ¨
ëĦ¤ ë§Ī
ëĤĺ ë¦¬
ĠëĤŃ ë§Į
Ġì»¤ë®¤ëĭĪ ì¼ĢìĿ´ìħĺ
a k
ì²Ń ìĨĮ
ìĺĪ ìķ½
Ġê³ł ë¦½
Ġê²° ìĦł
in e
t h
ĠìĪĺ ëıĹë¬¼
ĠìĬ¹ ê³Ħ
ĠëĤł ìķĦê°Ģ
ìŀ¥ ëĭ¨
ì´Ŀ ê´Ħ
Ġëĵľ ëŀĺê³¤
ĠìĨĮ ëªħ
Ġìľł ëĤĺìĿ´íĭ°
Ġë§ī ê°ķ
ìŀ¥ ìĿ´
ĠëĲĺ ìĥĪ
ê°ľ ìŀħ
Ġë¯¸ ìĸĢë§Ī
Ġìļ´ ë°ĺ
Ġìĺ¤íĨł ë°ĶìĿ´
ĠíĪ Ń
Ġìłķ ê´Ģ
ĠìĹ°êµ¬ ìŀĲ
ëıĻ íĸ¥
Ġìķŀ ìĦ°
Ġë ®
ìĿ´ íĸī
ĠìĤ¬ íĳľ
Ġìľł ëĤľíŀĪ
ĠìĤ´ ë¦°
Ġë²Ī ì©į
ê°Ģ ìŀħ
ìĨĮ íĺķ
ìĽ įìĬ¤
I N
æĸ °
ĠëĮĢ ì¶©
ĠìĺģíĻĶ ê´Ģ
ìĸ´ ëĶĶ
ĠíĹĪ ê³µ
Ġì¶Ķ ìļ´
ëıĦ ìĤ¬
Ġê°ĲìĹ¼ ìŀĲ
ĠìĦĿ ìĤ¬
Ġê±° ì°½
ĠìĪĺìļĶ ìĿ¼
T N
ê³µ ìĺĪ
Ġë³¸ ìłĲ
Ġê¸¸ ëŁ¬
Ġëŀľëĵľ ë§Īíģ¬
Ġë¬´ëįĶ ìľĦ
Ġë§Į ì°¬
Ġê¹Ģ ìĽĲ
Ġë³µì§Ģ ë¶Ģ
ĠìĪĺì¶ľ ìŀħ
Ġë¹Ħ ëĭ¨
Ġìĭ¤ ëł¤
ĠíĴĢ ëł¤
ê²° ìĬ¹
Ġìĭ¬ íĺĪ
Ġì¢Į íĮĮ
ìłľ ê³µ
Ġê±° ëĳ¬
ĠìĦľ ê·Ģ
Ġì¶ľ ëł¥
ĠìŀĲ ì§Ī
Ġë¯¸ ì§ĢìĪĺ
ĠíŀĪ ë¡ľ
Ġê±´ ê°ĢìļĶ
Ġíĳľ íĸĪ
ìĨĮë°© ìĦľ
ìī Ĳ
Ġë¹Ħ ì¤Ģ
ìµľ ëĮĢ
Ġì¶ľ ê³ł
Ġì¹ĺ ì¦Ī
Ġíĳľ ë³¸
ĠëĿ¼ ìĿ´íĬ¸
Ġìľ Į
ë£¨ ìĬ¤
Ġë²Ĺ ìĸ´ëĤľ
ĠëĤ¨ìķĦ ê³µ
ĠíĥĦ ìķķ
íĪ¬ ë¦¬
Ġë¯¸ ëĦ¤
ìłĢ ëŁ°
ìĿ´ ëłĩê²Į
Ġëĭ´ ìķĦ
ĠìĺĪ ë¯¼
ĠìŀĦ ë°ķ
ìļĶ êµ¬
ì¦Ŀ íĽĦêµ°
êµĲ ë¶Ģ
ĠìĽĶ íıīê·ł
ĠíļĮìĿĺ ìĭ¤
ĠìĬ¬ íĶĪ
ĠãĢ Ī
B M
0 3
Ġìķ¼ ìĭ¬
Ġìĥģìĥģ ëł¥
ìĸ´ìĦľ ëĭ¤
Ġë©Ķ ìĭľ
Ġì´Ŀ ë¬´
ĠL S
ĠëĨį ì¶ķ
íķĻ ìľĦ
íħĮ ìĬ¤íĬ¸
Ġìķ¼êµ¬ ìŀ¥
Ġíķĺ ìĸ
Ġìķł êµŃ
Ġíļ¡ ëĭ¨
ë³´ì¡° ê¸Ī
ĠìĿ¼ ëĭ¹
Ġê²½ìŁģ ìŀĲ
Ġë¶Ģ ìĿĳ
íĭ° ìķĦ
ì²´ ìĸ´
ĠíĶĦ ëŀĳ
P D
A IST
Ġíĺĳ ëıĻì¡°íķ©
ë®¤ ì§ģ
ĠëĮĢ ë©´
ë¬´ ìĹĩ
Ġìŀ¥ëĤľ ê°Ĳ
Ġê°ľ ê°ľìĿ¸
ë¶Ģ ìłķ
íĶĮ ëŀľíĬ¸
ëªħ íĴĪ
Ġëª° ëĳĲ
ĠìĥĿíĻľ ë¹Ħ
ĠìĹ¼ ìĽĲ
ê³ł ëŀĺ
ĠëĮĢíĳľ ëĭ¨
ĠëĳĲëł¤ ìĽĮ
ĠìĿ¼ ìĸ´ìĦľ
ĠëıĦ ìļĶíĥĢ
Ġìĭł ìĿĮ
ëĿ¼ìĿ´ ë¸Į
ĠíĻĪ ê²½ê¸°
Ġì¶ľ íĴĪ
ë¶Ģ ìĸĳ
Ġìłķ ì¡°
íĶĮëłĪìĿ´ ìħĺ
Ġêµ¬ ë³Ħ
an g
ĠìĦ¤ íĥķ
ë¯¼ ìłķ
ĠìłĦìĭľ ê´Ģ
ìķĦ ëŀĺ
Ġìłľ ì²ł
Ġ10 1
ĠS t
ĠíĬ¸ ëłĪìĿ´ëĵľ
Ġê¸° ìłĲ
Ġìĭ¤ ìĤ¬
ĠìĿ´ìĬ¹ ìĹ½
ëĤ¨ ë¯¸
ĠìĽ¨ ëĶ©
Ġê´ĳ ê²½
ĠìĹ° ê³ł
Ġë²ł ëĦ¤
ĠìļĶ ìķ½
Ġì°Į íĳ¸
ì© ¡
Ġìľłê¸° ëĨį
ëĭĪ ì§Ģ
ĠìĪľ ì¡°
ë°° ì¶ľ
ĠìĤ¬ ìĥĿíĻľ
ëĭ¹ ê³¼
Ġíķ© ì¹ĺ
ìĨĮ ìĿ´
Ġê¸° ìļ©
ìķħ ëĭ¨
Ġìľł ë³ĳ
Ġìŀ¥ ëĭ´
íľ´ ì§ģ
Ġêµ¬ ì§ģìŀĲ
Ġì§ģ êµ¬
ĠíĿī ê¸°
Ġíĳľ ë°©
ĠìĪĺìĿµ ê¸Ī
Ġìĸ¸ë¡ł ìĿ¸
ìĹ¬ ê°Ŀ
ëłĮ ì¦Ī
ĠëĮ Ħ
Ġíİ¼ì³Ĳ ì§Ħ
ìĽĲ ëıĦ
ĠíĥĪ ë¶ģìŀĲ
íıŃ íĴį
ĠìĿ´ìĪľ ìĭł
ĠíħĮ ëĭĪìĬ¤
ĠìłĪ ë°ķ
ìĭł ëĿ¼
Ġëĭ¤ ëĭĮ
ì¤ĳ ëĭ¨
ĠìłĦ ëħĲ
Ġë²Į ìĿ¼
Ġë¬´ëįĶ ê¸°
ĠìĤ¬ëł¹ íĥĳ
ĠìĪĺ ê³ł
ĠêµĲ ëĤ´
ë¶Ħ ë³Ħ
ìĿ´ íĥĪ
ĠíļĮ ê³ł
Ġì°¸ ì¡°
Ġìĸ´ìļ°ëŁ¬ ì§Ħ
ĠìĨĮ ìķĦ
ĠìĪľ íļĮ
Ġë¯¸ ëģĦëŁ¬
ìĦ± ëħĦ
Ġëª° ìŀħ
Ġë¶Ħ ìĪĺ
ĠìľĮë¦¬ ìĹĦ
ì»´ íį¼ëĭĪ
ĠìĨį ì´Ī
ìĵ° ê¸°
Ġìĺ¤ ìĤ¬ì¹´
Ġ Z
Ġê¹Ģ ìĿĢ
ĠìĦľ ë¸Į
ĠëĪĪ ëıĻìŀĲ
Ġìĥģ íķĺìĿ´
s s
ĠìŀħìĨĮ ë¬¸
ì¦Ŀ ìŀĲ
Ġíķ´ ìĹŃ
ìĪł ë¶Ģ
Ġê³µ ì±Ħ
Ġë¯¸ ì£¼
ê± Ģ
ĠëıĻ ë©Ķëĭ¬
ĠíĻĶ íıĲ
ĠìĨĮ ê°ģ
Ġì±ħìŀĦ ê°Ĳ
ìľł ì¶ľ
Ġë¨¸ë¬¼ ëŁ¬
Ġë¦¬ ë²Ħ
ê¹Ģ íķ´
ĠìĿ´ ì¼Ģ
ĠíĴ ĭ
ĠëıĻ íĥĦ
Ġíķ´ìĪĺ ë¶Ģ
Ġê¶Į ìŀ¥
Ġëĭ¹ëĩ¨ ë³ĳ
Ġê·¸ íĨłë¡Ŀ
Ġë¶Ħ íķ´
Ġ ,
ĠìłĦ ìŀĳ
ë¹ ¡
ĠìĹ¬íĸī ìĤ¬
Ġì¹¼ ëŁ¼
ë°ľ ìĸ¸
Ġë³´ ëł¹
ìĿ´ ëŁ¬
ĠìĶ ģ
ĠìķĦ ë²Ħëĭĺ
Ġìłľ ë¡ľ
ĠíĹ¤ ì§Ģ
ĠìĿ¼ìľ¼ íĤ¬
Ġê·ĢìĹ¬ ìļ´
Ġëĭ¤ ë¤Ħ
Ġìķ¡ ìĦ¸ìĦľë¦¬
ĠëĬĺìĸ´ëĤľ ëĭ¤
Ġìłģ ìĦ±
Ġë´Ĳ ìĦľ
Ġì¿ ¨
ĠìĤ¬ë²ķ ë¶Ģ
ìĥģ ìĭľ
ĠìĹ¬ ê°Ģ
ĠíĬ¹ ê¸ī
ĠíĦ° ì¡Į
ĠìĪĺìłķ ìķĪ
ĠìĽĢì§ģ ìĺĢ
Ġê±° ë¨¸
ĠëĮĢ ëŀµ
Ġíķľ ìĭĿ
ìĿ´ ëıĦ
ë¦¬ìĬ¤ ë§Ī
ĠíļĮ íĻĶ
ĠìĪĺ ìĺģìŀ¥
ìĿ¼ ì¹ĺ
íİ «
Ġì§ģê²© íĥĦ
Ġìĭł ìĺģ
Ġìĺ¤ ìĤ°
Ġìħ° íĶĦ
ê½ ģ
Ġê°Ģìł¸ ìķ¼
Ġê¸Ī ìĦ¸
Ġëĵ ŃëĭĪëĭ¤
ìłĦ ì²ĺ
íıī ìĥĿ
ĠìĺĪ ë³´
ĠìĤ¼ ì§Ħ
ĠìĦ± ìĽĲ
ìĤ¬ëł¹ ê´Ģ
! !
Ġìĺ¤ ëĿ½
ĠìĤ¼ìĦ± ì¦Ŀê¶Į
ë§Ī ë¥´
C I
ĠìĽĲ ë§Ŀ
ĠëĳĲ ê»ĺ
ĠìķĮ ì½Ķìĺ¬
ĠìĦŀ ìĿ¸
ìłĦ ë°©
Ġìļ´ìĺģ ë¹Ħ
M OU
ĠêµŃ êµ°
ĠíĤ¤ ìļ´
ĠìĿ´ë¤Ħ ìł¸
íħĮ ìĿ´
Ġë°Ķë¥´ ìħĢë¡ľëĤĺ
ĠìŀĦ ì¢ħ
0 8
Ġëĸ¨ìĸ´ ì§Ħëĭ¤
ì»¤ ë¨¸ìĬ¤
ìĨĮ ìľł
ìĹĶ ì§ĢëĭĪìĸ´ë§ģ
ìħĶ ëıĦ
ĠìĦľ ìĤ°
ĠëįĶ ëĵ¬
Ġíĺ¼ ìĿ¸
ìĥĿ ê°ģ
Ġìĺ¬ëĿ¼ ìĦ°
Ġìľł ìĦł
Ġì¹¨ ì°©
ì±Ħ ë¬´
ì§Ħ ì§ľ
Ġë²łìĿ´ ë¹Ħ
Ġì¡° ë¦½
ê¸ī ìłģ
ê³Ħ ìłĪ
ĠìĤ¬ìļ© ëŁī
ê¸° ëĮĢ
Ġë¶Ģ ìĭľ
Ġì§ĢëĤľ ë²Ī
Ġìķ ¨
ĠíĶ ½
Ġë§Į ëģ½
ĠëĤ´ëł¤ ëĭ¤ë³´
ë§ ¡
Ġìĭ¤ìĪĺìļĶ ìŀĲ
ë·° íĭ°
Ġëħ¸ ìĽĲ
Ġ20 23
Ġì±Ļ ê¸´
ëħ¸ ìĿ´
Ġê³µìĤ° ëĭ¹
ĠìĹ°ê¸° ìŀĲ
Ġëĭ¤ìļ´ ë¡ľëĵľ
ĠìĦ± íĿ¬ë¡±
Ġê¸ī ë³Ģ
ìĿ´ëĤĺ ë§Ī
Ġêµ¬ ëıħ
ìłľ ëĭ¹
ê³ł ë°ľ
Ġíķľ ê°Ģ
Ġëĭ¹ì²¨ ìŀĲ
Ġê±° ìĦ¼
ìľł ê³µìŀĲ
Ġìĭ¤ ë²Ħ
Ġê´ľ íŀĪ
ëłĪìĿ´ íĬ¸
ĠìĤ¬ ëĭ¨
ëįĶ ë¶Ī
Ġì¹¨ íĪ¬
ìĺ¤íĶĦ ëĿ¼ìĿ¸
é «
¿ ëĤł
íķľ ê²¨ëłĪ
ì½Ķ íĬ¸
êµŃë¯¼ ìĿĢíĸī
Ġê·Ģ ìĭł
Ġê¾¸ ë¯¸
Ġë¶Ģ ìľł
Ġì§Ģ ìľ¼ë©°
ĠìĥĮ ëĵľ
ë²ł ìĬ¤
ëĵľë¦¬ ëĵľ
ĠìĦ¸íĥģ ê¸°
ĠíĨµ ì¹ĺ
Ġë§Ī íı¬êµ¬
Ġëª° ë¦°
Ġìłķ ìŀ¥
ĠìĿ´ ë¶Ī
ĠíĮĮ íĸī
ìłķ ìĪĺ
r a
ĠëłĮ ì¦Ī
ê±´ ìłĦ
ĠC G
Ġì° ľ
Ġíķĳ ê³Ħ
ĠìĬ¹ ë§Ī
Ġì¹ľ ë¶Ħ
ë²ķ ìĥģ
Ġíı´ ëŀĢëĵľ
ĠìºĦ ë³´ëĶĶìķĦ
Ġë©Ķ ëĶĶ
Ġë¹Ħ íķ´ìĦľ
ìŀ¥ êµ¬
ĠëŁŃ ìħĶë¦¬
Ġì¹¨ ìŀħ
Ġìĭ¬ ì¸µ
ĠìĬ¤íĶ¼ ì»¤
Ġìłģ ìŀĸ
Ġìľł ìłĢ
ìŀĶ ì¹ĺ
Ġì§Ģ ì²´
Ġë¬µë¬µ íŀĪ
Ġíķľ ëĿ¼
Ġê²¬ ëĶľ
ë§Ī ìĬ¤íģ¬
ĠìĿĮìķħ íļĮ
Ġê³Ħìķ½ ìĦľ
âĶ Ģ
Ġì§ģ ìĺģ
ĠëĮĢ ë³¸
ĠìĦł ë¹Ħ
Ġë¹Ħ ë²ķ
ĠëĮĢ ë¬¸
ë³´íĺ¸ ë²ķ
ëª «
ĠëĺĲ ëŀĺ
Ġê±° ë¶ģ
Ġì°¨ ëªħ
íħĮ ëŁ¬
Ġë°ķ ê²½
ĠìĨĮ ëł¨
0 4
íĺĪ ê´Ģ
Ġë¶Īê±° ì§Ģ
ê¹Ģ ìĺģ
ìĬ¤íģ¬ ë¦¼
Ġê¹Ģ ìĦ¸
ì°½ ê³ł
ì¹´ ë¥´
ĠìĦ± ë¦½
ĠíĺĦëĮĢ ìłľì²ł
Ġëį°ìĿ´ ë¹Ħëĵľ
Ġì£¼ íĮĮìĪĺ
ĠìľĦ ìŀĦ
ê²½ ê´Ģ
ë°© ìľĦ
Ġë²Į ìĸ´ì§Ī
íĶĦëŀĢ ìĭľìĬ¤ì½Ķ
Ġíİĺ ëĦĲ
íĥĢ ìĿ¸
ĠìķĦ ìĤ¬
Ġë³´ìĿ´ ìĬ¤
Ġìłķ ìłĦ
ĠìĶ¨ ìķĹ
ê°ķ ìĿĺ
Ġì¢ħ íİ¸
ĠëıĻ íĺ¸
Ġë°©ìĤ¬ ìĦł
ĠìļĶ ìĥĪ
Ġê°Ģìł¸ ìĺ¬
Ġë¬´ìĤ¬ íŀĪ
ìĨ ¥
ì¦Ŀ ê°Ģ
Ġì½ĺ íģ¬ë¦¬íĬ¸
ìľ¡ ìĥģ
Ġë²Ħ ë¦´
T he
Ġë°± ìĿ¸
ĠìĻľëĥĲ ë©´
ìķĶ ëıĻ
ĠíĥĢ ìĽĮ
ĠìĨį íķĺ
ê·¸ ëķĮ
ĠëĮĢ ëĳĲ
ì²Ń ìłķê¸°
Ġìľł ë¥ĺ
ĠëĤĺ ëŃĩ
ìķł íĶĮ
Ġë³´ ì»¬
Ġê¸° ì¹¨
ì´Ŀ ìĦł
Ġìĸµ ì§Ģë¡ľ
ĠìłĦíĪ¬ ê¸°
ĠëĨį ì§Ģ
ĠíĿ¬ ë¯¸
Ġë²¤ ì¸ł
Ġê°Ģ íĨ¨ë¦Ń
Ġë©ĺíĨł ë§ģ
ĠëĤĺ ë¹Ħ
Ġê¹ĢìĿ¼ ìĦ±
ìĹ° ìłĦ
Ġìĥ¤ ìĽĮ
Ġíİĺ ë¥´
Ġëĭ¤ ì¹ĺ
ĠíĥĲ ìĥī
ĠìĿ´ ë³Ħ
ìĩ¼íķĳ ëª°
Ġëıħ ê°Ĳ
Ġì»¤ ë²Ħ
Ġìĭ¤ ë¦°
ĠìĦľ ê¸°
ì±ĶíĶ¼ ìĸ¸
ĠìĥĪ ìļ°
ĠìĬ¹ ê°ķ
ê¸° íķľ
Ġë³´ ë¦¬
ìļ´ ì§Ģ
Ġìŀ¡ íŀĮ
Ġë°ľ ìĤ°
ì© Į
A A
ĠìĦ¸ ìĭ¬
Ġìĺ¤ ëłĮì§Ģ
ĠìķĦ ìĿ¼ëŀľëĵľ
Ġì§Ħ íķľ
Ġê¹Ģ íķĻ
ëĵľ ëłĪ
Ġìľł ìĪĺ
ê·¸ ê²Į
ì§Ģ ë¥´
Ġì²ĺ ëħĢ
Ġì§Ģ ìĺ¥
ar d
ĠíĨµ íķĻ
ĠíĶĮ ëŀľíĬ¸
Ġë°¥ ìĥģ
ĠëĴ¤ ìª½
ê¿Ī ì¹ĺ
íķ´ êµ°
íĪ¬ ê°Ī
ĠìŀĶ ìĿ¸
Ġì§ĳ íķ©
i a
ìĤ¬ ê²©
ìĿ´ ëĤł
Ġë§Ľ ë³´
ĠìŀĲ ë¦¿ìĪĺ
ìĦ± ëıĻ
Ġë¸Į ëłĪìĿ´íģ¬
Ġë²Ħ íħ
ĠëĨĢìĿ´ íĦ°
Ġëģ¼ ì¹ĺ
ë¶Ī ìķĪ
Ġì°¨ ëĵ±
ìĿ¸ ìĪĺ
Ġ3 60
Ġ13 00
ĠìĪľ ì°°
ĠìĤ¬ëł¹ ê´Ģ
ĠìķĦìĿ´ ìĬ¤íģ¬ë¦¼
Ġ |
ê²° êµŃ
ë¬´ ëĿ¼
êµĲ ëĮĢ
íĹĪ ë¸Į
íķ´ ëĿ¼
Ġíı¬ ìĬ¤
Ġìĸĺ ê¸¸
ĠíĶĦë¡ľ ìĦ¸ìĬ¤
ĠìĦ± ì°°
íĬ Ģ
Ġíı¬ì§Ģ ìħĺ
ĠíķĻ ìĤ¬
ĠëĤĺëī ľ
Ġë¯¼ ìĺģíĻĶ
ĠíĻĺ ë¶Ī
ìµľ ìłĢ
' '
ĠìłĦ ëĳĲíĻĺ
ë¬¸ ê³ł
ĠëģĿ ëĤł
ëĭ¹ ìĽĲ
Ġëħ¸ ê³¨
Ġë¯¼ ìĤ¬
Ġìļ° ëŁī
ĠêµĲ ìĸĳ
ì¹¨ íķ´
Ġìŀħ ë¬¸
Ġê°ĩ íĺĢ
Ġë³¸ ëĬ¥
Ġëį´ ë§Īíģ¬
íķł ìĿ¸
ìľł íĸī
Ġëĭ´ ìŀ¥
v e
ê·¸ëŀĺ ëıĦ
ì§ĢëıĦ ìŀĲ
ĠìĦľ ìŀ¥
ĠíĮ¨ ë°Ģë¦¬
Ġê¹Ģ ëĤ¨
ëĭ ¿
ĠìĤ¬ ìĨĮ
ĠìķĦ ëŀ«
Ġê·¼ ìĽĲ
ì¤ĳ ê°Ħ
Ġê±° ì³¤
Ġê³µ ìĪĺ
Ġëĭ¤ ëĵ¬
ë¶Ħ ê³¼
ëª¨ íĨł
Ġâ Ĩ
Ġíħ ħ
ĠíĮĮ íĹ¤
ìĽĮ ì§Ħ
Ġì¹ĺ ì¼ľ
Ġë¯¼ ìĨį
Ġë£ ©
Ġê±°ì³Ĳ ìķ¼
ìĿ¸ ê³¼
Ġê°ķ ìĦľêµ¬
ĠìļĶ ëłĩê²Į
Ġì±Ļ ê²¼
Ġíĺ¸íĿ¡ ê¸°
ĠìĤ¬ ìŀĦ
ĠìĽ¬ ë§Į
ĠìĬ¤ ë©°
ëĿ¼ ìļ°
Ġê·¹ íŀĪ
ìł ¯
ìĻ¸ ë¶Ģ
ì½Ķ ì¹ĺ
Ġìĸ´ ì§¸
íĮ¡ ìĿ´
Ġê¸° ìĥī
ĠíĥĢìĿ´ ê±°
ì¹´ ê³ł
ìĬ¤ íĭ´
íıī ì°½
Ġë¹¼ ëıĮ
ĠíĦ° ì§Ħ
ĠìĦł ëıĻ
Ġë¬´ ê³µ
ìŀĲ ìĿ´
ĠíĥĿ íĸĪ
Ġì¢ħ ê°Ģ
Ġëĭ¤ ìłķ
ìĭľ ê³Ħ
ĠëıĦ ë§¤
Ġê²½ ë¶Ģ
ëĭ¨ ê¸°
íĳľ ìĭľ
Ġë§¤ ê°ľ
er s
Ġìľ¤ìĦĿ ìĹ´
Ġë¹Ħ ì¶Ķ
Ġìļ° ë¬¼
Ġë³´íĺ¸ ìŀĲ
êµ¬ ë¯¸
ĠìĨĲ íķĻê·ľ
Ġì¹´ ë¦¬ìĬ¤ë§Ī
íĺķ íĥľ
Ġíģ¬ ë¡ľ
Ġë¸Ķ ë£¸
ĠìĬ¹ ìŀĲ
ĠëĮĢ ìĪĺ
ìĬ¤ ëĭĺ
Ġë¬¸íĻĶìŀ¬ ì²Ń
G S
Ġë°Ķê¿Ķ ìķ¼
ë³´ ìĦł
Ġ198 9
Ġíķ¨ ìĸĳ
ìĺ¤ ë²Ħ
ìĦ± íĸ¥
ĠíĴį ê¸°
Ġê¹Ģ ìľł
ĠêµĲ ë³´
n et
Ġëª¨ íĺ¸
ê° ĵ
ĠìĬ¹ ë¬´ìĽĲ
ĠìĿ´ ìĻĦ
ĠìŀĬ ìĸ´
ê´Ģ ìłľ
ìĹ° ê³Ħ
ìĽĮ ì¡Į
Ġì¤ĳêµŃ ìĸ´
ìĨĮ ìĪĺ
Ġê°Ħ ìĨĮ
Ġì½Ķ ìĹĳìĬ¤
ĠìĿ´ ì¹ĺ
íķł ìĪĺë¡Ŀ
ì³Ĳ ìĦľ
Ġê³§ ìŀ¥
Ġìĺ¬ëĿ¼ ê°Ī
Ġë½Ĳ ëĤ´
ìĪĺ ëĬ¥
Ġíı °
Ġì¦ī ìĦĿ
Ġì¡° ìŀ¥
ĠëĮĢìĤ¬ ê´Ģ
Ġíķĺ ì²Ń
ĠíĿ¬ ê·Ģ
Ġìĺ¤ ì°¬
Ġëĭ¤ íģ¬
Ġê¶Į ìĿµ
ë¦¬ ëįĶ
Ġì§Ħ ìŀĳ
íĺĦ ìķĪ
ĠëıĦ ìłķ
ĠíĬ¸ ëŀĺ
ĠëĤ´ë³´ ëĤ´
ĠíŀĻ íķ©
êµ¬ ìĭ¬
ĠëĦ¥ ìĬ¨
ë¹Ħ ë°Ģ
ĠëĤ´ ëª°
ĠìĹ ½
ĠìĬ¹ ìĨĮ
ê² Ķ
ëıĻ ìķĦë¦¬
ìļ© ìĿ¸
Ġê°ľë°ľ ìŀĲ
Ġìļ°ìĬ¹ ìŀĲ
Ġë³´ ìĤ´
ì²ľ ëıĻ
ĠëĮ Ĳ
Ġì¼ĢìĿ´ íģ¬
ĠìĿ´ ìĭľ
ê³¨ ëª©
Ġìĥģ íĳľ
Ġìľłê°Ģ ì¦Ŀê¶Į
ëį± ìĬ¤
íĥľ ìļ°
ĠìĿ´ ìĸ´ìĦľ
íĮ ł
ĠíĦ° ë¯¸ëĦĲ
íķł ë¨¸ëĭĪ
íı¬ ëıĻ
Ġìķķ ìĪĺ
Ġë³¸ ê´Ģ
ì§ķ ìĸ´
íıī ë¡łê°Ģ
íĺľ ì§Ħ
ì¶© ë¶ģ
Ġìĭľ êµŃ
Ġë¬¸ íķŃ
ĠìĹ° íĥĦ
ĠíĶĦ ëłĪìĬ¤
ìĨĶ ë¦°
ìĤ¬ ìľł
ëĤ¨ ìļ©
ĠìĻ ¼ìĨĲ
ë¯¼ ìĽĲ
ĠìĦ±ëªħ ìĦľ
ä¸ ī
Ġêµ¬ íķł
Ġëªħ ìĭ¤
Ġê·¸ëŁ° ì§Ģ
Ġì§ĳ ìĸ´ëĦ£
Ġê°Ģ ë¯¸
ĠU N
ìļ´ ìĨ¡
ìľł ëĭĪ
Ġê½ ģ
íĮ© íĬ¸
ìĿ´ëĿ¼ ëĵłì§Ģ
Ġë°ĺ ìŀħ
Ġê¹Ģ ìłľ
ë²ł íĬ¸ëĤ¨
0 6
ĠìĿ´ ìľ½
Ġê¸¸ ê±°ë¦¬
ĠM VP
Ġê³µ íĳľ
r i
Ġëĭ¹ ìłķ
íĬ ¿ëĤł
O D
ĠíĻĶ ëł¥
Ġ xx
ĠëĤľ ë¦¬
Ġë§Ī ìĪł
ĠP B
Ġì£¼ ìĸ´ì§Ģ
æ ³
ĠìĦ± ì§Ī
ĠëĶ¸ ê¸°
ëħ¸ ë¬´íĺĦ
ĠìłĦ íķľëĭ¤
200 7
ĠìłĢ ì§ĪëłĢ
Ġê²°ìĿĺ ìķĪ
Ġêµ¬ ìŀĲ
Ġë¹Ī ë²Ī
ĠìĹ°ì£¼ ìŀĲ
Ġë¬´ ìĭ¤ìłĲ
11 4
Ġì¹ľ ì²Ļ
ê°ķ ìłĲ
ìĿ¸ íļĮ
ĠìĦ¤ëĵĿ ëł¥
ìĨĶ ë£¨ìħĺ
Ġê´ĳ êµĲ
ìĸ´ ë§ģ
ç Ľ
ëŀĢ íĬ¸
ê°ķ ëĮĢ
ĠìĻĦ ì£¼
ë¶Ħ ë¦¬
Ġì°¨ ìĿµ
ìĿ¼ ëĭ¨
Ġë°ķ ì£¼ìĺģ
é ĸ
ĠìĦ¤ ë§Ī
ëĭĪ ìĬ¤íĬ¸
Ġê²½ ë³´
ê°ľ ë°©
ìĪ¨ ìĹĲ
ĠìĤ¬ ìĺ¥
ĠëĵľëĿ¼ìĿ´ ë²Ħ
ìłľ ë¡ľ
u p
ĠìķĦ ìĦ¸ìķĪ
éģ ĵ
ĠìĦ¸ ê¸°
ê°ľ ëıĻ
Ġìłĳ íķł
ìĺ¬ ëĿ¼
Ġë³´íĸī ìŀĲ
ĠìĿ´ìľ½ ê³ł
Ġëıħ ë³´
âĢĻ )
¾ °
Ġíķ© ëĭ¹
ë³Ģ ëıĻ
Ġì¤Ħ ìĿ¸
ĠëĤ¯ ìĦ¤
ëĤĺ ëħ¸
ìĸ´ ëĬĲ
Ġê²° ìĤ°
B I
íŀĪ íĬ¸
íĴ ĭ
ĠìĽĲ ìĭ¬
Ġê³ł íĿ¥
ĠìĿ¼ ê°Ĳ
ì° ľ
íı¬ ìĬ¤ì½Ķ
ĠëĤ¨ ìĤ°
Ġëĭ¨ ê°Ģ
ìĿ¸ íķĺ
Ġìĥģ ìĦ¤
ĠìķĮ ë¦´
Ġê²¬ ë³¸
ì¡° ê¸°
ĠíĶ¼ íĬ¸
ĠìĽĥ ëıĮ
Ġê±¸ ìĸ´ìĦľ
ĠìŀĲ ìĥĿ
on g
Ġë®¤ì§Ģ ìħĺ
ĠL PGA
Ġ19 50
ĠìĥĪ ë§Įê¸Ī
Ġê»į ì§Ī
ĠìĿĮ ëª¨
Ġìļ¸ ëł¸
ëĮĢ ìĻķ
ĠìĿ¼ ì¶ķ
ĠìĦ± íĻ©
íı¬ì§Ģ ìĹĦ
Ġìĥģ ìłĲ
íķŃ ìŁģ
ĠìĿĺ ëĮĢ
Ġìĭľ ëĵľ
ĠìĿ´ íĬ¿ëĤł
ê²Į ëģĶ
Ġê³¼ ìŀĲ
Ġê³¤ ì¶©
Ġìļ© ëĤ©
íĬ ¬
Ġê·¸ ì¹ľ
Ġì´Ī ë³´
Ġëĭ¨ íĴį
Ġt o
ĠìĿ¼ íļĮ
ĠìĿ¼ ëł¨
ĠìĬ¤ì¼Ģ ì¤Ħ
ĠíĢ ¸
ì¦Ŀ ëªħ
ê²½ ë³´
Ġë§ī ë§Ĳ
íķĺ ìĤ°
Ġìŀ¥ êµĲ
ì§Ģ ì²Ń
åŃ Ĳ
.. ..
Ġ4 50
Ġëĭ¨ ìĪ¨ìĹĲ
Ġë¶Ħ ëĭ¨
ë²ħ ì§Ģ
ë³´ íĨµ
Ġk t
Ġìĭ¤ ìłĲ
ìŀħ ìŀ¥
Ġíķľìĸĳ ëĮĢ
Ġê³ł ì¶©
ë¶Ī ë¦¬
Ġë¦¬ ìļ°
Ġì§Ģ ìĿĮ
Ġê°ĲìĨĮ ìĦ¸
ëıĦ ìĻĢ
ê¸° ë¦Ħ
ĠíŀĪ ìĸ´ë¡ľ
Ġë²ķ ì¹Ļ
íİ ĳ
ê·¸ ë§Ī
ìķĪ ëħķ
Ġë°° êµ¬
Ġì²ĺ ìļ°
R O
ĠìĹ´ ë§Ŀ
ĠìķĪ ì°©
ìļĶ ê±´
Ġë¶Ī ìĮį
Ġê¸° ìĬµ
Ġíı¬ ìļ©
ĠìĿĢ ê·¼
ĠëĤ´ ìĭ¤
ê±° ëĿ¼
ĠìĽĲ ìĦľ
ĠìĭĿ ë¯¼ì§Ģ
Ġë¶Ģ íĨµëł¹
ĠëıĦ ìŀ¥
Ġíĩ´ ìĽĲ
Ġì¡°ìĦł ìĹħ
ĠëıĮëł¤ ì£¼
ì»¨ ë²¤ìħĺ
Ġë§Ī ìĤ¬ì§Ģ
íĿ Ļ
ou r
ì¶ľ ìĭł
Ġëļľ ê»ĳ
Ġê³ł ëĤľ
ĠëıĻ êµŃ
ìĸ´ ëĥĪ
Ġíķľ ì¤ĳ
íĺ¸ ìĪĺ
Ġì´Ŀ ê¸°
ĠìŀĶ ë¥ĺ
ĠìĦľ ëĳĲë¥´
ĠìĹĺ ë¦¬íĬ¸
ë³¸ ìĿ¸
ĠíıŃ ìļ°
ëĮĢìĤ¬ ê´Ģ
ĠíĢ Ħ
Ġë² ļê½ĥ
Ġë°ķ ëª¨
Ġê°ķ ë³Ģ
ĠíĺĦëĮĢ ìĿ¸
Ġë§Ī ëĵľë¦¬ëĵľ
Ġì§Ģ ëĮĢ
ê²© ìĪĺ
Ġë² Ļ
Ġíķ´ ì§Ģ
íĺ¸ ì£¼
æ Ģ
Ġë¿Į ëł¤
ëĮ ĦìĬ¤
Ġë§Ī ìĿ¸ëĵľ
ĠìķĮ ë£¨ë¯¸ëĬĦ
ê°Ĳ ìłķ
ìĦľìļ¸ ëĮĢ
íķĺ ìĹ¬
ìľł ìĤ¬
Ġë£ ¸
íķľ ëıĦ
ë§Ī ë¸Ķ
ĠëĤ® ì·Ħ
Ġë³´ ìĬµ
ìłľìĿ¼ ìłľëĭ¹
Ġë¬´ ìĭ¬
íļĮ ë¡ľ
êµ¬ ëıĦ
ëįĶëĿ¼ êµ¬ìļĶ
ê³ł ë²ķ
Ġì¡° ìĺģ
ë³´ ì¢Įê´Ģ
Ġì¤ĳìĸ¼ ê±°ëł¸
ìķħ ìĤ°
Ġê¸° ë¥ĺ
ê¸Ī ê³ł
K BS
ìĺĪ ë¹Ħ
Ġë¶Ļ ìĿ¸
êµŃ ìłķ
ĠëıĦ ëŀĺ
Ġë²¨ ê¸°ìĹĲ
Ġìĥģ ë¥ĺ
P L
ĠìĦ¸ ë°Ģ
ĠìłĦ ìĭľìŀ¥
ë§¥ ìĬ¤
Ġìľł ëŀĺ
Ġëĭ¹ ê¶Į
íĻľ ìķ½
Ġê°Ģ ê²°
ĠìĬ¤íĭ° ë¸Ĳ
ĠíĿ° ìĥī
Ġë©´ë°Ģ íŀĪ
Ġë°¤ ìĥĪ
ë² Ĺ
ìĿ´ ë§ĪíĬ¸
Ġì´Ī ìĦł
Ġê²½íĿ¬ ëĮĢ
ĠëıĮìķĦ ìĦľ
Ġì§Ģ ê·¹
Ġìĥģ ê³ł
Ġìŀ¥ íĦ°
Ġë¡ľ ê³ł
Ġë¦´ ëłĪìĿ´
Ġë§Īë²ķ ìĤ¬
Ġë°©ìĨ¡ ìĿ¸
Ġì²ľìķĪ ìĭľ
U N
Ġì²´ ìĿ¸
ëĬĲ ëĭĪ
ëĨį ìĤ°ë¬¼
Ġê°ģ ëıĦ
Ġë¹Ħ ë¹Ħ
ê°Ģ ìĥģ
ĠìĤ° íĸī
ĠëĤ Ģ
Ġëĭ¬ ê±Ģ
íĶ¼ ë¶Ģ
ëªħ ìĺĪ
ĠìķĪ ìĤ°ìĭľ
ìķĦ ëĤĺ
íķ ¸
ëĤĺ ëĵľ
íħĮ ë¥´
ë§ģ íģ¬
ĠëĿ¼ ìŀĦ
ĠìĪĺ ìłľ
ĠëĮĢ ëıĻ
Ġê°Ħ ìĦŃ
Ġìłľìķ½ ìĤ¬
ĠëĬ¥ ëıĻ
ìĤ¬ìĹħ ëĭ¨
Ġì·¨ëĵĿ ìĦ¸
ë¬´ íķľ
Ġíľ´ ìĹħ
A T
M E
Ġê¸° íĥģ
Ġìĺ¤ ëĦĪ
ĠíĬ ľ
íĬ¸ ëŁŃ
ì£¼ ì²´
ĠíĻĶ ëĭµ
ĠíĴį ìļĶ
Ġíķ´ ëĤ¨
Ġìĭ¸ ìĽĮ
Ġêµ¬ ê¸ī
íĮĮ íĭ°
Ġëª© ë¡Ŀ
Ġìłķ ìŀ¬
Ġìĭ¤ì¢ħ ìŀĲ
ĠëģĮìĸ´ ëĤ´
Ġìł ¤
ì¤ĳ ëıĻ
Ġì£¼ ëĭ¹
ì²ľ êµ¬
ë¶Ħ ëªħ
ê°Ģ ìĬ´
Ġë¶Ģ ìĭľìŀ¥
ĠìłĦ ìħĭ
êµ¬ ë©į
ĠíĨł ë§ĪíĨł
Ġëĭ¤ëħĢ ìĺ¨
ë²Į ëłĪ
Ġê·Ģ ì°®
ĠëłĪ ìĿ¸
Ġë² ħ
P O
ëĤĺ ê¸°
íĴĪ ëª©
ĠìĦľë¹ĦìĬ¤ ìĹħ
Ġëħ¸ëł¤ ë³´
Ġëĭ¬ íķ´
ĠìĪł ì§ĳ
ĠìĨĮ íĴĪ
çĦ ¡
ĠìłĦ ìĿ´
Ġê³µ ìķĪ
Ġë°ľ ëıĻ
Ġëª© ìļĶìĿ¼
ì£¼ ìĤ¬
Ġì¢ħ ê²°
ìĿ¼ ìĦ¸
íĶĮ ë¦ŃìĬ¤
ĠìłĢ íķ´
Ġìĥģ ê¸ī
è ĩ
ĠêµĲ ëıĦìĨĮ
ê°Ģ ì¹Ń
Ġëĭ´ íĻĶ
íľ´ ìĸĳ
ĠíĽĦë³´ ì§Ģ
Ġíķĺ ë²Ħëĵľ
Ġë°ĺ ê²½
Ġìŀ¬ ëŀĺ
ë§Ī ë£¨
ê·¸ ëłĩê²Į
ì½Ķ ìĿ¸
Ġê³µ ë£¡
0 9
ë°± ìĭł
Ġìĥģ ê¸°
Ġëħ¸ëıĻ ë¶Ģ
ìłĪ ë¡ľ
Ġê²© ëł¬
ì»´ íĵ¨íĦ°
Ġíıīê°Ģ ìłĦ
Ġê·¸ëŁ° ê°Ģ
ĠíĮĶ ëł¸
Ġë¹Ħ ìľĦ
ìĹ° ìĨį
Ġê³µìĤ¬ ë¹Ħ
ĠìĦ± ëĭ¹
ĠìĿĳ íķĺ
ĠíĽĦ ê³Ħ
ê±° ì§Ģ
ĠìĹ´ ëŀĮ
L H
ĠíħĮë§Ī íĮĮíģ¬
Ġìĭł ì§Ħ
Ġìķħ ë§Ī
ĠìĽħ ì§Ħ
ì½Ķ ëħ¸
è ª
ĠìĨĮë°© ê´Ģ
Ġìĺ¹ íĺ¸
ëĿ¼ ëĵłê°Ģ
ë¦° ëĭ¤ëĬĶ
ĠíĨł íĬ¸ëĦĺ
Ġíķľ ìĿ¸
íĦ° ì¹´
ĠìĹ¬íĸī ì§Ģ
ĠìĥĿ ìłĦ
C J
ĠëĬ Ķ
Ġ and
ĠìĶ ©
ãĢ Į
Ġìĺ¤ ì§Ģ
ĠíĴĪ ì¢ħ
ìĨĮ ìĭĿ
ĠìķĦì£¼ ë¨¸ëĭĪ
ëłģ ìĿ´
ĠìĿ¸ íħĶ
Ġë©Ķ ì¹´
Ġìĭľ íģ¬
Ġë©ĭ ìŀĪ
Ġê°Ģ íĺ¹
Ġê²¬ íķĻ
ìļĶ ë²ķ
Ġê³ł ëıħ
Ġë§Ī ìĭ¤
Ġë§Ī ëĭĪìķĦ
ë¬¸íĻĶ ìľłìĤ°
Ġê°Ģ ê¸īìłģ
ĠC D
Ġëł ī
ĠìĤ¼ ê°ģ
u re
ĠêµŃ íķľ
Ġë· Ķ
ĠìĹĲ ëĵľ
Ġëĭ¤ìĿ´ ìķĦëª¬ëĵľ
ĠìĨĮëĵĿ ìĦ¸
ìĺ¤ ë¹ł
ĠìĻķ êµŃ
ĠëĮĢ ëĭ´
Ġìľł ë¬´
ìĹĲ ë¥´
Ġìľ¤ ê³½
ìĺ¤ íĶ¼ìĬ¤
Ġë°ĽìķĦëĵ¤ ìĺĢ
Ġê°ķ ìĨĮ
Ġê´ĳìĹŃ ìĭľ
ĠëĤ´ëł¤ ìķī
ĠìķĦìļ° ëĶĶ
Ġë³´ ì§ģ
Ġê²½íĸ¥ ìĭłë¬¸
Ġë¶Ī ëł¸
Ġìŀĳ ìłķ
ĠëĬ¦ ì¶Ķ
Ġê²½ë¡ľ ëĭ¹
ìŀĦ ìŀĲ
Ġìķŀ ëĴ¤
ì¤Ģ ëĭ¤ëĬĶ
ìĭ¤ íĥľ
ĠëĮĢ ê¾¸
Ġëıħ ì°½
ëĤ´ ìĹŃ
ë§Ĳ ëĿ¼
Ġìĭ¬ ìĭ¬
ê´Ģ ìĿĢ
n e
ê±° ìłĲ
Ġ2 20
Ġ10 5
íĺĲ ìĿĺ
ìĭ¬ ìŀ¥
Ġìŀ¬ ìĭ¬
ĠíķĻ ê¸ī
Ġë§ĮëĤľ ëĭ¤
Ġê³łìľĦ ê¸ī
æ Ľ
Ġê¸ī ìĦ±ìŀ¥
Ġë¡ľ ë²ĦíĬ¸
Ġìŀ¥ ëĤ¨
Ġë²Ī ê°Ī
ìĭľ ìĿ¸
ì§Ħ ëĭ¤ëĬĶ
ĠìłĦ ê´ĳ
Ġê²½ ìĤ°
íĥľ ìĽĲ
ĠíĽĪ íĽĪ
ĠìĺĪ ë°°
Ġì²Ń ëŁī
íļĮ ìĪĺ
ì¶ľ íĮĲ
Ġë¬´ ê¶ģ
Ġê³Ħ ê¸ī
ë¦¬ ìĭľ
Ġê°Ģìł¸ ìĻĶ
ì¦ Ļ
ĠìĦ¤ ìĤ¬
Ġìĸ´ ìĹħ
ìķĪ ëĤ´
Ġìĥģ ë´ī
Ġìŀ¬ ìĪĺ
Ġìłķ ê³Ħ
Ġì§ģ ìĨį
Ġíĳľ ìłģ
ê¹Ģ ìĹĨìĿ´
Ġêµ´ ëŁ¬
ìĿ¸ ë°©
ĠìĦ¸ ë¸Ĳ
ìº ī
Ġê·¸ëŁ¬ ë¯Ģë¡ľ
Ġìĺģ ì¢ħ
ê³µ êµ¬
Ġíķľ ìĺ¥
ĠìĤ´ íı¬
ìĸ¸ ëĭĪ
Ġìŀ¥ íİ¸
ëıĻ ìĭľ
Ġíķ¨ ëŁī
ĠìĨľ ìĶ¨
ê³ł ë£¨
Ġìµľìĥģ ìľĦ
Ġíķĺ ìĨĮìĹ°
Ġì§ľ ë¦¿
íĬ¹ë³Ħ ë²ķ
ĠíıŃ íĴį
Ġë°ĺ ì§Ģ
ëª¨ ëĭĪ
ĠìĿĢ ë°Ģ
íĥĿ ì§Ģ
ĠìĺģëĤ¨ ëĮĢ
ê³µ ìĭľ
ĠëĬĲê»´ ì§Ħëĭ¤
Ġíķ´ìĪĺ ìļķìŀ¥
ĠìĿ´ ìĿĢ
ĠëģĮìĸ´ ìķĪ
Ġìĺģ ë¦¬
Ġëĭ¤ìĭľ ê¸Ī
ëĿ¼ ëĵłì§Ģ
o s
Ġìĺģ ìŀ¬
ëĪĦ ê°Ģ
ë²Ħ ê±°
ìĹ° ëıĦ
Ġê±¸ ë¦°ëĭ¤
ĠíİĺëĦĲ íĭ°
ĠìĬ¤ ì¿¨
Ġë²Į ìĿ¸ëĭ¤
ĠìĿ´ ìĦ¸
ä ¼
ì§Ħ íĸī
ĠíķĺëĤĺ ëĭĺ
Ġë°ķì°¬ íĺ¸
ëª¨ ë¦¬
ĠìĿĳê¸ī ìĭ¤
ĠìĿ¼ ëŁ¬
ĠìķĪë³´ ë¦¬
ìķĦëĿ¼ ë¹ĦìķĦ
ìĿ¼ê¹Į ìļĶ
I n
ĠìĪĺì¶ľ ìķ¡
Ġë§Ī ëĥ¥
Ġê°ľ ì¡°
íĻĶìŀ¥ íĴĪ
Ġâĳ ł
ì¶ľ ìĹ°
ê²½ ë¡ľ
ĠìłĦìĦ¸ ê¸Ī
Ġìĸ´ëĬĲ ëį§
ĠìłĦ ìĦ±ê¸°
ìłĪ ê°Ĳ
ĠíĻĺ ìĽĲ
ĠìĨį ëĤ´
ĠìŀĲ ìŀ¬
ì£¼ ë³Ģ
Ġ16 00
Ġíģ´ëŀĺ ìĬ¤
Ġì¹ĺ ë¥¸ëĭ¤
ï¼ Ŀ
ìĦł ë°ķ
Ġìĭľ ê·¸
Ġìĸ´ë¨¸ ëĭĺ
ĠìĹ´ ê´ĳ
ç §
ì¦Ŀ ìĦľ
ĠíĻĺ ìĤ°
Ġê°Ģ ìĨĶë¦°
íĽĦ ë°°
ìĺĪ ìĦł
Ġíļįê¸° ìłģìľ¼ë¡ľ
Ġì¢ģ íĺĢ
Ġë§¤ ëª°
ĠíıŃìĬ¤ ë°Ķê²Ĳ
Ġìŀħ ê¸Ī
Ġíķĺ ìĹ¬
íı Ī
íĪ ´
Ġëŀ ¨
íı´ ë¦¬ìĬ¤
ĠìĥĮ íĶĦëŀĢìĭľìĬ¤ì½Ķ
ĠìĽĶ ê°Ħ
Ġìĸ´ ìĿ´
ĠëĮĢ ìĿĺìĽĲ
Ġë¯¸ íĺ¼
ĠìĿ´íĻĶ ìĹ¬ëĮĢ
Ġì¶©ìĭ¤ íŀĪ
ì°¨ ìĿµ
Ġë°ľ ìĿĮ
ìĬ¤ íĢĺìĸ´
ĠìĦ¼ íĬ¸
M I
ì¼ĢìĿ´ ë¸Ķ
ĠëĬ ĳ
ì¡° ìłĪ
ëĨį ì´Į
ìĦľ ìŀ¥
ĠëıĻ ìĽĶ
Ġêµ¬ì¡° ë¬¼
ĠìĿĺ ìłķ
ê°ķìłĲ ê¸°
ç İ
Ġê° ¸
ĠìĻ¸ ìĥģ
ĠìĿ´ ìŀ¥
Ġì§ ł
Ġë³´ ì¢Į
ë§Ī íĤ¹
1 50
Ġìĭľ ëł¥
ĠëĤ´ ë¥Ļ
ĠëĶĶ íħĮìĿ¼
ìĿ ½
æ ²
Ġê¸ī íķľ
Ġê» ´
Ġâĳ ¡
ĠìķĪ ë©´
I oT
ìłķ ìĤ°
Ġëĭ¤ê°Ģ ìĺ¨
ìĿ´ ìĺ¨
ì¿ł ë¥´
Ġìł ĵ
ãĢı ,
Ġê±°ì£¼ ìŀĲ
Ġë°Ķëĭ· ê°Ģ
ĠìŀĲ ì·¨
Ġì¶ľ íĺĦ
Ġê³ł íĴĪì§Ī
Ġìŀ¬ ê²ĢíĨł
Ġë³¸ ì§Ģ
ëıĻ ëŁī
Ġëĵ± ê·¹
Ġë¨¸ë¬´ ë¥´
â ĺ
ĠíĻĺ ë§¤
ìĦ¸ ìĿ¼
Ġëĭ¬ ë¹Ľ
ëĭ¨ ìĿ¼
ĠìĤ¬ ìłľ
ìķĦë¬´ ê°ľ
ëĭ¨ ê³¼
ĠìļĶ ëıĻ
ëŁ¬ ëĭĿ
Ġê¼¼ ì§Ŀ
íķĳ íģ¬
ìĦ± ëªħ
ì¤ĳ ê·¼
ĠìĨĲ ì§Ī
ê¸°ëħĲ ê´Ģ
Ġìĺģ ëĨį
ĠíĽĦ ì§Ħ
Ġê·¸ ì¹ł
ĠìłĢ ìłĪë¡ľ
ëıĦ êµ¬
Ġê·¸ ì³Ĳ
ĠìĦ± ë³Ħ
å Ĭ
ìķĪ ìĭ¬
íı¬ íĦ¸
ìŀħ ìĭľ
Ġê¹Ģ íļ¨
êµ¬ ìłľ
ë¬´ ë¶Ģ
Ġê³¼ ìĹ´
Ġì§Ģ íĤ¨
Ġìĭ¤ ìĦ¸
ĠìĥĿê°ģ ëĤĺ
ĠìĺĪ ê²°
Ġíĥľ ë°±
ìŀĲ ëĿ½
Ġìĭ¤ íĺķ
Ġë¶Ħ ë°°
Ġíľĺ ë§Ĳ
ìķ½ ìŀĲ
Ġíĩ´ ìŀ¥
Ġë²łìĬ¤íĬ¸ ìħĢëŁ¬
ë©Ķ ê°Ģ
Ġìĥ ´
Ġìĸĳ íĺĦ
ĠìķĦìĿ´ ì½ĺ
Ġê¹Ģê´ĳ íĺĦ
Ġë¬´ ë¶Ħë³Ħ
ĠìĪĺ ëĤ©
Ġë¶Ħ ë¹Ħ
ì¡° ê¸Ī
ê¹¨ ë¹Ħ
ë³´ ëĿ¼
ìłĦìĭľ íļĮ
ĠëĤĻ íĽĦ
ĠíĮĮê³ł ëĵ¤
ĠìķĦ ìľł
Ġëª¨ íĺķ
Ġìĺ¬ ëłĪ
0 7
ĠìķĪ ëıĦ
Ġë°Ķ ë¦¬
Ġê°ľ íĳľ
ìĿ¼ ëĵľ
Ġê°Ģ ë¬¸
ĠëĶ Ľ
êµ¬ ë§Į
Ġëĭ¹ íĺ¹
Ġë¸Ķë£¸ ë²Ħê·¸
Ġê·¸ ë¦´
ĠìłĢ ê¸Īë¦¬
Ġê¹Ģ ê´Ģ
é Łĵ
ĠëĤľ íķŃ
Ġìłķ ìŀĲ
Ġëª¨ ë¹ĦìĬ¤
Ġëĭ¬ëł¤ ëĵ¤
ĠìĦľ ìŀ¬
Ġìļ° íģ¬ëĿ¼
ìĸ¸ ìłľ
ç Ł
íıī ìĨĮ
ëĬĶëį° ëıĦ
ĠìĨ¡ ì¹ĺ
Ġëıħ ì£¼
ì² ¼
Ġëĵ¤ ëŁ¬
Ġì¶Ķ ê¶ģ
ĠìĪĺ ì¤ĳ
Ġìłķ ë¦½
ĠìŀĲ ê¶ģ
ĠìĿ´ ëĶ°
Ġê¸ī ê¸°ìķ¼
Ġëĵľ ëł¸
Ġì± Įë¦°ì§Ģ
Ġì§Ĳ ìĬ¹
ìĨĮ ë§¤
Ġìª¼ ê°ľ
ë¯¸ ê²½
ëıĮ ìķĦ
ĠìķĦ ëª¨ëłĪ
Ġìĸ´ ë¯¼
Ġíı¼ íİĺìĿ´
ëĤľ ë°©
ëĭ¨ ëıħ
é ĥ
ĠíĹĪ ë²ħì§Ģ
ë¬´ ëĬ¬
ĠëıĻ ì°½
Ġë²Ĺ ìĸ´ëĤł
Ġìŀ¥ ê°ĳ
ì¤ĳ ê²¬
ĠëĪĦ ëĿ½
Ġì§Ģë°© ë¶Ħ
íĨµìĭł ìĤ¬
íĸ Ħ
ĠìĹ¿ ë³¼
ëĤ´ ë¶Ģ
ĠìĤ´íİ´ ë³¼
ê²© ì°¨
Ġìĸĳ ìĬ¹
ë®¤ì§Ģ ì»¬
êµŃ ìķħ
Ġíĥľ ìķĪ
ê¸Ģ ìİĦ
ĠíĤ¤ ìĽĢ
ë§Ī ëĿ¼íĨ¤
ìĨ¡ ìĿ´
ĠíĽĶ ì³Ĳ
ê´ ľ
Ġëĭ¬ëŁ¬ íĻĶ
ëĥ Ħ
ĠíĽĦì¿ł ìĭľë§Ī
Ġìĭľ ì¼°
Ġì²Ń ê³Ħ
Ġíİ¼ì³Ĳ ì¡Į
Ġì¹ĺëŁ¬ ì§Ħ
Ġêº¼ ë¦¬
ìĺ¤ íİĺëĿ¼
Ġìłķ íĺĦ
ĠìĹ¬ ëıĻìĥĿ
íģ´ ë¦°
Ġê°ķ ê¸°
Ġëĳĺ ëłĪ
ìĥģ ìĥĿ
ëľ ¬
ĠìĹĩê°Ī ë¦¬
ĠìķĪ ë¬´
ĠíĦ± ìĹĨìĿ´
ì§ģ ìŀ¥
Ġ' '
Ġë²ķ íķĻ
o b
Ġìķħ ìĪĺ
Ġìĥģ ë°ĺ
ĠA S
Ġê´ĳ ìłĢìļ°
ëıĦ ì§ĢìĤ¬
Ġìķł ëĦĲë¦¬ìĬ¤íĬ¸
Ġê¸Ģ ìĵ°ê¸°
ì°¨ ë¦¼
Ġëª¨ ì²ĺëŁ¼
ê²Į ìĿ´íĬ¸
ë¹Ħ ëĮĢ
Ġê±° ì·¨
Ġíı¬ ì²ľ
ĠìĨį ìĤŃ
ê³µ ê¸°
Ġìļ° ìĤ°
å¤ ©
Ġì£¼ ìĸ´ì§Ħëĭ¤
ĠìĬ¬ ëĿ¼ìĿ´
Ġê¹Į ì§Ģ
Ġë¶ĢìĤ° íķŃ
ĠêµŃ ìĪĺ
Ġì²´ìľ¡ ê´Ģ
íĤ¤ ìķĦ
ì»¤ ë®¤ëĭĪ
ĠëıĮ ìĿ´
ĠìĹ° ì¤Ģ
ìĿ´ ê±´
Ġê·¸ ì£ł
Ġë§Ľ ë³¼
ëĤĺ ìĺ¨
ìĿ¸ ê¸°
Ġê³¨ íį¼
ĠâĹ Ī
ĠìŀĲ ë¥´
ĠìĬ¤ìºĶ ëĵ¤
å® ¶
ëĭ¨ ìĽĲ
ìłľ ìķĪ
Ġìŀĥìĸ´ ë²Ħë¦°
Ġì§Ģì¼ľ ë´Ĳìķ¼
å º
Ġìµľ ìĺģ
ìĹ° ì£¼
ĠíĺĪ ìķķ
ìħ Ī
ĠìłĲ íĶĦ
ìŀĲìĤ° ìļ´ìļ©
Ġì§ĢëĤĺ ê°Ķ
Ġëħ¹ ì§Ģ
Ġë¬´ ê±°
ĠìĹ° ìŀ¬
Ġë¶Ģëĭ´ ê°Ĳ
Ġìľłë¡ľ ì¡´
ëĭ¤ ëħĶ
êµ¬ ì¹ĺ
ìĿ´ ìľł
Ġìĸĳ íıī
ĠíĻĶ ìĪľ
Ġê¹Ģíķ´ ìĭľ
Ġ18 00
Ġê³¨ ê³łë£¨
íĮĮ ìĿ¼
ëĤł ëĳĲ
Ġì¤ĳ ìĽĲ
ìĬ¤íĥĢ ìĿ¸
Ġì·¨ íķŃ
Ġì¡´ ìĬ¨
Ġì«ĵ ìķĦ
íĬ¹ ë¡Ģ
ì į¼
Ġê¶¤ ëıĦ
Ġë§¤ ìļ´
Ġì£¼ ìĭľ
ìĤ° ë¶Ģ
ĠìĿ´íķ´ ì°¬
Ġëĵ¤ëł¤ ì£¼
ëıĦ ìĽĢ
íĻĶ ê¸°
ĠìĿ¸ íĹĪê°Ģ
Ġì½Ķ ì¹Ń
Ġìļ° ìĬ¤
Ġê°Ģ ë§Ī
ë³´ ëĭ¨
Ġë¬´ ëĬ¬
ĠìłľëĦ¤ ìĭľìĬ¤
ĠìłĪ ë²½
ì¥ ¬
Ġëıħ ê±°
ë´Ĳ ìļĶ
ĠìĥĿ ìĨĮ
Ġì£¼ ìŀħ
Ġìĭ¤ ìĥģ
ëľ¨ ëł¤
ĠíĻĶ ìĤ¬
ĠìĸĳëıĦ ìĦ¸
Ġìľł ìłķ
ë§Ī ëł¨
Ġê³¨ëª© ê¸¸
ë¡ľ ëĿ¼
Ġê·¼ ê°Ħ
ĠìĿ´ ê´Ģ
Ġëĭ¤ ì¡Į
ìĸ´ë¦°ìĿ´ ì§ĳ
ìĽ ¹
ĠíĤ ¨
ĠìłĢì§Ģ ë¥´
Ġëĵľ ë¦°ëĭ¤
Ġì£¼ ì´Ŀ
íĶĦë¦¬ ë¯¸
ĠíĥĢìĿ´ ë°į
ĠíĽ ĳ
ĠìĤ° ëĭ¨
ê²½ ëł¥
ê±° ë¶Ģ
Ġì»¤ ìł¸
ĠìłĦ ëıĻ
Ġë§Ĳ ë¯¸
Ġìĸĳ ëĮĢ
Ġìľł ë¹Ħ
Ġê·¸ëŀĺ íĶ½
ëĵľ ë¦Ħ
ë±ħ íĤ¹
ĠëĦ ĭ
Ġëĭ Ľ
ĠìĦľ ë¬¸
Ġìĭł ì§Ģ
Ġìŀ£ ëĮĢ
ĠìłĢ ìª½
Ġê¹ ¡
Ġë²¤ì¹ĺ ë§ĪíĤ¹
íĥľ ìĺģ
ĠìĽĶ ìĬ¤íĬ¸ë¦¬íĬ¸
ëĵĢ ìĦľ
Ġë¬ĺ íķľ
Ġì¶Ķ ìĥģ
Ġìĥģ ìĪĺëıĦ
ìĸ´ ë¯¼
ĠëģĿ ëĤ¬
ìĬ¤ íĭ¸
ĠìĤ¬ ìľ¡
Ġë¯¸ íĮħ
Ġíĸī ëł¬
ĠìĹĲ íĶĦ
Ġê³ł ìļĶ
Ġëĭ¤ ê¸ī
Ġê°ķ êµŃ
êµŃ íĮĲ
Ġê·¸ìłľ ìķ¼
ĠìĽĲ ìĤ°ì§Ģ
íķľ ëĤĺëĿ¼ëĭ¹
ĠíĶ¼ íĦ°
Ġë¶Ī ìĶ¨
Ġëĸł ìĺ¤
Ġë§¤ ì¹Ń
ĠìłĪ ìłķ
íį¼ íĬ¸
ìķĦëĭĪ ìĬ¤íĬ¸
Ġìĭłê²½ ìłĦ
ĠíļĮ ìĭĿ
ìĸ´ ìĦł
Ġìłķ íĺķ
Ġëħ¸ë¥´ ìĽ¨ìĿ´
ìĭ¤ ìĬµ
ĠìļĶ ê±°
ĠìĨį ìĺ·
ìŀ¥ íĦ°
ìķĦ íĶĦë¦¬ì¹´
Ġìľł ìĦľ
êµĲ íĻĺ
ëª° ìĿ´
ëĭ¨ ê°Ģ
ìĸ¼ ë¦¬
Ġë£¨ ìĿ´ìĬ¤
íķ´ ìĥģ
ë¬¸ ìŀĲ
Ġíĸīìłķ ê´Ģ
ĠìĿ¸ ê²©
Ġìĸ´ë¦¬ ìĦĿ
ĠêµŃ ëıĦ
ĠìłĪ ìłľ
Ġëĵ± ê¸°
Ġìĭľ ë®¬
ìĨĮê°ľ ìĦľ
ĠëĿ¼ ìĬ¤
ê´Ģë¦¬ ìľĦìĽĲíļĮ
Ġê°Ģìł¸ ìĺ¨
at e
ê°Ī ë¹Ħ
ìķ¼ ìĪĺ
ë¬¸íĻĶ ê°Ģìłķ
ĠìĦł ëľ»
ì¡° êµŃ
Ġìĭł ìĤ¬ìĹħ
Ġê³ł íķ¨
ë§Ī ëł¥
Ġìĵ°ëŁ¬ ìł¸
íı° ìĦľ
Ġì ©
Ġìĭľ ë©ĺíĬ¸
ĠìĿ´ ë°Ķì§Ģ
Ġëĸ¨ìĸ´ ëľ¨ë¦¬
ëĮĢ ìĭĿ
Ġìķł ìĿ¸
ì¶© ì²Ń
ĠêµŃ ìĺģ
Ġê°¯ ë²Į
ëĭ¤ ë°ľ
Ġê¹ĥ ë°ľ
Ġë¬´ëĦĪ ì¡Į
ìĭ¤ ë¦¬
ìĺ¤ ìĿ¼
Ġì´ī ê°ģ
ĠëĶ° ëŀĲ
Ġë¯¸ ìĤ¬
Ġì£¼ ë²Ķ
ì§Ħ êµ°
êµ¬ ë¦Ħ
Ġê²½ìĺģ íķĻ
Ġìĵ¸ ìĵ¸
ìłķ íĻĶ
Ġìĭľ ë¦½
S DI
Ġíĳ¸ íĭ´
Ġë¡ľë§¨ íĭ±
Ġìŀ¡ íĺĶ
Ġë°ľ ë§ŀ
ìĤ¬ ìĿ´ë²Ħ
ìĸ´ ìĹħ
ĠìłĦ ëĮĢ
Ġê°ĢìłĦ ìłľíĴĪ
ĠíĬ¹ ê¶Į
Ġë§Ī ë£¨
Ġê°ĢíĮĮ ë¥¸
ëĭ¹ ìĿĢ
Ġ24 0
Ġì´Ī ìĥģ
ìłĪ ê¸°
Ġì§Ģ ë©´
íİĺ ìĸ´
ĠìĻĦìĦ± ëıĦ
ĠíķĢ ëŀĢëĵľ
Ġê´Ģ íĨµ
ìŀ¬ ë¶Ģ
ĠìłĦ ì£¼ìĭľ
Ġëª¨ ë¹Įë¦¬íĭ°
Ġê¸°ìĹħ ê°Ģ
Ġìĺ¤ ìĿ´
ìļ© ê¸°
ìķĺ ìĹĪ
Ġê³µ ë¦½
ĠìĽĶ íĻĶ
êµ° ë¯¼
Ġì·¨ìĹħ ë¥ł
ìĨĮ ìĦľ
íĨµ ìĤ¬
Ġìĸµ ìķķ
Ġì²¨ ê°Ģ
ìĸ´ ìłľ
ĠìłĦê²½ ëł¨
ìłķ ìļ°
ëıĦ ë¥´
Ġìµľ ìŀ¬
Ġì²ľ ì£¼êµĲ
ìĹ° ìĨĮ
ĠìĪ ±
ĠìĪĻ ìĽĲ
E T
ì¹ĺ ê°Ģ
Ġë³¸ ëĭ¤ë©´
ì« ĵ
ëıĭ ìĽĢ
Ġìĭł íĺķ
ĠìķĦë¬´ ëłĩ
ë³´ íĽĪ
Ġëĸłìĺ¬ ëł¸
ĠìķĪìĸĳ ìĭľ
ë¦¬ ìĦľì¹ĺ
ìĬ¤ ì¼ĢìĿ´íĮħ
Ġê¸°ì¤Ģ ì¹ĺ
ìĺ¤ ëĵľ
ĠëĨį ë¶Ģ
íıĲ íķ©
ì¶ľ ìŀĲ
ì¦Ŀ ìĭľ
Ġëµ Ļ
Ġë§Ī ì°¨
E F
ĠíĻĶ ìļĶìĿ¼
ĠE LS
Ġë¹Ħ ë°ķ
Ġê²Ģìĥī ìĸ´
Ġë§¹ íĻľìķ½
ëĤ¨ ëıĻ
ë¶Ģ ëıĦ
ì»¤ íĬ¸
Ġëĺ ¥
Ġê¹Ģ ìĿ¸
I F
Ġë³µ ìŀ¥
Ġëĳ¥ ì§Ģ
ĠíķĻ ìĤ´
Ġê³µ ë²Ķ
Ġì¦Ī ìĿĮ
Ġë²Ī ìĺģ
Ġê´Ģë¦¬ ìŀĲ
ê²Į ìĿ´ìħĺ
ĠM S
ìłĢ íĬ¸
Ġì¹ľ ìĪĻ
ì¼ Ħ
Ġìķŀëĭ¹ ê²¨
ĠìĪĺìĤ¬ ê´Ģ
Ġê³µ ìĹħ
Ġë ī
ìĭľ ìĬ¤íĬ¸
ĠëıĮíĮĮ êµ¬
ëĮĢ êµŃ
Ġíķľ íĮĮ
Ġíķ¸ëĵľ íı°
æĿ ±
e e
ìĤ¬ ìľĦ
ĠìĿ¼ ê¹¨
Ġìĺģëĵ± íı¬
ĠíĨµ ìĹŃ
ĠìłĢ ìĦľ
Ġê¸Ī ìĤ°
Ġê°ķ ë¬¼
Ġíĸ¥ íĨł
ë³´ê±´ ìĨĮ
ĠìĦľ ìļ´
âĨ ĳ
Ġì§Ģ ë¦Ħ
Ġìľł ëł¹
Ġë°ľ ëªħ
Ġì¡° ê·¸ë§Į
ë°Ķ íĥķ
ê¸¸ ëŀĺ
ĠëĤĺ ìĿ´íĬ¸
Ġíķľ ëª«
Ġìĭł ìķĻ
Ġìļ´ ìŀĦ
ì§Ģ ë°°
Ġíĸĩ ë³ķ
Ġìŀ¬ íĥĿ
ìĬ¤ë§ĪíĬ¸ íı°
ĠíķŃ íķ´
ìĭł ëĭ¤
Ġê³łëł¹ ìŀĲ
Ġíķ´ ë³ĳëĮĢ
ĠëĴ¤ ëį®
Ġìĺģ ìĤ°
Ġë§ ´
Ġíķ´ìĻ¸ ìĹ¬íĸī
ĠíħĮ ìĬ¬ëĿ¼
ĠìĹ´ ìĹ°
Ġë°ľ ëıĭìĽĢ
ë²Ħ ìĬ¤íĦ°
ĠìĦ± ìĪĺê¸°
ìĭľ íĶ¼
Ġëĭ¤ ìĬ¤
or t
Ġë²¨ íĬ¸
ĠëĶ° ëĤ´
ê³Ħíļį ìĦľ
Ġëª°ëł¤ ëĵ¤
ĠìĨĮ ê´Ģ
Ġë¶Ī ë³µ
ë°° ëĭ¬
Ġê³µ ë¬´
ĠìĤ¬ë¬´ êµŃ
Ġìĸ´ìļ°ëŁ¬ ìł¸
ĠìĦ±ìłģ íĳľ
ĠíĨµ ì§Ģ
Ġê·¸ ëłĪìĿ´
ê¹Į ì§Ħ
ìĤ° ë¦¼
ê±° ëĭĪ
ëĭ¤ ìĺ¤
ëª¨ ì§ģ
Ġìłĳ ìĸ´
Ġë³´ íĽĪ
ĠíĻĺ íķĺ
íĶĦ ë¦°
ëĵ± ìĤ°
ëĦĺ ê¸°
Ĳ ģ
Ġëĭ¹ ëĮĢ
íĬ¸ ë¦Ń
ĠíĻĶ ë°±
ë¬¸íķĻ ìĥģ
on e
å® ī
Ġìļ¸ ì£¼êµ°
Ġ l
ĠìŀĲ ë¯¼
ë¶Ħ ìľĦ
ĠìĤ°ì±ħ ë¡ľ
ĠëĤ ±
Ġìĸĳ ëĭ¹
Ġíľĺ ëĳĺ
íĨł íģ¬
Ġë¬¼ëŁ¬ ëĤ¬
ê°ķ ìłľ
Ġëĭ¤ëħĢ ìĺ¤
ì¤ĺ ìĦľ
Ġë°©ìĤ¬ ëĬ¥
ĠìĮį ëĳ¥ìĿ´
Ġìĺ¤ìĬ¤íĬ¸ ë¦¬ìķĦ
Ġíĺ¸ ë¥´ëª¬
Ġìĥģ íļĮ
ì¡° ë¥ĺ
Ġìķŀ ë°Ķëĭ¤
Ġì²« íķ´
E B
Ġë¶Ģ ëģĦëŁ½
ĠìĹĲ ë²Ħ
ĠìŀĶ ìĹ¬
Ġê¹ĬìĪĻ ìĿ´
ìľĦ íķ´
ĠìĹ° ì°¨
Ġìļ©ìĿ¸ ìĭľ
Ġì¹´ ëĿ¼
ë¬¼ íĴĪ
ĠíķŃ ë¡ľ
Ġìľł ìĿµ
Ġê¹Ģ ë¶Ģ
Ġê°Ģ ëĭ¥
ĠìłĦìħĭ ê°Ĵ
Ġì§Ģíķĺ ìĪĺ
Ġíı¬ë¥´ íĪ¬ê°Ī
Ġì£¼ ëĳĶ
Ġìĺģ ìĪĺ
ĠíĮĮ ìļ°
íķ «
Ġ2 30
ì¿ ¼
íķĺ ëĭĪ
ìĿ¸ ìŀĲ
ĠìĿ´ ì²Ń
Ġë¬» íĺĢ
Ġíĥģ ìŀĲ
Ġêµ¬ ìĬ¬
ĠëĤ´ëł¤ ìĻĶ
íĵ °
Ġìŀ¬ íħĮíģ¬
ì¼Ģ ìĿ¸
ì´ ĺ
o g
ê¸° ìĽĲ
Ġì¹´ ìļ´
Ġìĺ¤ íĤ¤
Ġì§Ħ íĿ¥
ĠíĻĶìĦ± ìĭľ
ê²ĮìŀĦ ì¦Ī
ĠìĿĺë£Į ë¹Ħ
Ġê³¼ ìĸ¸
Ġë¶Ī íĹĪ
Ġì§Ģíľĺ ìŀĲ
ĠìĦ¸ ìļ¸
Ġíħį ìĬ¤íĬ¸
ëĮĢì±ħ ìľĦ
ì ¸°
Ġì°¨ ì²´
Ġíıī ëħĦ
Ġìŀĩ ëĭ¨
Ġìŀħ ëĭ¹
Ġë³´ìĥģ ê¸Ī
ìĸĳ ì£¼
ê¸° íĥĢ
Ġ11 00
íĮĲ ê²°
Ġíı¬ ì§Ħ
ë¹ ¼
êµŃ ìłķìĽĲ
ëıĻ íı¬
ĠëĳĲ ë¶Ģ
Ġë¶Īë²ķ íĸīìľĦ
Ġë°© ì¶ľ
ìĹ° íľ´
ĠëĤĺ ê²½ìĽĲ
ìŀ¥ ìĪĺ
ìĺµ ìħĺ
Ġêµ¬ ì§ģ
ë¹Ħ ìĹĶëĤłëłĪ
Ġì²Ń ì£¼ìĭľ
ĠìĿ¸ìĤ¬ ë§Ĳ
Ġìłķ ìłľ
Ġë°ľ ìŀĲêµŃ
Ġì²Ń ëıĦ
Ġê²¬ ê³ł
Ġì´ ĺ
Ġê³µ ìĨĮ
ĠìĤ´ ë¦´
Ġì°¨ ìŀħ
ĠP GA
ĠìĦ £
Ġê·¹ ëıĦ
Ġíı¬ìĬ¤ì½Ķ ê±´ìĦ¤
Ġë¶Ģ ìĪĺ
Ġëª° ëĿ½
Ġì¹ĺë£Į ë²ķ
Ġëī ĺ
ĠìłĢ ëłĩ
Ġì°¸ ë°°
ìĿ´ëĿ¼ ëĵłê°Ģ
Ġê°Ĳ ê²©
ĠíĮĲ íĥĢì§Ģ
ìĽĲ ê°Ģ
ĠìķĮ ëłī
Ġë°° ë¶Ģ
ìŀ¥ ëł¤
ìĬ¤ ì¹´ìĿ´
Ġê²½ íķ©
ĠëıĻ ìļĶ
ì§Ģ ëĦĲ
Ġìĵ°ëŁ¬ ì§Ģ
Ġê³µ ìĺĪ
ĠëĦ¤ëĦ¤ ëĦ¤
ĠëıĮëł¤ ë°Ľ
ĠíıīíĥĿ ìĭľ
Ġê·¸ ëĨĪ
Ġ14 00
ĠëĽ ¸
Ġë¬¸íĻĶ ìľłìĤ°
ê¿ Ģ
ĠìĿ´ ì²ł
ê¿ Ķ
ĠV IP
ìłķ íĿ¬
Ġë°° ìĽĢ
ê³Ħìķ½ ìĦľ
Ġëĭ¤ëħĢ ìĻĶ
Ġëĭ¨ì²´ ìłĦ
ĠìĪĻ ìĿ´
Ġë§Ŀ ê°Ģ
Ġë²Ĺ ê²¨
Ġìķ¤ ëĵľ
A C
Ġìĭľ ì¹´ê³ł
ĠëıĦ ìļ¸
---- ----
ĠìĤ¬ ê±°ë¦¬
ìĨĮ ìĬ¤
Ġëĭ´ ëĭ´
ìĹ°êµ¬ íļĮ
ê³µ ìĤ°
ĠìĿĺì¡´ ëıĦ
ĠëĤ´ ìħĶëĦĲ
Ġíıī ë©´
Ġê¸° ìĥĿ
Ġë¿Į ëĵ¯
ĠìŀĲìĹ° ìĬ¤ëłĪ
ĠìĽĢ ì¼ľ
ĠìŀĲ ì²ĺ
íĺ¸ ê°Ģ
Ġê°ķ ë¶ģ
ì§Ģ ìĹ°
Ġìŀł ìŀĲë¦¬
ĠìŀĲìĹ° íĻĺê²½
ì§Ī ë¬¸
Ġìĭ¤ ì±ħ
ê°Ĳ ìĨĮ
Ġìŀ¥ ìĻ¸
ĠìĤ½ ìŀħ
ĠìĪ¨ ê²¨ì§Ħ
Ġëĭ ·
ĠìĦľ ëĮĢë¬¸
ìĦľ ìĽĲ
Ġì»¨ ë²¤ìħĺ
Ġ10 8
Ġê¾Ģ íķĺ
Ġìĸĳ íĺķ
Ġê±° ìŀ¥
N K
ĠêµŃ ìĻķ
Ġê³ł ì°½
Ġíĺ¸ íĻ©
Ġìĺ¥ ìĪĺìĪĺ
Ġëĭ¨ëĭ¨ íŀĪ
ĠëłĪìĿ´ ëįĶ
ìĤ¬ íĳľ
Ġê°Ħ ìŀ¥
Ġìĭłë¢° ëıĦ
ĠìĶģ ìĵ¸
ê°ķ ë³Ģ
ĠëıĻ ëªħ
ìĿ¼ë¦¬ ì§Ģ
Ġì° ¼
ìŀĲ ìĭĿ
ĠìłĦìĹ¼ ë³ĳ
íķĻ ëĮĢ
ĠìĦ¸ ë¶Ħ
ëĭ¨ ìĪľ
ĠìłĦ ìĬ¹
ĠìĿĺ êµ¬ìĭ¬
ëĤ¨ ê¸°
ĠíĶ¼ ê²¨
ë°ĺ ìĿĳ
ĠìŀĦì°¨ ìĿ¸
S J
ìĸ´ ë¨¹
ì§Ħ ì£¼
ëĵľ ë¯¼
ĠD MZ
ë¶Ģëĭ´ ê¸Ī
ëĵľë¯¼ íĦ´
ìĤ¬ íĩ´
ĠìļĶ ëŀĢ
Ġëľ °
Ġíĥ± íģ¬
Ġë°ĺ ëĵ±
íĻį ì½©
Ġê· ĵ
ĠëıĮìķĦ ê°Ħ
æ ł
Ġì¥ Ķ
Ġíľĺ ëĳĲë¥´
ĠìĬ¤íĬ¸ ëĿ¼ìĿ´
ìŀĲ íļĮ
ëĮĢ ê°Ģ
Ġì¤ĳìķĻ ëĭ¹
ĠëĪĪ ìį¹
ëįĶ ìļ±
u e
Ġìłķ ìłķ
ĠìĻ¸ íĺķ
H E
ìĪŃ ìĿ´
Ġêµ¬ ë¹Ħ
æ ´
åı į
Ġìĭľ ìĸ´ë¨¸ëĭĪ
ê³¼íķĻ ë¶Ģ
o d
Ġìĵ° ìĹ¬
Ġêµ° íı¬
ĠìĿĢ íıĲ
Ġìĺ¤ ë²Ħ
ë§¤ ê°ģ
Ġê³Ħìķ½ ê¸Ī
Ġê¸īìĨį íŀĪ
ĠìľĦ íĹĮ
ĠìĿ¼ ìŀĲ
ĠëĭĪ ì¦Ī
ĠìĨ¡ ìĺģ
ìĺĪ ìłĦ
ëĭ¤ ëĤĺ
ĠìłĦ íĸ¥
Ġê³µ íķĻ
ĠìĪĺ ìĪľ
ĠìĹħ ì£¼
ĠìĦĿ ë©´
ĠìĹ¼ ìĥī
ĠíĿĺëŁ¬ ê°Ģ
æ ±
ìĽĮ ì¹ĺ
ë§¤ ìŀħ
ĠìĤ¼ ì´Į
ê²¹ ìĤ´
Ġìĭ¬ ìķ¼
ĠëĳĲ ëłµ
ĠêµĲíĨµ ìķĪìłĦ
êµĲ ìĽĲ
ì°¸ ëª¨
Ġíĺ¸ íĪ¬
Ġì²¼ ìĭľ
ìłĦ ìĿ´
Ġìłģ íıĲ
ìĿ´ ìĤ¬ìŀ¥
ê°Ī ìĿ´
Ġì§Ħ íĨµ
ëª¨ ë¥´
Ġê¹Ģ ëıĦ
Ġëĭ¹ëĭ¹ íŀĪ
Ġë°© ëĮĢ
Ġê°ķ íĸĪ
ìĤ° ìĦ±
ĠìłĦ ë°ĺê¸°
ĠìĤ¬íļĮ ì£¼ìĿĺ
ĠêµŃìĤ° íĻĶ
ĠìĤ¬ìļ°ëĶĶ ìķĦëĿ¼ë¹ĦìķĦ
Ġì°¬ ìĬ¤
Ġì¡° ë¡±
ì°½ ìŀĳ
Ġì¤ĳ íĻĶ
ê» į
ĠìķĦ ëĭĺ
Ġë¶Ħ ê³¼
Ġì ¯
Ġêµ¬ë¯¸ ìĭľ
ĠíĬ¸ ëłĪ
ĠíĬ¹ ê°Ģ
ì¿ł ë²Ħ
ìĤ¬ ë§Ŀ
ìºĲ ìĬ¬
ìĬ¬ ë¦¼
Ġ198 6
Ġì§Ģ ìĽĮ
Ġë¹Ħ ê´Ģ
ĠëĳĲ ëĵľë¦¬
æ Ħ
Ġê¸Ī ê³ł
Ī Ļ
íļĮ ìĭĿ
ĠëĤĺ ëĤł
ìĬ¤ ì¼Ģ
Ġë©Ī ì·Ħ
ëī´ ìļķ
ë³´ì¦Ŀ ê¸Ī
Ġì¡° ì¡°
ê±°ëŀĺ ë²ķ
Ġê¹Ģ êµ¬
æ Ķ
ĠìķĶ ìĭľ
Ġíıīì°½ ëıĻ
íĶ¼ ìĭ±
ê³Ħ ë§Ŀ
ĠìĪĺ íıī
ĠìĽĲ ë£¸
Ġê´Ģ ì²ł
ìĦł ìłķ
ĠìĽĲ ìłĲ
ĠíĭĪ ìĥĪ
Ġê¸Ī ìłĦ
ê²½ ìĥī
Ġë³Ģ íĺ¸
Ġìĭ¬ ê²½
Ġì´Ŀ íĮĮìĹħ
ĠëıĦ ë¬´ì§Ģ
ĠëĤľ ê°Ĳ
ë¶Ī êµĲ
Ġìķł ë§¤
ĠH D
Ġìĺ¬ëĿ¼ ìĻĢ
ĠìĦľíķ´ ìķĪ
ĠìĦľ ìĤ¬
Ġì¶© ê³ł
ìĤŃ ìĬ¤
Ġìľłë§Ŀ ì£¼
ĠìĪĺ ëŁī
Ġì¹ĺ ë¥¼
ĠíĸĪ ìľ¼ë©°
Ġê°Ģ ëł¹
ĠëıĻë°ĺ ìŀĲ
ĠíĹĮ íĺĪ
Ġì¤Ħ ì§Ģ
ĠíĪ¬ ìĹ¬
ì²ł ê°ķ
ĠìĦ¸ ë¡ľ
ĠìľĦê¸° ê°Ĳ
Ġê¸°ìļ¸ ìĺĢ
ì¼Ģ ë¯¸ì¹¼
ĠëĤ´ëł¤ ìĻĢ
ê°Ģ ëªħ
ìĪĺ ìļ©
Ġë§Ĳ ìĹĨìĿ´
ĠìĻ¸ ëŀĺ
ìĦ¸ íĥģ
Ġë©ĶìĿ´ ì»¤
O N
ĠìĨĮ ë°ķ
Ġê·Ģ íķľ
ë¬´ ê²Į
Ġë°Ķ ëĶĶ
Ġíİ¸ íķľ
Ġì£½ ìĹ¬
ĠìĨ¡ êµ¬
Ġë³´ ìĬ¤íĦ´
Ġêµ° ë¶Ģ
ìĺģ ìĽħ
Ġìłĳ ê²½
Ġíľł ì²´ìĸ´
Ġêµ¬ ìłĪ
ĠìłĦë¬¸ ìłĲ
ê·¸ë¦¬ ê³ł
Ġê±´êµŃ ëĮĢ
ĠíĶĮ ë¡ľë¦¬
ĠíĺĦíĸī ë²ķ
Ġê³µ ì§ľ
Ġë°° ìŀĦ
b p
ĠíĻį ëĮĢ
Ġìłľ ê°ģ
Ġì¹ľ ìĿ¼
Ġê·ł ìĹ´
ä¹ ĭ
íĬ¹ íĹĪ
ĠëĪĦ ë¹Ħ
ĠìĿ´íĥľ ìĽĲ
Ġê¼¬ ë§Ī
Ġì¢ħ ìĭĿ
I MF
Ġë°° ê¸°
ĠìĥĿìĤ° ìŀĲ
ĠìĦ¼íĬ¸ ëŁ´
ë¡ľ ìĽł
ìĥģ ê±°ëŀĺ
Ġë¬´ ìķĪ
Ġâĸ ¼
ê¹Ģìłķ ìĿĢ
Ġê·Ģ ê°Ģ
ĠíĥĦ ëıĦ
Ġì¡°ì¢ħ ìĤ¬
ĠìłĦ íıŃ
Ġíı¬ ëĵľ
Ġì§Ģì£¼ íļĮìĤ¬
ĠìĦŀ ìĹ¬
Ġë§¤ ê²½
ĠíĻ© ìĤ¬
Ġë¡ľ ìĿ´íĦ°
ç ¦
íĮ Ł
Ġë³ĳ ìĥģ
ëĮĢ ë§Į
ëĭ¤ëĬĶ ëį°
ĠíĿĺ ëł¤
M P
íķ į
Ġìłķ ë°ĺëĮĢ
ìłĦ ìĦ¸
Ġìĸ´ë¦° ìķĦìĿ´
ì°½ êµ¬
Ġìī °
Ġê·Ģ íĻĺ
ìľł ë°ľ
ĠëģĦëįķ ìĿ´
Ġëıħë¦½ ìĦ±
ĠìłĢ ë¦¬
Ġíģ´ ë¦Ń
è ©
ĠìĿ´ íļ¨
ëĬĶ ì»¤ëħķ
ĠëłĪ ìĺ¤
ê²½ìłľ ìŀĲìľłêµ¬ìĹŃ
ĠëĤĺëīľ ëĭ¤
ĠìĪľ ë°©
ëį° íĥĢ
O ECD
ĠS OC
ĠìĻ¸êµĲ ê´Ģ
Ġê¹Ģê²½ ìĪĺ
ĠëĮĢ íĥĢ
ìĺĢ ìĿĦ
ĠíĶ¼ ìķĦëĭĪìĬ¤íĬ¸
ĠìĪľ ì²ľìĭľ
Ġíķĺìĸ Ĺ
Ġë²Į ëĸ¡
ëĿ Ķ
u b
Ġë± ī
Ġê·¹ ìļ°
ĠìĦ¸ ìħĺ
ìĿ´ ê²Į
ìħ ¸
ĠëĴ¤ ëĶ°
ì§Ģ ì§Ħ
ĠíķĦ ë¦½
Ġë³µ ìĦł
Ġìľ¤ ì¢ħ
Ġìķħ ìĪľíĻĺ
ĠëģĮìĸ´ìĺ¬ ëł¸
ĠìķŀìĦ¸ ìļ´
ĠìĬ¹ ë¥ł
Ġëĭ¥ íĦ°
Ġì§Ģê¸Ī ê»ı
ëĭ¤ êµ¬
ĠìĽĲ ë§Į
ĠìĿ¼ ìĤ¼
Ġê¹Ģ ìĦĿ
Ġì§ģ ìľĦ
Ġë³ĳ ìĭ¤
ĠìĤ¬ ê·Ģ
Ġë¦¬ ë¹ĦìķĦ
ë¶Ħ ê¶Į
ëĶĶ ìĸ¸
Ġëį© ì¹ĺ
ĠíĴį ìĦł
ĠIB K
Ġë¬´ ìĥī
ĠìĿ´ ìĭĿ
ĠL PG
íĺ¼ ìŀĲ
Ġê°ĸì¶° ìķ¼
ĠëĳĲ íĶ¼
ĠìłĦ ìĨį
ĠëıĻëĤ¨ ìķĦìĭľìķĦ
ĠëĦ· íĶĮë¦ŃìĬ¤
Ġëĭ¤ ë³Ģ
Ġìĥģ ë¥Ļ
ĠíĺĦëĮĢ ìºĲíĶ¼íĥĪ
ĠìŀłìĪĺ íķ¨
Ġì°¾ìķĦ ê°Ķ
ĠìĹĦ ì§Ģ
Ġìŀħìŀ¥ ê¶Į
Ġíıī ë¡łê°Ģ
Ġë²Į ë¦¬
ĠìĹ¬ ê²¼
Ġë¸Ķ ë¡ľ
Ġê³Ħ ëªħ
ĠìĿĮ ìĿĮ
çĶ Ł
Ġë¬¸ ìĿ¸
ĠìłĢ ë³Ģ
Ġìłķ ëĮĢ
ĠìķĪíĥĢê¹Į ìĽĢ
C G
Ġì§Ħ ë¦¬
ìĦ¸ìĿ´ ë¸Į
íĸ¥ ìĥģ
ëĭ¤ ìĦ¯
Ġìľł ìĸ¸
Ġ h
ë©Ķ ìĿ´ëĵľ
Ġë°© ë¥ĺ
Ġê·Ģ ëĿĶ
ëĨį ë¯¼
ë¶Ģ ë¦¬
å ł
ì¶Ķ ê°Ģ
ĠìľĦ ìĬ¤íĤ¤
ĠíħĲ íĬ¸
ĠìĻĦ ì¹ĺ
íĶĦ ìĬ¤
ĠìĽĲ íĸĪ
Ġì¹¨ ëŀµ
é »
Ġì¹´ íħĮ
ĠìĿ´ íĺ¸
Ġê³µ ìŀĲ
Ġìłģ ë²ķ
Ġë©ĭ ì§Ģ
íģ ĺ
Ġìŀ¥ ìĽĲ
ĠíĶ¼ íĸĪ
ìĿµ ìĪĺ
æ ¯
Ġë¬´ ëĬ¥
ĠìĿĺ ìĻķ
ĠìłĦ ëŁī
ìłĢ ìŀ¥
Ġì¹ł ëłĪ
ë§Ī ì§Ģë§ī
Ġë²½ íĻĶ
å ĭ
ëıĻ íķ´
Ġìľł íķĻìĥĿ
Ġë¹Į ë¯¸
ĠìŀĦìĥģ ìĭľíĹĺ
ê³ł ì¶Ķ
Ġíĥľ ìĦ¸
ĠìĥĿê²¨ ëĤĺ
ĠìķĮëłĪ ë¥´ê¸°
ĠíĶĦ ëŀĢ
ìĪŃ ìķĦ
Ġì´Ī ì¡°
ê¹Ģ ì¢ħ
ĠíĮĶ ëł¤
Ġì·¨ ì§ģ
Ġë¶Ģ íĦ°
Ġìľ¤ ìĥģ
ĠìĤ¬ìĹħ ì£¼
Ġì§Ģì¼ľ ë³¸
Ġì´ĺ ì´ĺ
ĠìĿ´ë¦¬ ìłĢë¦¬
ìĤ¼ ì§Ħ
ëĿ¼ìĿ´ ìĸ¸
ĠìĹ¬ ëŁ¿
ì¹ĺ íĤ¨
Ġëĺĳ ë°Ķë¡ľ
Ġê°ķ ìĿ¸
ê²½ íķĦ
Ġìŀł ìŀĲ
Ġæ Ĺ¥
ĠëĤ® ì¶ĺ
ë°ľ ìĤ¬
ê°ķ ëĭ¹
Ġë°© ìļ¸
ìĺģìĹħ ìŀĲ
Ġì²ľ ìĤ¬
Ġì²ľ ë§Į
Ġìĭ¸ ëĬĺ
ìĦ±ëħĦ ìŀĲ
ìĦ¤ ë¦½
ê¼¬ ë¦¬
Ġëĭ¹ ë¡ł
Ġë¯¸ ìĥĿë¬¼
ìľł ìĹħ
Ġìĸ´ ë§Ī
Ġë¬´ ìĦ±
Ġìĭľ íĤ¨
Ġë¬¶ ìĹ¬
ĠìĪĺ ìŀĲìĽĲ
ê°ĳ ëĭĪëĭ¤
Ġê°Ĳ íĸī
Ġë¹Ĺ ë¬¼
ëįĶ ë¯¸
Ġë¶Ģì¶Ķ ê¸°
Ġê¹Ģ íĻį
Ġë§ŀ ìĿĢ
ĠëĨ ¨
ê´ľ ì°®
Ġêµ³ ê±´
Ġìĭ¤ ìĿĢ
ĠìļĶ íĬ¸
ĠìĤ¼ ì²Ļ
Ġíĺ¸ ëĤłëĳĲ
Ġì²ł ìĥĪ
ëĤ¸ ìħľ
Ġëĥī ê°ģ
Ġìłķ ìĤ°
Ġìĺ¬ ë¦°ëĭ¤
ì£¼ ìĨĮ
Ġì¡° ìĽĲ
ĠíĮĮíĬ¸ëĦĪ ìĭŃ
ì¦Ŀ ìĥģ
íĶ¼ ëĭĪ
ĠìķĶ ìĤ´
M D
ë¯¸ ìĬ¤íĬ¸
ĠìĿ¸ê¶Į ìľĦ
ĠëĮĢ ê²Ģì°°ì²Ń
Ġìĸ¼ ë£©
ëĸ ¨
el l
Ġì§Ģì§Ģ ë¶Ģì§Ħ
ĠìĿµ ìĤ°
ì¶ĺ ì²ľ
ĠìĻĦ ëıĦ
ì°© ìĺ¤
ëĭ´ëĭ¹ ê´Ģ
Ġëĭ ī
Ġì§Ģ ê°ģ
ĠíķĻ ë¶Ģ
ĠìĦ¸ ìľ¨
ìĭ¤ ìĿĢ
íĺĦ ìĪĺ
Ġì¿ł íĮ¡
ë¶Ģ íĮ¨
ë¬´ ìĥģ
ĠìĺĪìĪł ìĿ¸
ìĸ¸ ìĸ´
Ġë©Ķ ìĿ¼
Ġëĵ ¬
Ġë¯ ¹
ëĿ¼ ë¯¸
i st
ì´Ī êµĲ
ĠìĿ¼ íĻĶ
ĠëĮĢ ì¡¸
ĠìłĪ ë¡ľ
ĠìĬ¤íĥĢ ëĶĶìĽĢ
Ġì¹ľ íĻĶ
Ġë§Į íļĮ
ĠëıĻ ëĳĲ
Ġê°ķ ìłķ
Ġëĵ± ëĵ±
ĠíĶĦë¡ľ ëĵĢìĦľ
Ġìłĳ ìĭľ
ĠìĽĲ ìĪĺ
ìłĳ ì´ī
ê°Ģ ìĿ´ëĵľ
Ġì°½ ìĦ¤
ĠëŁ¬ ëĭĿ
Ġ12 5
íģ´ ëŁ¬ìĬ¤íĦ°
Ġê°Ģ íıī
ìłķ ë°Ģ
ĠìĽĮ íĤ¹
Ġìľł ìĭł
ĠíĨł ëª©
ìµľ ìĪľ
ĠíĮĮ ëıĻ
Ġê¼´ ì°Į
Ġê¶Į ì´Ŀ
Ġìŀħ ìĥģ
Ġëª¨ ìĬ¤íģ¬
ĠëĲľ ìŀ¥
ĠìĨĲê¼½ íŀĪ
ĠëıĻ ìłĦ
ê³ł ëł¤
Ġëħ¸ëŀĺ ë°©
Ġê°Ģ ë§¹
Ġìĥģ ëĭ¨
ĠìľĦ íĥľ
éĩ İ
Ġê¸° ìĪĺ
ìĹ¬ ìłķ
ĠìĬµ ëĵĿ
ĠìĹ¿ ë³´
ĠëĿ ½
Ġê°Ħëĭ¨ íŀĪ
ĠíĬ¸ë¡ľ íĶ¼
Ġìķ¼ ì±Ħ
Ġë§ŀ ìĦł
F P
Ġê²½ ë§Ī
ë¬´ ëĭĪ
ĠëıĦ ë³´
ëĤĺ ëĤĺ
ìłĦ ëĭ´
íİ Ħ
ìĹŃ ìĦ¸
ĠìĿĺ ìķĦ
Ġìĺ¨ ìłĦíŀĪ
ĠìĹĲ ë¦Ń
Ġë°ķ ìĦ¸
ìĸ´ ëł¤
ĠëĮĢ ëĤ´ìĻ¸
ë¦¬ ë°Ķìļ´ëĵľ
ĠìĤ¬ëĿ¼ ì§Ī
å ¥
Ġ10 2
Ġìľł íķľ
ê°Ģ ë¡ľ
Ġê¹Ģ ë²Ķ
Ġì²ŃëħĦ ì¸µ
ë¬¸íĻĶ ìĽĲ
ĠíĮ¨ ê¶Į
å° į
Ġìķħ ëª½
ĠëıĻ ìłķ
Ġëªħìĭ¤ ìĥģë¶Ģ
Ġíķĺ ì°¨
íķ© ê²©
Ġë§ŀìĿĢ íİ¸
ì¢ħ êµĲ
ê²° íķ©
ĠìĤ´ìķĦ ê°Ī
íĻ© ê¸Ī
ĠëĤ´ë¹Ħ ê²ĮìĿ´ìħĺ
Ġëªħ íķ¨
Ġìł¸ ìķ¼
Ġê¹Įëĭ¤ ë¡ľìļ´
ìĸ´ ë§Ī
Ġê³µ ë§¤ëıĦ
Ġë©´ ì¹ĺ
ac k
ì£¼ ìļĶ
ĠìłĦì§Ģ íĽĪëł¨
Ġì§Ħ ìĹ´
ìĹĲ ë¯¸
íķ´ ìłľ
ĠìĬµ ì§Ģ
ĠìĿ´ ëħ¸
ëĦ Ľ
S t
Ġê¹ĢíĺĦ ìĪĺ
é ¦
ĠëıĻ ê²½
ĠìłĦë§Ŀ ëĮĢ
íķ© ëıĻ
ĠìĿ¼ ìĳ¤
ĠìĦľ ê±°
Ġë²Ķì£Ħ ìŀĲ
Ġìŀ¥ ëŀĺ
Ġë³µ ìłľ
Ġìļ¸ íĥĢë¦¬
ë³µ êµ¬
L B
Ġê²¸ ìĨĲ
ìĭł ìĦ¸ê³Ħ
ìķĦ ìĭľìķĪ
ĠìĦ¸ê³Ħ ìĿ¸
ĠìłĲ ì³Ĳ
Ġëª©ìłģ ì§Ģ
ĠëĤ´ ê±´
Ġë°ķ ì£¼
ĠìĹ¬ê°Ŀ ìĦł
ĠìĿĢ ë©Ķëĭ¬
ë¶Ģ ìŀĲ
ĠíķŃ ì²´
Ġë¬´ëĦĪ ìł¸
Ġì½ĺ íį¼ëŁ°ìĬ¤
ĠìĨĮíĻĢ íŀĪ
Ġê³łìľĦ íĹĺ
ì°© íķľ
Ġìµľ ê²½íĻĺ
ë¸Į ë¡ľëĵľ
Ġìĸ´ì© Ĳ
Ġìĺģ ì²ľ
Ġìĺ¤ ëĶĶìĺ¤
ìķĪ ëıĻ
ĠìĿ´ ê·ľ
Ġì¿ł ë°Ķ
íĤ¤ íĬ¸
ĠìĹ° ëıĦ
ĠìĦ¸ ìķ¡
ĠëĮĢ ë§Ī
ë¹Ħ ë¡Ģ
Ġê°Ģì¹ĺ ê´Ģ
ìĹ° ë´ī
ë§¤ ìļ°
Ġë²Ħ ìĦ¯
ĠìĦľ ëĦĪ
ë²ł íĤ¤ìĬ¤íĥĦ
ì¹ĺë£Į ìłľ
Ġì¹¨ ìĭ¤
Ġìĺ¤ ì§ķìĸ´
Ġìłķ ì£¼
ĠìĿ¸ ëĤ´
Ġê¸° ìĬ¹
Ġìŀ¥ìķł ìĿ¸
P M
ĠìķĪ ê²¼
ĠìĹĲ ëĶĶìħĺ
Ġë§ī ìĹ°
Ġì»¨ íį¼ëŁ°ìĬ¤
ë³¼ ê¹Į
ëī´ ëĶľ
ì¦Ī ëĭĪ
Ġíĸī ìłģ
ĠíĹ¤ ìĿ´
Ġìŀ¬ ê±´
Ġíİĺ ìĸ´
ë§ī ìĿ´
Ġë°ĺ ê°Ģ
ĠëĨį ìĭ¬
íĬ¹ íĻĶ
ĠëĶĶ ìłĢíĬ¸
ĠíĽĦ íıŃíĴį
Ġìĺ ´
Ġë°ķìĿ¸ ë¹Ħ
il l
ĠëĬ¦ ì¶°
ĠíĶ¼ ì§Ģ
ê°Ģ ëĵľ
Ġìĭ¤ ìĹħìŀĲ
íĭ° ë¨¸ìĬ¤
ìĦ¸ ëį°ìĬ¤
ĠìĦľ íķľ
Ġê±´ëĦ ¨
Ġë§ĪìĿĮ ë¨¹
ì¶© ìłĦ
ĠK AIST
Ġìļ© íĴĪ
ìĤ¬ìĹħ ìŀ¥
ìĿ¸ ë¯¼
ê°ķ ì¢Į
Ġìľł ë¨¸
Ġê³ł ëª¨
Ġë¶Ģ ì©į
Ġìļ° ì²´êµŃ
Ġíİ¸ ë²ķ
Ġìı ľ
ĠìłģìłĪ íŀĪ
ĠìĿ´ìłķ íĺĦ
Ġì°¨ ì¸°
ĠíĿĶ íķľ
e c
ĠìĬ¤íĨł ìĸ´
ore a
Ġë¬¼ ëĵ¤
Ġëľ» ê¹Ĭ
ì¼Ģ ìĿ´ìĬ¤
Ġëĭ¤ ë°©
ëıĻ ë°ĺ
ĠìĭłìĦ¸ê³Ħ ë°±íĻĶìłĲ
ĠìĹ¬ íĥľ
Ġë¬¼ ëıĻëŁī
Ġëĵ¤ ìľ¼ë©°
ĠìķĮìķĦ ì°¨
íĻĶ ìĥģ
íĮĮ ìĿ´ìĸ´
íĺĦ ìłķ
ê³ł ì§Ģ
ìĽĮ íĤ¹
Ġìª¼ ëģĶ
ĠìĹ° ìĭł
íĥĦ ìĥĿ
Ġê·¸ ë¬¼
Ġê·¸ëŁ¬ ë©´ìĿĢ
Ġë¬´ ìĬ¹ë¶Ģ
Ġê¸°ê´Ģ ìŀ¥
V R
ìłģ ê¸Ī
ë¯¸ ë¥´
ì§ģ ìłĳ
Ġê°ľ ìłĲ
Ġìłķ ë³µ
Ġìĸ´ ì¡°
ĠìłĢ ëł¥
Ġìĺ¤ ìĬ¹íĻĺ
ĠìĹ° ëĭ¬
ĠëłĪ ë²¨
Ġëĭ¬ìķĦ ëĤĺ
ì§Ģ ëĤĺ
ìķ¼ ì§Ģ
ì¢Į ìĦĿ
ĠëĴ¤ ì§Ħ
Ġê³ł ê°ķ
Ġê°ķ ìłķíĺ¸
Ġìĸ´ ë¯¸
êµ° ì²Ń
Ġìķł ìĵ°
ì¡¸ ì¤ĳ
Ġê³ł ë¥¸
ë¡ľ ìĿ´ëĵľ
íĨł ìĬ¤
ĠëģĬìŀĦ ìĹĨ
ë§¤ ëĭĪ
ĠìĻķ ìĭ¤
è ģ
Ġì¥ ¬
Ġë¸Į ë£¨
ç ¤
Ġê³¨ ë¬¸
ĠëıĦ ìĻĶ
Ġíĺ¼ ìŀ¡
ĠëĬ ª
ëħ ĺ
Ġìĸ´ëĳ ¡
êµĲ ì°¨
Ġì£¼ ëĭĪìĸ´
íĴĪ ìķĪ
ĠìĬ¤ ëħ¸
íģ´ëŀĺ ìĭĿ
ëŁ¬ ì§Ģ
ĠìĿ´ ìĸĳ
ìłķ ì°¨
ëĺ ĺ
Ġìłľ ëķĮ
ìĨĮ ìĿĮ
ĠíĨµ ì§¸
Ġêµµ ì§ģ
ĠíĬ¸ë¦¬ íĶĮ
Ġë¬¼ëŁ¬ ìĦľ
Ġìŀ¥ìķł ë¬¼
ê¸° ìĸµ
ãİ ¾
Ġë©ľ ë¡ľ
ì·¨ ìķ½
ĠìĦ±ìŀ¥ ë¥ł
ìĺ¤ íĨł
Ġì§ģ ê±°ëŀĺ
Ġë¶Ģì§Ģ ëŁ°
ë°° ê¸°
ë´ī íĪ¬
ĠëĤ´ êµŃ
ìĥģ ìĬ¤
Ġâĳ ¢
Ġíķĺë£¨ íķĺë£¨
ë³´ ì¡´
ĠìĪĻ ëªħ
Ġê²½ ì£¼ìĭľ
ĠìĹ° ìĤ°
Ġê¸ī ë¶Ģìĥģ
ĠëĴ¤ íĿĶ
Ġê²¬ ëİĮ
íĳ¸ ë¥´
Ġêµ¬ ìĭ¤
ĠìĦ± ìĤ°
Ġíķ´ íĶ¼
ë¯¸ ëħ¸
ì²ľ ìĹ°
ëĤ¨ ëħĢ
Ġíħ ľ
Ġì´Ŀ ì²´
Ġëľ» ë°ĸ
Ġê°± ìĭł
Ġì²´ ëĤ´
ĠìĿ¼ë³¸ ìĸ´
Ġíĭ° ìłĢ
ĠëĤ¨ ìĽĲ
ê°ķ ë¦ī
i z
Ġê°ģ ìĿ¸
Ġë°ķë³ĳ íĺ¸
ë¶Ī ëŁī
ä ¿
Ġìĭ¬ íı¬ì§ĢìĹĦ
Ġíŀĺ ìį¨
ĠìĻķ ìĦ±
Ġë¹¨ ëŀĺ
ĠìłĦíĨµ ë¬¸íĻĶ
Ġìłģ ëĮĢ
Ġë°ĺ ëŀĢ
ëĤ´ ìĪĺ
ëĶ ¤
ĠìķĦë¦¬ ëŀĳ
ê·¸ ëĥ¥
T C
ĠìĽĶ ëĵ±
Ġëį© ìĸ´ë¦¬
ĠìĿĢ ìĿĢ
ì²´ íģ¬
ĠíĨł ëĦĪ
ëŀľ ìĬ¤
ĠìĨĮ ëıĻ
ìĦ ¹
Ġì²Ń ëĿ¼
â ĪĻ
Ġë²ķë¬´ ë²ķìĿ¸
íģ¬ ë¦¬ìĬ¤
ĠêµĲìľ¡ ë¹Ħ
ĠS C
ë§Į ëĵ¤
ĠíļĮ ìĥī
ĠíĹ¤ ë§¤
Ġíķ´ ëĿ¼
íĨł íĶ¼
Ġì¦Ŀ ìĺ¤
êµ¬ ìĿ´
ê³µ ê¸°ìĹħ
ë¦¬ ìŀĲ
Ġë¿ Ķ
ë½ ķ
ì§Ģ ë¦¬
ĠëıĻ ëŀĺ
Ġìĭ¤ ê¸°
Ġì¼ Ħ
ĠìĿ´ê±´ íĿ¬
Ġì¹´ ë¥´
ê¸° ìŀ¥
Ġë¹Ħ íıī
Ġì£½ ìĿ¸
Ġìĭľ ëĭĪìĸ´
Ġê³¼ê°Ĳ íŀĪ
Ġìĺ Ĳ
ìķĪ ìĸĳ
ë§¤ ë¦½
Ġìĭ¬ íĶĮ
ê°Ĳ ê°ģ
Ġëį© ëĭ¬
Ġìĸ Ģ
Ġì¡°ìĦł ìĨĮ
ĠíĮĮ ìļ¸
Ġíį¼ ë¶Ģ
íĿ ī
P I
ìĿ´ íķ´
ê±° ìĬ¤
íŀĲ ë§ģ
Ġê¸ī ê¸ī
ìĭľíĤ¨ ëĭ¤ëĬĶ
ìĹ¬ ê³¡
ìķĦë¦Ħ ëĭ¤ìļ´
ìº Ħ
ë³ĳ ìļ°
Ġìĺģ ëįķ
Ġëģĵ ìĹ¬
æ ĥ
Ġë¦¬ ë²ł
ë¹Ħ ìĭľ
Ġìĺ¤ë¥¸ ìĨĲ
Ġê³Ħ ìħ¨
Ġì¶ľ ìĽĲ
ë¯¸ ë¦¬
ë¯¸ ìķĦ
íī Ī
ìĹ¬ëŁ¬ ë¶Ħ
ĠìĦł ê¸ĢëĿ¼ìĬ¤
íĬ¹ ìĦ±
Ġì°Į ë¥´
ë¸Į ìĿ´
ìĽĮ ìļĶ
íķ´ íĶ¼
é« ĺ
Ġê¹Ģë¬¸ ìĪĺ
íĨ¡ ìĬ¤
ê¸° ìĿ¼
ĠìĿ´ íĿ¬
ë²Ħ ìĦ¯
ìŀĲì¹ĺ ëĭ¨ì²´
è» į
Ġëį ¥
ĠìķĮ ìĦł
íķĦ íĴĪ
Ġê³¡ ìĦł
êµŃ ìĤ¬
Ġê³µ êµĲìľ¡
Ġë ¾°
ĠëĮĢ ìľĦ
Ġìķ °
íħĶ ë§ģ
) ,
ĠìĪĺ ìĸµ
Ġ ï¼
Ġì¤Ħìĸ´ëĵł ëĭ¤
Ġëĭ¤ ë¬¸íĻĶê°Ģìłķ
Ġ3 500
Ġê³ł ë¶Ħ
ĠìĿ¸ì²ľ íķŃ
ĠìĿ¸ íĮĮ
ìĨĮ ìľĦ
Ġì£¼ ê¶Į
Ġë³µ ì§ģ
Ġë§ĿìĦ¤ ìĿ´
ìĦ¸ ëĿ¼
ĠíĹĪ ìĪł
Ġê·¹ ì°¬
ìĿĺ ë¯¸
ë¡ľ ìļ¸
Ġë°Ķëĭ· ë¬¼
ĠìĻ¸íĻĺ ìĿĢíĸī
íķĻ ë¶Ģëª¨
ĠëĤĺìķĦ ê°Ī
ìŀħ êµŃ
Ġë¯¸ ìĵ°
ì§Ģ íĸ¥
ĠëĮĢ íı¬
Ġ11 5
ĠëĶĶ ìĬ¤íģ¬
Ġê°Ħ ì²©
êº¼ ìĿ´
ìĸĳ êµ¬
ĠíĿ© ìĸ´ìł¸
Ġê¸° ìłĢ
ĠìĹ°ê¸° ëł¥
ìĺ ´
Ġë°Ģìĸ´ë¶Ļ ìĿ´
ĠëĮĢë¦¼ ìĤ°ìĹħ
ĠêµŃìłľ ìĦł
ĠìµľëĮĢ ì¹ĺ
Ġê°ķ íĥĢ
ìĿ´ìĬ¤ íĦ°
Ġë³´íĥ ¬
íĵ° ë¦¬ì¦ĺ
íģ´ ë¡ľ
Ġíķľ ê²¨ëłĪ
Ġê±° ëĵ¤
ĠìµľìłĢ ì¹ĺ
Ġê±° ìĬ¬ëŁ¬
ì§ĳ ì¤ĳ
Ġê·ľ ê²©
Ġëª© ìŀ¬
Ġë¬¼ ì²´
Ġë¨¸ ê¸Ī
Ġìŀ¬íĮĲ ê´Ģ
ìłĦë¬¸ ìłĲ
Ġìļķ ìĭ¤
ìĿ¸ ìĦ±
Ġê³ł êµ¬ë§Ī
Ġìłģìĭľ íĥĢ
Ġê²Ģ ìĹŃ
ĠìĿ´ ìĦł
ĠìķĦ ëŀĳ
ì§Ħë£Į ìĨĮ
Ġìŀħ ìŀĲ
ĠìłĲ ê±°
Ġì²ľ ë§ī
Ġë°ķíĥľ íĻĺ
Ġë³Ģ íķľ
Ġë§ī íŀĮ
ë§Ī ìĤ°
ê¸° ëıĦ
ë³´ìķĪ ë²ķ
ĠìļĶ ìĭľ
Ġë¬´ ì£¼íĥĿ
Ġë°ĺ ê°Ĵ
Ġì·¨ìŀĦ ìĭĿ
Ġë¶ģ ìłģ
Ġê³µ ìĸ¸
ĠìķĦ íĮł
ìĿ´ ê±°
ë£¨ íĬ¸
ĠìĤ¬íļĮ ê´Ģ
ë§Ī ìĬ¤íĦ°
Ġì¶ľ ë£¨
íĨµìĭł ë¶Ģ
íıī íĥĿ
ìĹ° ëł¹
Ġìŀ¬ ì´ī
ìĨ ľ
Ġê³ł ê³µ
ĠëĨį ìķ½
ìĿĺ ë¬´
ê¶Į ìĹŃ
Ġì§Ģ ì³Ĳ
Ġê²° ëł¬
ĠíıĲ íķĺ
Ġë§¨ ì²´ìĬ¤íĦ°
Ġì¹ĺ ëĭ«
ĠA R
ê´Ģë¦¬ ë²ķ
Ġìłľ ëĮĢ
ĠìĦ¤ íĻĶ
Ġìľłë°© ìķĶ
ëıĮ ë´Ħ
Ġíķĺëĵľ ìĽ¨ìĸ´
Ġì¶© ìĽĲ
ìľł íĺķ
ĠE S
ĠíĹĪ ë¬´
ì¶ §
ĠìĪĺ ë°ķ
Ġì°¨ ê°ĳ
Ġëĭ¹ íķł
ĠìĿĮ ëŀĢ
ĠíĬ¸ëłĪìĿ´ ëĭĿ
Ġë¶ģ ê·¹
íĺ¸ ìļ°
Ġ198 5
ë° Ł
Ġë°Ķ ë¹ł
Ġì½Ķ ë¯¹
Ġíıī ìĥģìĭľ
ĠëıĻ íı¬
Ġê¹Ģ ìĭł
Ġê³ł ì§Ī
Ġë¯¸ ë¹Ħ
Ġìĸ´ ì´Į
ëĶ ´
Ġì§ķ íĽĦ
ë§Į ìŀ¥
Ġíķĺ ìĻĢìĿ´
Ġë§Į ìĦ¸
ĠëĳĲ ëĩĮ
ï½ ľ
ĠT K
ëıĦ ìĦľ
ĠìĬ¹ íĮ¨
Ġê·¼ ê¹Į
ĠìĽĲ ëĳĲ
Ġì§ĳ ë¬´ìĭ¤
ĠíĥĪ íĶ¼
Ġê²½ìĺģ ìŀĲ
Ġëĭ¨ ì¶Ķ
Ġë¦¬ íĬ¬
ì¶ľ ìĨĮ
ĠìĿ´ìĬ¹ ë§Į
Ġìĺ¤ë¦¬ ì§ĢëĦĲ
ëĦ¥ ìĬ¤
Ġëª¸ ì§ĵ
ig ht
ç¥ ŀ
Ġì²ł íıĲ
Ġì§ ¸
ìĿĮ íĮĮ
ĠíĮ¬ ì¸ł
Ġìľµ ìŀĲ
å¿ ĥ
ĠìĿĺìĤ¬ ìĨĮíĨµ
ìĺģ ìĸĳ
Ġê³¡ ë¬¼
ĠâĨ Ĵ
ëŀĢ ìĬ¤
ëĤ¨ ìĦ±
ìŀħ íķĻ
íķĺ êµ¬
ĠëıĻ ê±°
ĠëĮĢìĿĳ ì±ħ
ĠíĥĢ ê³ł
Ġëĭ¤ ìł¸
ëĥ īìŀ¥
Ġê°Ģë¡ľ ìĪĺ
ëĭ¤ê³ł ìļĶ
Ġë¯¸ íĦ°
ĠíĻĶ ìĦĿ
Ġìļ¸ë¦ī ëıĦ
ê´ĳ ìĦĿ
íķľ ê°ķ
ĠìŀĦëĮĢ ì°¨
ĠB BC
íĺ¸íĿ¡ ê¸°
ĠëĨį ìŀĳë¬¼
Ġìĥī ì±Ħ
ĠíĮĲ ëıĦ
Ġë§Ī íı¬
Ġíģ¬ ëĿ¼
Ġì°¨ ìĦł
Ġì¤ĳ ì§ķê³Ħ
Ġê¸°ëħĲ íĸīìĤ¬
Ġì°¬ ìĤ¬
ĠìĨĮ ëŀĢ
Ġêµ¬ìĦĿ êµ¬ìĦĿ
Ġê¹Ģ ìļ°
Ġë§ŀ ë²ĮìĿ´
ë¬¸íĻĶ ìĺĪìĪł
ĠìĨį ìĿ´
Ġì¶ľë°ľ ìłĲ
Ġìĵ° ìĿ¸
Ġëĸł ìķĪ
ĠìĹ°ìĺĪ ê³Ħ
ì£¼ìĿ¸ ê³µ
Ġë¬´ íĺķ
ê³Ħ ìĦł
ĠìķĮ ë¦°
ĠìŀĲ ìĦł
Ġíİ¼ì³Ĳ ì§Ī
ë¶Ģ ìĬ¤
Ġë©Ķ ìļ°
ê°Ģ ë°©
ë¦¬ ëĤĺ
Ġëĭ¤ ì³¤
ĠëıĻ ì¡°
Ġë¯¸ìĬ¤íĦ° ë¦¬
ë°° ì¶Ķ
Ġíĺ¸ ê°Ĳ
ìĥģ ìĿĺ
an t
ĠìķĪìłĦ ìĦ±
ì²ľ ë¦¬
ĠìĥĿ ì²´
Ġë¶ģ ë°©
Ġë´ī íĻĶ
Ġì¶© ëıĻ
ĠêµĲ ë¯¼
ë´Ĳ ëıĦ
ĠëĮĢ ìĬ¹
Ġì§Ī íĪ¬
Ġìµľ ìĦ±
ĠD B
ì²ĺ ëĵľ
Ġê´Ģ ìłĦ
íĽĪ ìŀ¥
ĠíĶĮë¡ľë¦¬ ëĭ¤
Ġê°Ģ ë£¨
ĠíĮĮ íĤ¤ìĬ¤íĥĦ
Ġì±ħ ë¬´
ê¸° ë²ķ
Ġìĸĳ ë³µ
ĠëĤ´ ë²Ħëł¤
ë©Ķ ëĶĶ
ĠëĤĺ ë¥´
Ġë°ķ íĿ¬
ì§Ģ ìļ°
ĠìĦ¸ ë¥´
Ġë¦¬ ëī´
Ġê°ĪìķĦ ìŀħ
ìĦ¤ ì¹ĺ
ĠíıĲ ë§ī
ìĿ´ ìĽĥ
ĠìĦł ì²´
Ġê³Ħ ë¥ĺ
ëĭ¹ ìĦł
íĨ °
ë³´ íĬ¸
ì§Ģ ìĦ±
ì§Ģ ë¶Ħ
ĠëĬĺìĸ´ ëĨĵ
N Y
ĠëĤ¨ ëıĻ
ĠìĦł íĴį
Ġì§Ģ ì¹Ń
ĠìķĦë©Ķë¦¬ ì¹´
Ġê°ľ ì²´
Ġë§Ŀ ì¹ĺ
ĠìĪĺ ë§Į
ĠìķĦ ì¿ł
Ġìĸ´ ìĽĮëĵľ
Ĳ ê¸°
ĠìĨĲ ìĥī
Ġëª¨ìĿĺ ê³łìĤ¬
íķ´ ìĪĺìļķìŀ¥
ëĵľ ëŀĺê³¤
ĠìłĢ ì£¼
ë¶Ģ íļĮìŀ¥
ë°° ìĨ¡
ĠëĤĺìĻĢ ìķ¼
Ġë§ŀ ìĦ°
íĶĦë¦¬ë¯¸ ìĹĦ
ĠìĬ¤ íĭ°ë¸Į
Ġì¡°íĺķ ë¬¼
ĠëĤ´ ì¤Ģ
ì²Ń ìķ½
Ġíĺķ êµŃ
ì¤ĳìķĻ ì§Ģ
Ġì£¼ ì§Ģ
ëĭ¥ íĦ°
ê²° ìĤ°
ĠìĪĺ ìĭĿ
Ġìĸ´ ê¹ĢìĹĨìĿ´
ëĶĶ ìĬ¤íģ¬
Ġíĸī ë°©
Ġê³łë§Ī ìĽĢ
ìĦľ ê¸°
Ġë¬´ëĦĪ ì§Ħ
ìĪĺ ì²©
Ġê°ľ êµŃ
ĠìĤ¬ìļ© ë£Į
S R
Ġìłľ ì§Ģ
Ġì¤ĳ ëĤ¨ë¯¸
Ġíı¬ ìĥģ
Ġì²Ń ìĤ¬ì§Ħ
Ġë¯¸ ëª¨
ê» Ħ
ĠìĦł ì¡°
Ġìĭłë¶Ħ ì¦Ŀ
ĠìķĪ íĿ¬ìłķ
Ġì¹ĺ ì¤ĳ
Ġíı¬ ê²©
Ġë£¨ ìĿ´
íĢ ¸
ĠëĦĺìĸ´ ê°Ķ
ĠíĶĮ ëŀľ
Ġë¶Īê±° ì¡Į
Ġëªħ ìĭ¬
íķĺ íĤ¤
Ġëī´ íĥĢìļ´
Ġê¾¸ ë¦¬
Ġëª¨ íĨł
ĠìĽĢì§ģ ìĹ¬
ìĽĮ ì¦Ī
Ġëĭ¬ìĦ± êµ°
Ġê·¸ ëŀĳ
Ġìķ¡ ì²´
ĠëıĻ ë°±
E X
ĠíŀĲ ëŁ¬ë¦¬
ĠìĥĿíĥľ ê³Ħ
ìĹĪ ìĹĪ
ĠëĤ´ íı¬
Ġêµ¬ ìĿ¸
ĠíĥĢ ìļ´
ìĦłê±° êµ¬
Ġìĺ¤íĤ¤ ëĤĺìĻĢ
ë¹Ħ ìłķê·ľì§ģ
Ġë°ĺ ê°Ĳ
Ġëĵ¤ ìľ¼ë©´
Ġìĭľë®¬ ëłĪìĿ´ìħĺ
ì§ ļ
ìĤ ¿
ĠíķĻ ìłĲ
ë°ľ ëłĪ
íĳ¸ ë¥¸
ì§Ħ ìĭ¤
ĠìĹ¬ ê¸´
Ġì´Ī ìľł
ëĭ¨ ìĿĺ
ìĺ¤ ì¹´
ĠëĪĦ ëł¸
Ġëª¨ ìĶ¨
Ġë¬´ ëĤľ
ê·¹ ëĭ¨
ï§ ¡
ķ ł
ĠìłĦ ë§¤
Ġíķľ ìĥģ
ì¿ł íı°
200 6
ì¶Ķ ìľĦ
ĠìķĦ ìĹ°
Ġìĸ´ë ķł
ëįĶ ëĿ¼ê³ł
Ġì¦Ŀ ê°ķ
íķĦ ë¦Ħ
ĠìĨ¡ ìłĦ
êµ¬ ì¶ķ
ìŀ¬ ë°°
į ½
Ġëª¬ ìĬ¤íĦ°
Ġë¯¸ ë¬ĺ
Ġíľ´ê°Ģ ì²ł
Ġìĺģ ìķĶ
Ġìĺ® ê¹Ģ
ĠC F
ìŀ¬ íĺĦ
Ġì²ľ ì§Ģ
Ġìľł ë¡Ģ
ìŀĲ íĿĲ
Ġì±Ħ ìĽł
ìĹ° ì¶ľ
Ġìŀĳ ë¬¼
Ġêµ¬ ìĽĮ
ìļ´ íĸī
Ġë°ĺ ê°Ģìļ´
ìĭ¤ ëĤ´
ëĭ¹ ìŀ¥
Ġìļ©ìĤ° êµ¬
ĠìĪĺ ë³Ģ
ì¿ µ
Ġë°© ë©´
Ġì§Ģê·¹ íŀĪ
ĠíĻį ìĿµ
Ġë¦¬ ìĬ¤
Ġë¸Į ëłī
ĠìĦ¸ ëĿ¼
ìĭľ ê³µ
Ġê°Ŀ ìĦĿ
Ġêµ° ë¶ĢëĮĢ
ĠëĪĮ ëłĢ
Ġìľł íĿ¬
Ġíį¼ ì¡Į
ĠëĤ¨ ë§¤
ì½ °
ĠëĮĢì±ħ ìľĦ
Ġìŀħ ìĦ±
ĠëĦ· ì§¸
ĠíĮĮ ê¸°
Ġì²ł ìĽĲ
ëĤĺ ë¯¸
Ġê¹Ģ ë³´
ĠìĿ¸ ìĸĳ
Ġë¬´ ìĿ´ìŀĲ
Ġê²¸ ë¹Ħ
ĠìĿ¸ ë§¥
ĠìĦ¸ ìłķ
Ġìŀ¥ ì¤ĳ
ìŀĲ ëĭĪ
ìį ½
ìŀ¬ ë¬´
Ġì§Ħíĸī ìŀĲ
Ġìĸ½ íŀĮ
ĠíĮĮ ìļ´ëĵľ
ĠìĽĥ ëıĦ
Ġìľ¼ íĿł
Ġìŀ¥ ëª¨
ĠìĤ´ íıĪ
ĠìĤ¬ íķĻ
ëĬĲ ëĭĺ
Ġë³¸ íĨł
ê°Ħ ëĭ¤ëĬĶ
ĠíĻľëıĻ ê°Ģ
Ġì¡° ê³Ħ
ëıĦ ìķ½
ìłľ ë¦¬
Ġì¶ľìĹ° ì§Ħ
ĠíļĮ ê²¬
êµŃ ìĸ´
ì§ľ ê¸°
Ġìłķ ê°Ģ
Ġìĺ¤ë¦Ħ ìĦ¸
ëłĪìĬ¤ íħĮ
ë© ĭ
ĠìŀĲë³¸ ê¸Ī
ĠìĪľ ë§¤ëıĦ
Ġê²½ìĥģ ë¶ģëıĦ
ê°ľ ëħĦ
ëĭ´ ìĤ¬
ic e
Ġì¶© ë¬´
Ġë°ĺì§Ŀ ìĿ´
Ġëª¸ ê°Ĵ
Ġì¶ľ ê²©
ë¹ ´
íķĺ ìĪĺ
âĹ ı
íĥĲ êµ¬
ĠCG V
Ġìļ© ìłģ
Ġê°Ģ ìķ¼
ĠìĿ¼ìĸ´ ìĦ°
ê³Ħ ëĭ¨
ìĹ¬ê³¡ ìłĪ
ì½ ¥
Ġì£½ ìĺĢ
ìį ¸
ëıħ ëıĦ
ĠëĽ°ìĸ´ ëĵł
Ġìĸ´ ê¸°
íĨµ ìļ´
Ġê·¸ë¦¬ íķĺìĹ¬
ì·¨ ìĨĮ
ì¹ĺ ìľł
ìĭł ë¢°
Ġê¸° êº¼ìĿ´
ìĦ± ëĭ¹
Ġíķ¨ ìĦ±
ĠíĴį ìŀĲ
Ġê²½ ì§Ħ
ìł¤ ëłĪìĬ¤
ë¦¬ ë°į
ìĬ¤ íİĺìĿ´ìĬ¤
Ġëª¨ íĭ°ë¸Į
ëķĮ ë¬¸
ĠìĪĻ ìĦ±
Ġì¤Ħê¸° ìĦ¸íı¬
ĠìĺĪ ê²¬
Ġì´Ī ìĹ°
Ġì ĳ¤
ë£» ë°¤
Ġë§ī ë§ī
ì¶ľ ëıĻ
© ëĭĪê¹Į
Ġì¹´ ìĿ´
Ġìľ¡ ì§Ģ
ĠìĬ¤ ë¦´
ĠíĿĺëŁ¬ ëĤĺìĺ¤
ĠíĬ¹ ê¸°
ëĦ¤ ìĥģìĬ¤
ì£¼ ë¶Ģ
ì¹´ ìĬ¤
Ġë¶Ī ìĳ¥
Ġê·¹ íķľ
ĠìĦľ ê°ķëĮĢ
Ġì¶ĺ ì²ľìĭľ
ĠìłĦ ìłĦ
Ġê¶Į íķĺ
Ġìĸ´ìļ¸ ëł¤
ĠíĽ Ĺ
ìľĦìķĪ ë¶Ģ
Ġìŀħ ê°Ģ
íĶ¼ ê³łìĿ¸
ìĿ´ ë¡ł
Ġê°Ģë¥´ ì¹¨
Ġë¹Į ëĿ¼
ê¶Į ë¦¬
Ġë³ĢëıĻ ìĦ±
ìĦ¤ ëªħ
ĠìĽ° ë¹Ļ
Ġì´Ī ë¹Ļ
Ġ10 3
ì²ĺë¦¬ ìŀ¥
Ġê´ĳë³µ ìłĪ
ê¸Ī íļĮ
Ġíķľ ì§Ģ
æ° ´
ìĺģ ì£¼
ê¶Į ìĿµ
ë²¤ ì¸ł
TE U
ĠìĿ´ëıĻ êµŃ
ìŀħ ë²ķ
ĠíĻĶ ëģĪ
Ġëĭ¬ëĿ¼ ì§Ħëĭ¤
ë» Ķ
Ġíķ© ì°½
ìĦł ìĤ¬
Ġë¶Ģìĥģ ìŀĲ
ĠìĦ¸ ìĿ¸íĬ¸
Ġë°Ķ ë¹Ħ
ìĦł ê´ĢìľĦ
ìĭľ ìłĲ
Ġìĸ´ê¸ĭ ëĤĺ
ĠF IFA
ì§Ģ ëªħ
ë¸Ķ ë¡ľ
Ġìıĺ ëĤĺíĥĢ
Ġì§Ģ ëıħ
Ġê´Ģ íķ´ìĦľ
ĠìĹ¬ ë³´
Ġìŀ¥ íĥĢ
ĠìĤ¬ìĿ´ íģ´
ĠìĿ´ ìĿĺ
ĠíĮ¨ ìĨĮ
Ġê¹¨ëģĹ ìĿ´
ê´Ģê´ĳ ê°Ŀ
ĠìľĦ ë¡Ģ
Ġë¬´ ë¦¼
Ġì²Ń ëĭ´
ìķĦ ìĿ¼ëŀľëĵľ
Ġíĥľ ìĽĮ
ëĮĢ ê²°
ìłĦ ëĵľ
ĠíĮĶ ëłĪ
ëªħ ìĪĻ
ĠíĻĶ ì§Ī
ì¤ĳê°ľ ìĤ¬
ì¶Ķ ìĦĿ
Ġf or
ĠìŀĲ ìŀĳ
Ġì« Ħ
Ġì°Ķ ëŁ¬
Ġìŀ¥ íĿ¥
ĠìĬ¤ ì³Ĳ
Ġíĩ´ì§ģ ê¸Ī
ĠìłĲ ì§Ħ
ĠìķĦìĿ´ ìĸ¸
Ġëªħ ìĥģ
ĠìĿ¼ ìĥĿ
íıĲ ì§Ģ
Ġë§ĪìĿĮ ìĨį
Ġìłĳ ëĮĢ
êµĲ ìŀ¥
Ġë¬¸ ìĺĪ
ìĦ ŀ
ëªħ ìĨĮ
Ġì°¸ ìĭł
Ġí ī
ìĻ¸êµŃ ìĸ´
Ġê¸° ëĤ´
ĠìĿĮ íĸ¥
Ġì°½ìĿĺ ëł¥
ëį° ìĹĨ
ĠIP TV
Ġíģ´ ë¡ľ
Ġì¹´íħĮ ê³łë¦¬
ĠëłĪ ìĭľíĶ¼
ĠíĬ¹ êµ¬
ë§ £
ä¸ Ĭ
íķŃ ê³µìĤ¬
Ġê³ł ìĨĮëĵĿ
Ġìłĳ ìłĲ
ĠìĪĺë°± ë§Į
Ġëĵ¤ ìį©
ĠìĤ¬ìĹħ ê°Ģ
Ġê±´ëį° ìļĶ
Ġë°± ìŀĳ
íĬ¹ ë³´
Ġê¹¨ ì§Ģ
Ġì²ľ êµŃ
ĠëĮĢ ê´Ģ
Ġì¢ħ ìĺģ
íĮĲ ìłķ
ĠëĮĢ ëł¹
Ġ198 2
ë¶ĢìĿ¸ ê³¼
Ġë³Ģ ëª¨
ìĭ¤ íŀĪ
ĠëłĪ ìķĮ
Ġëĭ¬ ìĿ¸
ĠìĦŃ ìĻ¸
Ġíķĺ íķĦ
Ġëª°ëĿ¼ ìļĶ
ë¸Į ë¡ľ
Ġì¢ħ ìŀĲ
Ġê¼¬ ë°ķ
ĠíĹ ¨ë¦¬
ë³µ ë¬´
ç¤ ¾
ëĨ Ģë¡ľ
Ġì£¼ê±° ì§Ģ
ĠìłĦ ê°Ģ
ê¸į ìĭ¬
Ġêµ¬ íĸĪ
ìĿĢ ìĥī
ĠìŀĶ ìŀĶ
Ġê·¸ë¦¬ ìĽĢ
ĠíĨµ íıĲíķ©
ĠêµĲ ë¶Ģ
ìĹĺ ëĿ¼
ç Ī
ìķĦ ë¬´ë¦¬
ĠìĹĶ ì§ĢëĭĪìĸ´
ĠëĳĲëł¤ ìĽĮíķĺ
ë¡ľ ì§ģ
ĠìĿ¸ ìĦł
ìĹŃ íķł
Ġë²½ ë©´
ĠëıĻ ìĤ°
ê·¸ ëĦ¤
Ġë°ĺê¸° ë¬¸
ĠìĿ´ ëĨĪ
Ġë¹Ħ ë°©
ĠíĮĮ ìĬ¤
Ġì´Ī ëĿ¼
ëĵ¤ìĸ´ ê°Ģ
Ġì§Ģ ëĤł
ĠìĥĿ íķĦíĴĪ
ĠëĮĢ ë¯¸
ê·¸ ëŁ´
ĠíĻĶ ìĤ°
ĠíĶ¼ ëĤľ
ĠëĮĢ ìľłíĸī
Ġê°Ħ íĺ¹
Ġì° »
ĠìĹĲ ë¥´
ĠìłĦ íķľ
Ġëĭ¤ êµŃìłģ
ĠìĿ´ìłľ ìķ¼
ĠâĢ Ŀ
ĠíķĦ ê¸°
Ġì°½ ëħķ
ê³µ ìĦ¸
Ġë°©ë¬¸ ìŀĲ
ĠíĦ° íĬ¸
Ġë°© íĻĶ
ê¸°ìĪł ìĦ¼íĦ°
Ġê³ł ë£¨
ĠêµŃìłľ ê¸°êµ¬
ç ´
ĠêµĲ ëŁī
íīģ ìĿ´
íĤ¬ ë¡ľ
ĠëıĻíĺ¸ íļĮ
ĠëĴ¤ íİ¸
Ġìµľ ìłķ
Ġì¹ł ê³¡
ë°Ķ ìĿ´ìĬ¤
ĠíĶĮëłĪìĿ´ ìĸ´
Ġê³µ ìļ©
ì¶Ķ ìłģ
Ġì²Ń ìĨ¡
íĳľ íĺĦ
ĠC P
Ġëĵ¤ëł¤ ìĺ¤
Ġæ ĸ
Ġë¶Ī ë°ľ
Ġë³¼ íĬ¸
íĻĶ íķ©
Ġë³´ìĿ¼ ëŁ¬
ê¸° ê²½
ĠëĮĢ ëĤ¨
ìĿĢ íĿ¬
ëħ¸ ìĨĮ
ĠìĹ°ìŀ¥ ìĦł
! "
N H
Ġë°ľë§ŀ ì¶°
ĠêµŃ ê³µë¦½
ìĦ¸ ê¸Ī
ìĹ° ìĺĪ
ìĭľ ìĽĲ
ìĸ¼ êµ´
Ġë¸Įë¡ľ ì»¤
Ġë¶Ī ìĸ´
Ġìľł íĻĶ
ĠíĬ¸ë¡ľ íĬ¸
§ ëı¼ì§Ģ
íĸĪ ìľ¼ëĭĪ
ĠíĮ ģ
ĠìĪĺ ì²ľë§Į
ìľ¤ ìĦĿ
Ġë²Įê¸Ī íĺķ
Ġìłľ ìĤ¬
ĠìķĪ ëĿ½
Ġìĭ¬ ìŀ¬
Ġì¢ģ íŀĪ
Ġíĥľ íĻĶ
êµ ½
Ġëĭ´ ìķĦëĤ´
Ġì´Ī ìķĪ
íķĦ ì§Ģ
Ġê¹Ģ ë¯¸
Ġì¶Ķ ë¦¬
Ġë½ Ģ
ĠëĤŃ ëıħ
Ġíĳľ ë¥ĺ
Ġì±Ħ íĮħ
ê± ±
è ³
ê´ĳ ëªħ
Ġì²Ńì·¨ ìŀĲ
ìĬ¤ëŁ¬ ìļ¸
Ġìŀł ê²¨
ĠìĬĪíį¼ ë§Īì¼ĵ
Ġìĭ¤ ìĨį
Ġëĭ¹ ìľĦ
ĠíĮĶ ê¿Īì¹ĺ
ĠíĮĮìĿ´ íĶĦ
ĠëĤ´ ìĭ¬
Ġë§Ĳ ë¬¸
Ġê°ĢíĮĮ ë¥´
ĠëĮĢ ìĿ¸
Ġë°Ķ ì¹ĺ
Ġì¶Ķ ëĮĢ
ì¶ķ ìłĦ
ëłĪìĬ¤íħĮ ë¡¤
ìĪĻ ë°ķ
ì¤ĳ ê³ł
ĠëĿĦ ìļ°
ìĤ° ê°Ģì¡±
Ġë¶Ħ ìĭĿ
Ġíĳ¸ ì§Ĳ
ëĤ ±
ê·¸ ë¦ĩ
Ġì¤Ģ ê²°ìĬ¹
Ġì¤ĳ ì¶Ķ
ĠìĤ¼ ê²¹ìĤ´
Ġê³ł ê³ł
Ġë¥ ¼
ëª¨ ìĬ¤
ĠìĽĲ ëħĦ
ĠìĨĲ íĨ±
ëıĦ ë¦¬
ĠíĥĢ êµ¬
ĠëĨĵ ìĺĢ
Ġë°Ģ ìĸ´ëĤ´
ìŀĺ ëª»
Ġë³´ ìŀħëĭĪëĭ¤
ĠìĿĢ íĺľ
ìĸ´ìķ¼ ì§Ģ
ì£¼ ê³µ
ë³´ ê¶Ĳ
ĠíĮĮ ì£¼ìĭľ
Ġì¦Ĳ ê²¼
Ġê±´ì¶ķ ê°Ģ
ìĿ¸ ìĬ¹
ĠëĮĢ ìĹ´
es s
Ġëģ¼ ìĽĮ
ĠìłľìĿ¼ ëª¨ì§ģ
ĠìĦłìłľ ê³¨
ìŀ¥ êµ°
L O
Ġíİľ ìĬ¤
ĠìļĶ ëł¹
Ġë²Ħ ë¦ĩ
ëıĦ ìŀ¥
Ġë°ĺ ìŀ¥
íĶĮ ëĿ¼ìĿ´
ìĺģíĸ¥ íıīê°Ģ
Ġëª» íķľëĭ¤ëĬĶ
íĻĺ ìľ¨
Į íĹ¨
ĠìŀĲ ê¸įìĭ¬
Ġå ¤
Ġíı¬ íĻĶ
ĠìĥĪ ê²¨ì§Ħ
ĠìŀĦ ìĤ°ë¶Ģ
ĠëģĿ ëĤ¸
ìĬ¤ ìľĦ
ĠìĹŃ ë¶Ģì¡±
ĠìĿ¼ ìĨĲ
íĸ¥ ìĨĮ
Ġëĭ¤ ìļ°
Ġìŀ¬íĥĿ ê·¼ë¬´
ëª© ìĨĮë¦¬
Ġì¹ĺ ë§Ī
a st
Ġë¹Ī íĭĪ
Ġë¶Ī ìĤ¬
ĠìŀĲìĿ´ ìĸ¸
ì» «
Ġ11 4
Ġìķ½ íķ´
ì¡° ìķ½
Ġì³Ĳ ëĭ¤
ìĿĺ ëıĦ
Ġë¹ħ ë±ħ
Ġìľł ëª¨
ëĨį ìĦ±
ëĤĺ ë¥´
Ġëªħ ëªħ
Ġìĭł íķĺ
Ġíĳľ ìłĪ
ĠëĮĢì¶ľ ê¸Ī
Ġìĥī ìĨĮ
ĠìĿ¼ ì»«
íĬ¹ ìĤ°ë¬¼
ê´Ģ ëħĲ
Ġìļ° ìĽĶ
æ ľ´
Ġë°ĺ ë¡ł
ê· ¤
ĠìĤ´ìķĦ ìĻĶ
ë³´ ìĤ¬
Ġê³µ ë²ķ
ĠìĤ° íĥĢ
Ġìıł ë¦°ëĭ¤
Ġê¹Ģíı¬ ìĭľ
ìľł ìŀħ
ĠìĤ¬ ìľĦ
Ġ2 10
Ġê³µ êµĲ
ìĤ¬ìłķ ê´Ģ
ë¦¬ ì¹´
ĠìĿĺ ìĿĺ
Ġêµ¬ ë³¸
ĠíĮĮ ìĿ¸
Ġê´ĢìłĪ ìĹ¼
Ġìļ°ì¦Ī ë²łíĤ¤ìĬ¤íĥĦ
Ġì¹ľ íķľ
Ġëħ¸ ë¦°
Ġë³´ëĤ¸ ëĭ¤
i e
íķ© ì°½ëĭ¨
Ġìĸ´ë§Ī ìĸ´ë§Ī
ìĸ¼ ë§Ī
ĠìĨĮ ì¹ĺ
Ġë©Ķë¥´ ìĦ¸ëį°ìĬ¤
ĠëĮĢ êµŃ
ìĭł ê·ľ
Ġíķł ëĭ¹
ìķ µ
Ġìłľ ëªħ
Ġ10 4
ĠêµĲ ëĮĢ
ë§Į íĻĶ
ëĶ §
Ġê´´ë¡Ń íŀĪ
Ġë§¡ ê²¼
Ġìĭ¤ íģ¬
ëľ¨ ë¦´
Ġì½ľ ë¡¬
Ġì½Ķ ëĶĶ
Ġì±Ħ ìļ´
Ġì²¨ ìĺĪ
ìĹĲë¯¸ ë¦¬íĬ¸
Ġìĸ´ íķĦ
ĠíĪ¬ ìķ½
Ġìļ° ìĹ¬ê³¡ìłĪ
ĠìĹ¬íĸī ìŀĲ
Ġì²ĺ ìĤ¬
ĠìĿĢ íıī
ê´Ģ ìĦ¸
Ġìľł ê²©ìĪĺ
Ġë°© ìĪĺ
Ġë²Ī ë³µ
ëłĪ ìĿ¸ì§Ģ
ĠëĶ ¥
ìĿ¸ê³µ ì§ĢëĬ¥
Ġë©Ģ ì©¡
Ġë¬´ ìĪĺ
ĠíķĻ ìŀĲê¸Ī
ëī´ íĥĢìļ´
ë¬´ íĻĶ
å· ŀ
ìĥ Į
Ġìķŀ ìª½
ĠìĿ´ ë©´
Ġìĸµ ì§Ģ
ĠëĳĲ íĦ°
ãĢ İ
ĠíĨµ íĭĢ
Ġë§Ŀ ëªħ
Ġëħ¹ ì°¨
Ġê°ģ ì§Ī
ĠëĤ´ëł¤ ìĺ¨
Ġì²ĺ íĸĪ
ìĬ¹ ì§Ħ
Ġíİ¸ íĸ¥
Ġë§ ı
Ġë¶Ļ ëĵ¤
Ġ27 0
ìľ¼ë¡ľ ìĦł
ìļĶ ì²Ń
Ġëħ¸ì¡° ìĽĲ
ìĪĺ ìķĦ
ĠìķĦ íģ¬
ĠëĬĺ ë¦°
Ġë©¸ ì¢ħ
Ġê³Ħ ì§ĳ
Ġëĭ¬ ìĦľêµ¬
ëıħ ìŀ¬
ìĤ¬ ìĺµëĭĪëĭ¤
Ġìĭľ ëł¨
¤ íŀĪ
Ġë³Ģ ë¡ł
Ġê´´ ìĤ°
ĠìĤ¬ ëŃĩ
ê³µ ìŀĳ
ìĨĮ ìĽĲ
Ġê°ķ ëıĻêµ¬
ë¬¸ ëĭ¨
Ġë²Ħíħ ¨
ë¹Ħ íĬ¸
ê²ł ëĭ¤
ê±° ì§Ħ
Ġë²¼ ëŀĳ
ìĿ¸ ì¡°
ĠìĿ¸ ì¶ľ
ë°Ķ ë°Ķ
ë¬ĺ ì§Ģ
ĠìĤ¬ë¬´ ìĨĮ
êµ¬ ì§Ħ
ë§Ī ë§Ī
Ġíļ¨ ìŀĲ
Ġìļ¸ ë¦¼
Ġíķ´ ë¦¬
Ġê°Ī ìĥī
ĠíĻĶë¬¼ ì°¨
ĠìķĦ ëĿ¼
Ġë²Ī ê±°
ê°ľìłķ ìķĪ
Ġíŀĺ ì°¨
ĠìĹ° ìłķ
Ġë¡ľ ìĹ´
çİ ĭ
íħĮ ìĬ¤
Ġì¾Į ê±°
Ġë¬¼ ìĿĺ
Ġë¹Ħ ì£¼ìĸ¼
êµ¬ ê¸Ģ
ë¹Ħ ì¤ĳ
ĠìĪĺ íķĦ
Ġìłķ ìĿĢ
ĠìķĦìĿ´ íĮĮíģ¬
ì§Ģ ìĭľ
ì¡° íķŃ
íķĺ ë°ĺê¸°
ĠíĭĢ ë¦°
ĠìĪĻ ìĺĢ
ĠìķĮ ë°Ķ
ĠìķĦìĿ´ ëĶĶ
Ġìľłë¦¬ ì°½
ĠìĪĺìĭŃ ìĸµ
ĠìĪł ìŀĶ
ĠìĪĺ íķ´
Ġë°° ê³ł
Ġíķĺ ë£»ë°¤
Ġë¹Ħ ë§Į
Ġë¬µ ì§ģ
ì²Ń ìĤ°
ëĨĢë¡ľ ì§Ģ
ĠìľĦ ë°°
ê³¨ ëĵľ
ĠëĮĢì§Ģ ì§Ħ
ĠìĭĿ ê°Ĳ
ìķĪ ìĤ°
ĠìĿ¸ ìľĦ
p p
ĠëĭĪ íĬ¸
ĠìĬ¤ íı°ìĦľ
Ġìĭł ìŀĲ
Ġêµ¬ ë¯¼
ìĨĮ íĻĺ
Ġì¦Ŀ ì¶ķ
Ġìłľ ê²Į
Ġë¸ĶëŀĻ ë¦¬ìĬ¤íĬ¸
Ġë¹Ħ ìŀ¥
ĠëĦĺìĸ´ ìĦ¤
Ġìĭł ëŀĳ
Ġìłľ ì²ľ
Ġìĸĳ ëıĻ
ìĥĿ ìłľ
ì¤ĳ ëĮĢ
ìłĢ ëħģ
ĠìĹ° ìĨĮ
ëľ© ìĿ´ëĤĺ
íĻĶ ê³ł
ĠìĪĺëıĦ ê¶Į
ìĦ¸ ìĦľ
Ġê°ľ ëŁī
Ġìŀ¥ ëıĻ
ĠìĦľ ìĹ´
ì²ľ ìĤ¬
ĠìĤ°ë¦¼ ì²Ń
Ġëį°ëł¤ ê°Ģ
íķĻ ê¸ī
ĠìĿ´ìĸ´ ë°Ľ
Ġë³¼ ë¥¨
ìķ¤ ìł¤ëłĪìĬ¤
ãİ İ
ar k
êµ° ëĭ¤ëĤĺ
ĠíĴį ë¯¸
ac e
èĪ ĩ
¾ ħ
Ġë¶ĪëŁ¬ìĿ¼ìľ¼ íĤ¤
ìłĢ íĿ¬
ĠìĨĮ ìĸĳ
Ġìĭł íĥģ
ì°© ë¥Ļ
Ġì¶ľ ìĤ¬íĳľ
Ġëª¨ ê¸°
ê¸Ī ê°ķ
Ġê² Ĳ
Ġì¤ Į
Ġë©¤ë²Ħ ìĭŃ
ìĤ¬ ê°ģ
ĠíĥĿ íķľ
Ġì»¤ ìĦľ
ìĺĪ ì¸¡
ëĮĢ ìĥĿ
ìĭľ ê°Ģ
ìĺģ ìŀ¬
Ġê³Ħ ë£¡
Ġì°© ìķĪ
Ġíı Ī
ĠìĦ± ì§Ģ
ê³¨íĶĦ ìŀ¥
Ġë°Ģ ëłĪ
Ġ3 30
Ġíķĺ ëħ¸ìĿ´
ĠìĪĺ ìĹ¼
Ġíĳ¸ë¥´ ì§Ģìĺ¤
ĠëģĮìĸ´ëĵ¤ ìĿ´
ĠìĿ´ ê·¼
Ġíķĺ ìĿ´íĬ¸
Ġë§¤ëĭ¬ ëł¤
ëħ¸ ìĤ¬
ìĻ¸ íĻĺ
ĠìľĪ ëıĦ
Ġíģ´ ëłĮ
ĠëĮĢ ëĤĺë¬´
Ġì°¨ ë§Ī
Ġëĭ¹ ë©´
ì£¼ ëĭĪìĸ´
ĠìĬ¬ ì©į
ê¸´ ê¸ī
Ġíĸīìłķ ëł¥
ë¯¸ ìĬ¤íĦ°
Ġê±¸ ëŁ¬
ë²Ħë¦¬ ì§Ģ
ì² ¸
Ġìŀ¬ ì§Ī
ìĬ¹ íĺ¸
Ġì¼ Ī
ĠíĭĢë¦¼ ìĹĨìĿ´
ãĨį ëıĦ
Ġë³´ê³ł íļĮ
ĠëĤĻ ìĦł
ìĬµ ì§Ģ
Ġì°¨ ê·¼
ĠìĻ¸ ë¬´
ìŀĲíĿĲ ìĬ¤íĥĦ
ĠìĥĿ ìĪĺ
Ġìŀħìŀ¥ ë£Į
ĠëĦ· ë§Īë¸Ķ
Ġë¦¬ë²Ħ íĴĢ
ĠìĿ´ êµŃ
Ġíķĺ ìĿ¸
ĠìĨĮ ë³Ģ
ëĮĢ íķĻìĥĿ
Ġìµľ íĺķ
ĠíĮ¨ íĸĪ
Ġê´Ģë¦¬ ë¹Ħ
Ġë°ķ ê¸°
ìĽĲ ìĦľ
ĠìĻĢìĿ´ íĮĮìĿ´
ëª¨ ëĭĿ
ĠìłĢ íĥĿ
Ġì° ¡
ĠìĤ° ëª¨
Ġëĵ¤ìĸ´ ìķ¼
ìĩĦ ìĭł
U S
ĠëĦĺ ê¸¸
ëį° ìĭľ
ĠìŀĲ ëĿ½
Ġìłľ ê²©
ì¤ĳ ì§Ģ
Ġìŀĳ ìĤ¬
ã ģ
ìķĦ ìĬ¤
Ġë³´ ìĺ¨
ìŀ¬ íĻľ
ëĮĢ ìĭł
ĠìĻ¸ êµĲíĨµ
Ġê°ķ ê°Ħ
ë³´ ëłĪ
Ġìłķ ìĪĺê¸°
ìĽĶ ìĦ¸
ĠëĵľëŁ¬ ëĤľëĭ¤
Ġ197 9
Ġë§Īì£¼ ì¹ĺ
ĠëĤĺ ê°Ħëĭ¤
Ġê±°ë¨¸ ì¥Ĳ
Ġë°ķ ì¤Ģ
ĠìŀĲ ì´Ī
ë¬¸ ìĺĪ
ĠëŃī ì³Ĳ
ìĸ ĺ
ìľł ì§Ħ
ĠìĿ´ íķľ
Ġìłķ ìĺ¤
ë ¤¼
Ġë¬´ìŀĳ ìłķ
Ġì¶ľìŀħ êµ¬
ĠíĿī ëĤ´
íĮĮ ìļ´ëĵľ
ĠL IG
Ġìłģ ê¸Ī
ĠìĺĪ ê°Ĳ
ìĬ¤íħĮ ìĿ´
ĠìĿ´ ì²ľ
ì°¸ ìĤ¬
ac t
Ġê°ľ ê°ģ
æĪ °
ê±°ëŀĺ ìĿ¼
ĠO ST
ë¿ ľ
Ġê³ł ìļ´
Ġë¶Ī ëł¤
Ġì¶ķ ë³µ
ê°ķìĽĲ ëıĦ
O A
ĠëĶ° ë¦Ħ
ĠëįĶìļ± ëįĶ
ìµľ ì´Ī
ëĶ ķ
Ġëª¸ ë¬´ê²Į
Ġì¤ į
ĠìħĢ íĶĦ
ĠìĥĿ ëŀµ
ĠìĹ° ëª»
ĠìŀĬ íĺĢ
ì¶ľ ëł¥
Ġê²° ë§Ĳ
Ġë°©ìĤ¬ ìĦ±
ĠíħĮ ëĿ¼ìĬ¤
êµŃ íļĮìĿĺ
ìķĦ ë©Ķë¦¬
Ġê²½ ì¾Į
l d
Ġë§Ī ë§Ī
ë¦¬ ì¡°
ĠëĪ ķ
ë¹ł ë¥´
ĠìĬ¤ íĮĮìĿ´
Ġëĭ¬ëł¤ ê°Ķ
Ġë°©ìĨ¡ êµŃ
ë³´ ìĬ¤
ìłĦ íķ´
ë³´ ë¦¬
Ġìĺ¤ ìĦ¸íĽĪ
Ġì¶ľ íĺĪ
ĠìĦł ë°©
Ġê°ľ ë¯¸
ĠëĮĢ ìļ©ëŁī
ìĭ¤ ì§Ī
Ġë½ĳ íĺĶ
ĠìĤ¬ ìĿĢ
ĠìħĶ íĭĢ
Ġìĸĳ ìŀ¬
Ġë°ĶëĢĲ ëĭ¤
Ġì§ĢìĭĿ ìĿ¸
Ġì°¸ ê³łìĿ¸
0 31
l y
íİ¸ íķľ
Ġë³´íĥ °
Ġìĥĺ íĶĮ
ĠëĤ´ êµ¬
Ġíĺ¼ ìĦł
Ġìļ´ ìļ´
Ġíģ¬ ëłĪ
ë§Į ì£¼
Ġê¼¼ ìĪĺ
Ġìĸ´ì§¸ ìĦľ
e x
ĠI OC
Ġìĵ°ëŁ¬ ì¡Į
Ġìłģëĭ¹ íŀĪ
ĠA T
Ġì»¤ ë¦¬
Ġ' (
ĠìĦ± ìķħ
ĠìĪĺ ëĿ½
ĠìķĦ ì°Ķ
ĠìŀĲìĤ° ê´Ģë¦¬
ĠëģĪ ì§Ī
ë° ´
ĠëıĮ ë°ľ
ĠìĪĺ ìĹĨìĿ´
ĠìĬ¤ ì½Ķìĸ´
ĠìĦłë°ľ íĪ¬ìĪĺ
ìĦ¸ ìłľ
Ġëª©íĳľ ì¹ĺ
Ġë¶Ģ ìĨį
Ġê·Ģ ì¤ĳ
ìłĦìĭľ ê´Ģ
C N
ìĵ ±
ĠíĽĦê³Ħ ìŀĲ
Ġê°Ģ ëĵľ
ëĮĢ ìĿ¸
Ġë³´ ìĦ±
ĠëĲ ©ëĭĪê¹Į
ĠëıĦ ìļ°ë¯¸
Ġíķ© ì¹ľ
ĠíħĮìĿ´ íĶĦ
ĠìĺĪ ë»Ĳ
Ġì²Ń ê°ģ
Ġê³µ ëªħ
íķĺ ë§Ī
ĠìĭĿ ëĭ¨
ëĤ´ ëł¸
Ġê°ķ íĴį
ĠìĻ¸ ë¡ľìĽĢ
ĠëĤľ ìĿ´ëıĦ
Ġë°© ìłľ
ëĬĶ êµ°ìļĶ
ì§Ħ ìłķ
ĠíķĦ ëĳĲ
ìŀĦ ìĽĲ
Ġì²ľ ëªħ
Ġëª°ëŀĲ ëĭ¤
ë²Ħ íĦ°
ë¶Ģ ë¦¼
Ġíķĺë£¨ ë¹¨ë¦¬
ì§Ħ ê°ķ
ĠëĮ ģ
íı¬ ëĵľ
Ġë°ķ ëªħ
Ġì§ģ ì¢ħ
ëĮĢ ìĪĺ
ĠíĻĺ ìłĦ
ìĿ¸íĦ° ëĤ´ìħĶëĦĲ
Ġìŀ¥ ëĭ¨
Ġìĩ¼íĬ¸ íĬ¸ëŀĻ
ëıħ ìĦľ
ë¶Ī ê°Ģ
ĠìĿ´ ìĽĶ
ĠíıĲ ìķĶ
êµ° ëį°
ìĦľ ìĸĳ
ĠìĽĲ ëĭ¨
ĠëĶ°ëĿ¼ ìŀ¡
Ġ28 0
Ġëª¸ ì§ĳ
Ġë¦¬ íı¬íĬ¸
ĠìŀĲ ìķĦëĤ´
ĠìĽĶ ìĦ±
Ġë§Ī ë¦¬ìķĦ
Ġë°Ķ ëĬĺ
Ġê¹Ģ ìĨĮ
Ġ17 00
Ġê³ł ì¢ħ
íĭĢ ëŀľëĵľ
ëĦ¤ ìĿ´ë²Ħ
ìĺ¨ ëıĦ
Ġìļ© ëıĪ
Ġíķ´ ëĭµ
Ġìľł ìĨĮëħĦ
ë³¶ ìĿ´
Ġë²Į ìĸ´ëĵ¤
ìĿ¸ ë¨¼
ìļ© ìĤ¬
Ġë§¤ ëĵŃ
Ġë§Į ìŀ¥
ĠìłĦ ëĭ¨
ĠìĮĵ ìķĺ
Ġìĭ¸ ìļ¸
Ġ g
ìĹ ĳ
ĠìĹ¬ ëĵľë¦Ħ
ĠìĦ¤ ëłĺ
ìłĦ ëĭ¨
Ġìŀ¬ ìĻ¸
Ġìŀ¥ ìķĪ
ĠìĥģìĹħ ìĭľìĦ¤
ìŀ¥ ëħĦì¸µ
ë² ¡
íĻĶ ì§Ī
Ġì²´íģ¬ ì¹´ëĵľ
Ġìĸ´ íķĻ
Ġì²´ ì½Ķ
Ġì¤Ģ ëĭ¤ëĬĶ
ì¸¡ ê·¼
i al
Ġë§Ī ìĤ¬
Ġë¦¬ ì²ĺëĵľ
ĠC h
Ġíķ´ ì»¤
ìĤ° íĴĪ
ĠíĹ¤ ìĸ´ì§Ģ
ĠìĬ¬ íĶĦ
Ġì§ ¤
ĠíķĻ íļĮ
ë¶Ī íĻ©
Ġê¸°ëĭ¤ ë¦´
ĠíĥĲ ì§Ģ
Ġë§Ĳ ê¸°
ĠëĤ® ì¶ľ
C B
a in
m ent
ĠëĤ¨ ê²½íķĦ
ë» ĳ
Ġìĭł ìĺĪ
ãİ ĸ
ĠëıĦ ëĭ¹
Ġëª¨ìĬ¤íģ¬ ë°Ķ
Ġë§Ī ì¤ĳ
ĠëģĮëł¤ ê°Ģ
ë¡ľì§ģ ìĬ¤
Ġë¬´ ëªħ
ë³´ê³ł íļĮ
å £
íķ´ ëĥĪ
ĠìĨ¡ ìĿ´
Ġë¶Ī ë§¤
íķľ ìļ°
Ġë°© ìĤ°
ì°Į ê°ľ
Ġë°ķìĺģ ìĦł
ìłľì¡° ìĹħ
ìĸ´ ë¨¸
Ġíķ´ ìłĢ
ë¶Ģ ìĹ¬
ĠìĨį ìĦ±
Ġì°¸ìĹ¬ ìĹ°ëĮĢ
Ġíľ´ê²Į ìĨĮ
ìĤ¬ìĿ´ íģ´
ĠíĶ¼ ëĶĶ
ĠëĩĮ ì¡¸ì¤ĳ
Ġê¾¸ ë¯¼
ì£½ ìĿĮ
ĠìłĦëĿ¼ ëĤ¨ëıĦ
ĠìĤ¬ ë§Ī
Ġì§Ģêµ¬ ì´Į
ĠíĦ° ë³´
ĠíĿ¡ ìĤ¬
Ġê±°ëŀĺ ìĿ¼
Ġëĭ¤ê°Ģ ê°Ķ
ê² Ħ
ê²Ģ ìĥī
êµŃíļĮìĿĺ ìĽĲ
ç ī
Ġê°Ī ë¹Ħ
Ġëĸł ëıĮ
ìĺĪìĤ° ìķĪ
Ġìłľ ìĨĮ
íĭ° ë¹Ħ
Ġëıħ ìĦ±
ì°¨ ìĦł
ĠìłĦíķ´ ì§Ħëĭ¤
Ġì¶Ķ ê¸°ê²½
Ġëĭµ íķľ
Ġë°Ģ ê°Ģë£¨
ì°¨ ê·¼
Ġë¸ĶëĿ¼ ëĶĶ
ĠíĦ° ìłĦ
ìļ° íĬ¸
Ġíģ¬ ë¦¬
ìĿ¸ ì²Ļ
ĠëŃĺ ê¹Į
Ġêµ¬ ê°ķ
Ġìŀ¬ ìĹ°
ê¸° ìĥģ
ì»¤ ë¦¬
ë©Ķ ëī´
íĦ´ íĬ¸
Ġì¹ĺë£Į ë¹Ħ
ĠëĲł ê¹ĮìļĶ
Ġì§Ħ ìĪĺ
ìĤ ¶
Ġìĭ¤ë¬´ ìŀĲ
ĠìĦľ ìłģ
ìĿ´ì§Ģ ë¦¬ìķĦ
ĠìłĢ ê±°
ĠìłĢ íĥĦìĨĮ
Ġì»¤ ì§Ħëĭ¤
ĠìĪĺ ëĭ¤
Ġëĵľ ëŁ¼
ëĭ¤ ê±°ëĤĺ
ĠëĳĲêº¼ ìļ´
Ġê´Ģ ìłľ
Ġëª¨ ëįĺ
ëıĦ êµŃ
ĠëįĶ ìļ´
ìĸĳ ëĮĢ
ĠìĹ¬ ê´Ģ
ë³µ íĮĲ
ĠìķĪ ì¹ĺ
Ġìŀ¬ìĤ° ìĦ¸
Ġë¶Ģê°Ģ ê°Ģì¹ĺ
Ġê°ķ ëĭ¹
Ġìĺ¤ ìĽĶ
ëģĦëŁ¬ ìļ´
å ĳ
Ġíī ģ
íħ Ŀ
ĠëįĶ íķ´ìł¸
Ġì´Ŀ ëıĻìĽĲ
Ġëľ ¸
Ġìľł ìĺģ
Ġíı¬ ë¡ľ
ĠìŀĲ êµ¬
W h
Ġ198 4
Ġê²½ ì§Ī
ìĪľ ì²ľ
éĿ ŀ
ĠëĤĻ íķĺìĤ°
ĠìĤ¬ ë¦¬
ìĽĲ ë£Į
Ġíŀ Į
ĠëĦĺìĸ´ ê°Ī
ĠM BA
ĠíĥĪ ìĦ¸
ëĲĺ ê²Į
Ġì°½ ê°Ħ
íķľ ë¯¸
ĠìĿ¼ê°Ħ ì§Ģ
ĠìĤ¬ìĿ´ ëĵľ
íķŃ ëª©
Ġë® ĮíĹ¨
Ġêµ° ìłķ
Ġê°Ĳ ìĦ¸
Ġìĵ° ëĭ¤ëĵ¬
Ġë°Ķ ëŀĲ
Ġëķħ ë³¼
T T
íĬ¸ ëłĪìĿ´
ĠëģĿ ëĥĪ
Ġìĥģ íģ¼
Ġì£¼ ëĲľ
ĠêµŃ íĻĶ
Ġíľ©ìĭ¸ ìĺĢ
Ġì§Ģ íıī
ĠìĹŃìłĦ ìĬ¹
Ġíĥľ ìĹ°
ì§ģ ë¬´
ĠëĮ Ķ
íĶ¼ íģ¬
ĠìĪĺ ëıĻ
ìĺ¤ ëŀĺ
ìĽĮ íĦ°
ìķħ ê¸°
ìĿĮìĭĿ ìłĲ
Ġë§Į ìł¸
Ġìļ´ ìĪĺ
ì²Ń ì£¼
Ġëķħ ê°Ĵ
é Ĭ
ëĿ ¤
Ġ10 6
Ġíļ įìłķ
ĠëĤ¨ëħĢ ëħ¸ìĨĮ
ĠíĨµíĸī ë£Į
ë¬´ íĺķ
Ġë°ľ ëĮĢìĭĿ
ìĬ¤íģ¬ ë¦°
Ġíĺ¹ ëıħ
ëĦ¤ ìĿ´
Ġê²½ë¹Ħ ìĽĲ
Ġë²Ī ë²Ī
Ġíĩ´ íĸī
Ġëħ¸ìĤ¬ ìłķ
ìľĦ ë°ĺ
ìŀ¥ ìĦ±
ë¶Ī íİ¸
Ġê°Ģ ëĬĺ
Ġê°Ģê¹Į ìĬ¤ë¡ľ
Ġë¹Ħ ì¼ľ
Ġë°° ìĸĳ
æµ ·
å Ł
ëħĦ ê¸°
ĠU AE
íĨł ë²¤
ì¤ĳ ëıĦ
Ġì²ĺ íķĺ
ëĭ´ëĭ¹ ìŀĲ
ĠíĥĦ ìĦ±
Ġì¼ĢìĿ´ë¸Ķ ì¹´
ĠR e
ĠìķĻ ìĥģ
ëłĮ íĬ¸
ĠëĤ¨ë¶ģ íķľ
Ġ36 5
Ġìľł ì°©
ĠìĤ¬ìĹħ ì²´
ìĿĺ íĺ¹
Ġêµ¬ë§¤ ìŀĲ
ĠìĬ¤ ë¦¬
ìĬ¤ íĬľëĶĶìĺ¤
Ġë²ł ìĿ¼
ĠìĹī ë§Ŀ
Ġì²ĺ íķ´
Ġëª¨ ì¡°ë¦¬
Ġëħ¸ëıĻ ê³Ħ
Ġê°Ħ ê³¼
ìĤ¬ ìĿ´ëĵľ
ĠìĹĺ ì§Ģ
ê°Ĳ ì°°
ĠëĬĲ ë¦¬
Ġë¹Ħ ìĬ¤
Ġìı Ļ
ë°° ìĪĺ
êº¼ íĴĢ
ĠìĥĲ ëŁ¬ëĵľ
ar e
ëŁ¬ ë¯¸
ê³µ ê°Ĳ
u st
Ġë¶Ħ ìĤ¬
Ġíĺ¸ ê°Ģ
ìĹŃ ëĮĢ
Ġë¹¼ ëĤ´
Ġê±°ì£¼ ì§Ģ
ê¹ ģ
ìľĦ íĥģ
ë§¤ëĭĪ ìłĢ
as s
ĠìĶ¨ ë¦Ħ
ê¹Ģ íı¬
ĠìĦľ ëĤ¨
Ġê»´ ìķĪ
ìĦł ëıĦ
ìĿ´ ìĬ¬
ĠìĦł ìľ¨
ìĬ¤ íİĺìĿ¸
Ġìĭ¤ë¦¬ì½ĺ ë°¸ë¦¬
R C
ĠìķĦìī¬ ìĽł
ç «
ĠíĥĪ íĻĺ
ĠìķĦ ìĬ¬
Ġå ĮĹ
Ġê³¨ ìłĪ
ìĿ´ ë¦Ħ
ĠìĿ´ë£¬ ëĭ¤
ĠìķĦëŀĳ ê³³
ëıĻ ëĤ¨
Ġë³µ ìĤ¬
Ġìĺ¬ëĿ¼ ê°Ħëĭ¤
ĠìķĦ íĨłíĶ¼
ĠìĤ¬ ëĵ¤ìĿ´
Ġë°ĶìĿ´ ìĺ¬ë¦°
Ġ www
ë¯ Ħ
ĠìķĦìĿ´ íĮ¨ëĵľ
Ġê²½ìłľ ìŀĲìľłêµ¬ìĹŃ
Ġì§Ģ íĥ±
ĠíķŃ ìĿ¼
Ġíķł ê¹ĮìļĶ
Ġê°Ģ ëįķ
Ġê´ĳìĤ° êµ¬
ìĤ¬ ë¦½
ĠìķĪ ëª©
n d
ê°Ħ ë¶Ģ
íĸī ìŀ¥
Ġìĭ¬ ë¬¸
ĠìĥģíĻ© ìĭ¤
ì¢ħ ìĽĲ
Ġìŀ¬ ìķĻ
ìĤ°ìĹħ ê°ľë°ľ
ë¯¼ ìĦĿ
Ġíŀĺ ê²¹
ĠìĨĲ ìŀ¡ìĿ´
S W
Ġê·¼ ë¦°
Ġ13 5
ìĭł íĻĶ
ĠëĤ´ ê³µ
Ġìľ¤ìĦĿ ë¯¼
Ġê³ł ìķĦ
ĠìĦ± ê²½
Ġë¶Ī ë¬¸
Ġìŀ¥ë¡ĢìĭĿ ìŀ¥
ĠìĨĲ ë°ľ
ĠëĤ´ ìłĦ
Ġìļ°ë¦¬ ìĿĢíĸī
Ġìľ¤ ìĺģ
ĠíķĺìĹ¬ íĬ¼
ìĪĺ ëĭ¤
Ġíĺ¸ ë°ķ
íıĲ ìĩĦ
ìĿ¸ ìļ©
ë² Ļ
Ġë¯¸ ëł¨
Ġëĭ¤ ì¹ľ
ĠëıĻ ë°©
Ġëĭ¬ëĿ¼ ë¶Ļ
ì¤ĳ ë¶Ģ
ì§ĢëĤľ ëĭ¬
2 50
Ġê³µ ìĦĿ
ĠìĬ¤ ì½Ķ
Ġë¡ľ ì¦Ī
ĠëĶ°ëıĮ ë¦¬
ĠP K
Ġìĺ¤ íģ¬
Ġë² ¡
Ġê¹¨ ìļ°
ë¯ ¿
ĠìĤ¬ ê³ĦìłĪ
ĠìĻ¸ ì¹¨
ĠëıĮ ë¦°
Ġê¸Ī ìĥģ
ì§ĳ ê¶Į
Ġë¶Ģ ì²ľìĭľ
Ġíĥģ êµ¬
ìĸ Ħ
Ġíķĺ ë§Ī
ĠëĤľ ê´Ģ
Ġíķ©ë³ĳ ì¦Ŀ
ĠíĿĶëĵ¤ ë¦¼
Ġìłľìŀĳ ë¹Ħ
Ġíİ Į
ìĪĺ ìĦł
Ġìĭ¬ìĥģ ìłķ
ì£¼ ë§Ĳ
Ġë°© ìłĲ
ĠìķĮ ë¦¼
ĠëĪĦë¦¬ ì§ĳ
Ġë§Ī ìĿ¼ë¦¬ì§Ģ
ëĤ¨ íİ¸
Ġê¸´ ì¶ķ
ìĦľ ëıĦ
ìĬ¤ íĨ¤
Ġê¹Ģ ìĭľ
Ġë©Ī ì¶ĺ
Ġëĵ¤ìĸ´ìĻĢ ìĦľ
ìļ° íļĮ
Ġ12 8
Ġê²° íķµ
Ġë²Ĺ ìĸ´ëĤ¬
Ġìĺ¬ëĿ¼ ê°Ħ
Ġ198 3
ĠìŀĲ ìĪĺ
ĠíĽĹ ëĤł
ĠíĬ¸ëłĮ ëĶĶ
Ġê´ĢìĦ¸ ì²Ń
Ġìŀ¥ ìĦ¸
Ġê°Ģ ëĿ½
ê³µìĹ° ìŀ¥
ì£¼ íķľ
Ġìļ°ìĬ¹ ì»µ
ĠëĤ¨ìĸĳ ì£¼ìĭľ
Ġëª¨ ìħĶ
ëłĪìĿ´ ìĬ¤
Ġë¶Ļìŀ¡ íĺĶ
ê·Ģ ì´Į
íķĳ ìŀ¥
ê±° ë¦¼
ìłľ ìĽĲ
ë³´ ë³µ
Ġìłķ ìļ´
Ġë´Ħ ì²ł
Ġë§ŀ ëĭ¿
ëĭ¤ ê°Ħ
ìľ¼ ìĭ¤
Ġëª¨ ë¦¬
êµ¬ íĺ¸
ĠëĪĪë¶Ģ ìĭł
Ġíķ´ìķ¼ ì§Ģ
Ġê¹Ģíĥľ ê·ł
Ġëĵ¤ íĮĲ
ĠìłĦ ëıĦ
Ġìĭ¬ ìĭł
Ġìĺ¬ëĿ¼ ìĦľ
Ġê°ĳìŀĳ ìĬ¤ëŁ½
ĠëĤĻ ë§Ī
Ġì¦Ĳ ë¹Ħ
ë°Ķ ë¦¬
ĠìĤ¬ ì´Į
.. "
ì¶ķêµ¬ ìĹ°ë§¹
Ġë¯¼ê°Ħ ìĿ¸
ĠíĥĿ íķĺ
Ġì¶Ķ ìĽĶ
ĠìĤ° ì²Ń
ĠìĻ ĵ
ĠìĦ±íĻ© ë¦¬
Ġë¯¸ ìĦ±ëħĦìŀĲ
ìĥģ ìłķ
ĠìĻķ ë¹Ħ
íĶĮ ëŀĢíĬ¸
ĠëĴ¤ ëĶ°ëĿ¼
Ġê·Ģ ìĹ½
Ġëĭ¤ ëŁī
Ġì½Ķ ìķŀ
ìĭ¤ ëł¨
ê³¼ ìŀī
Ġíķĺ ê³Ħ
íķµ ìĭ¬
Ġë§Ī ëĤĺ
ìĿ¼ ê¸°
ë¸Įë¦¬ íķĳ
ĠìĿ¼ ê¶Ī
ĠëĮĢ ìĹŃ
ĠìĽĲ ìŀ¬ë£Į
Ġê²½ ë¥ľ
Ġ10 7
Ġê¸ī ìĨįëıĦ
ê³¨ ëĵł
Ġì Ń
Ġ20 24
Ġì£¼ ì§ĢìĤ¬
Ġë³µ ê¶Į
Ġì¦Ŀ ìĽĲ
ĠìĦĿ ê¶Į
å īį
íķĺ ëĿ¼
ĠìłĦëĿ¼ ë¶ģëıĦ
ìĬ¤ íĥł
Ġë¶Ģ ê²Ģ
ìĿ´ ëĭ¬
ê°Ģ ì§Ĳ
h er
¡ ëĭĪê¹Į
íĪ¬ ìĦ±ìĿ´
ĠíĹĮ ìłķ
ĠíĭĢ ë¦¬
ê±´ ì¡°
Ġë¹Ħ ìļ°
ĠíĹĿ ê°Ģë¦¬
ĠìĻ¸ ë¡Ń
ìķĦë¦¬ ëŀĳ
ê·¸ ë£¨
ĠìĬ¬ íį¼
íĭ ĭ
Ġê°Ģ ëĭ¤ëĵ¬
Ġë¬¸ ìĦ±
ì£¼ ë¬¸
Ġë¶ĢëĶª íŀĪ
Ġìĺ¤ë¥¸ ë°ľ
ìĹŃ ìĭľ
ëħ¼ ë¬¸
ĠíķŃê³µ íİ¸
Ġìĭ¬ íĸĪ
ĠìŀĦ ì°½
Ġ0 2
ì¥ Ķ
ĠíĮĲ ìĨĮë¦¬
Ġì¹ĺ ë¶Ģ
Ġë¹ħ íĨł
Ġê±´ëĦĪ íİ¸
Ġìµľ ì§Ħ
ĠíĻį ëªħ
Ġê°Ģ ìĬµê¸°
ìł¯ ë°¤
ĠëĲĺëıĮ ëł¤
Ġìĵ°ëŁ¬ ì§Ħ
ëĤĺ ë¹Ħ
ĠëłĪ ì§Ģ
ĠëĤłì¹´ ë¡Ń
Ġì£¼ ìĿ¼
ĠíĺĦ ìłĢíŀĪ
Ġëª¸ ìĭ¸ìĽĢ
ê³µ ìĦľ
ĠìĹŃ ëł¥
Ġë¨¸ ëŃĩ
Ġëĭµ ìĤ¬
Ġì²ľ ë¬¸íķĻ
ìļ°ë¦¬ ëĤĺëĿ¼
ëĭ¤ ìĬ¤
ĠíıĲ íķ´
ê³łë¦¬ ì¦ĺ
ĠìŀĩëĶ° ë¥¸
Ġë¯¸ ì¹ľëĭ¤
ìłķ ìĦ±
ëŃ ī
íĻ© ìłľ
ĠíĻĶ ëŀĳ
Ġê´Ģ ëħĲ
ĠìĿ¸ íĶĮëłĪìĿ´ìħĺ
ìĨĲ ê°ĢëĿ½
Ġë¹Ī ëıĦ
ĠìľĦ íķ¨
Ġìĺģ ìľĦ
Ġíķ´ ëĤ´
ĠìĿ´ì²Ń ìļ©
íĹ¬ ë¡ľ
ĠìĿ´ ë²Ķ
ĠìłĦ ëĿ¼ëıĦ
ì´Ī ê¸°
Ġì°¨ê·¼ ì°¨ê·¼
ĠíĭĢ ìĸ´
ëĭ¹ ì´Ī
Ġì°¬ ë¬¼
Ġì§Ħ ìĨĶ
ĠíĤ ¥
ê°± ìĿ´
ëį° ê¸°
Ġì¤Ģ ìļ°ìĬ¹
ì¶Ķ ìĦ¸
ìĤ¬ ì°°
ĠìĬ¤íĭ° ì»¤
ĠìĬ¬ ë¦¼
ĠìĨĮíĻĶ ê¸°
Ġíį¼ íĬ¸
Ġìŀ ¤
Ġì§ĢëĤĺ ê°Ħ
ĠëĨĴ ìĿ¸ëĭ¤
ìľ¼ë©´ ìĿĢ
Ġëĭ Ĳ
Ġìĸ¸ ëįĶ
ê°ľ ìĦ±
ê´ĳ ì£¼ìĭľ
Ġì§Ī ì±ħ
Ġëĭ¤ ë¤ĺ
ëłī íĦ°
ìłķ íĻķ
ìĬ¬ ë¦¬
Ġìŀħ íŀĪ
ĠY G
ĠìķĦëŀį ìĹĲë¯¸ë¦¬íĬ¸
Ġì£¼íĥĿ ê°Ģ
Ġë²Ī ìĭĿ
g e
Ġì§Ģ ì¤ĳ
ìķł ìĿ¸
Ġì£¼ íĺ¸ìĺģ
ë§Ī ë¹Ħ
Ġìŀ¬ëĬ¥ ê¸°ë¶Ģ
ë½ Ģ
Ġì´Ŀ ê²©
ìłĦ ì£¼
Ġê¹Ģ íĺ¸
Ġê³¼ê±° ìĤ¬
ì¹´ ìļ´íĬ¸
ë§Ī ì§Ħ
ĠíĹ¤ ìķĦ
ĠìĬ¤íĬ¸ ë¦¬ë°į
Ġì¿ł ëį°íĥĢ
Ġëĭ¹ ì§ģìŀĲ
Ġë°ķ ë¯¼
ìłķ íĨµ
Ġê°ĸ ì¶ľ
ĠëıĻë¬¼ ìĽĲ
Ġëª¨ ë¦ħëĭĪëĭ¤
n t
ĠìĤ¼ êµŃ
Ġìķķ ë¥ĺ
Ġëħ¹ ìĹ¬
Ġìķ½ ê´Ģ
Ġëĭ´ ë¡ł
Ġëª¨ ê³µ
Ġë¯¸ ë¥´
ĠìłĦ ë¦½
Ġë¾° ì¡±
ĠëĤ¨ íķ´ìķĪ
ìĿĺ ë¥ĺ
ìĽĲ ì£¼
ìłľ ìĸ´
ìľł ëıĦ
Ġìĭ¤ ëł¸
íĺ¹ ìĭľ
Ġìĸĳ ìĸĳ
ì¹¨ ëĮĢ
ìĺ¤ ìħĺ
Ġì¡°ì§ģ ëł¥
ë¿ Ķ
íķľëĭ¤ ë©°
ëĭ¤ íīĪ
% âĨĴ
Ġëĭ¹ ì§ģ
Ġë¡ľìĬ¤ ìķ¤ìł¤ëłĪìĬ¤
ĠìĹĲ ìĦľ
ĠêµĲ íĸ¥
ĠëıĻ ê¸ī
Ġë¡¯ëį° íĺ¸íħĶ
Ġê¶Į ìĺ¤
ìĿĮìķħ íļĮ
ê´Ģ ëŀĮ
ĠíĺĦëĮĢ ê·¸ë£¹
IC E
Ġì§Ģì¼ľ ë³¼
ëĵ¤ ë¦¬
Ġì§ĳì¤ĳ íĺ¸ìļ°
Ġì¤ĳëıĦ ê¸Ī
ìĺģ ëĤ¨
ĠìĪĺ ì¹Ļ
Ġë³´ ëĿ¼
ĠëķĮ ëł¸
Ġêµ¬ ëıĻ
Ġìłĳìĸ´ ëĵł
Ġì§ĵ ë°Ł
Ġì¶Ķ ì¢ħ
ìĺ¤ ë°Ķë§Ī
ĠëıĻ ëĵ±
íİ¸ ì§ĳ
Ġë½Ĳ ëĥĪ
ìŀĲ ìĤ´
Ġë¶Ģëĭ´ ê¸Ī
ìĿ´ ë¯¼
ìĭ¤ ë¬´
ë°ľíĳľ íļĮ
ëŀŃ íģ¬
ĠìĹ¬ ìļ°
ĠìŀĲ ë°±
ĠìķĮ ë§ŀ
Ġëģ¼ ìĸ´ëĵ¤
Ġíĺ¸ ìľĦ
ĠëĴ¤ ì²ĺ
ĠëŃī ì¹ĺ
ĠìłĢ ìĦ±ìŀ¥
ĠìŀĲ ì±ħ
Ġë°° ëĵľë¯¼íĦ´
ìĺ¬ ë¡ľ
ëıĻ íĻĶ
Ġë²Į ëłĪ
Ġìłľ ê°Ī
ë¶Ī ëªħ
Ġëª¸ ìĤ´
Ġì²Ń ë°Ķì§Ģ
Ġë§ŀ ì¶ľ
Ġìŀħ ìķĪ
Ġê²½ ì²Ń
ĠêµŃíļĮ ë²ķ
Ġë°ĶëĿ¼ ë³¼
ì¹ĺ ìķĦ
Ġìĥģ ìĿĳ
Ġ Â
Ġë³´ ëĵľ
Ġíİ´ ëĤ¸
ĠìķĦ ëĤĮ
Ġë°° ê¸ī
ĠëįĶ êµ°ëĭ¤ëĤĺ
Ġì°¸ íĮ¨
Ġê²½ ê°ģ
ĠìĹ¬ ìŃ
Ġë³´ìľł ìŀĲ
ĠìĪĺ ëĩĮ
Ġê¸°ëħĲ ê´Ģ
ĠëĴ· ëª¨ìĬµ
ĠìĽħ ìŀ¥
ĠìĪĺ ìĭ¬
íĻĶ ë©´
íĨµíĻĶ ê¸°ê¸Ī
å »
Ġëľ¨ê±° ìĽł
Ġìĸĳ ë§Ĳ
Ġ11 1
ã Ħ
ë´ ħëĭĪëĭ¤
ì¶© ëıĮ
ĠëĲ ¨
ê³ ¶
ĠêµŃ ìĿµ
200 5
ĠíĬ¹ ë³´
ìĻĢ ìĿ¸
ĠìĽĲ ì¹ĺ
Ġì¹¼ ëĤł
ĠìĺģìĪĺ ì¦Ŀ
ìĦľ ìķ¼
ĠëĳĲ ê°ģ
åħ ¬
ê¸°ë³¸ ë²ķ
ëĤ´ ìŀ¥
ĠìĤ¬ë¬´ ê´Ģ
Ġì²© ë³´
ĠìĿ´ ê¸´
Ġë§Ī íĿĶ
íļĮ ì°¨
Ġê±´ ëĵľë¦¬
ĠìĿ´ ìĤ°ê°Ģì¡±
ĠìĪĺ ë°ĺ
Ġê¸°ëĭ¤ ëł¤ìķ¼
Ġíķĺ íĬ¸
Ġìĺģëĵ± íı¬êµ¬
Ġì§Ħë£Į ë¹Ħ
Ġì´Ī ë¯¸ìĦ¸
êµ¬ ìĿ¸
Ġê°ĦìłĪ íŀĪ
Ġë°ĳ ëıĮ
ëŁ¬ ëĭĪ
ëļ «
Ġìĭłë¬¸ ìĤ¬
ìĭ¤ ëł¥
ì´Ī ë¦¬
Ġì²ľìĹ° ê°ĢìĬ¤
ê¸Ī ì§Ģë²ķ
íķĺ ì²ľ
ê°ķ ìĹ°
ìĸĳ íĺ¸
Ġê³µ ë³´
ê²½ ë¶Ģ
Ġê´ĳëªħ ìĭľ
ë¶Ģ ì²ľ
ëıĻ ìĦ±
Ġì¶Ķ ë°©
ç ķ
Ġê²½ ì§Ģ
Ġíķ© ì°¸
ĠëĮĢ ëŀĢ
Ġëĵľ ëĤĺëĵ¤
Ġ10 9
ĠìĪ± íķľ
Ġê¸° ë°Ģ
Ġê³µ ê¶Įëł¥
ë£ ½
ĠëĨĵ ì³¤
ĠìĹ¬ ìļ´
ĠëĪĦêµ° ì§Ģ
ĠìłĢ ëĦĲ
ĠìĸĳíĺĦ ì¢ħ
ìļ´ëıĻ ê°Ģ
Ġì¶ľìŀħ ë¬¸
Ġì¶ ¥
Ġì»¤ íĬ¼
Ġë°ĿíĺĢ ìķ¼
ë¶ Ĳ
Ġë§¡ ê¸¸
Ġë°¸ ëŁ°ìĬ¤
ë°ĺ ëĸ¼
ĠìĪĺ ê±´
ĠìĦ¼ ìĬ¤
ìķ¤ ëĵľ
Ġìŀ¬ ì·¨ìĹħ
ĠíĻĺ íķľ
Ġëª¨ íħĶ
Ġë¯¸ íķĻ
ëģ ĵ
Ġìĺ¬ë¦¬ ë¸Į
ĠY TN
ê³µ ìĺģ
åľ °
Ġ26 0
Ġëĭ¤ê°Ģ ìĻĢ
ĠìķĪ ìĥģìĪĺ
ë¶Ħ íķł
ĠëĮĢ ê³µ
ĠB B
Ġëĭ´ ë±ĥ
ĠíĦ ´
ìŀĲ ëŀĳ
ĠíĿ¡ ìŀħ
í ľ
ë£Į íĴĪ
Ġëĵ¤ìĸ´ ìĺ¨ëĭ¤
Ġì°¸ ëĭ´
íĪ¬ìŀĲ ì¦Ŀê¶Į
ëĭĪìĬ¤ íĥĦ
ìĤ´ ë¦¬
ĠP ro
Ġì«ĵ ê¸°
Ġíķľëĭ¤ ë©°
ĠíĥĢ ê°ľ
Ġìłľ ìĻķ
ìĥģ êµŃ
ĠìĿ¼ íĦ°
Ġìĩ¼ íģ¬
Ġê²½ ëŁī
íľ´ ëĮĢ
ìºĲ ìĬ¤íĬ¸
Ġê¸ į
Ġê°ĸì¶° ìł¸
æĢ §
ê³¼ ìłĲ
Ġ3 20
ĠO K
ìķĦíĬ¸ íĻĢ
G O
Ġëĭ¤ ë£°
Ġì¶ľ ì²ĺ
Ġìĸĳ ê¶ģ
ĠëĤĻ íĥľ
Ġíı Ħ
ï¼ ŀ
ìĭ¤ ìłľ
Ġë¬´ ë°©
Ġê¸´ë°Ģ íŀĪ
ë¦¬ ì¼Ģ
ë¯¼ ìĥĿ
ĠìĿĺ ê¸°
Ġìĸ´ìĿ´ ìĹĨ
ëı ķ
Ġë°ķ íĺĦ
ë°ĺ ê³ł
íģ¬ ë¦¬
Ġìķł íĭĭ
ĠíķĺìĿ´ ëĿ¼ìĿ´íĬ¸
ĠíķĦ ëĵľ
Ġë§Ĳ ëģĶ
Ġê²© íĻĶ
Ġëĭ´ ë°±
ìķ½ êµŃ
ëļľ ê¸°
Ġê¸°ê°Ħ ìłľ
Ġì°¸ ê´Ģ
ìĬ¤íĬ¸ ë¡ľ
ìĬ¤ íĥľíĶĦ
ë§Ī ìĿ´íģ¬
Ġìĥģ ë¶Ģ
Ġìľ¤ ìĦ±
ĠM D
Ġê·¸ ëłĪ
ĠíıŃ ìĸ¸
éĿ ĳ
ĠìĭłìĥĿ ìķĦ
Ġëª¸ ëĭ´
i b
Ġìŀ¡ ìĬ¤
Ġå īį
ĠëıĦ íĶ¼
Ġê¹Ģìĺģ ìĤ¼
ĠêµĲ ìĿ¸
Ġìłľê°ģ ê°ģ
Ġíİ¸ íŀĪ
ĠK DB
Ġê¸°ëħĲ íĴĪ
ìĭľ ëĦ¤ë§Ī
ìķĪìłĦ ë§Ŀ
ĠìĹ° íķĺ
ĠìĹ´ ëĿ¤
s h
ëª© ê³ł
Ġë°Ķ ìļ°
ìĸĳ ìĤ°
ìķ½ ìĦľ
ĠëŃ ¡ëĭĪê¹Į
Ġëħ¸ ìłĲ
ë¦´ ëĿ¼
ëĦĮ ìĬ¤
ë°Ķ ëĳĳ
ĠìĭŃ ìŀĲ
Ġë§Ī ì§Ģ
Ġíı¬ íĵ°ë¦¬ì¦ĺ
Ġìĭ¤ ë§Īë¦¬
Ġë¶Ģ ëĳĲ
Ġêµ¬ ìķł
ëıĦë¡ľ ê³µìĤ¬
íģ¬ ë¡ľ
ìĦ¼ ìĦľ
Ġë¹Į ë³´ëĵľ
ĠëĶ° ìĬ¤
ĠëıĻìĦ± ìķł
C S
ë¬´íķľ ëıĦìłĦ
ë¿ į
ĠìķĮìķĦ ë³¼
æ ī
Ġìĭ¬ ë¶Ģ
ãİ į
íĹ¬ ê¸°
ĠíıŃ ê²©
Ġíı¬ íģ¬
ĠìĹ°íıī ëıĦ
Ġë°ĿíĺĢ ì§Ħ
Ġìŀ¬ íĺĳìĥģ
e ch
ìĨĮìĿ´ ëĭ¤
Ġê²½ ìłĦì²ł
Ġë°Ķ ëĤĺëĤĺ
Ġìķķ êµ¬
oo d
Ġìĺģ ìĽĶ
Ġë¡¯ëį° ìĽĶëĵľ
ĠìĨĮ íĸī
ìĦľ ìłĦ
ĠìĨĮ ë¦Ħ
ĠëĤ¨ íķĻìĥĿ
ìĪĺ ëª©
Ġë³Ģ ì§Ī
ìĥģ ìŀĳ
ĠìĦľìļ¸ ìĹŃ
Ġíı¬ ìĦĿ
Ġìĭł ë³ĳ
ĠíĮĲ ì´ī
ĠíĻķ ìĹ°íŀĪ
ĠíĨł ë¦¬
ĠëıĦìłĦ ìŀ¥
ĠíĿĲ íĬ¸
ĠíĤ¨ íħįìĬ¤
ë¸Į ìĬ¤
ĠìłĦ ìŀħ
Ġë§¤ ì§ģ
ĠìŀĲ íĸī
ĠìĤ¬ ë²Ķ
Ġì¤ĳ ëŁī
íİ¸ ì§Ģ
Ġìĭł ì´Į
íĦ° ì¹ĺ
ĠëĤĺ ë¦¬
ë²Ħ ëĦĮìĬ¤
ìĭł ë¶Ģ
ĠíķľíĻĶ ê·¸ë£¹
ìĨĮ ëĭĪ
ĠìĽ¨ ìĬ¤íĬ¸
Ġëį° ìĿ¼ë¦¬
ĠìĹĦ ëĳĲ
ê¸ī íŀĪ
ĠìĤ¬ìĿĢ íĴĪ
ìĨĮ ëıħ
ê°ķ íĺ¸
ĠìĦľ ìĺģ
ĠíĺĦ ë¬¼
ĠìĦłê±° ìĿ¸ëĭ¨
Ġë¸Į ëŀĺ
ĠíĮĲê²° ë¬¸
ç ľ
Ġë¹Į ë¦°
ìļ© ìĤ°
Ġì¡´ ìĹĦ
Ġì Ł
Ġìŀ¡ ìĿĮ
ĠNH N
Ġë°ľ ëŀĦ
ĠëĤ´ ë¿ľ
ëĭ¬ ë¦¬
íĶĮëĿ¼ ìŀĲ
ë¶Ģ ì§ĢìĤ¬
Ġìĺ¤ ëĿ¼
ï ½Ķ
Ġëª°ìķĦ ì£¼
Ġê±° ìĭľ
Ġê³¼ë°ĺ ìĪĺ
ìĥģ ë¬´
Ġê¹ ¬
Ġë³´íĹĺ ìĹħ
Ġë¶Ī íıī
E M
ĠëĵĢ ìĸ¼
ìį ¬
ë¹Ķ ë°¥
íķĻ ìĤ¬
Ġíķľ ìĭ¬
Ġë°ķ íķ´
Ġ12 3
ĠìºĲ ìĭľ
Ġìŀ¬ ëŁī
Ġë³´ íĬ¸
ĠìĿ´ íĺľ
Ġê¸° ìģľ
Ġê·¸ëŀĳ íĶĦë¦¬
íĻĶ ìĽĲ
ĠìĪĻ ìĹ¬
Ġê¿Ī íĭĢ
ĠìĿ´ ê³µ
êµĲ ìłķ
Ġìľł íľ´
ëĮĢ ë¶Ģ
ĠìķĦëĭĪ ìļĶ
ëĥīìŀ¥ ê³ł
Ġìĺ¬ëł¤ ëĭ¤ë³´
ìĽ ¬
ĠíĨł ëĭĪ
ë¯¸ìĦ¸ ë¨¼ì§Ģ
ë» ¤
Ġê´Ģ ë¡Ģ
ĠëĳĲ ìĦ¸
ĠìĨį ìĥģ
ìĪĺìĤ¬ ëĮĢ
Ġìľłìŀ¬ ìĦĿ
ĠëĨį ê²½
ìĽĲ ëŀĺ
Ġë³µ ìķĪ
ĠìĬ¹ë¶Ģ ìĪĺ
Ġëļ ±
ĠëĤĺ ëĵ¤ìĿ´
Ġ7 50
ĠíĿ¥ êµŃ
ì¶ĺ ê¸°
ĠëĬĲ ëĭ·
Ġê¸°ìŀ¥ êµ°
Ġë°° ëĤŃ
íĿĲ ë¦Ħ
ë¯¸ íĮħ
ĠëıĦë§Ŀ ê°Ģ
ê·¸ ëħĢ
ĠëĮĢ ìĦ±
ìĸ´ ë³´
Ġë©ľë¡ľ ëĶĶ
ìłĦ ìĨĮ
Ġì± Ķ
Ġìĭł ìķĪ
ĠìĦľ ìĺĪ
ë©Ķ ëĵľ
ĠìĨĮë°© ìĦľ
1 20
ĠìĨĮ ìĨĮ
ì¡° ìĽĲëĮĢ
Ġë¬¼ ê¼¬
ĠíĹĪ ìłĲ
íķľêµŃ ìĿ¸
Ġë§¤ëĭ¬ ë¦¬
ëĮĢêµ¬ ìĭľ
ëįĶ êµ°
ĠíĹ¤ ì³Ĳ
ë¶Ģ ìĭ¤
åį Ĺ
Ġë¯¸ ìĪĻ
Ġìļ° ëĿ¼
Ġíį¼ ìĬ¤íĬ¸
Ġìļ´ìłĦ ê¸°ìĤ¬
Ġë³Ħ ìĦ¸
ĠëĮĢë¦¬ ìĿ¸
ëĭ¤ìĿ´ ìĺ¤ëĵľ
ĠìĤ´ ëł¸
Ġê°ĸ ê°Ģì§Ģ
Ġë¶Ī ë¦´
ĠìĦ¸ìĽĮ ìķ¼
Ġíı¬ ìľĦ
Ġì§Ģ ì§Ī
Ġê²© ëıĮ
Ġê´ĳ ëĮĢ
Ġë¹Ħ ìĽĥ
Ġì§Ģ ì¹ĺ
Ġê³ł ì·¨
ìłķ ìĦľ
ĠìķĦ ìĤ°ìĭľ
ĠìĿ´ ëĭĿ
ìĺ¤ ìłĦ
Ġì¿ µ
Ġìłķ ìĿį
ë³Ħ ë¡ľ
Ġêµ¬ íķľ
ìĦ± ëĮĢ
Ġìłķ íĥľ
ëĶ Ľ
ìĤ¬ ë²Ķ
ëĭ¤ ëĦ¤
ĠìĦľ ëĬĺ
ĠìĽĥ ê¸°
K IA
Ġë³´ ìĬ¤
êµŃ ìĦ¸
Ġëħ¸ ê³ł
ĠG TX
¤ ëŁ°íĬ¸
Ġíķľ ìķ½
ê°ķ íĮĲ
ê±´ ë§Į
Ġë¹ĦíĬ¸ ì½ĶìĿ¸
Ġë°ķ ìĦł
ìĭľì§Ģ ê°Ģ
Ġíķ´ ë°ľ
Ġê¸Ī ëħĦ
ĠëĴ¤ ìĦŀ
P F
ĠëĦĺ ìĸ´ì§Ģ
Ġíķľ ìŀĶ
ĠìĦ± ëıĻ
Ġê²½ìłľ ìĦ±ìŀ¥
ĠíķľêµŃ ëħ¸ì´Ŀ
Ġíķľ ìĹĨìĿ´
ì°¨ íĬ¸
Ġê¸° ìĿ¸
ê²½ ìĹ°
ìĦĿ íĿ¬
íĮĮ ê²¬
Ġë¹Ī ìĨĮ
ĠìĪĺìĭĿ ìĸ´
Ġë°ķ ìĬ¹
ĠìĭľíĿ¥ ìĭľ
ĠëĤ¨ ê¶ģ
ĠíĦ° ì§Ī
ĠìĦ¹ ìĬ¤
Ġê±° ìĬ¤
íķ© ìĦ±
Ġìĭ¸ ìĽł
ĠìĻ¼ ë°ľ
Ġë¬¼ëł¤ ë°Ľ
ĠëĺĲ ëł·
ê²½ íĿ¬
Ġì½Ķ íĮħ
ìĻ¸ ê³ł
ĠíĹĪë¦¬ ì¼ĢìĿ¸
Ġê¸°íļį ìĤ¬
Ġê°Ģìĥģ íĺĦìĭ¤
ì¡°ìĤ¬ ëĭ¨
Ġë³µ ìĪŃìķĦ
íĨµìĭł ë§Ŀ
ìłĦê¸° ì°¨
ĠìĹ° ìĸ´
ëıĻ ì£¼
ìĦ¤ íĦ´íĬ¸
ĠìĦł ìļ°
Ġì²ĺ íĺķ
Ġìŀł ë³µ
Ġê·¸ ì§Ģ
ĠìĿ¸ íĶĮë£¨ìĹĶìŀĲ
Ġì§Ģíľĺ ë´ī
Ġëĭ· ìĥĪ
ìľł ìłķ
ìľ¡ ìķĦ
Ġëĭ¤ê°Ģ ìĺ¬
Ġë§¤ìĪĺ ìĦ¸
ëĭ¤ ëįĺ
ĠìĹ¬ê°Ŀ ê¸°
íĥľ ìĦ¸
ê±° íĴĪ
Ġëķ ¡
ĠíĿ¬ë§Ŀ ìŀĲ
ê º
ĠìĨĮ ê³łê¸°
ĠíļĮìĤ¬ ìĽĲ
êµ¬ ì²´
Ġìķł ë¦¬ì¡°
Ġë¯¼ ë§Ŀ
ĠíıŃ íı¬
Ġê²½ìĺģ ëĤľ
êµ¬ ë¨¼
íĤ¤ ì¦Ī
Ġì¤ĳ ìĥģ
ĠíĮĮ ìĹ´
Ġë²Ħ ë¸Ķ
ê³ł ê°ľ
Ġì¹´ ìŀĲíĿĲìĬ¤íĥĦ
ìķĦ ê¸°
ìķĦ ìļ¸
ĠìĹ° íĸī
Ġë°ľ ìłľ
ëįĶ ê¸°
ì°¾ ìķĦê°Ģ
ëŀ ı
Ġê²½ ë³µ
ĠìķĦ ë¹Ħ
Ġë§Įìŀ¥ ìĿ¼ì¹ĺ
Ġë§Ī ëĪĦ
ĠìŀĲ ëŀĲ
ĠíķĻ ë¹Ħ
ìĹĲ ì½Ķ
Ġë©į íķĺëĭĪ
ìĨĮ ë¬¸
íĨµ ìĪĺ
ë°© ìĤ¬
ê°ľ ì²Ļ
ĠìĤ¼ ê°Ģ
ìļ´ íķĺ
ĠìĦ± íĨł
ĠìķĮ ê³łë¦¬ì¦ĺ
ĠëĶ° ë¥¼
Ġ +
ĠìĹ°ë£Į ìłĦì§Ģ
Ġê°ĳìŀĳ ìĬ¤ëŁ°
ķ ·
ĠìĬµ ê²©
Ġì§Ģ ë¶Ģìŀ¥
Ġìłķ ì¤ĳ
ĠìĤ¼ìĦ± ëıĻ
Ġë¶ĢëĶª ì¹ĺ
Ġì°© ë¥Ļ
ĠìĿ¼ ëª°
ë³ĳ íĹĮ
Ġê³łë§Ī ìļ´
Ġë²Ī ê°ľ
ĠíĽĶ ì¹ĺ
Ġê¹Įëĭ¤ ë¡Ń
Ġíķĺ ëĬĲëĭĺ
Ġë¶ĢëģĦëŁ¬ ìļ´
ëĮĢ ìĦ±
ĠëĮĢ ìĽħ
ĠìĿĢê·¼ íŀĪ
Ġë³´ ëĦĪìĬ¤
Ġì§ģ ê¸ī
ĠìłĦíĻĶ ê¸°
Ġìĭľ ìĬ¹
ìłĢ ê²ĥ
Ġì§ĳ ìļĶ
ë©Ķë¥´ ìĬ¤
R P
Ġíĺķ ëŁī
ĠëıĻ ê·¸
ìĿ¸ íĦ´
e ct
ë§Ī ëĭĪ
Ġê³Ħ ìĹĦ
Ġì´Ī ìĿĮíĮĮ
Ġê²½ê°ģ ìĭ¬
ìĨĮ ìĤ¬
Ġíı¬ ì¦Ī
Ġê±°ëĵŃ ëĤł
ĠëĤ´ ìĦ±
Ġì¹¨ ë²Ķ
ĠìĨ¡ íĻĺ
ĠìĹ´ ìĦ¸
ĠìĿ¸ìĪĺ ìľĦ
Ġë³µ ë¶Ģ
ĠìĦ¸ìĽĮ ì§Ħ
ìĦ± íĺķ
ë¯¼ ìĨį
A M
ê³µíķŃ ê³µìĤ¬
ç ļ
ìĦľ ë¶ĢíĦ°
Ġë¯¸ ì³Ĳ
íģ´ëĿ¼ ìļ°ëĵľ
Ġì¡° ìĿ´
êµ° ìĿ¸
Ġê²½ ìķħ
Ġê³µ ê´Ģ
ĠìĹ°ìĪĺ êµ¬
ë°ĺ ìŀ¥
Ġì±ħìŀĦ ì§Ī
ĠëıĦ ë£¨
Ġë²ķ ê·ľ
ê°Ĳ ìłķìĽĲ
âĸ ·
Ġë¬¼ ëĨĢìĿ´
Ġìĭłíĺ¸ íĥĦ
Ļ ëĭĪëĭ¤
Ġìĺ® ê¸¸
Ġëª¨ ì¹ľ
ê·¸ ìĿ¸
Ġê°Ģ ëľ©ìĿ´ëĤĺ
ìłĦ ìĤ¬
ĠìĦ¸ ë¦¬
ìĬ¹ ìŀ¥êµ¬
Ġì§Ħ ì£¼ìĭľ
ĠìĿ´ ìĬ¤íĥĢ
Ġìľ Ļ
âħ ¡
Ġ19 00
ì·¨ ë¡Ŀ
ìĭľìĦ¤ ë¬¼
Ġë¦ ¼
ê´ĳ ìĸĳ
ìļ° ìľł
Ġë¯¼ìĽĲ ìĿ¸
ë¶Ļ ìĿ´
ë¡ľ ë§Ī
Ġë§¡ ê¸´
ĠíħĮíģ¬ ëħ¸
ìľł ìĹĶ
ĠíķĻêµĲ ìŀ¥
ĠìĽĲ ìĪŃìĿ´
Ġê¹¨ìĸ´ ëĤĺ
ĠêµĲìĦŃ ëĭ¨ì²´
l l
Ġì¼ĢìĿ´ íĭ°
Ġìłģ ìŀĦìŀĲ
Ġëª°ìķĦ ëĦ£
ĠëĶľ ëŁ¬
ëħ¼ ë¦¬
ĠëĮĢ ìĻķ
Ġê±¸ìĸ´ ê°Ķ
ĠíĬ¸ ìľĪ
Ġê·Ģ ì¶Ķ
ë³¼ ëĦ·
ĠìĦ¸ ê°Ħ
íĥľ íĴį
Ġìłķ ìŁģ
ĠU HD
ĠìĽĲ ì£¼ë¯¼
Ġë²Īë²Ī ìĿ´
Ġëª¨ìĹ¬ ìĦľ
ëĤ´ ë¥Ļ
Ġì§ģ ì±ħ
Ġì¿ ¡
ë¶Ħ ëĭ´
Ġê±° ë¯¸
Ġìŀ¥ ìĭł
Ġë²½ ëıĮ
Ġë¶Ħ ìĭ¤
f f
ì¹ µ
Ġìĵ° ìĺĢ
ĠëĳĲ ìĸ´
Ġì¤ĳ íĻĺìŀĲ
ĠìĨĮ ìĤ¬
Ġëŀ Į
Ġìĭł ëªħ
ĠìĩĦ ëıĦ
ĠìĿ¼ íĴĪ
Ġë¹Ħ ì°¸
Ġë¦¬ ì¸ł
ĠëĮĢëªħ ìĤ¬
Ġì§Ģì£¼ ìĤ¬
ëĬ ĳ
å ³
ĠíĮ ľ
Ġìļ° ìĻĢ
Ġìĸĳ ìĨĲ
Ġê°Ģ ì°½
ìķł ëĭĪ
ìĨĮë¹Ħ ìĦ¸
Ġë¶Ī íĥĢ
Ġë¬¼ëŁ¬ ëĤľ
Ġìŀ¬ ê°ĢëıĻ
ëħ¸ ëł¥
Ġë§¤ ê¸°
ĠìķĦ íĤ¤
ëĿ¼ ê³¤
Ġê³µ íıī
ìłģ ìłĪ
ĠìĦľì´Ī ëıĻ
ì¦Ŀëªħ ìĦľ
Ġë© §ëı¼ì§Ģ
Ġì¤ĳìĨĮê¸°ìĹħ ì²Ń
ĠíĺĪ ìĦ¸
ĩ ë¬¼
ĠìŀĶ íĺ¹
ĠëĿ ¤
ê³ł ìķ¼
ĠëĤĻ ìĿ¸
ĠìŀĲ ê°Ģ
ìĦľ ìłĲ
Ġë³µ ëĭ¹
ĠìĹ° ë§¹
Ġë°°ëĭ¹ ê¸Ī
ìŀ¬ ë²Į
Ġì¤ĳ ìŀ¥
ìļ° ë³ĳ
ĠìĽĲ ëıĦ
ê±° ìŀ¥
Ġìłķ íķ´ìł¸
ĠìķĦ ê¹Ŀ
ë³´ ìĺĢ
ĠìĨĲ ì§ĵ
ë³µ ìĽĲ
Ġìĸ¸ ëľ»
Ġ y
Ġê°Ģ íķł
ĠìĿ´ëıĻ íķ´
en ce
ĠíĽĦ ë©´
ĠíĿī íĦ°
ĠëĤĺê°Ħ ëĭ¤ëĬĶ
ë© ¤ë²Ħ
ĠëĤ´ëł¤ ì¡Į
ì°½ ê¸°
Ġë¹Ħ ì£¼ë¥ĺ
Ġëĵ¤ ë¦°ëĭ¤
ĠëĦĺ ëĤĺëĵ¤
ì¶ľ ìŀħ
ĠëĤĺ ìĿ´ì§Ģë¦¬ìķĦ
Ġë¬´ ëĭ¹
Ġê± Ķ
ĠìĿ´ ëį°
Ġë¦¬ ìĺ¤
Ġëĥī ë°©
ìµľ ì¢ħ
ĠíĶĮëŀĺ ê·¸
Ġìľ¡ ìĪĺ
ëħ¼ ìĿĺ
an ce
ĠëıĻíķ´ ìķĪ
Ġíķľ ë¦¼
ë§ ·
çĻ ¼
Ġëħ¸ ëł¸
ìĹ¬ ì¢ħ
Ġëª© ê±¸ìĿ´
ĠëĶ°ëĿ¼ ìĺ¤
Ġë°ĺëĮĢ íİ¸
ĠìĨį íķ´
ĠíĽĦ ìŀĳ
ìĬ¬ ë§ģ
ĠìĹĨ ìķ
ĠëĨĢëĿ¼ ìĽĢ
Ġë§Ī íĭ´
Ġì¶ľ ìĨĮ
ìĤ° ìłĦ
ĠêµĲì°¨ ë¡ľ
ĠìĿ´ë£¨ ìĸ´ì§Ī
Ġìĺ¨ ìłĦ
ĠíĮĲ ë¡Ģ
ĠìĿ´ ìłĲ
ëª¨ ìĸ´
ìĦ± ìĭľ
ê°Ħ íŀĺ
ĠìĤ¬êµĲìľ¡ ë¹Ħ
ĠíĨ ¨
ê³¼ ìĿ´
ê²° ìĹ°
ĠìĦł ëĮĢìľĦ
Ġë°ľ íĺĦ
Ġíŀĺ ê»ı
ìĭł íķŃ
ê±° ë¦Ħ
Ġì§Ħë³´ ìĭł
Ġì£¼ ìŀĦ
ìĺģ ëıĻ
ë¹Ħ ì¦Ī
ìľł ëıĻ
ĠíĿĲ ë¥¸
ĠìĭĿ ìĿ´
íļĮ ìĥĿ
Ġì§Ħ ì²Ļ
íĺ¸ ë¥´ëª¬
ç ¨
ìłĲ íı¬
ìĿ¸íĦ° ë·°
ĠìĦŃ ìĦŃ
íļį ëĭ¨
ĠìĪľ ë¡Ģ
å Ľ
Ġë©´ íļĮ
ĠìľłìĤ° ê·ł
ĠìĽĮíģ¬ ìķĦìĽĥ
ĠêµŃ ê¸°
ĠìĬ¹ ìĦł
ĠëĨĶ ëĳĲ
Ġì½ľëĿ¼ ë³´
Ġëĺ ĺ
Ġìŀ¡ ìķĦëĤ´
Ġìłķìĥģ ê¸ī
ĠíļĮ ë¶Ģ
ë¹ł ë¥¸
Ġì¢ ĩ
ê¸Ī íĺ¸
Ġìķł ëıĦ
Ġ198 1
Ġê³µ êµ¬
Ġë§Ĳ ëł¤
ĠìĦł ëĮĢ
ì§Ī ìĪĺë¡Ŀ
Ġìī¬ ìĽĮ
ĠëıĦë§Ŀ ì¹ĺ
ĠìļĶë¦¬ ìĤ¬
F IFA
Ġë¬¸ íĿ¬
å ½
Ġê¸Ī ìłķ
Ġì£½ ìĿ¼
å¹ ³
å Į
ĠíĿĶ íķĺ
ĠëģĿ ìĹĨìĿ´
ëĨį ìĸ´ì´Į
Ġë§ģ íģ¬
ĠìĪĺ ì²©
ë¹¨ ê°Ħ
ê·¼ ëĮĢ
ĠìĦ¸ ìŀħ
ë¸Ķ ëŀľëĵľ
ĠëĤ´ëł¤ ëĭ¤
ìĻľ ëŀĢ
ë¬´ ìĭľ
ĠíĪ¬ ë³ĳ
ìĿĢ íĺľ
ĠíĴį ê´ĳ
it h
Ġì²¨ ë¶Ģ
ĠíĨµ ì°°
ê± ±ìłķ
ĠëĨį ìĪĺìĤ°ë¬¼
ìĹ° ëĿ½
Ġëıħë¦½ìļ´ëıĻ ê°Ģ
Ġê³µ ìĤ¬ìŀ¥
Ġë°ĺ íı¬
ëĵĿ ìĿ´
Ġìĺģìĸĳ ìĨĮ
íķ´ íĸĪ
ë°ľ êµ´
Ġì¦Ŀê¶Į ê°Ģ
ìĸ´ëł¤ ìļ´
I E
íĹĪ íĹĪ
ĠìĻĦ ë§Į
Ġê°ľìĨĮ ìĭĿ
ìłĢ ê°Ģ
Ġíķ´ ì¤Ģëĭ¤
Ġë³´ìĿ´ ì½§
ĠìĹ´ ìĤ¬
Ġì½Ķ ëģ¼ë¦¬
ëĨį ìĤ¬
ìį °
ë²¼ ëĿ½
ĠìĤ¬ ìļ°ìĬ¤
Ġëıĭë³´ ìĿ¸ëĭ¤
æ ·
Ġìĺģ ìľł
Ġì¡¸ìĹħ ìĭĿ
ê¸° ìķĦ
íĺķ ìĭĿ
ĠK S
ì½Ķ íĶĦ
Ġëħ¸ëŀĢ ìĥī
Ġë²ł íĴĢ
Ġíİĺ ë£¨
ĠìĽ ¨ìĸ´
Ġì°© ì·¨
Ġëľ¬ ëĭ¤
ĠìĿ´ ë³Ģ
ĠíĶĦë¦° íĬ¸
Ġíķľ ë°Ķíĥķ
íķ´ ê²½
Ġìµľ íķĺìľĦ
ĠëĶĶ ì¦ĪëĭĪ
Ġìłķ ì°¨
ĠëĪĪ ê°Ģ
ĠíĽĶ ì¹ľ
Ġì§Ģ ëħĶ
Ġìľł ëĬ¥
Ġì½ľ ëłĪìĬ¤íħĮë¡¤
ĠìĻ¸ ë²½
ë¯ Ģ
Ġ11 3
íĭ¸ ë¦¬íĭ°
Ġìŀħ ê°ģ
Ġíĺ¸ ë°ĺ
íĴį ëł¥
ĠíĽĦ ì§Ģ
Ġë©į ì²Ń
ĠíĨłëĦĪ ë¨¼íĬ¸
ìŀ¥íķĻ ê¸Ī
ĠìķĦëŀĺ ìª½
ĠìłľíĴĪ êµ°
ë µ
Ġê±´ëĦĪ ê°Ģ
ì¡° ìĦ¸
ìĤ° ë©´
ĠìĿ´ ìĹ°
ìļ° ìĤ°
Ġì¶¤ ì¶Ķ
ĠìĬĪ ì¦Ī
ì½Ķ ë¥´
íĸ ĩ
Ġê³µ ê³¼
ĠìĤ¼ìĦ± ìĥĿëªħ
Ġëª¨ìĹ¬ ëĵ¤
Ġìĸ´ íľĺ
ìºĲ ëĤĺëĭ¤
íĻ Ģë¡ľ
ĠêµĲ ëıĦ
Ġíİ¸ ì¤ĳ
ĠìĹħë¬´ ìĥģ
ì²´ ì¡°
ì§Ģ ë¶Ģìŀ¥
Ġëĵľ ëŀĺíĶĦíĬ¸
Ġëª» íķľëĭ¤ë©´
ĠìĪĺ ëħĢ
Ġìĸĳ ì§Ģ
ìłķ ì²´
Ġëĭ¨ êµŃ
Ġë©¸ ì¹ĺ
ĠìĤ¬ ìŀ¬
Ġë°Ģ ëł¸
ĠìŃ Ī
ê²½ íĻĶ
ĠìĪĺ íĥģ
ĠìķĶ íĿĳ
Ġì£Ħ ì±ħ
ĠìĦ±ê³¼ ê¸ī
ĠìķĦë©Ķë¦¬ ì¹¸
ĠìĬ¤íĥĢìĿ¼ ë¦¬ìĭľ
ë¦ ħ
ĠìķĪ ê°Ħíŀĺ
ë¸ĮëĿ¼ ì§Ī
íı¬ ìĭĿ
ĠíĦ° ë¬´ëĭĪ
Ġìłķ ë¯¼
ĠíĥĢê³ł ëĤľ
Ġë¶Ī íĻĶ
ĠìĻ¸ ì£¼
ìļ´ëıĻ ìĹ°íķ©
Ġë¬¸ ë²ķ
P R
Ġë°ľ ëłĮ
ĠìĪł ìŀĲë¦¬
é ķ·
Ġë°ĺ ì¶ľ
Ġì´Ī ìĦĿ
Ġíĺ¸ ì¹Ń
íħĮ ë©´
Ġë²Ħ ê±°
ĠìĤ° ìłģ
Ġìµľê³ł ìľĦ
ĠìĤ¬ ìĪĺ
ĠíĿĶëĵ¤ ëł¸
ê¹ ¡
ĠìĦł ë´ī
ĠíĻ© íĥľ
Ġì²´ ë©´
ëĵľë¦´ ê²ĮìļĶ
åŃ ¸
W HO
Ġë¶Ģ ëħĢ
íĭ° ìĺ¤
Ġíģ¬ ëłĪìĿ¸
ĠëĭĽ ìĤ°
ĠìĤ° ë¶ĢìĿ¸ê³¼
ĠìŀŃ ìĬ¨
ĠâĶ Ģ
ìĿ´ ìĭĿ
Ġíĺĳ ëıĻ
ĠìŀĲ ë¹Ħ
ĠìľĦ ìª½
Ġíķ¸ ëĵ¤
ëĵľ ëłĪìĬ¤
ĠìĻ¸ ê³ł
Ġê³µê³µ ìĭľìĦ¤
ĠìĥģìĦ¸ íŀĪ
ĠëĨĵ ì¹ľ
Ġë²Ļ ì»¤
Ġìłĳ ê²¬
Ġê°Ģ ìĹ´
Ġë¯¼ ìĺģ
Ġëģ¼ ì¹ł
ì´Į ëıĻ
ê°Ģ ìĭľ
ìķł íĭĢ
Ġì¹¼ ìĬĺ
ĠëĮĢíĳľ ìŀĲ
íħĮë§Ī íĮĮíģ¬
ì¦Ŀ ìĦ¸
Ġë¬¼ ìĥī
ĠìĿ´ ëŀľëĵľ
ìĿ¼ ìłľ
Ġìĸ¸ íĸī
ëĭĪ ìĸ¼
ê´Ģ ê°Ŀ
on t
Ġê·¸ëł¤ ì§Ħ
ëłĪ ë¸Ĳ
Ġë¬¼ë¦¬ ì¹ĺ
ĠëĤ´ ëĶĽ
ĠìĻ¸ ë¬´ìĦ±
Ġëª¨ ë°©
ë¬¼ ë¦¬
Ġì²Ń ë¬¸
Ġë§Ī ìħĶ
Ġì´ī ë§¤
ëłĪ ìĬ¤íĬ¸
Ġê°Ģë¡ľ ëĵ±
íĻĶìŀ¥ ìĭ¤
ëĦ¤ ìĿ´ìħĺ
ĠK O
Ġìĺ· ì°¨ë¦¼
ìĪĺ ëıĻ
ĠëłĮ íĦ°ì¹´
ĠìĽĢ ì¸ł
Ġìĸĳíķ´ ê°ģìĦľ
Ġê³¨ ì§ľê¸°
Ġê°Ģìł¸ ê°Ķ
ê· Ħ
íĮĮ ìĿ¸
Ġê°ĢìĤ° ìłĲ
ëĪ Į
ìłĦ ìĽĲ
ĠëĳĲëĵľëŁ¬ ì¡Į
ĠêµŃ ìľł
ĠíĺĪ ëĭ¹
Ġëª¨ íĥľ
ĠìľĦ ìķĶ
ĠíķĦ ìĹ°
Ġìĭł ìłķ
ëª¨íĦ° ìĬ¤
Ġê¶Į ìĺģ
Ġëį§ë¶Ļ ìĹ¬
ë§Ī ì°¨
Ġìľł ëĿ¼
ĠíĬ¸ ëĿ¼ìļ°
íĶĦëĿ¼ìĿ´ ì¦Ī
ìĿ´ ê³Ħ
ĠíĿĲ ëŃĩ
íľ´ ìĹħ
ìĪĺ ìĹĺëĿ¼
Ġ4 500
ë°ķ ìŀĲ
Ġëį°ëł¤ ëĭ¤
Ġì¡° ëł¥
è¦ ª
ìĪĺ ìľĦ
ì§Ģë§Į ìĿĢ
ĠìĪ¨ íĨµ
ĠâĹĭ âĢ¦
Ġìłķ ì¢ħ
ĠìĻ¸ ìļ°
ìĭľ ìłķ
ìĹ° ê²°
ĠC ES
Ġíĺ¼ ëĭ¤
ĠìĭłëħĦ ìĤ¬
ìĹ°ìĬµ ìŀ¥
ĠíĥĦ ìĤ°
ì³Ĳ ìķ¼
Ġê·¸ ë¦½
Ġì¢ħ ë¶ģ
ìĭ¤ë¦¬ ì½ĺ
è ²
ì°½ íĺ¸
Ġê²° ë³Ħ
ĠìłĪ ì¹ľ
ë³´íĺ¸ êµ¬ìĹŃ
ĠëĵĢ ìĺ¤
Ġë§´ ëıĮ
ë²ł íĬ¸
ĠëįĶ ëįĶìļ±
ìĽĲ ì¡°
Ġê²½ ì§ģ
êµĲ ëıĦìĨĮ
ëŀľ ìłĢ
ĠëĵĿíĳľ ìľ¨
ĠíķŃ ë³µ
Ġê¸°ê´Ģ ì§Ģ
è Ļ
Ġë§ µ
Ġíķĺ ìĤ¬
ëħ¼ ëŀĢ
ĠëĬ¥ ìĦł
ĠëĤĺ ëıĮ
ë¶Ģ ëĳĲ
ìĭł ê¸°
ĠëĮĢì¹ĺ ëıĻ
íĥĢ ìŀħ
ìĺ¨ ì²ľ
Ġìĭ¬ íıĲ
Ġë°© ì½ķ
ĠíĮĮìĿ´ ëĤ¸ìħľ
ĠìĪĻ ëł¨
Ġë¹ł ì§Ĳ
ĠíĴĢ ìĸ´ëĤ´
Ġì¡° ìľ¤
ì± Ī
Ġë§Įì¡± ê°Ĳ
u d
ĠëĬĲ ìĬ¨
ĠìĤ¬ íĻľ
Ġì§ Ĭ
ĠìĬ¤ ì»¤íĬ¸
Ġìłķ ìłģ
ĠêµŃë¦½ ëĮĢ
Ġê³µ ìĭł
Ġì»¨ ìħī
ĠëķĮ ë¡ł
T P
Ġìĭľ ìłľíĴĪ
Ġê¸° íĭĢ
ĠëĤľ ë¬´
ĠíķĦ ìĤ¬
Ġì²ľ ìłķ
Ġìŀ¬ ì£¼
ĠìłĪ ëĭ¨
Ġìī ¼
Ġë°© ì¡°
ì£¼ìĿĺ ë³´
ë³µ ìĪĺ
íļĮ ê°Ģ
ëĿ¼ ëħ¸
ĠìĶ¨ íĭ°
ĠìĤ¬ ìĿĺ
F O
ĠìķĦ ê»´
ì²Ń ì¶ĺ
ìĸ´ ë¥´ìĭł
ĠìłĲ íį¼
Ġë°´ ì¿łë²Ħ
ĠìĬ¤íı¬ì¸ł íĨłíĨł
Ġìłķ ì°°
ĠìłĦ ë³´
Ġê±¸ ì¹ĺ
Ġíķĺë²Ħëĵľ ëĮĢ
ĠìĿ´ëģĮ ìĸ´ëĥĪ
ĠìĺĨ êµ¬ë¦¬
å° ı
Ġìĸĺ ê¸´
V C
Ġíį¼ ëłĪìĿ´ëĵľ
Ġìĥ´ íĳ¸
ìĦł ê°Ģ
ë¦¼ ëıĻ
r y
Ġ11 6
ìķĦ ìĿ´ìĬ¤
ĠêµŃ ë³´
Ġíİ¼ì³Ĳ ìł¸
ê¸° ì¢ħ
ĠìĪĺ íĺĳ
Ġê³¨ëĵľ ë§Į
ĠíĮĶ ë¦°
ĠB NK
Ġë¹Ħ ëĪĦ
ĠìĹ° ê³¨
Ġë§Ī ì§Ħ
Ġë¯¸ ìĿ¸
ì§ķ ìĹŃ
ĠíķľêµŃ ê°ĲìłķìĽĲ
íĴĪ ê²©
Ġì²Ń ì¤ĳ
íĨµ íĸī
ìĿ´ ê³³
Ġìļ¸ ì§Ħ
ĠìĺĪ ìļ°
ĠëıĮ ì¶ľ
ìĺ¬ë¡ľ ê¸°
ë°° ëŁ´
ĠíĶ¼ ìĦľ
ì¡° íļĮ
ìĹ° ë§Ĳ
Ġì´¬ìĺģ ìŀ¥
íļĮìĿĺ ìŀ¥
ĠëĤ´ ì§Ħ
Ġ11 7
è ĭ
ëĿ¼ìĿ´ ìĸ´
Ġì£¼ ìĦł
Ġìľł ê³µìŀĲ
íĥĢ ë¡ľ
ìľł ìłģ
ì²Ń íĥģ
ãİ ¿
ìĤ¬ ë¶Ģ
Ġë¹Ħ ìĽĮ
å Ģ
ê·¹ ë³µ
ĠìĤ¬ íĪ¬ë¦¬
Ġì¡´ ìĬ¤
ĠìĬ¤íĬ¸ ëłĪ
ëłĪ ìĸ´
Ġìĸ´ì§Ģ ëŁ½
N O
ĠíķĦ ëĿ¼
ëª¨ ë¹Įë¦¬íĭ°
Ġëª©ê²© ìŀĲ
ĠìķĦìĤ¬ íŀĪ
ĠìĮ Ī
ì²ĺ êµ¬ëĭĪ
Ġê¸° ì¢ħ
Ġëĭ¹ ëıĦ
Ġë¥´ ëĦ¤ìĥģìĬ¤
Ġë§¥ ëıĦ
íħĲ ëį°
en d
ĠìķĦ ëĭ´
ĠëĳĲ ëĵ¤
Ġë¨¹ ìĹ¬
ĠíĻķê³ł íŀĪ
ê²½ ìĥģ
oo k
ĠìĥĿëªħ ì²´
ë¦¬ ëĿ¼ê³ł
íĥĿ ë°°
ëŀĦ ê¹Į
Ġëª¸ ë¶Ģë¦¼
Ġê·¸ëł¤ ì¡Į
ëĤ ¯
ìĦ¤ ìĤ¬
íĮĮ ê³ł
Ġì²ĺ ìŀ¥
ĠìłķëıĻ ìĺģ
Ġíİĺ ìĿ¸íĬ¸
ĠIP O
í Ĳģ
ê³łìĸĳ ìĿ´
ë§ ĳ
Ġëª¨ ëħ¸
ĠìĦł íĽĦë°°
ĠëĤĺ ìķĦì§Ģ
Ġë©´ ìĦ¸
ĠëĶ± íŀĪ
Ġêµ° ìľĦ
íĺĪ ì¦Ŀ
ĠìĬ¤ ì¹ĺ
Ġë¯¸ ìħ¸
ĠíĶ¼ ìĽĮ
Ġìłķ ë¥ĺìŀ¥
Ġì§Ħ íĿĻ
ĠëĤ´ëł¤ ì§Ħ
Ġì§ ¬
ìķĦ ìĬ¬
ì½Ķ ëĭĪ
ĠíĽĦ ë°©
Ġê°ķìĪĺ ëŁī
ìķĦ ë²ł
ĠìĦ±ìĭ¤ íŀĪ
Ġë´ ħ
ĠìĤ¬ ê·¹
Ġì¤Ģ íķĺ
Ġë§¹ ìĦ¸
â Ļ
Ġê¸¸ ëª©
Ġë³´ìĿ¸ ëĭ¤ê³ł
ĠìĿ¸ íķ´ìĦľ
Ġìĵ° ìĿ¸ëĭ¤
ĠìķĮìķĦ ëĵ£
è» Ĭ
ë³´ ëĥĪ
ĠìĦ± ëĮĢ
ë¹ ļ
íĬ¸ ë¥¨
ë²ķ ìłķ
ëĲł ê¹Į
ìĦłê±° ê´Ģë¦¬ìľĦìĽĲíļĮ
Ġëª¨ ëħĢ
ĠìĲ Ĳê¸°
â ĳ
ĠíĻĺê²½ ìĺģíĸ¥íıīê°Ģ
ê²Į ìĿ´
ì°½ ìĿĺ
Ġê´ĳìĸĳ ìĭľ
Ġë§ĪìĿĮ ê°Ģì§Ĳ
ëĮĢ ë¶ģ
Ġìľł êµĲ
Ġê²¨ ë£¨
ë± Ģ
ĠìĤ° ìĤ¬íĥľ
ĠìķĪ ë§Ī
Ġê°Ī ëŀĺ
Ġìŀ¥ ëĤ´
ĠíĹ ·
Ġë²Ħ ê¸Ī
Ġë§Īëķħ íŀĪ
ê³¼ ì²ľ
ì²Ń ìłķ
ìĺ¤ ëŀľ
ĠêµĲíĨµ ë§Ŀ
ĠëĨĴ ìĹ¬ìķ¼
ĠëĹ Ĳ
Ġë¬´ ë§Ī
ìļ© ìŀĲ
ì¦Ŀ ëĮĢ
Ġìıĺ ìķĦ
Ġê¹Ģë¶Ģ ê²¸
íķĺ ëĿ½
Ġê°Ĳ ìĤ°
Ġêµ° ì²Ń
ê¸°ëħĲ ë¬¼
Ġëĭ¤ ìŀĲ
ĠíĤ¤ íĬ¸
Ġ197 8
ìĿĺ ê²°
ìĸ´ ë¥¸
ì»¤ ëĭĪ
Ġ19 30
ĠìłĦ ì°¨
ì¶© ë¶Ħ
Ġìĭľ íĤ¬
íı¬ ê¸°
Ġì±ħ ìŀĲ
ì¡¸ ìĹħ
ãĨį ë¯¸
ĠíŀĪìĸ´ë¡ľ ì¦Ī
ìĭ ¯
ìŀ¥ ë²½
ĠëĪĦ ìĿ´
ëĵ¤ ìĿ¸
ìĪĺ ìŀĲìĽĲ
èĢ ħ
ê³µ ë°©
ĠëĮĢìŀ¥ ìķĶ
Ġï¼ ľ
Ġ12 7
Ġëĭ¬ìķĦ ëĤ¬
ë©Ķ ìĿ´íĬ¸
Ġìłķ ìĦĿ
ì¤Ģ ëĭ¤ê³ł
Ġê³µ íľ´ìĿ¼
Ġë²ķ ë¦¬
ĠêµĲìľ¡ ìŀ¥
V E
Ġëĭ´ ê·¸
íĻķ ìŀ¥
íĻį ì²ł
Ġìĵ¸ ëª¨
ì£¼ ìłľ
Ġì¤Ħ ìĹ¬ìķ¼
Ġë¹Ľ ê¹Ķ
ê¸° ìĿ¸
ĠìĿ¼ ê·¸ëŁ¬
Ġëĵľ ë£¨
ĠìłĪ ë¬ĺ
ê¶¤ ëıĦ
ĠìĭĿ ë³Ħ
ĠìĹ¬ ì§Ħ
Ġê°Ħ ëĭ¤ëĬĶ
ĠëĦ¥ íĥĢìĿ´
å ĥ
Ġì¶ķ ìĤ°ë¬¼
ĠìĹ°ëĿ½ ì²ĺ
ìĿ´ ìķ¼
ë¹Ħ ìŀĲ
ĠíĬ¸ëĿ¼ìļ° ë§Ī
Ġëĸ¨ìĸ´ì§Ħ ëĭ¤ëĬĶ
Ġíı¬ ìĥģê¸Ī
Ġê·¸ ëĿ¼
ìĭ¬ ìĽĲ
ë°Ķ ëĿ¼
Ġìŀ¥ ë§Į
Ġì§ĳ ê²°
Ġì²´ ì¡°
ìĭľ ì±ħ
ĠìłĬ ìĿĮ
ĠíĻĶ ë¶Ħ
ĠìķĦ ìķĦ
Ġì½ľë¡¬ ë¹ĦìķĦ
20 21
íķľíħĮ ìĦľ
ì¡°ìĦł ìĨĮ
ĠíĿĺëŁ¬ ëĤĺìĻĶ
Ġê¹Ģ ê·ľ
ìĽĲ ìłķ
ìĬ¤ ìľĻ
Ġë°© íĮ¨
ĠíĨµíĭĢ ìĸ´
ë¹Ħ ìĸ´
ëĭ¤ ëĭĪê¹Į
ĠA C
ê°Ģ ì§ľ
ê²½ íĸ¥
Ġìĺ¤ ìĨ¡
ãİŀ ,
ĠìĹĲë²Ħ ëŀľëĵľ
ĠíķĺìĿ´ ëĭīìĬ¤
ĠìķĦëĭĮê°Ģ ìļĶ
ìľĦ íģ¬
ĠìĿµ íĺĢ
ê³µíķĻ ë¶Ģ
ì°½ ìĪĺ
ĠìłĦë¦½ ìĦł
Ġê³¤ íĺ¹
ì§Ħ ì§Ħ
ĠìĺĪ ìĺĪ
ĠìŀĲ ë£¨
ĠëĽ° ì³Ĳ
ĠìĻ Ī
ĠìĤ° ë¬¼
ĠìĦľê·Ģ íı¬ìĭľ
ĠìļĶ ìłķ
Ġê³µëª¨ ì£¼
Ġê°Ģ íĸĪ
ìłĪ ëĮĢ
ĠìĬµ ëıĦ
Ġë°© ë§ĿìĿ´
íĭĢ ë¦¬
ĠìĽĶíĻĶ ëĵľëĿ¼ë§Ī
Ġëĸł ëĦĺê¸°
Ġê³łì¶Ķ ìŀ¥
ëĮĢ ëŀĢ
Ġë§Įëĵł ëĭ¤
Ġê²¬ ì¤ĺ
Ġì°° ìĬ¤
ë³´ ê¸ī
íĵ¨ íĮħ
ĠK GC
ĠìĨŁ ìķĦ
Ġê³µ ìĬµ
Ġì¡°ëĭ¬ ì²Ń
ĠëĳĲëĵľëŁ¬ ì§Ģ
ĠìĦľ ìĽĲ
ĠìĻĢ ìĿ¼ëĵľ
ĠíĻį ì²ľ
Ġìļ© ê°Ĳ
ĠíıŃ ì£¼
ĠëĿ¼ìĿ´ ìĸ¸
ĠìĪĺ ê°ľìĽĶ
ìĥģ ìĭĿ
ë¨¹ ìĿ´
Ġ11 8
ĠëĿ¼ ìĺ¤ìĬ¤
Ġë²ł íĨłë²¤
ìłľì²ł ìĨĮ
Ġê°ķ ëĵ±
ĠëıĻ íĺ¸ìĿ¸
Ġë°© íĻ©
ì´ Ľë¶Ī
ì¤ĳêµŃ íķ´
íķł ìķĦë²Ħì§Ģ
ĠëĤ´ ëĨĶ
ĠíķĻ ì°½
íķĻ ìłĲ
ìķ¼êµ¬ ìŀ¥
ĠíĶ¼ë¡ľ ê°Ĳ
ëĭ¤ ê¸°
ĠíĬ¹ ìĤ°ë¬¼
ë³ĳ ìĪĺ
Ġíİ¸ ìĿµ
ĠìĹ° íĿ¬
Ġë§Ī ì¹ł
ë¦¬ìĹĲ ìĿ´íĦ°
ag e
ìłķ ë¬´
ìı ł
ĠìĭĿ ì¤ĳëıħ
ìłĦ íĬ¸
ëĸ¨ìĸ´ ì§Ħ
ëĶ° ë¦¬
Ġì ·
ĠíĮ į
Ġëª¨ë¥¸ ëĭ¤ê³ł
¢ ¨
ê·¹ ë³¸
ĠëĤĻ ìłĲ
ê±´ì¶ķ ë¬¼
Ġìļ° íĮĮ
Ġëªħ ìŀ¥
ë²łìĿ´ ê±°ìĬ¤
ĠëĴ¤ì§ĳ ìĸ´
ĠìĦ± ìĦľ
Ġê°Ī ì¦Ŀ
Ġë¹Ħ ì¶ķ
ĠìłĢ ê²Į
Ġê¹Į ë§Ī
ì§Ģ íĤ´
ì¤ĺ ìļĶ
ì£¼ ìľłìĨĮ
íļ¨ ì§Ħ
Ġ12 2
Ġêµ¬ ìŀ¥
Ġë¬¼ ê°ĪìĿ´
ĠìĤ´íİ´ ë´¤
ĠëıĻëĳĲ ì²ľ
Ġëħ¹ ë¡Ŀ
Ġì¦Ŀ ìĭĿ
íĮĮ ê´´
Ġëĵ¬ ë¿į
Ġê¹Ģìĺģ ëŀĢ
ë¡ľ ìĿ´
ìľ¼ ëĿ¼ëĬĶ
Ġìĸ´ìļ°ëŁ¬ ì§Ģ
Ġë§ī íĺĶ
Ġì»¤ ë¸Į
Ġëħ¸ëıĻ ëł¥
ĠìĿ´ìĦ¸ ëıĮ
ë§Ī ì¹¨
Ġìĸĳ ì£¼ìĭľ
Ġê°ľ êµ¬ë¦¬
ìŀ¬ ê±´ì¶ķ
ĠìĬ¤ë©° ëĵ¤
ëª¨ ìĸĳ
ĠëıĻ ê°ĳ
ìĪ «
ìĭ¤ íĮ¨
ìĤ° ìĨĮ
Ġëĸł ëĤľëĭ¤
ìĪĺ ëł¥
Ġíķĺ íķĺ
o v
íı¬ ë¡ľ
Ġìŀ¡ìķĦ ëĭ¹
Ġìĺ¤ë¥´ ëĤ´ë¦¬
ĠëĤ¸ ëĵľ
Ġë¶Ģ ëŁ½
ĠíĮ¬ ëį°
ĠìĨį ìĹ¬
ĠìĽĲìŀĲ ë¡ľ
ĠìĹ¬ê²¨ ì¡Į
Ġë¶Ģ ìĹ°
or ld
ĠíĮĶëłĪ ìĬ¤íĥĢìĿ¸
Ġê¸°ìĪł ìŀĲ
ï¦ ģ
ĠíĻ© ìļ°
ë³´ì¦Ŀ ê¸°ê¸Ī
äº ĭ
Ġê·¼ ìĭ¬
ĠìŀĲìĤ° ìļ´ìļ©
Ġ14 5
ĠìĤ¬ ì±Ħ
ìłģ ìĦ±
Ġê´Ģ ìĺģ
O O
Ġíļ¡ íı¬
Ġëĭ¤ ìĬ¤ë¦¬
ĠìĤ° ëŀĢ
ëıĦ ìĬ¤
Ġìĭł ìĥģíĴĪ
Ġìľ¼ ëľ¸
Ġìĭľëĭ¬ ëł¸
ìĽĲ ê²½
ê³Ħ ìĤ°
ë¨¸ ìĭł
Ġíĥ ¤ëŁ°íĬ¸
S DS
Ġê³ł ëįķ
ĠëĬĳ ëĮĢ
s p
Ġê¹Ģ ìĸĳ
íĺĪ ë³ĳ
ĠìĹĺë¦¬ ìŀĲ
ì¹ĺ ë§¤
Ġìĭł ë³Ģ
ĠìĿ¼ íĥĪ
ìĥĿ ê³Ħ
ìŀĦ ìĭľ
ì£¼ ê³¡
ëª¨ ëĵľ
ìĺ¬ ëłĪ
ĠK LPGA
Ġëĵ¤ ìĺĢ
ì§Ģ ë§ĪëĬĶ
ĠëĨį ê¸°ê³Ħ
Ġì£¼ ìĽĮ
ĠìĪ² ê¸¸
Ġì£¼ íļ¨
Ġêº¼ ì§Ģ
ĠìĪľ íķŃ
íĹ Ĳ
ĠëıĮ ë¦´
ĠìĭľíĹĺ ìŀ¥
Ġë¸ĶëŀĻ ë°ķìĬ¤
Ġê±°ì¹¨ ìĹĨìĿ´
Ġëĭ¨ ìĸ¸
Ġëĥ Ħ
Ġíıī íĮĲ
ĠëĴ¤ ìł¸
ë¯¸ ìļ°ë¦¬
Ġë°© ì¦Ŀ
Ġì¹´ìļ´ íĦ°
ìľ¼ ëĿ¼
ĠëłĪìĿ´ ìĭ±
ĠëıĦ ê¹¨ë¹Ħ
Ġê·¼ë¬´ ìŀĲ
Ġë³¸ ì²Ń
ĠëĤĺëŃĩ ê°Ģì§Ģ
Ġëĭ¨ íķ©
ĠëįĶ íķľëĭ¤
Ġìķŀëĭ¹ ê¸°
e ar
Ġê´ Ħ
ĠìĪĺëĩĮ ë¶Ģ
ê·¸ ë¨¸ëĭĪ
Ġë§Į ì£¼
Ġì¤ĳ ìłĦ
ë¶Ģ ìłľ
ê¸° ì¦Ŀ
Ġìĸ½ íĺĢ
Ġìĸ Į
Ġìĸĳ ìĤ°ìĭľ
ĠìĭĿ ìĪĺ
ëĥ ĦìĥĪ
ĠìĪĺ ë¬¸
ĠëĪĦ ì¶ľ
ĠíĭĢ ëł¸
êµĲ ëıĻ
Ġì°¸ ì¹ĺ
Ġëĭ¹ ê·¼
ĠíķŃ ìĥĿìłľ
ĠëıĦë¡ľ ê³µìĤ¬
ë¦¬ íĦ°
ëıĻ ìĦľ
Ġë°Ģ ìĸ´
Ġì°¾ìķĦ ëĭ¤ëĭĪ
ĠìĦ¸ìĿ´ ë¸Į
Ġíĸī ìĦ±
ĠìĨĲíķ´ ë°°ìĥģ
Ġíİľ ìħĺ
Ġê¼Ń ëĮĢê¸°
Ġìĸĳ ì²ľêµ¬
Ġíĩ´ ìĤ¬
Ġë¯¸ ìĪĺ
ĠìĬ¹ ìĬ¹ìŀ¥êµ¬
ĠíıŃ ìĦ¤
Ġë¹Ī ìŀĲë¦¬
Ġ14 4
ê°ģ íĻĶ
Ġìĭľ ìĭľ
ìĦ¸ ìľ¨
ĠìĽĥ ëıĪ
æ³ ķ
ĠìłĦ ìĿ¸
Ġì§ķìĹŃ íĺķ
ìĹĪ ìŀĸ
ĠìĥĮëĵľ ìľĦì¹ĺ
or k
Ġìķħ ìĦ±
ĠíĮĮ ë³ĳ
Ġëĵ¤ ëłĢ
Ġë°± ëĳĲìĤ°
ĠìĭĿ ìļ©
Ġìŀĩ ëª¸
ì§Ī ë³ĳ
ĠêµŃìłľ íĨµíĻĶê¸°ê¸Ī
ê²½ ê³ł
Ġì½¤ íĶĮëłīìĬ¤
ëĮĢ ë¶Ģë¶Ħ
íİ¸ ìĭĿ
Ġë¶Ħëĭ´ ê¸Ī
W C
Ġì§Ģ íģ¬
Ġë³Ħ ìŀ¥
Ġì²ł ê·¼
E FA
âĹĭ âĹĭ
ĠëĲĺ ë¬¼
Ġìĸ´ëĸ¤ ê°Ģ
ĠÂ ±
ìĤ¬ ìĻĢ
Ġë¶Ħ ìŀĲ
Ġìľł ìĭľë¯¼
ĠìĨ¡ìłĦ íĥĳ
Ġë§ĪìĬ¤íĦ° ìĬ¤
D R
íĺĦ ì£¼
P B
ëª Ħ
ì¦Ŀ ê±°
ëĵ± ë¶Ģ
Ġì£¼ ì¤ĳ
ìŀĲ ìĦ¸
ĠìĦ¸ ìķĪ
íĻĶ ê°Ģ
ĠëłĪ ìłĦëĵľ
Ġëĭ¤ê°Ģ ìĦľ
ëłĪ ë§Ī
Ġìŀ¥ ë¡ľ
Ġë§ī ë¡ł
Ġìĸ´ëķĮ ìļĶ
Ġëķ ľ
íķĺ ì²Ń
ì£¼ ìłĲ
Ġê¹Ģìĺģ ì²ł
Ġì§Ģ ë¶Ģ
ìĨĮ ìĥĿ
ë°Ķ êµ¬ëĭĪ
ìłĦ íĪ¬
Ġëĭ¤ ëª©
ê³¼ ìŀĲ
Ġêµ¬ ë¡Ģ
ì¿ł ìĬ¤
íĺĦ ê¸Ī
ĠìķĶ ê¸°
Ġìŀ¥ ë¶Ģ
ìŀĲìĤ° ê´Ģë¦¬
ĠìĪĺ íį¼
ìŀĲ ë¶Ģ
Ġìŀ¬ ìĿ¼
ĠíĨµ íķľëĭ¤
ë²ł ë¦¬ìķĦ
Ġìĺ¤ ìĦ¸
n g
ĠìĹ° ìĬ¹
Ġì¡°ê±´ ë¶Ģ
ìĦĿ íļĮìĿĺ
Ġê³ł ìĺ¨
ëĭ¨ ìĭĿ
íĮĮ ëĿ¼
Ġê²Įìĭľ ë¬¼
ĠíĹĪ íĥĪ
Ġëĵ¤ ìľ¼ë©´ìĦľ
ĠìĦľ ìĬ´
ĠìĥĿì¡´ ìŀĲ
a f
Ġìĸ´ ë²Ħ
ĠìĦł ìĿĺ
Ġìķŀ ëĤł
Ġë¬´ ìĬ¬ë¦¼
ĠíĮĲ ëĭ¤
Ġê²½ê¸°ëıĦ ì§ĢìĤ¬
ĠìĹŃ ìĬµ
ĠìļĶ ê°Ģ
ĠíĿĶ ëĵľ
ĠíĿĲ ëĬĲ
Ġìĺ¥ ìħĺ
Ġëŀ ĳ
ëĳĺ ê¸°
ĠíļĮ ê¸°
Ġë²ķ ëĮĢ
ìłģ ìļ©
Ġë°± ëĳĲ
ìºĲíĶ¼ íĦ¸
R E
è ¿
Ġë³Ģ íĻĺ
ĠìĿĺ ëħ¼
Ġë²Ħëł¤ ì§Ħ
Ġê¸°ìļ¸ ìĹ¬ìķ¼
ì°¨ ëĭ¨
ĠíĶ¼ ì¸ł
Ġ12 4
Ġì¡° ìķ½
êµĲ íĸ¥
ëŁ¬ ìĭľ
Ġê¿° ëļ«
Ġê¾ ¹
ìĭľ ìĤ¬
ìĻ Ī
Ġì¢Į ìĻĦ
ĠW TO
% Â·
ëĭ¤ íĪ¼
Ġê¸° ìłķ
ìĤ¬ íĤ¤
Ġê°ľ ìĪĺ
Ġëĳ¬ ìķ¼
Ġíĺ¸ ì¶ľ
Ġìłķê¸° ìĺĪê¸Ī
Ġê½ģ ê½ģ
ê±° ìĿĺ
10 1
Ġìķ½ ì§Ħ
ìĤ¬ìĿ´ ìĸ¸ìĬ¤
Ġìłķ ë³ĳ
ìĬ¤íĥĢ ëĶĶìĽĢ
1 19
ì§Ħ íķĻ
ĠëĦĺ ëĤĺëĵľ
Ġë§Ī ëħĢ
Ġìķħ ìĿĺ
Ġìłķëª½ ì¤Ģ
K O
ĠêµĲ ë¬ĺ
ë¶Ģ ëĭ¹
ĠëĶ° ëĤ¸
ìĿ´íĥĪ ë¦¬ìķĦ
ëĮ ķ
ĠK EB
ĠìĿ´ ìĨĮ
Ġë°Ģ ë¦°
ĠìķĦ ë¶Ģ
Ġë¦¬ ë³¸
ĠëĲĺìĥĪ ê¸°
Ġë·Ķ íİĺ
Ġëħ¸ ë¦°ëĭ¤
ĠìķĮëłī ìĤ°
Ġê³ł ëĭ¨
Ġìĭ¤ ë¡ľ
Ġíķĺ íĶĦ
ĠìĿ¸ ì§Ī
ĠìĥĿ ìĤ¬
ĠíĮ¨ ëĶ©
ê±° ë¦°ëĭ¤
ê°Ģ ìŀħìŀĲ
Ġìľł ëŀĮ
ĠìĬ¤íħĮ ìĿ´íģ¬
ìĦ± ëª¨
ĠìĹ´ ì¤ĳ
íĥĲ ë°©
Ġëĳ¥ ê·¼
ì¤ĳ ë¦½
íĮĮ ìłĦ
íĺľ ìĽĲ
ĠìĺĪ ìĸ¸
ĠëĤ¨ ëıĻêµ¬
Ġë²Ħ íĭ¸
ĠìĹ¬ íĥĢ
ê¸° ìĥĿ
ĠëĶĶ ìĬ¤
ĠC U
ĠìĹ°êµ¬ ìĭ¤
ĠíĻĪ ì¦Ī
Ġê·¸ë¦¼ ì±ħ
íĪ Ń
ĠìĿ´ ë¬¸
ìĪĺ ëªħ
Ġìłľì£¼ íķŃê³µ
Ġìļ° ëĵľ
ĠëĨĢ ëŀĦ
Ġê¹ĢìĦ± íĥľ
íĮ© íĨłë¦¬
Ġë²Ķ ì£¼
ë§¤ ì§ģ
ĠìĤ¼ íĤ¤
Ġë¦¬ ë·°
ì§ĢëıĦ ë¶Ģ
ìĥģíĻ© ìĭ¤
Ġíķľ íĮĲ
Ġë°ķ ìĿĢ
Ġìķ¼ ë§Ī
ìĿ¼ ê³±
Ġìĭł íķŃ
ìĨĮ ìħľ
ìĭł ìĤ¬
ìķĦ ë¨¹
Ġíĺ¸ ìĬ¤
ìĺ¤ ë¯¸
Ġìłģ ì¤ĳ
ĠíĮĲë§¤ ìŀĲ
ê³µ êµ°
Ġì¡° ê´ĳ
ĠíĹ¤ ëĶ©
ìĭĿ ìŀ¥
Ġë°ĺ íķĺ
ìĥĪ ëģ¼
ĠëĵľëŁ¬ ëĤł
ĠìĿ´ìĬ¤íĥĢ íķŃê³µ
Ġìķ ¨ë¦¬
íĶĦ íĦ°
ìĿ´ ë²¤íĬ¸
ĠëĦ¤ íĬ¸
ëĬĲ ëĿ¼ê³ł
ĠìĿ´ë¥¼ íħĮë©´
Ġìĭ¬ ëıĦ
Ġì²´ ë¶Ī
ëĮĢ ë°ķ
Ġë¹ļ ìĸ´ì§Ģ
ê°ķ ëıĦ
ëĤ© ëĭĪëĭ¤
ì¶© ìĽĲ
Ġê²¬ ì§Ģ
Ġê¸° ëıĻ
ëĵľ ë°±
ë°Ķ ëħ¼
ìĹ¬ ë³´
Ġëıĭë³´ ìĺĢ
ìĹŃ ìłĦ
Ġê±¸ ê¹ĮìļĶ
Ġëħ¸ìĽĲ êµ¬
Ġêµ¬ íĥľ
ëĪĦ ë¥´
Ġë¬´ê¶ģ íĻĶ
Ġìłķ íķł
ĠìĹĳ ìĨĮ
ĠíĮ¨ëŁ¬ ëĶĶ
Ġíĺķ ë²ķ
Ġê³¤ëĳĲ ìĦ¸ìļ°
ìĪĺ ë¹Ħ
ĠìķĦ ë°ĺëĸ¼
Ġë¹Ľ ëĤ¬
Ġì±Ļ ê¸¸
è «
ë´ī ìĤ°
F I
Ġë°ķ íŀĮ
ĠìľłìĦ± êµ¬
Ġìŀ¡ìķĦ ë¨¹
Ġì§Ħ ìľĦ
ĠíĽĪ ìŀ¥
ìłĦ ê¸°ê¸Ī
Ġ5 50
Ġì¹´ ë¥¼
Ġëŀ Ģ
Ġìĺ¤ ê°Ķ
ê±° ì£¼
íķľ ë¥ĺ
ĠìĦ¤ ëĤł
Ġë³¸ ë³´
ìĤ¬ìĹħ ìĨĮ
ĠìłĦ ìĹħ
Ġê°ľ ìĹħ
Ġë£¨ ë¨¸
Ġëĭ¤ ì¼Ģ
ĠëĤ´ ë¯¼
ĠëĤĺ ìĺµëĭĪëĭ¤
Ġìłľ ë°ĺ
ĠíĮĲ ìĦ¸
ìľł ë¬¼
Ġê¸°ìŀĲ ìŀ¬
Ġë§¤íĬ¸ ë¦¬ìĬ¤
ĠëĤĺ ìĬ¤
Ġë°ĺ íķŃ
Ġìķ½ ìĤ¬
ì¶© ê²©
ĠìĥĿëªħ ëł¥
Ġë¯¸ ëĶĶ
Ġìĸ´ì©Ĳ ì§Ģ
Ġì£Ħì±ħ ê°Ĳ
ĠìķĪ ë³ĳ
ëŀĢ ëıĦ
ĠìĹ°ì£¼ íļĮ
Ġê¹Ģíĥľ íĺ¸
Ġìĸ´ ì²ĺêµ¬ëĭĪ
íĭ¸ ë¦¬ì¼Ģ
Ġê¶Į íĸĪ
Ġíľĺ ì²Ń
ë°Ķ ëĢ
Ġê³ł êµ°
ĠìĽĮ ì»¤
Ġì§Ģíľĺ ê´Ģ
ãİį /
Ġê°ĳ ëĭĪëĭ¤
Ġê·¹ ëıĻ
ĠìĿ Ĭ
ìłģ ìĭŃìŀĲ
ĠìĦľ ëŀį
Ġë§Į ë¥ĺ
ĠíĬ¹ ëª©ê³ł
Ġëį°ìĿ´íĦ° ë²łìĿ´ìĬ¤
ĠíĹĪ êµ¬
ĠíĨł ë§ī
ëĤĻ ëıĻê°ķ
ĠìĪĺ íķĺ
ì¤Ģ íĺģ
ĠìłĪ ì¶©
Ġì¹´ íĬ¸
Ġìıł ë¦¼
ĠìŀĲë§¤ ê²°ìĹ°
ĠíĥĲ íĹĺ
ĠìĿ¼ì°į ìĿ´
Ġê°Ģ ì¶ľ
ìĿ´ ìĦ±
Ġë³¼ ë³´
Ġêµ¬ ìĽĶ
ìĶ ½
ĠëĪĦ ìĪĺ
Ġë°© ì²Ń
ĠìĦ± íĻĶ
Ġê°ģ ê¸ī
ĠíĹ· ê°Ī
è ı
Ġëª¸ íĨµ
Ġìĸ´ ìł¯ë°¤
éĬ Ģ
ê°Ģ íĨ¨ë¦Ń
íķĻìĥĿ íļĮ
ĠìĦ¸ ë²ķ
ìĭł ëĭ¤ë©´
Ġíıī ìķĪ
ëķĮ ë¡ľ
Ġì¡°ìĦł ëĮĢ
íĶ¼ íĬ¸
íı¬ íĭ°
ĠêµĲ ëĭ¨
ł ë¦¬
ĠíĻľ ì£¼ë¡ľ
ç ¶
ĠìĿ¸ ì¡°
Ġìĭł ì£¼
ë¶Ģ ìĭľìŀ¥
ĠêµĲ ëŀĢ
ĠëĿĦ ìĽĮ
ëıĦ ëĮĢì²´
Ġìķ¼ ìĬ¤
Ġê¸°ë»Ĳ íķĺ
ĠìĿ´ ë°©
ìĬ¹ ì¤Ģ
ë¸Įë¡ľëĵľ ë°´ëĵľ
Ġë°ĳ ê±°ë¦Ħ
Ġë°ĺ êµ°
ĠíĬ¹ ëĭ¨
ĠìĭłëıĻ ë¹Ī
Ġì¹ľ ë°Ģ
ĠëĿ¼ìĬ¤ ë²łìĿ´ê±°ìĬ¤
ë¦¬ ëĿ¼ëĬĶ
T H
Ġë¶Ħ íĻį
Ġê´ Į
ĠìĪĺëª© ëĵľëĿ¼ë§Ī
Ġë¹Ħ ìĪĺê¸°
ĠëıĮìķĦ ìĺ¨ëĭ¤
Ġêµ¬ ë¥´
Ġëĭ¤ ì¹´
Ġë°ĽìķĦëĵ¤ ìĿ¸
C h
Ġíı¬ íļį
Ġë´Ĳ ëĿ¼
ëłĪ ìĺ¤
Ġìŀł ìŀł
Ġëĭ¹ ê²¨
ìĺģ ë¯¼
Ġê¸° íķ´
ìĥĿ ì¡´
Ġì´Ī ì¤ĳ
Ġë¹¨ê°Ħ ìĥī
Ġìĥī ê°Ĳ
Ġìĺģ ëıĦ
ì¿ł ë¥´íĬ¸
ê´Ģê´ĳ ì§Ģ
íĸī ìłķë¶Ģ
Ġë°Ģ ëıĦ
ĠìĤ¬ ì²´
Ġì»¤ ë¦¬ìĸ´
íĥľ íĿ¬
ħ ìĿ´
Ġê¹Ģ ë°¥
Ġì°į íŀĮ
Ġêº¾ ìĿ´
Ġìļ° ëĳĲ
Ġë¯¸ëŀĺ íĺķ
ìŀ¥ëł¤ ê¸Ī
íĸĪ ìĸ´ìķ¼
Ġíļ¨ ìĨĮ
íĥ Ń
Ġê°Ħ ë³ĳ
Ġ6 50
Ġë¶Ģ ìĽĲìŀ¥
Ġìłķ ì¤Ģ
Ġë¹łìł¸ ëĵ¤
ëĮ Ī
ĠíĸĦ ë²Ħê±°
Ġ197 3
Ġ ~
ĠìłĦ íķł
Ġëı Ķ
Ġë°Ľ ì³Ĳ
ëłģ íģ¬
ĠíĬ¸ ë¦¼
ĠëĦĵ íĺĶ
íĻķ ì§Ħ
Ġê¸°ëħĲ ìĿ¼
Ġìĺ¥ ì²ľ
ìĿ¸ íĶĮë£¨ìĹĶìŀĲ
ĠìĨĲ ìķĦ
Ġê¹¨ ë¬¼
ê²½ìłķ ìĺĪìĤ°
ĠìĿ´ ì¶ĺ
Ġìµľ ë¯¼
Ġê°Ĳ ëŁī
ì£¼ ì°¨
Ġë°± ìļ´
ĠìŀĲ ë§ī
Ġì²Ļ ê²°
ìŀ¥ ìĿ¸
Ġì¡°ìĦł ìĿ¸
Ġì²Ń ê²°
ìĪĺ ë¦½
Ġ12 6
Ġë³´ìĹ¬ ìķ¼
ĠíĥĢ ìłĲ
ìĹ° ìķł
Ġíıī ìĺ¨
ì¶Ķ ê²½
' )
ìĦľ ì´Ī
Ġì²´ ìĿ¸ì§Ģ
ë°Ķ íĥĢ
ĠíĬ¸ ëŁ¬ë¸Ķ
Ġë²ķ ì¹ĺ
ìµľ ìĨĮ
ĠíĻ© ê¸īíŀĪ
ìĿ´ ìłł
Ġìĥģ ì¾Į
Ġê°Ĳ ê¸Ī
Ġë´ī íķ©
ì¯ Ķ
ì¤ĳ ì²ĺ
íĥľ ê²½
ĠëĬĺ ëł¤ìķ¼
Ġëĭ¤ëĭĪ ìĹĺ
Ġë¯¸ëĦ¤ ëŀĦ
ìĵ¸ ìĿ´
ĠìĿ´ íĨłë¡Ŀ
íĬľ ìĸ´
Ġê°Ģìł¸ ìĻĢ
I M
ëĵ±ë¡Ŀ ê¸Ī
Ġìĸ¼ íķı
ëĤł ë¡ľê·¸
Ġë½ĳ ìķĦëĤ´
Ġìļ¸ íĬ¸ëĿ¼
ìĿ¼ ìĥģ
Ġì§ĳ ìķ½
ìĿ´ ëħĲ
Ġê±° ë¬¼
ĠëĤ´ë¦¬ ë§ī
Ġìį ¬
Ġëŀĺ íį¼
ĠìĿ´ ë£©
ìĿ¸ íĺķ
ĠíĨµ íĴį
Ġêµ¬ ëªħ
ĠB C
ĠëĮĢìĥģ ì§Ģ
ĠJ Y
Ġì£¼ ìĬ¤
Ġìĭ±íģ¬ íĥ±íģ¬
ĠíĮĢ ìĽĲ
ĠìĪ Ł
Ġíĺ¹ìĭľ ëĤĺ
Ġëį° ìĬ¤
Ġíİĺ íĬ¸
ĠìĨ¡ ëħĦ
Ġê¸° íĿ¥
Ġì¤ĳ ìłĢê°Ģ
ĠìĿ¼ ë¦¬
15 00
ĠìĤ° ìĿĢ
Ġíĸ¥ íķ´ìĦľ
ĠíıĲ ìĪĺ
Ġìĭľíĸī ì°©ìĺ¤
ĠìŀĦì§Ħ ìĻľëŀĢ
ìķ¼ ê¶Į
ĠìĤ¼ìĦ± ì¹´ëĵľ
ĠìľĦ ìķ½
ĠìĤ° ìĪĺ
ĠìĹ° íļĮ
Ġì¤Ģ ìĦ¤
N E
Ġì¹ĺëŁ¬ ìķ¼
S OC
Ġë¶Ħ íĨµ
ëª¨ ìŀĲ
Ġì¢ħ ìĭł
ëĪ ħ
Ġì²Ļ íķĺ
ëĪĪ ë¬¼
ìĬ¬ ê¸°
Ġëģĵ ìĿ´
ê°Ģ ëŀĮ
Ġë°Ľ ëĵ¤
å ĸ
Ġì§Ħ ì²ľ
Ġê²° ìĹ°
ì»¬ ëŁ¬
Ġë§¥ ìĬ¤
Ġìļ° ë£¨
ĠíĶ¼ ì¹Ń
Ġë©Ķë¥´ ì¼Ī
ĠíĽĦìĽĲ ìŀĲ
Ġê³ł ë°°
ĠíĥĢ ì§Ħ
ì¸¡ ìłķ
ĠìĥĿê²¨ ëĤ¬
Ġë§¤ ìĤ¬
Ġì²« ë°ľ
ä¸ į
Ġíı¬ ì¼ĵ
ĠëĮĢíĳľ ìŀĳ
OT RA
Ġëįĺ ì§Ī
ĠìĨĲìŀ¡ ê³ł
ìºł íİĺìĿ¸
Ġì¢ħ ìĸĳ
Ġë°ĺ ìĹ´
ĠìĽĲ ë³¸
íĺľ ìĺģ
Ġíģ´ëłĮ ì§ķ
Ġë¹Ħ ë¬´ìŀ¥
Ġìľ¡ ë¥ĺ
íģĺ ëŁ¼
Ġë§Ī ìĺ¤
Ġë©Ģë¦¬ ìĦľ
ĠìĭĿ ê¸°
Ġë°ľíĳľ íļĮ
ë¦¬ ë²Ħ
ĠìĿĺê²° ê¶Į
ìĿ¸ ì²ľìĭľ
íļĮ ì°¬
ĠìŀĲ ê°Ī
ĠìķĮ ìķĦëĵ¤
ëłĲ ëĿ¼
ĠìĤ¬ê³ł ëł¥
ëĿ¼ êµ¬ìļĶ
ĠìĻĦ ìĪĺ
ĠìĤ°ìĹħ ì²´
ê°Ģ ëĤ´
Ġê°Ģ ëĳĲ
Ġíıī íĸĪ
ĠíĪ¬ìŀĲ ì²ĺ
ë°Ķ ìĺ¤
Ġê¾¸ ëªĦ
Ġê³µ íĹĪ
ĠìĬ¤íħĮ ìĿ¸
Ġëĭ¥ ì¹ĺ
Ġë°ĿíĺĢ ëĤ´
ìĪĺ ì§Ħ
Ġë°ķ ìĦĿ
ĠìļĶ ì§Ģ
ìłĪ ëĭ¨
ĠìłĦíĻĺ ìłĲ
Ġì£¼ë¬´ ê´Ģ
ĠìĿĺ ìĦĿ
Ġë¬´ ê³ł
ìłł íħĮìĿ´ìħĺ
ĠìĦ±ìŀ¥ ê¸°
ìķĦìĿ´ íı°
íĥľ ìļ©
Ġê³µê²© ëł¥
ĠìłķíĻķ ëıĦ
Ġë¬¸ ìĸĳ
ĠëĨĵ ìĿ´
ĠíĺĦ íĮĲ
ĠëģĬ ê¸°
ëĥ ħ
Ġë¹łìł¸ ëĤĺê°Ķ
ë¡ľ íĶĦ
ĠìĿ´ ëŀ¬
ìĦł ìłĦ
ĠìĽĲ íķľëĭ¤
ìĽĲ ìĤ¬
Ġë°ķ íĺĢ
Ġíķ´ ìłģ
ĠíħĲëį° ìļĶ
Ġêµ¬ëıĦ ìĭ¬
ìĿĺ ëĮĢ
ĠìĿ´ëį° ìĺ¬ë¡ľê¸°
ëĮĢ ë³¸
Ġíĥľ ìķĦ
ëĤ´ ê³¼
ĠìĻ¸ íĪ¬
Ġìĭ¬ë¦¬ íķĻ
ĠëĳĲ ê·¼
Ġìĭ± ìĭ±
ëħ¼ ìĪł
Ġëª¨íĦ° ìĩ¼
ĠìĿ¸ ì¤Ģ
ìłķ ìĦ¸
ë©° ìĭľ
Ġìŀħ ê¹Ģ
ĠO S
ĠìĨĮë¹Ħ ëŁī
æ° ĳ
Ġê°ķ ìĦľ
ìĬ¹ ìĽĲ
Ġìĵ° ìĿ¼
M R
ĠìłĦìŀĦ ìŀĲ
ĠìĪĺ íĻĶê¸°
Ġìľ¤ ê¸°
or m
200 4
ìĹ¬ ìĦ¯
ĠìĤ¬ ëĭ¹
ĠìĻĶ ìľ¼ë©°
ìĦ¸ ë¸Ĳ
Ġ197 5
ë¦¬ ì§Ģ
ĠìŀĳìĹħ ìĭ¤
ĠìĦł íļĮ
ĠìĹŃ ìĤ¼
Ġìĺ¨ ê¸°
ê°Ģ ê³Ħ
ìľł ìĦ¸
Ġì°½ìĹħ ì£¼
ì»¤ë®¤ëĭĪ ì¼ĢìĿ´ìħĺ
íĳľ ì§Ģ
ĠìĬ¤ìľĦ ì¹ĺ
ĠìĹĺ íĶĦ
ĠëĤ´ ìĭľê²½
Ġê°ĳ ìĥģìĦł
ìĹ¬ ì§Ħ
ê°Ģ ëĭĪìĬ¤íĥĦ
Ġë¬´ ë¥´
Ġì°¨ìĿ´ ìłĲ
ĠíĨµìĭł ë¹Ħ
Ġê²½ ìĦ±
ĠìĹĦê²© íŀĪ
Ġë²¼ ìĬ¬
Ġìĭľ íĻĶ
ĠíĮ½ ì°½
Ġì£¼ êµĲ
æĽ ¸
Ġë¶Ħ ê¶Į
Ġë¬¼ ìĶ¬
Ġê³ł ë¡ľ
Ġìłķ ëª¨
ê°ľ íĹĮ
íĻĺ ìĬ¹
ĠìŀĲìĿ´ìĸ¸ ì¸ł
ìĽĲ ë¦¬
Ġì°½ ë°±
Ġì¶ķêµ¬ ìŀ¥
ëį© ìĸ´ë¦¬
Ġìĭ¤ ìĻ¸
Ġìŀ¬ íĺ¼
L TE
c c
ê°Ģ ëĵł
Ġê³Ħìķ½ ì§ģ
Ġìŀ¥ ìĺģ
Ġê±° ëĬĲë¦¬
ìĽ¨ ìĿ´íĬ¸
ĠìĤ¬ëĿ¼ ì§Ħëĭ¤
Ġ st
ë¶Ħ íĪ¬
ëĤĺ ìģľ
Ġê²½ ìĿĺ
ĠìķĪ íĭ°
ìĿ¼ ëłĪë¸Ĳ
Ġì¡° ê°ľ
Ġê°Ħ ëĭ¤ê³ł
Ġëª°ìķĦ ì¹ĺ
Ġìĸ´ ëĶľ
Ġì¢ħ ì¡±
ĠëĤĻ ìĹ½
Ġë§Į ëĳĲ
ĠMB N
ìĦ¸ ë¯¸ëĤĺ
ĠìĨĲ ëħĢ
Ġíķ© ì°½ëĭ¨
ìĮ Į
ĠìĮĢ ìĮĢ
ìĿĢ ì»¤ëħķ
ĠìĤ¬ ì¹ĺ
ëĬĶ êµ°
ĠìļĶ ì½Ķ
Ġ12 1
ê³ĦìĹ´ ìĤ¬
Ġíĥľ íıī
ìŀĲ ë£¨
Ġì§Ī ëŁ¬
Ġëĸ¨ ì³Ĳ
ĠíĴĪ ìľĦ
Ġë¶Ħ íĸ¥ìĨĮ
ê³Ħ ìĨį
ìķĦ íĻī
ê¹ ħ
ìłĢ ì§Ģ
ìĦľìļ¸ ì²ŃìĤ¬
Ġìŀ¥ ëĮĢ
Ġì§ģ íĸī
ĠìĪĺ ëłĪ
Ġìłķ ì·¨
Ġëķ Ħ
ë²Ħ ë¦°ëĭ¤
ĠíĶĮ ë¡ľ
ĠìķĦíĶĦ ê°Ħ
Ġë°¤ ëĤ®
Ġê°ľìµľ ì§Ģ
íĬľ ë²Ħ
Ġë¶Ģ íĿ¥
ê·¸ëŀĺ ìļĶ
ëĮĢ ìķĪ
Ġ13 2
Ġ24 00
Ġê¸°ìļ¸ ìĿ¼
ìĹ¬ ìĻķ
ĠìĦ± íģ¼
Ġì½© ì¿łë¥´
Ġì¹ľ ìĦł
Ġëĥī ìłĦ
Ġêµ½ íŀĪ
Ġíķĺ ëĭ¨
ëĤĺ ìĬ¤
Ġìłķ ìĿ¸
ĠìĹ´ ëĮĢ
ë°° íĦ°ë¦¬
ĠìĦ¼ íħĢ
ê°Ģ ë¥´
Ġê°ľ ìĹ°
Ġê°ķìĿĺ ìĭ¤
Ġê°ķ íĮĲ
ëıĻ ìĸĳ
ĠêµĲ ëĳĲ
Ġìľłìłģ ì§Ģ
ĠT he
ìģ ł
ìĦ¸ ìĽł
ìĭ¤ ìĤ¬
Ġëĵ¤ìĸ´ ëıĦ
V ID
ìķĦ ìĦ¸ìķĪ
Ġë¬¸ ì±ħ
ìĦł ë°°
ĠíĮ ¥
ê¶Į íķľ
Ġê°Ĵ ì§Ħ
Ġìĥģ ìĹ¬ê¸Ī
ë²ķ ì¡°
ĠìĦľ íı¬íĦ°
ĠìĤ¬ëªħ ê°Ĳ
ĠëĤ¨ ëĭ¤ë¥´
ĠíĭĪ íĭĪ
Ġì°Įíĳ¸ ë¦¬
Ġê²Ģ ìĹ´
Ġëľ¨ê±° ìĽĮ
ìĤ¬ ìĺ¥
ëħ¸ ìľĦ
ĠìĬ¤íĨłë¦¬ íħĶë§ģ
Ġêµ° ì¤ĳ
ĠëłĪ ëª¬
Ġìĥģ ì²´
ĠëĿ¼ ìļ´ì§Ģ
è¡ Į
Ġíĺ¸ ìĿĺ
Ġë¶Ī ë¶Ħëªħ
Ġëĸ¡ ë³¶ìĿ´
ĠíĪ¬ ìĭł
Ġ >
ĠëĤ© ìĦ¸ìŀĲ
Ġëĭ¬ëł¤ ìĻĶ
Ġìłķë¶Ģ ìĦľìļ¸ì²ŃìĤ¬
Ġì´Ŀëł¥ ìłĦ
ĠìĥĿ ëıĻ
íľ´ ê²Į
ìĿĺ ì§Ģ
ĠëłĪ ë¯¸
Ġë¹ĦìĦľ ìĭ¤
Ġê°Ģê²© ëĮĢ
Ġì¶©ìĭ¤ íķĺ
ç¾ ©
Ġë°ľ ì§Ŀ
ìĺĪìĪł ìĿ¸
Ġìĥģ ê²½
ìĭľ ë¸Į
Ġìĸ´ì§Ģ ëŁ¬
Ġìĸĳ íĤ¤ìĬ¤
ĠìĦ± ê¸ī
Ġê°Ī ëĮĢ
íĮĮ ìĬ¤
Ġëª° ëĿ¼ìĦľ
q u
ĠìĿ¼ ëłī
íĤ¨ ëĭ¤
ĠìĪ ¯
ĠìŀĶ ìĨĮë¦¬
Ġìŀ¬ ì¡°ëªħ
ìĦľ ì§Ħ
ĠëĤ´ ë¦°ëĭ¤
ĠìĤ¬ ëĭ¤ë¦¬
ëĶ¤ ëıĮ
íķĺ ë¡ľ
ĠìĽĲ íķľëĭ¤ë©´
Ġë¹¼ ìĸ´ëĤľ
ĠíĶĦë¦° íĦ°
ê³µ ìĿµ
Ġì²ľ íĺľ
íħĮ ëĤĺ
ĠìĿĢíĸī ìŀ¥
Ġêµ³ íŀĪ
Ġìĺµ íĭ°ë¨¸ìĬ¤
ĠìķĮìķĦ ëĤ´
ìĬ¤íĥĢíĬ¸ ìĹħ
Ġìľł ê³¨
ìĨ¡ ëıĦ
Ġìĺ¤ë¦¬ìĺ¨ ìĬ¤
ĠëĤĺ ë¬¼
Ġìµľ ë¬¸
ë°ĺ ë¶Ģ
Ġêµ´ ìļķ
Ġê¹ľ ë¹¡
Ġë²łëĦ¤ ìĪĺìĹĺëĿ¼
ĠëįĶ íķľ
ĠìĻĦ ì£¼êµ°
ê³ł ìŀ¥
Ġê±° ë²ĦëĦĮìĬ¤
Ġê³ł ëĩĮ
Ġë¯¸ ì§Ģ
¹ êµ´
ĠìķĮë¦¬ ë°Ķë°Ķ
é Ń
Ġì²´ íĺķ
ëłĮ ìĬ¤
Ġíŀĺ ì°¬
° ë¦¬ìĬ¤
Ġì°¾ìķĦ ê°Ħ
ë¬¸ ìĤ¬
Ġì¢ħ ë¶Ģ
ìĦľ ìļ´
Ġìµľ ê²½ì£¼
at er
Ġë¯¼ê°Ħ ëĭ¨ì²´
ë¥´ ë°Ķ
ĠìļĶ ëŁ°
Ġë³´ íķ©
ìºł íķĳ
ëª¨ ë¡ľ
ìľĦ ì£¼
ë¶ ī
ĠìĦ¸ê³Ħ ê´Ģ
Ġë³µ ë¦¬
Ġì§Ģ íıĲ
ĠìķĦìĿ´ ìľł
Ġëĭ¬ ë¦´
e v
Ġë¹Ħ ë£Į
ìłķíĨµ ë¶Ģ
Ġìŀ¬ ê¸°
Ġìľ¤ íĿ¬
ìŀ¥ ìĭ¤
Ġë§¤ íĻĶ
Ġì²łíķĻ ìŀĲ
Ġìŀħ ëĭ´
íķ© ëĭĪê¹Į
ìłĦ íĸĪ
Ġìļ´ìłĦ ìĦĿ
íĴį ê²½
Ġì¡°ì§ģ ìĽĲ
ìĦ± ìĿ¸
ĠëıĻ ì²ľ
Ġê±° ì§Ģ
Ġëĵ¤ ëģĵ
ë§¤ ë¬¼
Ġë¡ľ ì»¬
Ġì¤ĳìĸ¼ ê±°ë¦¬
Ġê°ģë³Ħ íŀĪ
ìĮ Ī
Ġê°ķìĽĲ ëŀľëĵľ
ĠìĻĦë²½ íŀĪ
æ Ĺ
ĠìĹĦ ìĦł
ëª© ìĥģ
Ġë°© ì¤ĳ
Ġíģ ¼
ìłķìĿĺ ëĭ¹
Ġë°ľ ìŀĲ
ĠìĭĿ ìĬµê´Ģ
ĠíĮĮìĿ´ ëĦĲ
ĠìĽĲ ìĥģ
ê³ł íĸ¥
ìĭ¤ íĺĦ
ëĨį ëıĦ
íĿ¥ ì²Ń
Ġëª©ìļķ íĥķ
Ġê³ł ì¡¸
Ġíį¼ íĮħ
ê³¡ íŀĪ
äº ¬
Ġë¬ĺ ì§Ģ
íĺ¸ ìĬ¤
Ġìĸ´ íļį
ation al
Ġíķĺ ê¸´
Ġì§Ģ ëĤ¼
Ġë¬´ ëª¨
ĠëĤ¨ ê·¹
ĠíĨłë¡ł íĨł
ìĭ¬ìĿĺ ìľĦ
Ġì°¾ìķĦ ëĥĪ
Ġëį° ëĭĺ
ĠìĻĦ ìĬ¹
ĠëĭŃ ê³łê¸°
ĠëĤ¨ ë°ľ
Ġìĺ¤ ì£½
Ġë§ŀìĿ´ íķ´
ìĤ¬ ë©´
ìļ° ë¨¼
ĠìĹ¬ ì£¼ìĿ¸ê³µ
Ġê¹ĢìĪĺ íĺĦ
ĠìłĦìĽĶ ìĦ¸
ëĭ¤ ëĵľ
ĠëĶ°ëĿ¼ ë¶Ļ
ìĪĺ ìĦ±
ĠìĤ¬ëĵ¤ ìĿ¸
ëĤ¨ ë§¤
ĠS PC
ê·¸ ëĮĢ
Ġê¹Ģ ì²ł
Ġê²½ëĤ¨ ìĿĢíĸī
Ġëģ¼ ì¹ľ
æŃ £
ìĭľ íĿ¥
ê±° ì§ĵ
Ġë°ķ íķľ
Ġì§ģ ê´Ģ
Ġìłķ ìĺģ
Ġìµľ íĥľìĽĲ
íĶĮ ëŁ¬
ĠìĤ° ê³¨
ĠëĤĺíĥĢ ëĤ¸
ĠëģĪ ëģĪ
Ġë³´ ìŀī
Ġì»¤ë¦¬ íģĺëŁ¼
Ġê°Ĳ ë¦¬
Ġì¶ľ ëłģ
ĠìłĦìŀĲ ì±ħ
ë°Ģ ì°©
Ġìłģë¦½ ê¸Ī
íĮĮ ëĭĪ
ë¦¬ ì¸ł
ë¶Ħ ìŀĲ
ìĨĶ ì§ģ
ĠìĬ¤ íĦ°
Ġë°ķ ëıĻ
Ġê³µìłķ ìĦ±
ĠìĪĺìĭŃ ë§Į
Ġë¬¼ ê¸°
Ġë¶Ģíıī êµ¬
Ġíķ´ ëĥĪ
é £
ëħ¹ ì§Ģ
Ġìĸĳ êµ¬
Ġì±ħìŀĦ ìł¸ìķ¼
ĠìŀĲê¸Ī ëĤľ
ĠìĭłìĿ¸ ìĻķ
Ġìĭľ ì¦Ī
ĠíĮĮ íĥĦ
ìķĦ ìłĢìĶ¨
ê°ķ ê²½
ĠëįĶëŁ¬ ìļ´
ì§ķ ìļ©
Ġìĸ´ ë£¨
ìŀĲì¹ĺ ë¶Ģ
ëĿ¼ ëĵľ
Ġë¬´ìĦľ ìĽĮ
ëĤł ë¦¬
ë§¤ ëħĦ
ìĽĲ ìľł
ĠìŀĲ íĻľ
ĠâĢ »
Ġíķ´ ìĤ°ë¬¼
Ġìĭľ ì°¨
Ġìļ° ìĬµ
Ġê³łëĵ± ìĸ´
ìĿ´ ìĬ¹
Ġìľłëªħ ìĦ¸
Ġìº¡ ìĬĲ
ĠìĤ¬ ì¶ĺê¸°
Ġê³łìļ© ë¶Ģ
ĠíĮĿ ìĹħ
Ġíŀĺ ê²¨ìļ´
Ġê°Ģ ì²ĺë¶Ħ
ĠìĦľê·Ģ íı¬
ĠìķĪ ë¶Ģ
Ġë§¤ íĺ¹
Ġíĸ¥ ìľł
ĠìĤ¬ëĵ¤ ìĺĢ
Ġì°½ íĶ¼
íĪ¬ ëį°ìĿ´
ĠìīĲ ë³´ëłĪ
ĠíĴĢ ë¦°
Ġê´´ ë¦¬
ç ©
ĠìĤ¬ ëıĦ
Ġë°° ê´Ģ
ê³ł ë¡ľ
Ġë¶Ģ ëĶĶ
ĠíĮ¨ìħĺ ìĩ¼
ĠëĤ´ ìŀ¬
Ġë§Ī ëĿ¼
Ġíģ¬ ë£¨
Ġê¹ Ĳ
ĠíļĮìĿĺ ë¡Ŀ
ĠìłĦê´ĳ íĮĲ
Ġê´ĳ ë¬¼
ĠìĿ´ê²ĥ ìłĢê²ĥ
ĠíķĺìĿ´íĬ¸ ì§Ħë¡ľ
Ġê°Ħ ìĤ¬ìĿ¸
Ġìĸ´ëł¤ ìĦľ
ìĹ İ
Ġì«Ħ ê¹ĥ
ĠìŀĲ ìĿĺ
Ġì±Ħ ìļ¸
Ġìĺ¤ ê±°
ĠD S
Ġìµľíĺķ ìļ°
ĠìķĦìĬ¬ ìķĦìĬ¬
Ġêµ¬ ìĭ¬
ĠìĪĺ ì¤į
êµŃë¯¼ ì¹´ëĵľ
íİĻ íĬ¸
ê³¼ ìĿ¼
Ġìĭľ íĮĲ
ìļ´ ìĪĺ
Ġë¶Ī ìļ°
ĠìĿ´ ìļ°
Ġì¯ ¤
Ġê²½ ìĿ´
ĠìĽĲë¦¬ ê¸Ī
ê²Į ëįĶ
Ġë¯¸ ìķ½
ĠìĹ¬ ê°Ħ
ì¡°ìĦł ìĿ¼ë³´
ìĹ¬ ëįŁ
ĠìĹ° ë¦½
Ġë°©ìľĦ ë¹Ħ
íĥľìĸĳ ê´ĳ
ĠìĤ¬ íĥķ
ìĿ´ ê¸°
ìŀ¥ ëĤľ
ìłľ ê³¼
Ġìķ¡ íĭ°ë¸Į
Ġ197 4
ê¸°ê´Ģ ìŀ¥
ìĪĺ ìĬµ
Ġìłķ íĺ¸
Ġë§Į ìĹ°
Ġëª¨ ìħ¨
ê°ķ ëł¥
ê¸ī ìĪĺ
ĠíĥĲ ìļķ
ê¹Ģ ìĦ±
Ġë¦½ ìĬ¤íĭ±
ì¤ĳ ìļĶ
ĠìĨĮ ëŁī
ĠëĹ Ħ
ĠëĭĪ ì¼Ī
Ġë¯¸ìĪł íĴĪ
ìŀ¥ ëıĦ
íĦ° ìĬ¤
ì°¸ ê°Ģ
ìĺ¤ ë§ĪìĿ´
ì°½ ìĹħìŀĲ
ĠìĤ° ëľ»
ì¶ľ ìĦĿ
Ġê°ģ íķĺ
ĠìĿ´ìļ© ë£Į
ê³µ íĮĲ
ìļ° ì¹ĺ
ĠìĿ´ë³ĳ íĹĮ
ì¶§ ê°Ģë£¨
Ġì¡° ê¸ī
Ġêµ¬ ì¶ľ
ĠíĥĦ ìĭĿ
ĠìĨĮ ëł¹
Ġê´Ģ ê³µìĦľ
ìłķë¶Ģ íĮ¨
ĠëıĻ ë¬´
ĠíıŃ íĮĮ
Ġìŀł ëĵł
ëĵľ ë¡ł
ĠìĨ¡ ìłķ
U AE
ë¬´ íļ¨
Ġìµľ íĿ¬
Ġíľ´ ì§ģ
H A
Ġê±° ëıĻ
Ġë¬´ ìłľíķľ
Ġìŀ¥ íķĻìĥĿ
Ġêµ¬ê¸ī ì°¨
ê± ·
ĠëĬĲê»´ ì§Ī
ĠC T
Ġë¬¼ ìĸ´ìķ¼
æ° £
Ġëħ¼ ìĤ°
Ġê³ģ ëĵ¤ìĹ¬
ĠíĺĦëĮĢ ê±´ìĦ¤
ĠíĿĲ ë¦¬
ĠìĬ¤ íİĺìĿ´ìĬ¤
Ġê³µê³ł íŀĪ
ĠìĪĺ êµĲ
Ġë¯¸ ìķ¼
ĠìĦ± ë¶ģêµ¬
Ġë¶Ī ìĭĿ
Ġìłķ íĮĮ
Ġìĸ ķ
ĠìĿ¼ ë¥ĺ
ĠëĬĲ ë¦°
Ġìĭ« ìĸ´
ĠìĹ° íĮ¨
Ġì²ĺ ìłĪ
ì§Ģ íĺĦ
ìĺĪìłķ ìŀĲ
Ġê±° ì²ĺ
ĠìĺĪ ë¦¬
Ġì¹´ ëĶĶ
Ġë¹łì§Ĳ ìĹĨìĿ´
ìŀ¬ ë¯¸
ĠìĺĪìĺĪ ìĺĪ
ĠìĨĮë¦¬ ì¹ĺ
ĠQ R
ëĤ ļ
Ġìļ° ì¸¡
Ġìĸ Ħ
ĠìĽĲ íķľ
ëŀľ ìĦľ
Ġë¬´ë¦ ħ
ĠëĬĲëĭ· ìĹĨìĿ´
ĠëıĦ ìļ°
ĠìĨĮìľł ì£¼
Ġë°ľ ë°ľ
ìĤ¬ ìĸĳ
Ġìĭ¤ ìĥĿíĻľ
Ġë°ķ ë³´
ĠíĮ Ł
ĠìķĪëĤ´ ë¬¸
E V
ĠìŀĲ ìľĦ
Ġì´Ŀ ì¶ľëıĻ
ĠìĽĲ ìĸ´ë¯¼
ĠëĶĶ ë°ĶìĿ´ìĬ¤
ĠëĮĢíķĻ ê°Ģ
ì° ¼
Ġìłľ ëĭĪ
íļį ê´Ģ
ĠìĿ´ë¯¼ ìŀĲ
ìĬ¤ íĮĮ
Ġì¶ľê³ł ê°Ģ
ëĦĪ íĿ¬
ĠíĨµìĭł ë§Ŀ
ĠëģĮìĸ´ìĺ¬ ë¦´
íĶĮëŀĺ ìĭľ
Ġì£¼ ìľł
Ġëĭ¹ íĹĮ
Ġë°Ľ ìķĦ
Ġê°Ĳ ìķ¡
ĠíĻ© ìłķ
Ġìµľ ì²¨ëĭ¨
ë£¨ ìĿ´ìĬ¤
Ġì¶Ķê°Ģ ê²½ìłķìĺĪìĤ°
ëŁ¬ ê¸°
Ġë°ľëĿ¼ ëĵľ
Ġìŀĳ ë³Ħ
Ġìķł ì°©
ìĿĦ ê±°ë¦¬
ĠíĬ¸ ëłģíģ¬
Ġëª¨ êµĲ
ê¸°ìĹħ ìĿ¸
ìĹĲ ë²Ħ
ìłľ íĳľ
ë¬´ ìĦł
Ġìłľìŀĳ ìŀĲ
ìĥģ ìĥģ
ĠìĦ¸ ìŀĲ
Ġì·¨ ìĪĺ
ĠíĬ¸ ëłĪìĿ¼
y st
ìĹ¬ ì¤ĳ
ì¡° ë¦¼
Ġëĵľ ë¦½ëĭĪëĭ¤
Ġì´Ī ì°½ê¸°
Ġë¨¸ ìĭł
ëıĦ ë°ķ
Ġìķł ê¸°
ĠíıĲ ìĤ¬
ĠD GB
ë°ľ íĸī
Ġì²ł ê´ĳìĦĿ
ĠìĤ´ê·ł ìłľ
Ġìłķë¡Ģ íļĮ
ìľ¼ ëĥĲ
ìķĦë©Ķë¦¬ ì¹´
Ġì²´ ê²©
Ġìľł ìĭ¤
êµ° ëĭ¨
ĠìĤ¬ ìĬ´
ĠP O
Ġì»¤íĶ¼ ìĪį
ëĤĺìĿ´ ëĭ¤
ìłķ êµŃ
Ġë²ł ê°ľ
Ġì¤ĳìķĻ ìĿ¼ë³´
ìĹ ¿
ìĿĺ ìłķë¶Ģ
ëł¤ ëĭĪ
ë¦¬ íį¼
Ġíıī íĺķ
ëĤł ëĵľ
ì¤į ëĭĪëĭ¤
å Ĥ
ĠíĬ¸ ëŀľìĬ¤
Ġìĭľ ìĭĿ
Ġë°© ìĭ¬
ĠìĨĲ ìĿµ
Ġë¶ĢëĶª íĺĢ
ĠìĿ¸ ìŀĲ
Ġë°Ģ íıĲ
ĠëĳĲíĦ° ìļ´
íķĺíķĺ íķĺ
Ġíķ© íķĺ
ë¥´ ëħ¸
Ġë¬¸ ëĭ¨
ĠP F
ìķĪ ê²½
ìĹ° ìŀ¬
ìĿĮ ìĦ±
Ġê¸°ëħĲ ìĤ¬ìĹħ
ëįĶ ìĬ¨
ëĤĺ ëŀĺ
ëĮĢ íı¬
ìĺ¤ ì¼ĢìĬ¤íĬ¸ëĿ¼
Ġê°Ī ë§Ŀ
ê³Ħíļį ìķĪ
ĠìĹĩê°Ī ëł¸
Ġê³łìľĦ ì§ģ
Ġì´Ī ëĭ¹
íıĲ ë¬¼
é ł
Ġìłķ ìļ©
Ġë¶Ģìĸĳ ì±ħ
ìµľìłĢ ìŀĦê¸Ī
ĠíĭĪíĭĪ ìĿ´
Ġìŀ¥ ìľ¤
Ġíķłì§Ģ ëĿ¼ëıĦ
íĺĦ íĸī
ĠìĹ¼ ìĨĮ
ë¶ģ ë©´
%) Â·
Ġíĸīìłķ ìĨĮìĨ¡
Ġ16 5
ìłģ ìłķ
Ġíķ´ ëıħ
ĠìŀĲìĹ° ìŀ¬íķ´
Ġìķ Ĺ
Ġìľł ìĹŃ
Ġê³¼ ì²ľìĭľ
Ġíļį ìĿ¼
ĠëĮĢ ìŀĳ
Ġì¤ĳ ìĦ¸
Ġëĭ¨ ë²ĪìĹĲ
ë³´íĹĺ ê¸Ī
ĠìķĦ ë¦¬ìķĦ
ĠS F
ĠìĦ± ë²½
íĭ° ì¼ĵ
Ġìĭľ ì¡°
ìĿ¸ ìłķ
Ġì°½ íĺ¸
Ġë¶Ģìłģ íķ©
Ġëĭ¨ ê±°ë¦¬
Ġëŀ¨ íĶĦ
ĠëĿ¼ìĿ´ ìĺ¨
ĠëĲĺìĤ´ ë¦¬
ĠíĮĮ íİ¸
ì¶ķ ë¬¼
ĠìĿ´ëĶ° ê¸Ī
ì¹ĺ ì¦Ī
Ġë©ľ ë¡ł
ĠíĿĳ ë°±
ì°¨ ë¥´íĬ¸
ë©´ ìĹŃ
Ġëª° ë¦´
ĠìĦ± íĮ¨
ĠëıĦ íĻĶ
ç ¿
Ġë¯¸ ìĹŃ
Ġíĺ¸ íĻĶ
ãĢı (
Ġêµ¶ ì£¼
Ġê°Ĳ ì¶°
ĠíĺĦëĮĢ ì¦Ŀê¶Į
Ġì¼Ģ ìĿ¸
ĠëĤ´ ìĤ¬
ë¦¬ ìĬ¤íģ¬
Ġì¶Ķì¶ľ ë¬¼
ìĸĳ êµŃ
ĠìĦ¤ ëł¹
Ġê¹¨ëĭ¬ ìĿĮ
ĠìĹŃ ìĻ¸
ĠìĻ¸êµĲíĨµ ìĥģë¶Ģ
25 00
Ġìłľ ìĸ¸
ãĨįì¤ĳ ãĨį
íı¬ ì²ľ
ĠëıĦ ëģ¼
ìĪĺ ìĭł
ĠëĤĺ ìĹ´
æ ¼
ĠìĹħ ìŀĲ
Ġíľ´ ë¨¼
ĠìĬ¤ì¹´ ìļ°íĬ¸
ìĹ°ë£Į ìłĦì§Ģ
íĶĮ ë¡ľ
ĠìĬ¤íĤ¤ ìŀ¥
ë§ĲëĿ¼ ìķ¼
ĠE SS
ê¸°ëħĲ íļĮ
ĠìĬ¤íĬ¸ëłĪ ì¹Ń
Ġê¹ĢëĳĲ ê´Ģ
ĠìķĦìļ¸ ëłĽ
ĠíĬ ķ
Ġìĭľê°Ħ ëĮĢ
Ġêµ´ ëļĿ
ìĻ¸ ê³½
ĠìķĪ ì¤ĳê·¼
ìĸ ¹
ì§Ħ ëĭ¤ë©´
an k
Ġê°Ģ íıīêµ°
ĠíĿĺ ë¦°
Ġëĭ¤ ìĤ°
íĥĦ íķµ
ĠëĬ¥ ê°Ģ
ìĺ Ĩ
Ġë°ľ ìķĶ
Ġìłľì£¼ ìĭľ
ì¹´ë¥´ íĥĢ
ĠìĦ£ ë¶Īë¦¬
ĠìĦľëĮĢë¬¸ êµ¬
ìķ¼ ê°Ħ
ĠìĿ´ ë¹¨
Ġì°½ ê°Ģ
ĠìĿĺ ë¦¬
ĠìĿ´ íĺķ
Ġê·¸ ëŀľìłĢ
ĠìŀĲ ì¡±
Ġìķŀìŀ¥ ìĦ°
íį¼ ìĦ¼íĬ¸
Ġê³¼ ê¸°
Ġìºĺë¦¬íı¬ëĭĪìķĦ ì£¼
Ġìĺ¬ ëłĪëĵľ
ĠëĵľëŁ¬ ëĤ¸ëĭ¤
Ġë¯¹ ìĬ¤
ìĦľ ëĭĪ
ĠíĿł ë»ĳ
ë°© ì¹¨
Ġë²ł ëŀĢëĭ¤
Ġ197 6
Ġë¬¸ ìĭł
ìłľ ê±°
ĠìĬ¹ íĻĶ
Ġê·¼ ëł¥
Ġìĸ» ìĸ´
Ġê²½ìĥģ ëıĦ
ĠìĿĳìĭľ ìŀĲ
Ġ22 00
ìĭ¤ ê³¼
íĿ¬ ê²½
Ġê¸°ëĮĢ ì¹ĺ
åı ²
ĠíĶĦë¡ľ ê·¸ëŀĺ
Ġê¸ ĭ
ĠíĿĶ ì¾Į
ìĹ° ëıĻ
ĠìłĢ ëŁ¬
ëıĻ ê³Ħ
Ġíķ´ìļ´ ëĮĢêµ¬
ĠëĤ¨ìķĦ íĶĦë¦¬ì¹´
S UV
Ġìĺ¬ ë¦¼
Ġìļ© ìłĳ
ê·¸ ë¦¬ìĬ¤
Ġíĵ¨ ìłĦ
íĥĢ ê¸°
Ġì£¼ìĨĮ ì§Ģ
çĶ °
Ġë°ľ ì½ĶëĭĪ
Ġê¸°ìĸµ ëĤĺ
Ġì£Ħ ìĿ¸
Ġì§Ģ ìĸĳ
Ġê¸° ìķ½
ë²ķ ê´Ģ
ë°Ģ ëıĦ
ĠëĨĵ ì¹ł
ĠìĿĮìķħ ê°Ģ
ĠìĹŃ íĸī
Ġê·¹ ëªħ
Ġê°ľ ëıĦêµŃ
Ġìĸ´ë£¨ ë§Į
íĨł ëĭĪ
æ ¥
ìĪĺ ëł´
ĠìŀĦ ìĦ±
Ġì½ °
ì¶ľ íĺĪ
Ġëĭ¨ ê²°
ê±´ìĦ¤ ìĤ¬
ĠìĻķ ì¡°
ĠìľłíĨµ ë§Ŀ
Ġë¬´ íĮ¨
ĠìĹŃ íĴį
Ġíľ´ ì§Ģ
Ġëį° ìĬ¤íģ¬
Ġê°ĩ íŀĮ
ìĦł ë¯¸
Ġê°Ħ ìĹ¼
ĠíĹĪ ëįķ
ê³¼ ìĪĺ
ĠìŀĩëĶ° ëŀĲ
Ġìĺģ ì§Ħ
Ġìĭ¬ë¶Ģ ë¦Ħ
ĠëłĪ ë°Ķëħ¼
ìļ° ëĶĶ
Ġê²Ģ ì²´
ĠëıĻ íķĻ
Ġëªħ ìĿ¸
ĠìĬ¤ ë¯¸ìĬ¤
ë©Ķ ìĬ¤
ë§ĪìĿĦ ê¸Īê³ł
ï¤ Ĭ
ìĪĺ ìłĦ
ĠíĻĶ ìĨĮ
ĠíĻĶ ìŀĲ
íĪ¬ìŀĲ ê°Ģ
Ġì¶ľìŀħ êµŃ
Ġëħ¹ ì¡°
Ġê°Ģë¦¬ ì¼°
Ġë°ķ ì²ł
ĠíĤ ´
200 2
Ġì´Ī ìłĢ
Ġíĺĳ ìĹ°
Ġìķ¼ ìĪĺ
ìłĢ ê°Ĳ
íķľ ì§Ħ
Ġë³ĳ ìĽĲìŀ¥
Ġë¦¬ìĸ¼ ë¯¸íĦ°
Ġë§Ŀ íķĺ
ê²° ìĭĿ
Ġê³łêµ° ë¶ĦíĪ¬
íķ¸ ëĵľ
Ġìłķ ìķ¡
ìĭł ìŀ¥
ë¶Ģ íĦ´
Ġê°Ĳ ëĤ´
ëĭ¤ ëĭĮ
Ġìı ´
Ġìŀħ íŀĮ
ëª» íķ´
ĠìķĦ ê¼Ī
ĠìĽĲ ìĭľ
íıŃ ë°ľ
Ġíľ´ ìĬ¤íĦ´
e g
ĠìĪľ ì°½
Ġê²° ìŀ¬
ĠíĿ¥êµŃ ìĥĿëªħ
ĠêµĲëĳĲ ë³´
ê¸Ģ ìĬ¤
Ġíģ¬ ë¦¬ìĹĲìĿ´íĦ°
ìĬĪ íĥĢìĿ¸
Ġì§Ģ ìłĢ
Ġìľł ë¦°
ĠìĿ´ìļ© ìĦŃ
ëŀ¨ íĶĦ
íħĮ ëĿ¼
ë´ī ì£¼
Ġê´Ģìķħ êµ¬
ì¶© ìłľ
ìĹ´ ë¦°
Ġë¹Ħ íĻĶ
ĠìĤ° ëĭ¤ëĬĶ
êµŃìłľ ê°ķ
Ġê³łë§Ī ìĽĮ
Ġë¯¸ìļ© ìĭ¤
ëª¨ ëĭĪíĦ°
Ġíķĺ íļĮ
ĠìĦł ìŀħ
Ġê°Ħ ê²°
ĠìĪľ ì§Ħ
ĠC om
ëĮĢ ìĹŃ
ì§Ħ ëĭ¤ê³ł
ìķħ íĻĶ
ĠìĬ¤ë¦´ ëŁ¬
ĠìĿ´ ì±Ħ
ĠìĤ° ê¸¸
ëķ ¡
ĠW HO
ìĿ´ ìĪĺ
ĠíĪ¬íĳľ ìĨĮ
ëª¨ ìķĦ
íĶ¼ ìŀĲ
ìĤ¬ ëıĦ
ĠìĪĺ íĺĦ
ĠíĴį ìĨį
ë¦¬ ì¹ĺ
ĠìĿĺë£Į ê´Ģê´ĳ
ì§Ģ ì§Ī
ĠìĿµ ìĬ¤
ĠëĤĻ íıŃ
ĠëģĬ ê²¼
E N
ìĻĶ ìľ¼ë©°
ĠìŀĲ íĥľ
íĨµ ì¦Ŀ
Ġì§Ģ íĤ´
Ġìķł ìĻĦ
E P
ëĤ Ħ
ìĸ´ ë²ķ
Ġê³ł ìĦ±êµ°
ë§Ī ëķħ
Ġë§Īë¦¬ ëĤĺ
Ġìĭ¤íĹĺ ìĭ¤
Ġëĵ± ëĭ¨
Ġìļ ±
ĠìĹĩê°Ī ë¦°
íķľ ë°©
Ġë¹Ħ ìķĦ
íķ´ìķ¼ ì§Ģ
Ġëģ¼ ìĸ¹
ĠíĻľ ë¡ľ
ìĮį ìļ©
ë¬¸ ëªħ
íĻĶ ìĿ´íĬ¸
Ġì²Ń íķĺ
ĠíĶĦë¡ľ íķĦ
ìĻ¸ ë²ĦìĬ¤
Ġë¹Ļ ê·¸ëłĪ
18 0
ĠìĹİ ëĵľëł¤
Ġëĭ¨ ìĪĺ
ìĭł ìĿ¸
ë²ł ëĵľ
Ġë¬´ íĺĲ
ë¶Ģë¬¸ ìŀ¥
ĠíĿ¥ë¯¸ ì§Ħì§Ħ
ë²Ī ë°©
Ġì£¼ ìķĪ
ê±° íĭ°ë¸Į
ë²Ħ ìłĦ
Ġê²ĮìĿ´ ì¸ł
Ġìĭľëĵľ ëĭĪ
ĠìĽĲ ëįĶ
ĠìĿ´ìľł ë¡ľ
ul t
ĠN LL
ë°ĺ ìĤ¬
Ġë¶ģ íķŃ
ìĹ¼ ë³ĳ
Ġë¬´ ê¸ī
Ġì¹´ ëłĪ
ĠëĴ¤ íĨµìĪĺ
Ġì¹ĺ ìĤ¬
Ġíĸīìłķ ìŀĲì¹ĺë¶Ģ
Ġê» Ħ
ì²´ ëĬ¥
ĠìĹĲ ëĵĢ
ĠíĬ¸ ìľĹ
ìĤ´ ë¦¼
ì±ĶíĶ¼ìĸ¸ ìĭŃ
e p
ĠìĹ°ì¶ľ ê°Ģ
Ġíĥľê¶Į ëıĦ
Ġêµ° ë³µ
íĮĮ ì£¼
Ġ13 3
íĿ¬ ë£¡
ĠìĽĢì¼ľ ì¥Ĳ
Ġìĸĳ íıīêµ°
ĠíĻĶ ê¸°
Ġì¹ľ íķĺ
ĠìķĮëł¤ ì¤Ģëĭ¤
ê°ľ ìŀ¥
ĠìķĦ ëłĪëĤĺ
Ġìĸ´ ìĪĺìĦł
ĠìĺĪ ìĤ¬
Ġíķľê²° ê°ĻìĿ´
B B
íķ´ íķĺ
ë© §
ĠêµŃëĤ´ ìĦł
Ġìĭľ ëģĦëŁ½
Ġì¼ľ ì¡Į
Ġë¨¸ ì§Ģ
íĮ¨ íĦ´
Ġê²½ìłľ ëł¥
Ġë¡ ¬
ĠìĭĿ ë£ĮíĴĪ
Ġë¹¼ìķĹ ê¸°
ĠS h
âĺ ħ
Ġë§Ŀ ìĭł
ìĦľ ëªħ
ĠìĿ¸ ìłģ
Ġì¦ĿìĹ¬ ìĦ¸
ĠìłĢ ìļ¸
ĠìĬ¬ ê¸°
ĠíĥĪ ì·¨
Ġìĺ¥ ìĻ¸
ìķ¡ ìħĺ
ê¸°ë¡Ŀ ë¶Ģ
æ º
ĠìķĦìĿ´ ëŁ¬ëĭĪ
íĮ¨ íĤ¤ì§Ģ
ĠêµŃë¬´ì´Ŀë¦¬ ìĭ¤
Ġëĭ´ ìĸĳ
Ġìķł ìį¼
ëĿ½ íķł
íı¬ ëıĦ
ĠìĪĺ ìĦľ
ĠìĦł ì£¼
ĠìĦ¸ ìĦ¸
ĠíĻĶ íĽ¼
ê°Ĳ ëıĦ
ĠìĤ¬ìĹħ ëĭ¨
ĠìĬĪ íĭ¸ë¦¬ì¼Ģ
ic k
íķ´ ë°©
ĠìĤ¬ ëĤĺ
Ġíķ© ëĭĪê¹Į
ìĬ¤ ìĻĢ
ìĬ¹ ë¦¬
Ġì»¬ ë§ģ
ĠíĶĮëŀĺ ìĭľ
ìŀĦ ê¸°
ĠìĬ¤ì½Ķ íĭĢëŀľëĵľ
Ġë²Ħê¸Ī ê°Ģ
Ġìŀ¬ íļĮ
ĠâĶ Ĥ
Ġê³ł êµŃ
ë¶Ħ ë°°
Ġëħ¸ìĪĻ ìĿ¸
ĠíĪ¬ ìĪĻ
Ġì§Ħ ì¤ĳ
Ġê¸°ì¡° ìĹ°ìĦ¤
Ġëĭ¤ ì§Ħ
Ġëħ¸ ëŀ«
ìĦ± íıŃëł¥
Ġë»Ķ íķĺ
ĠìĽ¬ ìĿ¼
ĠìĿ´ë£¨ ìĸ´ìł¸
ê³ł ë§Ļ
Ġìļ°ëĿ¼ ëĬĦ
ìĤ¬ë¬´ ìĭ¤
ë°ľ ê´ĳ
ê°ķ êµŃ
íĭĢ ëŁ¬
ë°ľ ìĿĺ
ĠíķĦ ìĬ¹
íĻĶ ë²ķ
Ġê°ķ ìķķ
Ġë§ŀ ë¨¹
é¦ ¬
ìĦ¸ ë¬´
Ġë°© ë¶Ī
ìĿ¸ ì¢ħ
ĠëĶľ ëłĪë§Ī
Ġëħ¸ ëł¨
Ġë°± ë§Į
ìĪĺëª© ìĽĲ
Ġëª¨ ìĿĦ
Ġì±Ħ ì°į
Ġê¹Ģíķľ ê¸¸
Ġë¶Ī ìĿĺ
Ġë´ī íķĺ
ë¶ĢìĤ° ìĭľ
Ġë³µ ìĭ±
ëłĮ ëĵľ
Ġê°ľíĹĮ ìķĪ
ĠìĪĺíĺľ ìŀĲ
ëł¤ ëĭ¤ê°Ģ
ĠìĦł ìĥģ
Ġì¶ľë²Ķ ìĭĿ
êµ¬ ë¯¼
Ġìĺ¤ ë¡¯
ë°Ķ ìĬ¤
ĠìľĦìķ½ ê¸Ī
è ¥
ĠëĬĲ ê¸ĭ
Ġëľ» ëĮĢë¡ľ
Ġâĳ £
Ġì½Ķì¹Ń ìĬ¤íĥľíĶĦ
Ġë» ¥
ëĨ¨ ëĭ¤
Ġæ ķ
ìłĦ ë°ĺ
ëĤĺ ì£¼
Ġë¸Į ìĿ´
ëĮĢ ë¥Ļ
Ġì»¨ ìĦ¤íĦ´íĬ¸
ĠìŀĦ ìĭ¤
ĠìķĻìĥģ ë¸Ķ
ì²´ ìŀ¥
êµĲë¶Ģ ìĦ¸
íĮĮíĬ¸ ëĦĪ
Ġìĭ¹ ìĵ¸ìĿ´
Ġìĥ Ľ
ëŁ´ ë¦¼íĶ½
ì§Ħ ìļ°
ĠìĪĺ ì¡°
ĠìĤ¬ ìĭł
ìĬ¹ ë¥ł
Ġê³ł ê°Ī
ĠíĻ© íĨł
Ġê²½ë³µ ê¶ģ
ëªħ ë¶Ģ
ĠìĹ°ê¸° ê¸Ī
ë¦¿ ì§Ģ
íĭ¸ ëłĮ
íĺľ ìĦł
Ġë§¨ ëĤł
ĠìĻ¸ ìķķ
ëĿ¼ìĿ¸ ëĵľ
ìłľ ìĭľ
ĠìĬ¤íħĮìĿ¸ ë¦¬ìĬ¤
ĠìŀĲìķĦ ëĤ¸ëĭ¤
ĠìĽ¨ìĿ´ ë¸Į
ĠíĶ¼ ì¼ĵ
Ġì§Ħ íķĺ
Ġë¶Ģì§ĢëŁ° íŀĪ
ë§¤ ê¸°
Ġë¶ĢìĤ° ìĿĢíĸī
ìłĦ êµĲ
Ġìļ° ìĥģ
íĬ¹ ê²Ģ
ĠJ P
ë³¶ ìĿĮ
3 50
Ġì²Ń ìĸĳ
Ġì°¨ ìĥģ
Ġëĭ¬ êµ¬
ìĹ¬ ëıĦ
ĠìłĪ ê°ľ
Ġíĥľ ìļ´
ĠìłĦë¬¸ ì§ģ
Ġë»Ķ ë»Ķ
ĠëĤľ ìłľ
Ġë°ĶëĿ¼ ë³¸
Ġê°Ĳ ëıĮ
íĽ Į
ìĹ° ì°¨
Ġê¸° ì§Ī
Ġìĭ± ìĸ´
i k
ì¢ħ ìĤ¬ìŀĲ
êµŃ ë©´
ĠêµĲ íĨł
Ġë¦¬ë²ł ìĿ´íĬ¸
ê³µ ë²ķ
ê¸° ìĦ±
ë¶Ģ ìŀĳ
íķ´ìł¸ ìĦľ
Ġëª¨ ëĭĿ
ĠëĦ¤ ìĺ¤
Ġëģ¼ ì³¤
ìĦ±ëª¨ ë³ĳìĽĲ
ìĬ¤ íĤ¨
ê³Ħ ëıĻ
ĠìºĲ ë¦¬
Ġë©¸ ë§Ŀ
ì§Ħ íĻĶ
Ġ197 2
ìĪĺ ë©´
Ġì¤Ģê³µ ìĭĿ
Ġë´ī ì§Ģ
ĠìĥĿë¬¼ íķĻ
ë¶Ħ ìľĦê¸°
ĠíļĮê³ł ë¡Ŀ
ĠëĲĺëıĮìķĦ ë³´
ĠìķĦíĶĦ ê°ĢëĭĪìĬ¤íĥĦ
ĠíķĺëĤ¨ ìĭľ
ëıĻ íĺ¸
ëª© ìĤ¬
Ġíľ´ ë¬´
ĠëłĮ íĥĪ
ĠìĦ¸ê³Ħ ìľłìĤ°
ĠëĦĺì³Ĳ ëĤĺ
ĠíĺĦ ë¹Ī
ĠëĤł ë¦°
íģ´ë¦¬ ëĭī
ĠíĶ¼ íķ´ìķ¼
Ġì¤Ģ ëĭ¤ê³ł
ê¸°ê´Ģ ë¦¬
or y
ìĭľ ìļ¸
ĠìĽĶ ê°Ģ
ìĺ Į
íķĦ íĦ°
ĠìķĦìĿ´ìĬ¤ íķĺíĤ¤
ë°ķ ìĽĲ
ä» £
ĠS H
Ġì´Ŀ ìķĮ
Ġê³° íĮ¡ìĿ´
Ġìłķëª½ êµ¬
ĠìĿ¼ ìĤ¬
Ġë§¤ ë£Į
ĠíĨ Ī
ëıĻ ìĿ¼
ì¡° ìĭ¬
ĠìŀĦëĮĢ ìĿ¸
Ġê¹Ķ ë¦°
ë¶Ħ ê²½
ìĦ± ë¹Ħ
Ġëħ¸ë²¨ ìĥģ
Ġì¶ľíķĺ ëŁī
ê¶ Ĥ
ĠìĪľ íĥĦ
C P
ĠìķĦìĬ¤ ëĦĲ
ĠìĦłíĴį ê¸°
ë³Ģ êµŃ
Ġê¸°ìĦ± ìļ©
_ _
ìĭľ ìŀĳ
ĠìĿ¼ ë³ĳ
ë¸Į ëłĪìĿ¸
ĠíĨł ìĤ¬
ìĤ¼ ì´Į
ìĤ¬ ì±Ħ
ìĥĿ ê¸´
ìĿ¼ ìļĶìĿ¼
ìĺģ íĿ¬
Ġì§Ħ ê³µ
ĠìĬ¤ íħĿ
Ġìª½ ì§Ģ
ë´Ĳ ëĿ¼
ĠìĹ° ìĦ¸
Ġê±°ëŀĺ ì²ĺ
Ġìĸ´ì©Į ëĭ¤
Ġëĭ¤ ëĭ¤
ìłĦ ëĭ¬
ìĥĪ ë²½
200 3
Ġì½ľ ë¡ľ
ĠìķĪ ìŀ¥
íķĺ ëĵľ
ĠìĹ° ì²ľ
Ġëħ¸ ëħĦ
ĠíĿ¬ ìĨĮ
ĠëĴ¤íĿĶ ëĵ¤
ëľ ¯
Ġëĵ¤ëł¤ ì¤Ģëĭ¤
ĠëıĮìĿ´ ì¼ľ
ĠíĿ¬ ë¹Ħ
ĠìĨĮë¹Ħ ìŀ¬
ë§Ī ë¥¸
ë£¨ íĶĦ
Ġë³ĳ ìŀ¥
ĠìĿĺê²¬ ìĦľ
íķĺ ìĿ¸
ë°© ë§ĿìĿ´
Ġìĭ¤ ì§ģ
ê·¸ ëĿ¼ìļ´ëĵľ
ê¹ģ ëĭĪëĭ¤
Ġí į½
íĮĢ ëª©
ç ģ
ì¢Į íĮĮ
Ġë°°ìĽĮ ìķ¼
ëıĻ ë§¥
Ġë§Ī ë¥´íģ¬
ê²½ ìĪĺ
ĠíĪ¬ ëįľ
Ġê²Ģ ëĭ¨
ìĭ¤ ìļ©
Ġì¶Ķì§Ħ ëł¥
Ġë°±ì§Ģ íĻĶ
ĠíĻį ëĤ¨ê¸°
Ġêº¼ ëĤ¸
ëĳ¥ ìłĪ
ì¹ĺ ê³¼
ìĺĪ íĶĦ
Ġíİ¸ ì°¨
Ġíķ¸ëĵľ ë°±
ä¸ »
ãİį/ ãİ¥
ë¶Ħ ëĭ¹
Ġë§Ī ì·¨
ĠíĶ¼ ëĵľë°±
ĠíķŃê³µ ìĹħ
Ġëªħë°± íŀĪ
Ġë§Ī ì¹´ìĺ¤
ìĿ¸ ìłľ
ĠíĻĶ ì²ľ
ìł ĸ
ĠìĦ± ëıĻêµ¬
ĠìĬ¹ ëł¤
ĠíķĻìĪł ì§Ģ
ĠíĬ¹ ìķ½
íĮ¨ ë°Ģë¦¬
Ġë¶Ģ ìĦ¤
Ġì¶ľ íĨł
ëĭ¬ ëĿ¼
ĠìĬ¬ ê·¸ë¨¸ëĭĪ
ĠìķĦ ëĤłë¡ľê·¸
Ġ12 9
ìłķ ë¥ĺìŀ¥
Ġêº¼ ìł¸
ëĭĲ ëĿ¼
ìłĦ ëıĦ
ìĿĳ ê¸ī
Ġì¦Ŀ ë¹Ļ
Â· Â·
Ġìķ½ íĴĪ
W SJ
Ġìľł ì°½
ë¥´ ëĭ¨
ĠìĬµ ê¸°
ëĭ¤ ìĿ´ìĬ¤
Ġë¹Ĺ ë°ľ
Ġìĭ¤ë§Ŀ ê°Ĳ
ëĿ¼ ëĭĪê¹Į
ëĭ¤ íģĲ
ĠëįĶ ëŁ½
Ġê¸°ì§Ģ êµŃ
Ġê°ľ íķŃ
ĠìĺģìĤ° ê°ķ
Ġìľł ìĭ¬íŀĪ
Ġëº Ĳ
Ġìµľ ìĽĲ
ĠëĤł ë¡ľ
ĠíĮĮ ëĤĺ
êµĲìľ¡ ë¶Ģ
ì¦Ī ìĿĮ
ìĸ¼ ìĿĮ
ìĦ¸ ìķ¡
íĥľ ê·¸
Ġë½ĳ ìķĦ
Ġê´Ģ ë§Ŀ
ë¶Ħ ìĹ´
ĠëĪĪ ìĭľìļ¸
ë» ĺ
ëıĦ ëįķ
íĻľ ëł¥
Ġìĸ´ë¦¬ ëĳ¥ìłĪ
ĠíĴĢ ëł¸
Ġê¶ģ ìłĦ
ìķĦ íĶĦ
Ġëµ Ī
ĠìķĦìĿ´ ìĺ¤
ìłĪ ë²½
Ġê°Ģê¹Į ìĽł
Ġê·¸ ë¥´
Ġ13 6
Ġìĸ´ëł¤ìĽĮ ì¡Į
ï¥ §
ìĺĪ ìĥģ
ĠêµĲíĨµ ëŁī
ĠìķĪìĦ± ë§ŀì¶¤
Ġíı¬ ê·¼
ìĦ± ìĭ¤
Ġìļ´ìłĦ ìĤ¬
Ġëĸ¨ ì¹ĺ
R PG
Ġë£¨ íĬ¸
Ġë ¤¼
ë§Ī ìĤ¬íļĮ
ë§Ī ëĵľ
ìĭľ ê³µìĤ¬
Ġë§ī ìķĦëĤ´
ì£Ħ ìĨ¡
S BS
Ġíķĺ ë¥ĺ
ĠìĨĲìĪĺ ê±´
Ġë¹ ½
ĠíĨł ë§ĪìĬ¤
ê¸Ģ ëĿ¼
ĠìĦľìĭĿ ì§Ģ
ìĭłì²Ń ìĦľ
åı ¤
Ġë°Ķê¹¥ ìª½
ĠìĤ¼ ìĸĳ
ì¹ł ìĦ±
Ġë¡ľ ìĬ¤ì¿¨
æĺ İ
Ġ13 4
Ġíİĺ ë¯¸ëĭĪ
æĶ ¿
ĠëĤľ ê°Ħ
ĠìĪŁ ê°ĢëĿ½
ĠìĭĿ ìļķ
Ġìķķ ìĬ¹
ĠíıĲ êµĲ
ĠëĮĢ ì²Ń
ìłľ ì¶ľ
ĠìłĦê¸° ë£Į
ê°ģ ì¸µ
Ġì½Ķ ì¹´
Ġì²Ńê³Ħ ì²ľ
Ġë§ŀ íŀĪ
íĶĦëĿ¼ ëħ¸
ê°Ĳ ë©´
ĠìłĢ ëªħ
ëĭ¨ ìłĪ
ì¢ħ ë¥ĺ
ê³ł ìľĦ
ë¶Ģ ì§ĸ
ë©Ģ íĭ°
ëĮ ĵ
ĠíĹĺ ëĤľ
ĠëĤ´ ëĶĶ
Ġë¬¸ ìłķ
Ġê³µê¸ī ëŁī
ë¦¬ ìĤ¬
ĠìĪĺ ê¸į
Ġì´Ŀ ëŁī
ì¹ĺ ìĨĮ
Ġëħ¸ ìĬ¤
ĠìķĮ ëłīìĬ¤
ëĭ¤ êµ¬ìļĶ
íķĺ ëıĦ
a v
ĠìĦ¤ ìłĦ
ë¹Ħ ìĬ·
Ġê°ľ ê°ķ
L F
ìŀ¥ íĮĲ
ĠìĨį íķľëĭ¤
Ġì£¼ìĭĿ íļĮìĤ¬
Ġêµ¬ë¡ľ êµ¬
ĠíĮĮëŀĢ ìĥī
ĠìĽĶëĵ± íŀĪ
ĠìĦł ë¶Ī
ìĸĳ ìĭľ
ê²½ ìĿ¸
Ġê³¼ ê²©
Ġì¹¼ ë¡ľë¦¬
êµ¬ ëıĻ
Ġíĩ´ ì¹ĺ
ë©ĺ íĨł
ìĪĺ ëł¨
ìĭł ë³´
Ġìķ¼ ëĭ¨
Ġëª¨ ë¡ľ
Ġíķľ ìĥĺ
Ġë°Ķ ë¹´
ìĥģ ê¶Į
íľ´ìĸĳ ë¦¼
ì§Ģ ìĺģ
íĬ¹ë³Ħ ìŀĲì¹ĺ
Ġìłľ ë¬¼
ĠC S
Ġíĸ¥ ìĹ°
ĠëģĮìĸ´ ëĭ¹
ëĴ ·
Ġêµ° ë¦¼
ĠìĹ¬ ê³łìĥĿ
Ġì±ħ ìŀ¥
ë§¤ë¦½ ì§Ģ
ìĤ¬ ëĭ¹
ĠìĻ¸ ìķ¼ìĪĺ
ê³¼ ìĹ´
ĠëĮĢìŀ¥ ìłķ
ĠëıĮìķĦ ìĦł
E TF
ìŀĲ ë¹Ħ
Ġìłģ ê²©
Ġìķł êµĲ
ìŀ¬ ê°ľ
ĠìĬ¤ íĨ¤
ĠìŀĲ ìĦľìłĦ
Ġíį¼ ë¶ĵ
Ġë¦¬ ëĶ©
Ġìĺ¤ ìĤ°ìĭľ
Ġê°ľ íļĮìĭĿ
ĠìłĦìŁģ íĦ°
Ġë³´ ëĵ¬
Ġë°ĺ ì£½
ĠIB M
ĠìŀĬìĸ´ ë²Ħë¦¬
Ġê³µ ìĭ¤
Ġì¡° íĿ¬
Ġê¸°ë¡Ŀ ë¬¼
Ġìŀ¥ ìłķ
ĠìĹĲ ëĶĶ
Ġê°Ģ ì§Ħëĭ¤
Ġíķł ìķł
ê°Ħ ëĮĢ
Ġìŀħ íĺĢ
ëĤ© ë¶Ģ
Ġê³µíĻĶ êµŃ
ĠìĦ¬ ì§Ħê°ķ
é ¢¨
Ġë¹Ħ ì²ł
Ġìĵ¸ ëį°ìĹĨ
Ġ13 7
Ġíģ´ë¦¬ ë¸Ķëŀľëĵľ
ĠíĿĶì¾Į íŀĪ
Ġë¶Ħ íĻĶ
ìī ¼íĦ°
Ġê²½ë¶Ģ ê³łìĨįëıĦë¡ľ
ìĭł êµĲ
Ġë©´ ëıĦ
Ġì¿ł ìħĺ
Ġêµ¬ìŀĲ ì²ł
un g
ĠìĦ±íĺķ ìĻ¸ê³¼
æ ¨
Ġê±°ì¹¨ ìĹĨ
ĠíĥĢìĿ´ê±° ì¦Ī
íħĮ ëĦ¤
ĠíĮ¨ íķľ
ĠìĤ¬ë¦½ ëĮĢ
ĠëĥĦ ë¹Ħ
íĤ¨ ìĬ¤
Ġì£¼ ê³µ
Ġìļ¸ ë¶Ģì§ĸ
ëĮĢ íĺ¸
Ġë¹Ħ ì¹ľ
ìļ´ ìłĦìŀĲ
ëı¼ ìĻĶ
ĠíĸĪ ìľ¼ëĭĪ
ë¨¼ ìłĢ
ĠìĪĺìĭł ë£Į
ĠëĨĢ ë¦¬
ĠìĽĮ ëĦĪ
Ġê°ķ ì²ł
ĠëĿ¼ íĭ´
Ġì¡° ìĪĺ
éĩ ĳ
Ġê³Ħìķ½ ìŀĲ
ĠãĦ ·
íĺĦ ì¤Ģ
ìĹ° ìĥģ
Ġ197 7
Ġê¸°ìłķ ìĤ¬ìĭ¤
Ġì¹´ íĨ¡
Ġìłķ ëıĪ
Ġë¹Ħ ìļ´
ëĪĦ ìĬ¤
ëĭ¬ ëŀĺ
ĠìĭĿ ìŀĲìŀ¬
ĠG E
ëĲĲ ìĹĪ
ëĳ ł
Ġì¶ĺ ì¶Ķ
Ġë¨¸ì§Ģ ìķĬ
Ġì¡° ì°¨
ì²Ń ë¬¸
Ġê²½ ìĥī
Ġê³¨ ë°ĳ
ê° Ľ
Ġê°ķëĤ¨ ìĹŃ
ĠìĤ¬ ìĽĶ
ëħ¸ ëĭ¹
ì´Ŀ ìŀ¬
ĠìĹ¬ìŃ ¤
ĠìłĪ ëıĦ
ê°ģ ì¢ħ
ĠìĿ´ ì§ģ
íĴĪ ì¢ħ
ì§Ģ íĽĪ
ĠëĬ¥ ìĪĻ
Ġìķ¼ ìĤ°
Ġë¶Ī ë¦°
ĠìĬ¤íĬ¸ ë¦¬íĬ¸
íĶĦ ëĭĿ
ë¦¬ ë¸Į
êµŃ ë¹Ħ
Ġì£¼ ìłĲ
Ġë²¡ ìĬ¤ì½Ķ
ĠìĿ´ìŀ¬ ë¯¼
ëĸ ³
ĠëĮĢ ì§Ħ
Ġê´ĳ ì§Ħêµ¬
ĠíĿ¬ ë°ķ
íİľ ìĬ¤
ĠêµĲíĨµ ìĪĺëĭ¨
ĠìķĶ ìĦ¸íı¬
Ġìłģ ìŀ¬
Ġë¬´ ì£¼
ĠìŀĲ ê¸ī
ë§Ī ì¹ĺ
Ġë©Ī ì¶ľ
å¸ Ĥ
Ġê³ł ìķĪ
ì¸ Ħ
ìĭľ ì¤ĳ
Ġì£¼ ì¹ĺ
ĠìĤ´íİ´ ë³¸
Ġíķĺ ëª¨ëĭĪ
Ġì§ĳ ìłģ
ĠìĺĪ ê¸°
ê² Ł
ĠíĮĮ ë¬»
ëıĻ ìĿ´
Ġë°¸ ë¥ĺ
ëıĻ ìļ±
íĶĮ ëĿ¼ìĬ¤íĭ±
ĠíİĺëĦĲíĭ° íĤ¥
ê²½ ë§Ī
ĠìĿ´ ìķ¼
ĠìļĶ ë¯¸ìļ°ë¦¬
Ġì°¨ ëł¸
Ġì¶ľ íķŃ
è© ©
Ġíķĺ ë¶Ģ
ë©Ķ ìĿ´íģ¬
Ġë¦ Ń
ê¸° ì¡°
ĠìĿ¸íĦ° ëĤ´ìħĶëĦĲ
Ġê¸° íĺķ
ĠìĻ¸ ê³¼
ĠìĦł ëĭ¤
íķ¨ ëĮĢ
íĸ¥ ìĦľ
Ġë©´ ë©´
Ġê¸ī ìĦł
ç Ĳ
ì§Ī ê¹Į
Ġëħ¸ íıĲë¬¼
ĠëıĮìķĦ ê°Ħëĭ¤
ê¶ ľ
ĠìĿ´íļ¨ ë¦¬
ì¹´ íĬ¸
íĹĪ ë¦¬
Ġë¯¿ ê¸°
ĠìŀĲ ê°ģ
Ġë°¤ íķĺëĬĺ
Ġê¶ģ ê¶Ĳ
íķ´ ìĨĮ
ìŀ¥ ê°ĳ
Ġì¤ĳ ìĦ±
Ġëª¨ ìķĦìĦľ
ĠíĺĦëĮĢ ìĤ¬
ìľĦ íķľ
ëģĦëŁ¬ ë¯¸
ì§Ħ íĺ¸
ë¬¼ ìĤ´
ä¸ ĭ
ä¼ ģ
ìľ Į
Ġìŀ¥ ë¬¸
Ġê¸° ìļ°
íĶĮ ë¦¿
Ġìłľ ë°©
ĠìĦ¸ ì°¨
ë²ķ ë¬´ë¶Ģ
Ġë¬¸íĻĶ ë¶Ģ
Ġ3 40
ë¶Ħ ëĮĢ
æ± Ł
ĠíļĮ ê·Ģ
S E
ëł Ļ
ĠìķĦ ëĵĿ
ĠìĨĮ íļĮ
Ġê²¸ ìŀĦ
Ġ is
Ġìĸµ ë¥ĺ
Ġë¸Į ëĿ¼ìĿ´ìĸ¸
ìĥģ ì¡°
ĠìĹ´ ëł¬
Ġëĭ¬ ëł¥
æŃ »
ìĥģ íķľ
ê´Ģë¦¬ ìŀĲ
ĠëĳĲ ë¦¬
Ġì§Ī ìĨĮ
ĠìĬ¤ì¼Ģ ìĿ´íĬ¸
ë©ĶìĿ´ ì»¤
Ġì´Īê³ł ì¸µ
ê¸° ëıħêµĲ
íķĺ ìŀĦ
ìłľ ê°ķ
ĠìĦľ íĺĦ
ĠíļĮ ìŀĲ
ê³łìĨį ëıĦ
ĠìĹ° ê½ĥ
ĠëĤľ ìĥī
ĠëŃī íģ´
íĮ ¥
Ġë©Ķ íĥĪ
ĠìĭĿ ì´Ī
Ġë³´ ëĶĶ
Ġê¸°ìŀĲ ëĭ¨
Ġëĥī ë©´
Ġìŀ ¿
ìŀ¡ ì§Ģ
Ġìłķ íĿ¬
íķĻê¸° ìłľ
ĠìĪĺ êµ°
ĠìķĦìĿ´ ê³ł
ĠìĨ¡ ì¶ľ
ìľł ê´Ģ
ĠëıĦ ë§¡
Ġì²Ńëĭ´ ëıĻ
Ġë§Ī ë¦°
ê°ľ ê·¸
ê²½ìłľ íķĻ
ĠìĦ¸ìĿ¼ ì¦Ī
Ġê³ł ë¥¼
Ġìļ° ëŁ¬
Ġìķ¡ íĻĶ
ĠíĶ¼íķ´ ìķ¡
Ġìŀħ íķŃ
íģĲ ë¸Į
Ġìĸ»ìĸ´ ë§ŀ
ìļ© ê°Ŀ
ë°° ë¶Ħ
Ġì§Ģ ìĿĢ
ê±¸ ìĬ¤
ĠìľłëĭĪ íģ¬
ì½ĶìĬ¤ íĶ¼
Ġëĸłìĺ¤ ë¥¸ëĭ¤
L NG
ëĤĺ ê°Ħëĭ¤
ê´Ģ ì°°
Ġìĩł íĩ´
Ġê°Ħ ê°Ħ
Ġ13 8
p er
ëª© íı¬
ĠìĶ ½
ëĤ¨ êµ¬
Ġìĭ¬ ê¸°
Ġë°ľ ë¦¬
Ġê³ ¶
Ġìĭľ ë¦Ħ
Ġê¶ģ ì¤ĳ
Ġì¦Ŀ íĽĦêµ°
Ġ19 20
ĠìĿĢ ìĦľ
ĠìĬ¹ ê¸°
Ġì¤ĳ ëł¥
Ġì§Ħ ëĳĲ
Ġìķ¼ ê²½
ìĭľ íĸ¥
ì¹ĺ ìĤ¬
Ġíķĺ ìĪľ
Ġíķ´êµ° ê¸°ì§Ģ
ë³¼ ëĿ¼
Ġì¹¼ ëĿ¼
Ġë°ĳ ê·¸ë¦¼
Ġë¬´ë¦ħ ìĵ°
ë²ķ ëł¹
ĠìĦĿ íķĻ
Ġê¹ĢìĦ± ê·¼
Ġê°Ģ ìĦ¤
ĠìĦł êµ¬
Ġê°Ħ ìĦł
ĠêµŃìłľ ì¶ķêµ¬ìĹ°ë§¹
ëıĦ ìļ°ë¯¸
ĠìľĮë¦¬ìĹĦ ìĬ¤
Ġíį¼ ì¦Ĳ
Ġê²½ ë¯¸
ìº £
æ ŀ
Ġë°ľ ëģĿ
Ġíİ Ń
ĠëĪĪ ë§¤
Ġíĺ¸ êµŃ
ê³µ íı¬
Ġëĺĺ ëĺĺ
m l
ĠíĨµ íĸĪ
ì§Ģ ë¨¼íĬ¸
Ġë§Ĳ ë¦°
ĠìĹ¬ë¦Ħ íľ´ê°Ģ
Ġë§¤ëĭĪ ì§Ģë¨¼íĬ¸
ìĨĲ ëĭĺ
ĠëıĻë§¹ êµŃ
ĠìłĲ ì£¼
ê±´ ëĮĢ
íĺĦ íĿ¬
ë³µ ê·Ģ
ëŀĳ ì¹´
Ġìĭľ íĻ©
ĠìĿ¼ ìļ©
ĠìĤ¬ìĥģ ìŀĲ
Ġë¬´ì§Ģ ê°ľ
Ġê·ľ ë²Ķ
ì°¨ ìĿ¸
Ġë²Ħ íĮĢëª©
ë¯¸ ìļ©
Ġê³ł ìķķ
Ġê²¸ ì§ģ
ĠìĹ¬ìĿĺ ì¹ĺ
ë³´ ë¯¸
Ġëª» íķ´ìĦľ
Ġê³µ ëĮĢ
ĠíĿĲíĬ¸ ëŁ¬
ĠìĹŃ ëĤ´
íļ¨ ìĦ±
ĠìĤ¬ ìłĢ
ĠìĹĶ ì§ĢëĭĪìĸ´ë§ģ
Ġì´Ī ìĽĲ
ê³łëĵ± íķĻìĥĿ
ìĭľ íķľ
ìļ´ íķŃ
ê³ł ê°Ģ
Ġì§Ģ ë¯¼
ĠíĶ¼ íģ¬
Ġë°± ìĹħ
âĸ ³
Ġê³ł ìĤĲ
Ġë° §
ëįĶ ëĵľ
ĠìĪĻ ì§Ģ
ì²´ ëł¥
Ġìłķìĭł ìĹĨìĿ´
Ġìĸ´ ìĦ¤
Ġëªħ ìĤ¬
Ġì§Ģ ë¢°
Ġìłķ ëªħ
ìĹħ ìĿ¸
Ġìŀ¬ ìłķë¶Ģ
ĠìĤ° ë§¥
Ġìłķ ì°¬
Ġë¶Ģ ëĵĿìĿ´
Ġíĺ¼ ìĭł
ĠíķŃ ë³Ģ
Ġì§Ģ ë§Ŀ
Ġìĭľ ìķłíĭĢ
Ġê¸°ìĸµ ëł¥
ĠìĦ¸ ì²Ļ
ĠìĤ° íĽĦ
Ġê½ĥ ìŀİ
Ġë³´ìĿ¸ ëĭ¤ëĬĶ
Ġê´´ë¡Ń íŀĺ
íħĮ ë¦¬ìķĦ
b al
Ġì¡° ë¯¸
Ġì§Ħ ìĹĲìĸ´
Ġëĵ± ëĿ½
ëªħ ìłĪ
Ġ15 5
ĠíķŃ ìĤ°
Ġê¹Ģ ê°ķ
Ġë¯¸ ëħĢ
ê²° ìĿĺ
ĠìĦł êµĲìĤ¬
ĠìĨĮ ê·¹ìŀ¥
ĠìĹ¬ ìĭ¤íŀĪ
Ġë¬µ ìĿ¸
ìļĶê¸Ī ìłľ
Ġê°ķë¦ī ìĭľ
Ġë§Ŀ ê°ģ
Ġë°ķ ê´ĳ
ë°ĺ ì§Ŀ
Ġê·¸ì§Ģ ìĹĨ
ìłĦ íķľ
Ġêµ¬ ëĤ´
ĠëłĪ ê³ł
ĠëĮ Ī
Ġë°ĳ ë°Ķëĭ¥
Ġìª¼ ê¸Ī
Ġëĭ¤ ìĬ¹
ìĭŃ ë¦¬
ë¸Ķ ë¦Ń
è Ĭ
Ġíĺĳ ì°¬
ĠìĨį ë³´
Ġì°¬ ëŀĢ
Ġê°Ķ ìĹĪ
ãİľ ,
Ġë¬´ëĦĪ ëľ¨ë¦¬
am e
ĠìłķìĪĺ ìŀ¥
ì²Ń ëł´
ë¬¸íĻĶ íļĮê´Ģ
Ġìĸ´ëĳĲ ìĽĮ
ë§Ī ëĬĺ
ì°½ìĽĲ ìĭľ
åŁ İ
S M
ĠëįĶ ëĶĶ
ĠíĶĦëŀĳ íģ¬
Ġê°ķ ìļ°
ĠìłĦ ìĸ¸
ìĹĶ ëĵľ
Ġê³ł ì¸µ
Ġë°ķìĦ± íĺĦ
ä ¾
ì¢ħ ë²Ķ
Ġë°ķ íĺķ
ëįĺ íĬ¸
Ġëħ¸ íļĮì°¬
ãĨį ìĹ¬
ĠìĽĲ ë¡ł
Ġíĺ¸ ìļ°
Ġâ Ħ
ĠìĭĿ ìĥĿíĻľ
Ġë³Ģíķ¨ ìĹĨ
ìĦ¸ ëĤľ
íħ ģ
ĠíĶ¼ì¸ł ë²Ħê·¸
ĠP l
Ġë¹ĦëĭĲ íķĺìļ°ìĬ¤
Ġê³Ħ ìĭ¤
Ġé ĩ
ë¹Ħ ìĺ¤
ĠíĦ°íĬ¸ ëł¸
ëĮĢ ê°Ħ
Ġìĭłì¡° ìĸ´
ĠìĦľ ì§Ħ
ë³ Ĳ
ĠìĿ¼ ê³¼
ĠìĺĪ ì¹ĺ
Ġëªħ ë¶Ģ
ĠìĿ¼ ìłĪ
Ġëĵ¤ ìĿ¸
Ġíĵ¨ ì²ĺ
ê°Ģ ìĻĢ
ìłľ ëıĻ
ĠíĢĦ ì»´
Ġê³Ħ ìĦ¸ìļĶ
ĠíħĮ ëĿ¼
Ġì§Ģ ê·¸
ìķĦ íĶĪ
id e
ĠìĻ¸ ê³Ħ
Ġìłľë³´ ìŀĲ
ëĿ¼ ëĿ¼
ĠëĤĺ ì¹ĺ
ĠëĴ· ë©´
Ġì§ģìĦł ìłľ
ìļ° ë¦°
Ġì½Ķ ë¦¬ìķĪ
ìłľíķľ êµ¬ìĹŃ
ĠìĤ¬ìļ° ëĤĺ
ë³ĳ ìĥģ
ĠíĥĢìŀĦ ìĬ¤
ìĦł ìĬ¤
Ġêµ´ ë³µ
Ġê³µ ìĭľì§Ģê°Ģ
ĠìĿĺ ê±°
ìĦĿ ìĿ´
Ġ23 00
ĠíĻįë³´ ë¬¼
å İ
ìł¸ ìļĶ
Ġìĺģ ìłķ
Ġëªħ ê³¡
Ġëĭ¹ ëĤĺëĿ¼
ĠìĹĺë¦¬ìŀĲ ë²łìĬ¤
Ġë©Ķ íĥĢ
Ġêµ° ì£¼
ì½Ķ ëĦĪ
íĬ¸ ìĿ¸
ĠëıĮ ì§Ħ
Ġë½ĳ íŀĮ
Ġë§ŀì¶° ìĦľ
D MZ
ëĭĪ ë°ľ
Ġêµ° ëĭ¨
if e
Ġëĭ´ìķĦ ëĤ¸
ê°ľ ë¯¸
ê´Ģ ë£Į
Ġì¡¸ ìĿĮ
ĠíĬ¹ ì¡°
ĠìĥĪ ê¸°
Ġë¶ģ ê²½
ĠìŀĶ ê¸Ī
Ġìľłë³ĳ ìĸ¸
Ġì½Ķ ì½Ķ
Ġê¸´ ë°ķ
Ġì¶Ķ ì§ķê¸Ī
Ġì¡´ ìĨį
íĻį ì¤Ģíĳľ
ëı¼ ëıĦ
Ġê³µ ìĨĲ
ĠíĺĪ ì¤ĳ
ĠêµŃ ì§Ģ
Ġê³Ħ ìĭŃëĭĪëĭ¤
Ġë¶Ģ ìĺģ
ĠìĤ¬ê³¼ ë¬¸
ìķĮ íĮĮ
ĠíıŃ ìĨĮ
Ġì½¤ ë¹Ħ
Ġë¶Ħ ì¶ľ
ìķ½ ìĨį
ìĬ¤ì½Ķ ë¦¬ìķĦ
Ġíľ©ìĭ¸ ìĿ¸
Ġâĸ ½
ĠìłĦ ëıĻì°¨
ìĨ¡ íĮĮ
ê³Ħ íĥķ
Ġìĸ´ëł¤ ìļ°
ìĬ¤íĦ´ íĬ¸
Ġì¢ĭìķĦ íĸĪ
ĠìĿ¼ êµ¬
Ġëĭ¨ ë§Ľ
ìŀ¬íĮĲ ìŀ¥
ë¯¼ ìĭ¬
Ġë¹Ħ ëĳĺê¸°
Ġ19 45
Ġíıī ì¤Ģ
ì¤ĳìķĻ ìĿĢíĸī
ĠìĿ´ìłķ íĳľ
Ġì²ĺ ì°¸
èĩ ª
ìĺĪ ì§Ħ
Ġë°± ì¢ħìĽĲ
Ġê°ĪìķĦ íĥĢ
ìķĦìļ¸ ëłĽ
ĠìļĶìĸĳ ìĽĲ
ic al
Ġé Łĵ
ab le
Ġê¸° ìĿ´
Ġ19 68
Ġê²½ìĥģ ëĤ¨ëıĦ
Ġë±ĥ ìĨį
ëįĺ ìĬ¤
Ġëĭ¤ ëıħ
ìľł íķĻ
íĺĳ ì¡°
ë°ĶìĿ´ ë²Į
Ġê·¸ ë¦°ëĭ¤
Ġê°Ī ë¦¬
ĠíĻį ìĹŃ
ĠìĿ´ìĥģ ë¯¼
Ġíĭ ¸
ë¹Ħ ìĶ¨
ĠíİĢ ëĶ©
ê±° ëł¤
Ġëĭ¬ëł¤ ìĺ¨
Ġë±ħ íģ¬
ìļ° ëł¤
ĠëıĦ ìŀĲê¸°
Ġì°¨ ìķ¡
ĠìĦ¤ ìķħìĤ°
ìĬ¤ìľĦ ìĬ¤
ĠìĥģìĨį ìĦ¸
Ġìĭł ë¯¼
ë°± ìĤ°
Ġë°ĺ ì¹Ļ
ĠìĦ¸ ìĬµ
Ġì°¬ ë°ĶëŀĮ
Ġíĳľì§Ģ íĮĲ
Ġíľ´ìĸĳ ì§Ģ
Ġë¶ģ ìĥģ
Ġíľĺëĳĺ ëłĢ
Ġìľł ê¸ī
ìĿĢ íĩ´
Ġì°½ ìĤ¬
ĠìķĦì¿ł ìķĦ
Ġê±° ìĿ¸
Ġê²° ìĨį
Ġë¬´ ëĵľ
ìĸ´ ëĤ¸
Ġë°± ë¯¸
Ġëĵ±ìŀ¥ ìĿ¸ë¬¼
ëĺĲ íķľ
è¥ ¿
ĠíĮĮíĹ¤ ì¹ĺ
C T
Ġê¸° ê³ł
ĠíĽĪëł¨ ìŀ¥
Ġë¬ĺ ìĹŃ
Ġì¼Ģ ë¯¸
Ġì¼Ģ ëĥĲ
Ġíİ´ ëĥĦ
ìĿ´ ìĬĪ
ĠìĨĮ ê²¬
ĠëĪĪ ì´Īë¦¬
ìĬ¹ ë¯¼
ìŀĲ ë¶Ħ
Ġë¶ģ ìľłëŁ½
ì¢ ģ
ë º
ê°Ĳ ìŀĲ
Ġ14 8
Ġì¹¨ êµ¬
çĻ ½
ig n
ì²ŃìĨĮ ê¸°
íķĺ íĬ¸
ĠìĿ¸ íĶ¼ëĭĪ
Ġìļ© ìĪĺ
ĠìłľìķĪ ìĦľ
ĠëĮĢ íĮĮ
on d
ĠëĮĢíĺķ ì£¼
Ġì»¨ íħĲì¸ł
ê¸°ëħĲ ìĿ¼
un d
ëª¨íĦ° ìĩ¼
ë²ķ ìĤ¬
Ġìłľ ìĬ¤
Ġê³ł ìĤ°
Ġìĺ Į
Ġë³´ ìłķ
Ġíķ© ì²ľ
ĠìĬ¬ëĿ¼ìĿ´ ëįĶ
Ġë¶Ģ ìłķë¶ĢíĮ¨
Ġìĸ´ ëĶ
çŁ ³
ë¡ľ ë¸Į
ìĸĳ ìĸĳ
Ġë¯¸ íĪ¬
Ġê¸° ìĦł
Ġê¹Ģ ë´ī
ĠìľłëŀĮ ìĦł
ĠìĪľ ê²½
ĠìĿ¸ ëĮĢ
ĠìĦ¸ ê´Ģ
ì±Ħ ìĨĮ
ì°¨ ìĿ´ëĤĺ
Ġê» Į
Ġë§Ī ê³¡
ĠëĳĲ ë¥´
Ġê¹Ģê¸° ì¶ĺ
ëİ ł
Ġì»¨íħĮìĿ´ëĦĪ ìĦł
Ġê±´ ìŀ¬
Ġì§Ģì¼ľ ë´Ĳ
ìĤ¬ ëĥ¥
ëłĪìĿ´ ìłĢ
Ġê°Ģ ëĵł
Ġìĭľ íķ©
Ġë°Ķ ëŀĦ
ĠìłĢ ê²©
Ġëıħ ìĨĮ
ìºī ìĬ¤
Ġíĺ¼ ëıĪ
ĠìłĢ ê²ĥ
ìĿ´ ì²´
êµ¬ ìŀħ
ìļ© ìĸ´
Ġ197 1
ĠìĪĺ íĺĪ
Ġë¬¸ ìłĦ
Ġì´Ī ìĭ¬
Ġì¶Ķ ì§ķ
ĠíĬ¹íĹĪ ì²Ń
ĠìĬ¤ì¼Ģ ìĿ¼
Ġë¬¼ ëģĦëŁ¬ë¯¸
íĳ ¹
Ġì½ľëĿ¼ ê²Ĳ
ĠëĳĺëłĪ ê¸¸
Ġê²½ ìłķ
ĠìĤ° ë¬¸
ĠìĬ¹ê°ķ ê¸°
íķĺ ìĸĢ
ĠìĬ¤ìľĦ íĬ¸
ì¢ħ ìĸĳ
ĠìĦľ ê²½
ĠìĿ¸ì²ľ ëĮĢ
Ġëħ¸ ìĿĦ
ĠíĬ¹ ìłĦ
ìŀ¥ìķł ìĿ¸
ìĭ¤ ìĹĲ
ĠìĪ¨ ê²°
ì¿ ¡
ĠìĦľ ìĿ¸
KB O
Ġì½Ķ ëĶ©
ĠëĭĪ ì½ľ
yst em
ĠëĤ´ëł¤ ìķ¼
ãİĿ ,
êµĲ ìĭľ
ĠâĦ ĵ
ìĤ¬ ê±°ë¦¬
ê³µ ì§ģ
ê²½ ëĮĢ
ìĺģ ì²ł
Ġë°ķ ìĻĦ
ìĦ± ìłĦ
Ġ re
Ġë§¤ ëģĪ
ĠëıĻìŀĳ êµ¬
ĠìĹ° ìłľ
ĠìĹŃ ëıĦ
ĠëĴ¤ ì«ĵ
Ġì²Ńëł´ ëıĦ
Ġ )
Ġê¸° ì¶ľ
Ġëģ¼ ëĭĪ
Ġëª© ëıĪ
Ġì¡¸ ëĿ¼
ĠëıĻ êµŃìłľê°ķ
Ġì¡°ìĦł ìĤ¬
ê¸° ìĪĺ
Ġëħ¸ íĮĮ
ìĿ´ë¯¸ ì§Ģ
íİĮ íĶĦ
Ġíķĺ ì²´
Ġê³¼ íķĺ
Ġê¹Ģ ìĪľ
ë³¸ ë³´
Ġìĺģìĥģ ë¬¼
ĠìĨĮìļ© ëıĮìĿ´
Ġê²½ ì°¨
ê·¸ë¦¬ ëĵľ
íĭ° ìĭľ
ĠëĪĦ ì§Ħ
Ġê´ĳ íķĻ
Ġíİĺ ë¦¬
ë¬´ ê´Ģ
ĠìľłëĭĪ ë²Ħ
Ġì±Ħë¬´ ìŀĲ
ë³´ ê°ķ
ìĪĺ íĺ¸
ì¶ľ ê¸Ī
Ġìī½ ìĤ¬ë¦¬
íķĦ ìĪĺ
Ġë§ŀ ìķĦ
ĠìĬ¤íĥł ëĵľ
ª ¢
ìĥģ ëĭ¹
Ġë¹Ħ ìķ½
íĬ¹ë³Ħ ìĭľ
íĥľ êµŃ
ìĬ¬ ë¡ľ
íĻľëıĻ ë¹Ħ
ĠìĪĺ ì¡±
ìĿĳ ìļ©
ĠìĹĶ ëĶ©
¼ Ľ
ĠìĹĨ ìķ¤
Ġê¶Į íĺģ
Ġê°Ģ ìľĦ
Ġê´Ģ ìĥģ
å³ ¶
ĠìŀĦ íĮ©íĬ¸
ĠìĹ°êµ¬ ë¹Ħ
ĠìĹ° ë¡Ģ
ĠëĶ°ëĿ¼ ìķ¼
Ġêµ´ ë¦¬
ìŀĲ ë¦½
Ġë¶Ħ ìŀ¥
Ġë¶ģ ëıĭ
u c
ìī °
ìĺ¤ ë¦Ħ
Ġì´Ŀ ìĺģ
ĠëĤ´ëł¤ ê°Ī
ĠíĹ¤ ìĹĦ
ĠëĴ¤ ìĿ´
Ġì¹ľ ë¬¸
Ģ ëıĦ
Ġë°° ìĦĿ
Ġê²Ģ ê²½
ëıĦ ëĳĳ
Ġë¬´ ìłľ
Ġê²½ ì¹ĺ
ìĬ¹ ìļ°
ëĶ© íģ¬
ì¶ľ ìŀ¥
Ġëĭ¤ë£¬ ëĭ¤
Ġì°¾ìķĦ ìĺ¬
Ġë´Ħ ëĤł
ĠíĨµ íĨµ
Ġìĸĳ ìĪĺ
ĠëĶĶ ëĶ¤ëıĮ
ëĤļ ìĭľ
Ġíĭ ±
ĠìĿ´ë¤Ħ ëĥĪ
ê³Ħ ìľĦ
ë§Ī ëĭĪìķĦ
Ġìļ° ë²Ħ
ç µ
ĠëĳĲëł¤ ìļ´
Ġê´Ģ ìĬµ
ë¡ľ íĺ¸
ĠìĻ¸ ë¡ľìļ´
ĠìĻĶ ìĹĪ
ĠìĬ¤ì¼Ģ ì¹ĺ
ì¡° ìļ©
ĠëĤľ ì²ĺ
Ġê¸° ìĿ¼
Ġê²Į ìĿĦ
ìĭľ ëĵľ
ĠëıĻ ì¢ħ
Ġê³µ ìĨĮìŀ¥
ìĺ¤ íŀĪëł¤
ĠìĿ´ íķĻ
ìĨĮ íĥĢ
Ġê°ķíĺ¸ ëıĻ
ìķĦ ì¹ĺ
ì½Ķ ë¹Ħì¹ĺ
Ġìĺģìľł ê¶Į
ê°ľë°ľ ìĹ°êµ¬ìĽĲ
ĠëĨįìĹħ ê¸°ìĪłìĦ¼íĦ°
ĠìĻĦ ìłľíĴĪ
Ġìĥ µ
ìĥ¤ ìĺ¤
ĠíİĮ íĶĦ
Ġê·¸ ìŀĲ
Ġì§Ģ ìļ¸
íĮ ¸
Ġê¹Ģ ëįķ
ĠëĤ´ë³´ ëĥĪ
i o
ĠíĨł íķ´
ìłĦ íĺĢ
ĠíĨµ ì§Ħ
Ġì°¬ ìĸĳ
Ġìĺģ ì§Ģ
íķĦ ë¦¬
ë©Ķ íĬ¸ë¡ľ
ĠíĿ¬ë§Ŀ íĩ´ì§ģ
ĠìĬ¤ íĮĢ
ĠíĶĦëĿ¼ ìŀĦ
ĠëĤĺìĬ¤ ëĭ¥
Ġêµ¬ ìĦ¤
ìĦľ ìª½
ĠíĬ¹ ìŀĦ
ê³¡ ë¦¬
ĠíķŃ ìķĦë¦¬
Į ìŀ¥
ìļĶ ëł¹
ĠêµĲ ìłľ
íĽĦ ë°ĺ
Ġê¸ĢìİĦ ìļĶ
ì²Ń ê¸°
ĠìķĦëĭĲ ê¹ĮìļĶ
ìłķ ê·ľ
ĠìłĦíķ´ ìł¸
Ġê°¸ ìĽĥ
ë¶ģ ëĮĢ
Ġì»¤ íĬ¸
ì¶ľ íĮĲìĤ¬
ĠìĦłê±° ìłĦ
íĨł ë§ī
Ġëĸłìĺ¬ ëĿ¼
ĠìŀĳìĹħ ìŀ¥
ìĺ¤ ë¸Į
íĹ¤ ëĵľ
ìĿ´ ë£¨
ĠëģĿ ìŀ¥
ĠíĻĶ ëĭ¨
ĠìĿĮë£Į ìĪĺ
ìĻķ ìĭľ
ĠìĿ´ìŀ¬ ìĺ¤
ê¼¼ ìĪĺ
Ġì§Ħ ìļ°
ì¤ĳ êµ¬
ëĮĢíķľ íķŃê³µ
Ġê» ĳ
ĠíĥľíĻĶ ê°ķ
Ġìµľê³ł ìłĲ
ĠíĻ© íĻĢ
ĠìĪĺ ë°°
íİĢ ëĶ©
ĠìķĪìłĦ ë§Ŀ
Ġìĺ¹ ì§Ħêµ°
êµ¬ ìĥģ
Ġë¬¼ ìŀĲ
Ġìļ° ë°ľ
ìĬ¤íĶ¼ ìĸ´
r an
ê²½ íĺ¸
ĠíķŃ ìŁģ
Ġë¸Ķë¡ľ íĤ¹
ìĸ´ ëĭ¤
Ġê¸¸ ê°Ģ
ĠìĽĲíĻľ íŀĪ
ìĸ´ëĸ» ê²Į
ìĺ¨ ëĤľ
ë¸Ķ ëŁ¬
ìĪĺ ìĨ¡
ìĦĿ ë¶Ģ
ĠëĳĲ íĨµ
ë°Ķ ìļ°
Ġíķ´ìļ´ ìĹħ
Ġë¬¼ ëĨĢ
Ġë¬¼ë¦¬ íķĻ
ê³ł ìĦł
ĠìĿ´ë¤Ħ ëĤ¸
ìĿ¼ ê°Ħ
Ġìĭľ ëĦ¤ë§Ī
ê±° ë¦´
Ġíı¬ ë¬¸
ë¡¤ ëĿ¼
Ġë¯¸ ëģ¼
ëĭ¤ íĶ¼
ĠíķĻ êµ°
ëĭ¤ ì§Ģë§Į
ĠìĤ ¿
ëĪĦ ëĤĺ
Ġë¬´ìļ© ìĪĺ
Ġê°Ģ ë¦´
Ġë¶Ī ìĥģ
Ġë¹ ¡
ĠëĦ¤ ëĨĪ
Ġì¤Ħ ê±°ë¦¬
ê°ķ ìĪĺ
ĠìĿ´ë¤Ħì§Ģ ë©´
Ġë³´ ëĶ°ë¦¬
ĠëıĮ ë´Ĳ
Ġê³łìĨį ì²ł
íĶĮëłĪìĿ´ ìĺ¤íĶĦ
âĨ ĵ
ĠëĤ´ëł¤ ê°Ħ
Ġëĭ¬ëł¤ ìĺ¤
ĠíĺĦê´Ģ ë¬¸
Ġíİ¸ ëıĦ
ìĿ´ ìłķ
ìĽĲ ê³ł
Ġì¤ĳ ëŀĳ
ë¦¬ ìĸ¸
Ġë°Ķ ëŀĢ
ĠìĦ¤ê³Ħ ìĤ¬
ĠíĤ¤ìĽĮ ìķ¼
ëĵľ ê¸°
ìĦ¸ ë¡ľ
Ġë¨¹ ìĿĦê±°ë¦¬
êµŃ êµ°
Ġíķ´ íĶĦëĭĿ
ì°¨ ìĦ¸ëĮĢ
ë°Ķ ëĿ¼ê¸°
æł ª
K TX
V D
ìĪĺ ì§ĳ
Ġêº¼ ëł¤
Ġëĳ¥ ê¸Ģ
ì²´ íı¬
ĠíĤ¤ìĽĢ ì¦Ŀê¶Į
ĠìĬ¤ ê°Ģ
ê·ľ ìĸ´
éĩ į
ĠìŀĲ ì¹´ë¥´íĥĢ
ì¡°íķ© ìĽĲ
Ġê±· ìĸ´
Ġë°ķ ìĭľ
Ġë²Ķ ìĸ´
Ġì¤ĳ ê±°ë¦¬
in d
Ġë¯¸ ìĭľ
íĸ¥ ê¸°
ĠëĤĺ ìľĦ
Ġìłľ ëĦĪ
Ġë§ŀ ëĭ¥
ìĭľ ë²Ķ
ì¡Į ìľ¼ë©°
ëįĶ ìľĦ
ĠëķĮ ë¦°
Ġíıī ìłķ
MC A
ĠìĦ¤ë¦½ ìŀĲ
ĠìłĦ íķĻ
ìŀł ê¹Ĳ
ĠìķĦ ë¯¸
Ġì´Īìĥģ íĻĶ
Ġìŀł ìĭĿ
Ġì²łê°ķ ìĹħ
è ĥ
ë¬¸ ëĮĢ
Ġë¬´ ìĸ´
Ġì§Ģë°° ëł¥
Ġì° Ĳ
ĠìĹĲ ìĦ¸ìĿ´
Ġê¶Į íķľëĭ¤
ĠìĨĮìŀ¬ ì§Ģ
ë³´ ìĻĦ
Ġìµľê³ł ê°Ģ
Ġì°¨ê´Ģ ë³´
ìĬ¹ ìĪĺ
ìľł íĭ¸ë¦¬íĭ°
ĠíĺĦ ì¡´
Ġê¹Ģ ìĹ¬ìłķ
ĠíĴĢ ë¦´
ĠìĪĺ íĬ¸
Ġì¹ Ļ
ìłģ ê·¹
Ġë¬¸ íĹĮ
ĠìĤ¬ ì¹Ń
êµĲíĸ¥ ìķħëĭ¨
ĠêµŃ ìĤ¬
ìłĦ ìłģ
ĠìĦ¬ ëľ©
ìĨĮìĪĺ ìŀĲ
Ġê³ł ì°©
ĠìĿĢ ìĪĺ
ëıĻ ëĮĢ
Ġê²° ìĤ¬
ìĹĺ ë¦¬
ì¤Ģ ëĭ¤ë©´
ë°¤ ì¤ĳ
Ġê»ĳ ì¶©
Ġë¡¤ ëŁ¬
ë¯¸ ìĨĮ
Ġê°Ģ ëĶĶìĸ¸
ìĺ¥ ìħĺ
ìĨĮìĭľ íļ¨
ĠìºĦ ìºĦ
ìĭł ìĨį
1 10
ìķĦ ì¡Į
Ġë°° ìĹŃ
ìĻĦ ì¢ħ
ĠíĮ½ ë°°
P OP
IP O
Ġì¤ĳ ê¸ĪìĨį
Ġt h
bp s
ĠìĤ¬ ì£¼
ĠC O
Ġ3 80
Ġëħ¸ ë¶Ģ
ë§¤ íĬ¸
Ġë¯¼ ë³ĳ
ĠìĿµ íŀĮ
ĠëĮĢ ëĨĵ
Ġ14 2
Ġìľł ìĽĶ
Ġë°ľìłĦ ê¸°
ìĤ¬ ìłľ
ĠìłĢ ìĬ¹
Ġìĸ´ìļ¸ ë¦´
ìĸ´ ì©Į
Ġê¹Ģêµ¬ ëĿ¼
Ġìĭ¤ ì¡´
ìŀĲê²© ì¦Ŀ
ê¸ĢëĿ¼ ëį°ìĭľ
ĠíĬ¸ëŀĺ íĶ½
ê¹ľ ì§Ŀ
Ġâĺ ŀ
Ġê¸° ë¡ľ
Ġê¸°ë³¸ ê¸ī
è ¶
Ġê±¸ ìľ¼ë©°
Ġì¢ħ ìļ©
íĪ¬ íķ©
ĠëĲĺ ì§ļ
Ġëªħ ì§Ģ
Ġíĸ¥ ë°©
Ġë¦¬ ë¹Ļ
ĠíĹ¤ ìĸ´ì§Ħ
ìĿ¸ ìĤ¼
ĠìĪĺ ìŀĦ
Ġëªħ ë¬¼
Ġëįķ ìĪĺ
ëĿ¼ ìĿ´íĦ°
ĠìĥĿëıĻ ê°Ĳ
Ġê¹ į
Ġê¸°ë³¸ ìĨĮëĵĿ
íĬ¹ ê°ķ
ï¼ İ
Ġëĭ¤ê°ģ ëıĦ
ĠìĿ¼ ê±°
ĠëĿ¼ ë¯¸
ĠìĹ°ìŀ¥ ìłĦ
ĠíĽĦ ìĺĪ
ĠíĦ° íĬ¸ë¦¬
ĠíĻįëªħ ë³´
ĠëĪĦ êµ´
ìļ© ìĦĿ
Ġê°ĳìŀĳ ìĬ¤ëŁ¬ìļ´
Ġì»´ íĵ¨íĮħ
Ġìļ°ëĮĢ ê¸Īë¦¬
ëĦ¤ ëĶĶ
Ġì§Ģ ë°ĺ
Ġì²Ļ ëıĦ
ê·¸ëŁ¬ ëĭĪê¹Į
Ġì¤Ģ ìĺģ
ìĿ¸ ë¥ĺ
ë³¼ ê¹ĮìļĶ
Ġìĸ½ ë§¤
Ġìĭł íķĻ
Ġìĺģ íĨµ
Ġíİ¸ ê³¡
ĠìĨį ë§ĪìĿĮ
ê¹Ģ íĥľ
ĠìĬ¤íĬ¸ëĿ¼ìĿ´ íģ¬
ĠíĴį íĨł
Ġì°© íķĺ
Ġì¹ µ
ê·¸ ê°Ħ
Ġë§¤ë¦½ ì§Ģ
ĠìĿ´ íĨµ
ìĤ¬ ì²´
Ġëĵ¤ ë¦´
Ġì¶ľê·¼ ê¸¸
Ġíİ¸ì§ĳ ìŀ¥
ë© Ī
ìĪĺ ì£¼
ĠìĿ´ìĸ´ íı°
ëį° ìĬ¤íģ¬
Ġë¼Ī ëĮĢ
Ġíĥľ ìĥĿ
ĠN A
ì§Ģ íĺľ
ìĸ´ ìł¸ìķ¼
Ġê°Ģìŀ¥ ìŀĲë¦¬
ĠìĪĺ ëĨĵ
Ġê³ł ìĺģ
Ġê¸° ë§Į
ìĨĮ ìŀĲ
Ġì´Ŀ íķĻìĥĿíļĮ
ĠìŀĲìĤ° ê°Ģ
Ġíģ¬ë¦¬ìĬ¤ íĭ°
ĠìĤ¬ ëĵ¤ìĹ¬
Ġë¬´ìŀĳ ìľĦ
ĠíĬ¸ ëŀ¨
ìĻ¸ ìĭĿ
ìĬ¤ ìĬ¤ë¡ľ
Ġëħ¸ íĤ¤ìķĦ
ìĺ¤ ìĤ°
ìĻ¸ ëĮĢ
ëįĶ ëĥĲ
ê°ĲìĹ¼ ë³ĳ
ĠìĪĺ ì¶ķ
ĠìĦ¸ì¢ħ ë¬¸íĻĶíļĮê´Ģ
Ġëĸ ³
Ġìķ½ ì´Ī
ĠìļĶ íķľ
Ġë°© ë²Ķ
Ġë°° íĭĢ
Ġë§ĪëĪĦ ëĿ¼
Ġëħ¸ ë¬´
ëĶĶ ìŀĲìĿ´ëĦĪ
íħĮ ëĭĪìĬ¤
ĠíĿł ì§ĳ
ìĹ° ë¹Ħ
ìĬ Ń
ìī¬ ìļ´
ĠìĨĮìļ© ìĹĨ
S O
Ġë§Ī ìłĢ
ìĹ° ìĭľ
ìĨĮ ëĭī
ì·¨ ìŀ¬
ë§Į ìĦ¸
ê±° ìĬ¨
ê¸°ìŀĲ ìŀ¬
Ġë°ķ ìľł
åħ Ī
ìĪĺ ë¬´
êµĲ ì§ģìĽĲ
ĠìķĪ ìĿ¼
ĠìłĦëħĦ ëıĦ
Ġì°° ëĤĺ
ĠíĮĲë§¤ ìłĲ
ë¶Ģ ìľĦ
Ġë°ľ ëĵ±
Ġë¶Ħ ìĭł
Ġì¡°ê³Ħ ì¢ħ
ĠìĿ¼íļĮ ìĦ±
Ġì°¸ íĺ¹
Ġì§ĳ ìĸ´
t v
ĠíĤ¬ ëŁ¬
Ġê¹ ¼
ĠìķŀìĦ¸ ìļ°
Ġì« Ļ
ĠìĪĺ ìĹ°
ĠíĮĲ ëªħ
ìĽĲ ëıĻ
ë¦¬ ê°Ģ
ìĿ¸ ë¬¸
Ġê·¸ë¦¬ìĬ¤ ëıĦ
Ġí ĵ
Ġê¸° ê³µìĭĿ
ìĭĿ ìĿ´
ë°Ģ ëŁ¬
íĶĮëłĪìĿ´ ìĸ´
Ġë°ĿíŀĮ ëĭ¤
êµ¬ì¹ĺ ìĨĮ
Ġìĭł ë¹Ļ
ĠìĦľ ëĳĲ
Ġëĵľ ë¦°
ĠìłĪ íĺ¸
ì²ľìĹ° ê°ĢìĬ¤
ìĭľ ë¹Ħ
Ġ19 69
ìķ½ ìłķ
ĠìĺĪìłķ ì§Ģ
Ġì½ ķ
ĠìĿ´ìłķ íĿ¬
ëıĦ ë°ľ
ĠìĬ¤ íĬľìĸ´
Ġëĭ¨ ì¡°
Ġè »
ĠìĺĪ ì²ľ
ĠìĪŃ ê³ł
Ġìĸµ ëĮĢ
ìĬĪíį¼ ìĬ¤íĥĢ
Ġêµ° íı¬ìĭľ
è ī
Ġë¨¸ ë¬¸
Ġì¶© ìłĦê¸°
ĠìĦł ë¡ľ
ë£© ìĬ¤
ĠìĿ´ ìĻķ
Ġê¸ī ë¬¼ìĤ´
Ġì¿ł ìĽ¨ìĿ´íĬ¸
Ġì¼Ī ë¦¬
ìĹ¬ ì£¼
íĥľ ì§Ģ
Ġë²ł íĥĢ
ìłĢ ìĪĺì§Ģ
Ġìĭ¬ ê·¼
Ġ14 3
ĠëĨįê²½ ì§Ģ
Ġê²½ìłľ íķĻìŀĲ
ĠìĹ° íķĦ
Ġê²° ìĹ¬
ë¸Įë¦¬ ì§Ģ
ĠíĪ ´
ìĸ´ ìĿĮ
ĠìĬ¤ íĤ¬
Ġíİ «
ĠSK T
ĠìĦł ë°ľìłĦ
ĠìĥĿ ê°ķ
ĠìĥĮ ëįĶìĬ¤
Ġë°ľìĤ¬ ì²´
ìĭľ ë©ĺíĬ¸
ĠíķĻ ìŀ¥
D D
Ġìłķ ìĹ°
íĮ¨ ëĦĲ
Ġì»· ìĺ¤íĶĦ
Ġëłī ìĦľìĬ¤
Ġë°± íĺĪë³ĳ
ìĭł ìķ½
Ġë¶ĢíĴĢ ëł¤
ĠKB L
ë°ľìłĦ ê¸°
ĠìĪĺ ìĿ¸
ìłľ ë³´
íĸī ìĦł
ë°ķ ì§Ī
ĠìĿ´ ì°¬
ì¹´ ëĿ¼
ĠìħĶíĭĢ ë²ĦìĬ¤
ĠìĤ¬ ìĤ´
Ġê³¼ ìĪĺ
ĠëŃ £
íı¬ ëĭĪ
ë¹Ħ êµĲ
ë¶Ģìĸĳ ì±ħ
Ġì§Ģ ìŀĲ
ìĹŃ íķĻ
ĠìĽĲ ì²Ń
ĠíĿĶëĵ¤ ë¦´
ëĭ ĻëĭĪëĭ¤
íħĮìĿ´ ë¸Ķ
ĠìĹ°íķ© íļĮ
íĥĢ ìĺ¤
Ġìķ½ íĥĪ
ëĶ° ëľ»
m an
ĠíĺĦ ìļ°
ë§Į ì¹ĺ
Ġíķ´ íĥľ
ê±° ê¸°
Ġê¸Ī ìĦ±
ê¸°ë³¸ ìĨĮëĵĿ
ìĭł ëıĻ
ĠíĹĪ ìĺģ
å §
Ġë¹¼ëıĮ ë¦°
ĠìļĶ ì§ģ
ëĬĶ ëĶĶ
Ġë°ĺ ìłķë¶Ģ
Ġì§ĦëĳĲ ì§Ģíľĺ
Ġìŀł ê²¼
ëłī íĬ¸
ĠìĿ¸ ê³¼
íĳľ ìłķ
Ġë²ķë¥ł ìķĪ
Ġëıħ ìĭĿ
ĠìĤ¬ ìłģ
íĿ¡ ìĹ°
ĠìĿĺ ì¤ĳ
Ġâ ħ
ĠìĪĺ ìĿĢ
ĠíĨµ ê´Ģ
Ġê¹Ģì§Ħ íĳľ
Ġë¸Ķë£¨ íĪ¬ìĬ¤
âĶĢ âĶĢ
ìĿ´ ëĭĪ
ĠìĿĺê¸° íĪ¬íķ©
ê°ģ ì§Ģ
ëĬ ī
ĠìĿĢíıī êµ¬
Ġì§Ģ íĮ¡ìĿ´
ëĤĺ ìĿ´íĬ¸
Ġë¶Ī ë¡ľ
Ġìŀ¬ ì¶Ķì§Ħ
íĥĪ ì¶ľ
n a
Ġêµ¬ íĨł
Ġì§Ħ ìĦ±
ĠìĪĺ ì²ľìĸµ
Ġê¸° ì²´
ê´Ģë¦¬ ìĽĲ
Ġëį°ëł¤ ìĺ¤
ĠìĿ´ìĿ¸ ìĺģ
ĠìĿĮëŀĢ ë¬¼
Ġæķ ħ
Ġíĺ¼ ìĪĺ
ĠíĴį ìĪĺ
ĠíĮĮ ì¶ľìĨĮ
ì²´ ê²°
Ġìĺ¤ ìĿ¸
ê´Ģë¦¬ ìĤ¬
ëıĻ íĥĦ
ĠëĿ¼ ë²¨
ì£¼ ë¨¸ëĭĪ
ĠìĹĲëĵľ ìĽĮëĵľ
Ġë¶ĪëŁ¬ ìĺ¬
Ġì°¨ìŀħ ê¸Ī
íķľ ìłĦ
ìłķ ìķ¡
Ġìĺ¤ ë©Ķê°Ģ
ĠëĲĲ ìĹĪ
ìĨĶì§ģ íŀĪ
ëĤĺ ìłĪ
ë¡ľ ë§¨
íķĻ ê´Ģ
Ġíĭ ´
ĠìłĦ ìĦ±
Ġê¸Ī ë¹Ľ
ëıĦ ì¿Ħ
ìĤ¬ ë¬¼
íĺĦ ìļ°
ì¹´ ì¿ł
Ġë¯¼ ê²½
ìĿĺ ë¢°
Ġê³ł ê¸Īë¦¬
âĢĻ âĢĿ
Ġë¸ĶëĿ¼ ìļ°ìĬ¤
Ġê°Ŀê´Ģ ìłģìľ¼ë¡ľ
Ġê¹Ģìĭł ìļ±
ìĿ´ ìĤ¬íļĮ
ìŀĶ ëĶĶ
ĠíĻį ìĺģ
Ġìµľê°ķ íĿ¬
ìŀ¥ ìĸ´
Ġ19 65
ìĦĿ ê¸°
Ġë¶ĪëŁ¬ìĿ¼ìľ¼ ì¼°
Ġë´ī ìĤ¬ìŀĲ
åĲ į
ĠìĿ´ëł¥ ìĦľ
ĠG PS
Ġëĭ¤ê°Ģ ê°Ī
Ġíĺķ ê´ĳ
íĻĺê²½ ì²Ń
ìĨĮ ìĥģ
íħį ìĤ¬ìĬ¤
ìŀ¥ ë¥ł
êµŃìĦ¸ ì²Ń
ìĿ¼ ìĦł
Ġë°ĺ ìª½
ĠëĴ· ì¢ĮìĦĿ
ë³ĳ íĺ¸
íĶ½ ìĬ¤
Ġì²ľ ëĳ¥
ìłķ ì°©
Ġëĭ¬ìķĦ ìĺ¤ë¥´
Ġìĭłì§Ģ ìķł
æľ ¬
0 53
ìľł ì°©
Ġê°Ħ ìķĶ
Ġë¦¬ ì¹ĺ
Ġë¯¸ ìĭĿ
ĠíħĮ ëĳĲë¦¬
Ġ14 6
Ġê³ł íĴĪê²©
ë³´ ë¦Ħ
ìŀĦ ìĥģ
Ġè Ī
ĠíĺĦëĮĢ ìĤ°ìĹħê°ľë°ľ
ĠìĿ´ëŀĺ ìĦľ
ëĨĢ ë¦¼
ì£¼ìĭĿ íļĮìĤ¬
ìĪĺ ìĹ¼
ëĵ¤ ìĺĢ
Ġë°ĶëĿ¼ ë´¤
Ġë¶ĢëĮĢ ìĭľìĦ¤
ê²ł ëĭ¤ëĬĶ
Ġì¶© ì£¼ìĭľ
Ġíķľ ìĦ±
Ġëģ¼ ì³Ĳ
Ġì ĳ
Ġê±¸ ìĦ¸
ĠíĴį ë¬¼
Ġì½© ëĤĺë¬¼
ìŀĲìľł ì£¼ìĿĺ
Ġì¡°ìĭ¬ ìĬ¤ëłĪ
ĠìĦ¹ ìħĺ
Ġêµ¬ ì¹ĺìĨĮ
Ġì¹łê³¡ êµ°
ê¸° íĺ¸
Ġë°© ê´Ģ
Ġëľ» ë°ĸìĹĲ
ĠìļĶ ë¥´ëĭ¨
F T
ĠëģĦ ì§ĳ
ìļ° íİ¸
íĥľ íĺĦ
Ġì°¨ ì£¼
êµĲ íı¬
Ġì§ģ ê°Ĳ
Ġë²Į íģ¬
ê°Ģ ìĻķ
ê·¸ ëŀľëĵľ
Ġê´ĳ ìļ°ë³ĳ
ë¬´ ê°ľ
Ġëĭ¨ ë©´
Ġì¿ł íİĺ
Ġì¦Ŀ ë°ľ
Ġë¹¼ìķĹ ê¸´
Ġìŀ¥ë§Ī ì²ł
ê°ľ ìµľ
Ġìķł íĭĢ
ĠìĿ´ëıĻ ìĭĿ
ëıĻ ë£Į
ìŀĦ ìĥĪ
ë²ł ë¥´íĬ¸
Ġëĥī ìĨĮ
Ġëª¸ ìĨĮ
Ġì²´ìľ¡ íļĮ
ìłĦ ëıĻ
ì¶ľ ë°ľ
íľ ł
ĠìĪĺ ë¹Ī
ĠìłĦë¬¸ ëĮĢ
Ġìĥģë¬´ ë¶Ģ
ë¶ģ ë¯¸
ë³¸ ìĤ¬
Ġê°Ģë¡ľ ì§Ģë¥´
Ġê·¸ê±¸ ë¡ľ
ëŃ ĺ
Ġì²Ń ìĪľ
íİ¸ìĿĺ ìłĲ
ĠìĹ° ëªħ
íķĺ ëĤ¨
ĠëĹ Ģ
ê´Ģ ìĤ¬
Ġ19 48
ìĺģ ìĽĲ
Ġìĺ¤ ëªħ
ê³µ ì¡°
ĠìĿ¸ê¸° ëª°ìĿ´
Ġëĭ¨ ìĸĳ
L CC
íķ© ê³Ħ
Ġ17 5
ë¦½ ìĭĿ
Ġìĸĳ ìķħ
ì¶Ķ ëŁ´
ĠìĦłìĪĺ ì´Į
ĠìĦ¸ë¸Ĳ ìĿ¼ëłĪë¸Ĳ
ĠíĻ©ìļ° ìĹ¬
Ġë¶Ī ê¸°ìĨĮ
n er
ĠíĮĮ ìĬ¤íĥĢ
ĠìĬ¤íĤ¨ ì¼Ģìĸ´
ĠìĺģëĤ¨ ìĿ¼ë³´
ĠìĭŃìŀĲ ê°Ģ
Ġê³Ħ íĨµ
Ġì§ķ ë²Į
ìĽĲ ê¸Ī
ĠëıĻ ìľłëŁ½
Ġë¹¨ ëł¤
i le
ìĥĪ ìļ°
ĠëĴ· ê±¸ìĿĮ
Ġì°¨ ì¶ľ
ĠíĬĢ ê¹Ģ
ĠìĬ¤íĦ° ëĶĶ
Ġë¬¶ ìĿ¸
Ġì¤ĺ ìĦľ
Ġë¯¼ ëħ¸ì´Ŀ
Ġê³¨ ë°ĺ
Ġìĸĳ ë©´
Ġë§ŀë¬¼ ë¦¬
Ġê¸ī ìĥģìĬ¹
ê²½ ê³Ħ
ĠìĦ± ê¸°
Ġê°Ģì°½ ëł¥
1 30
ê³ł ëĮĢ
Ġíķľ ìłģ
Ġë°ķ ë¹Ļ
Ġê¹ĢíĺĦ ë¯¸
ĠA FP
ĠìĦľ ëŁ¬
Ġë°ľ ëĭ¨
ĠìķĮ ì§ľ
Ġì§ĳ ìĤ¬
íĹĪ ìľĦ
ìŀ¥ êµŃ
ë³¼ ë¦¬
ëĳĲ ìĪľ
Ġëıħ ìĪĺë¦¬
Ġìĭľ ê¸Ī
Ġ20 50
ĠíĨł ìĿµ
Ġíĺ¸ íĶĦ
Ġë¬´ ìĸ¼
ê³Ħìķ½ ì§ģ
p l
Ġë¶Ģ ëł¸
ì¹ĺ ìļ°
Ġë¶Ģ ìłľ
ĠëĤłìķĦ ìĺ¤
Ġ13 1
ìĽĮ ìķ¼
Ġíĥľ ìŀĲ
ou t
Ġë°ľ ê´ĳ
íĦ° íĤ¤
ĠìĨ¡ìĺģ ê¸¸
ì¤ĳ ìĿ¼
ĠëĤľ ë¦½
ìĿ¼ ê°Ģ
Ġëĭ¤ìĿ´ ë¹Ļ
ìļ¸ ë¦¼
ĠìŀĲê°Ģ ìļ©
Ġê²° íķį
ì²´ ë¥ĺ
ì°½ ë¯¼
ĠíĶĦë¦¬ ëŀľìĦľ
Ġìĭ¤ ê±°
ì·¨ ëĵĿ
Ġë³¶ ìĿĮ
Ġìµľ ìĿ¸
ĠëĦĺ ë²Ħ
ĠëĤłìķĦ ê°Ķ
ëĭ¤ ë¹Ħ
ìĹħ ìŀ¥
Ġë¸Ķë¡Ŀ ë²ĦìĬ¤íĦ°
ê°Ħ íĮĲ
ãİı )
Ġìŀ¬ ë¬¼
ìĥģ íķĺ
ì²ľ ë©´
ĠêµŃë¯¼ ëĮĢ
ëĮĢíĳľ ìłľ
Ġë³Ģ ìĿ´
H z
ĠíĮĲ ìĭľ
ìŀĲ íĺķ
Ġë£¨ ìĬ¤
ĠìĨĮë°© ì°¨
Ġë©Ģíĭ° ë¯¸ëĶĶìĸ´
B T
I R
ĠìĦľ ì²ľ
ìĸĳ ìŀĲ
íĳ¸ ìĬ¤
ĠíĶ¼ ìĭĿ
Ġë²Į ëł¸
Ġë§Ŀ ëĿ¼
ê³ł ê³ł
Ġë¶Ī íĥľ
Ġ14 7
ĠíĤ¬ ë¡ľ
ĠëĤ¨ íķ´
ì²ł íĺ¸
ĠìĬ¤íĥł ëįĶëĵľ
ĠìķłíĭĢ ëŀľ
Ġìŀ¬íĮĲ ìŀ¥
ãİŀ /
Ġê³ł ì¶§ê°Ģë£¨
ĠìĿ´ë¤Ħì§Ģ ê¸°
ĠìĿĳ ì§ķ
Ġê¸° ì¹ĺ
Ġìĺ¤ ìłķ
ĠìķĪ ìĵ°
Ġì²ľìĹ° ê¸°ëħĲë¬¼
ìĨĮíĶĦíĬ¸ ìĽ¨ìĸ´
Ġê°Ī ë¦¼
ëĨĢìĿ´ íĦ°
Ġìµľ ìłĦë°©
ĠìĨĮ ìłķ
ĠìĦ± íĴĪ
ĠìĦ± íĥĦ
ìĿ¼ ëĮĢ
Ġê°ķ ë°ķ
ĠìľĦ ìŀĲë£Į
ĠA BC
ëļ ¤
ìĿ¼ ìĪĺ
Ġíķ´ê²° ìĤ¬
ìłĳ ëĮĢ
ìĿ´ ëĵĿ
ì§ģ êµ¬
ìĪĺ ëĿ¼
ĠìľĦ ê¸ī
Ġì¢Į ìŀ¥
ĠìłĢ ìĪĺì§Ģ
Ġì§Ģ ê¸ĭ
ìĬ¤ íİĺìħľ
Ġ14 1
ìĦ¸ íĶĦ
Ġë¯¸ ë¤ĺ
ĠìĹĲ ìĿ´ì¦Ī
Ġê³¡ ìĦ±
Ġì§Ģíķĺì²ł ìĹŃ
Ġì¹ «
Ġë³¼ ê¹Į
íĮ½ ìĿ´
ìĥģ ì£¼
Ġëª¨ ìķĦìķ¼
ĠìĿ´ ëĭĪ
Ġê¾¸ ëł¸
Ġìĭł íĺĳ
Ġê´Ģì¤ĳ ìĦĿ
Ġêµ¬ëıħ ìŀĲ
Ġë¬´ëĦĪ ì§Ī
ĠíĶĦë¡ľ ìĦ¸ìĦľ
Ġ21 00
Ġê°ģ ìĦ±
ë¬´ ë£Į
Ġë°Ķë¦¬ ìĬ¤íĥĢ
Ġíķ´ ëħĢ
ĠëıĻëĮĢë¬¸ êµ¬
ĠìĪĺ íĳľ
ìłĢ ìŀĲ
Ġìłķë¶Ģ ìķĪ
Ġë§Ī ë¸Ķ
Ġìĺ¤íĶĦ ëĭĿ
ĠìŀĲ íıī
Ġê°ķ ìĦĿ
Ġë²Ħ ëł¤ìķ¼
ìłĦ ìŀħ
ĠëıĻ ìĿ¸
ĠìłĪ ìĦ¸
G W
Ġëª¨ ê±´
Ġë§¤ ëĦĪ
å¹ ´
íıī ëıĻ
ì§Ħ ìŀħ
ĠìĹ¬ ì¤ĳ
ĠëĳĺëŁ¬ìĭ¸ ìĿ¸
Ġìĸ´ëĶ ¨
ëį° ìĹĨìĿ´
Ġìķ¼ ê·¼
ĠìĬ¹ë¶Ģ ì¡°ìŀĳ
ëĭ¹ íķ´
ĠëķĮ ë§Īì¹¨
ëıĦ ê°Ģ
ĠëĴ¤ ë°ĶëĢ
i re
ëĭĪ ì¹ĺ
Ġë°ľ íķĺ
è¨ »
Ġê¹Ģ ì¤ĳ
ì£¼ ê¶Į
Ġì¡° íıŃ
ĠëłĪ ìĬ¨
Ġê±°ìłľ ìĭľ
ìĻķ êµŃ
Ġê¸° ë¬ĺ
íļĮ íĻĶ
ìĨĮ ìĻ¸
Ġì¹¸ ë§īìĿ´
Ġì°¨ ê°Ģ
Ġê¸° ê¶Į
ĠìĦ± ë¬¸
Ġë¶Ģ ì¶ķ
Ġì¡° ë¥´
ĠìĹ° ë§¤
ĠëĤ¨ ê¸¸
ĠëĿ¼ìĿ´ ìĦłìĬ¤
ìĤ¬ ëª¨
Ġìĭľ ìķĪ
Ġëĭ¬ ëĭ¬
Ġì§Ģë¦Ħ ê¸¸
ë¬¸ ìĿĺ
Ġíķ© íķ´
ĠíĮ¨ ìłĦ
ĠìºĲ íĶ¼
ĠëŁ¬ ìĭľ
Ġë¶Ģ ìĭĿ
çĶ ·
Ġë°© ë¯¸
ĠìĹĲìĸ´ ë¶ĢìĤ°
ìĿ¸ ëĶĶ
íı¬ ì¦Ī
ĠN Y
ëłĪ ë¯¸
Ġëŀ łë¦¬
ìĤ ½
Ġíĥľ ìĤ°
ìłģìĭŃìŀĲ ìĤ¬
Ġìķł íĶĦíĦ°
åĮ ĸ
ê¹Ģ ìŀ¬
Ġê°Ģë¡ľ ì§ĪëŁ¬
ìĦĿìľł ê³µìĤ¬
Ġ x
Ġë²Ħ íķı
êº ½
íķĺ ëª¨
ìĪĺ ìĹŃ
ëį¸ íĶ¼ìķĦ
Ġìĺ¤ ë¯¸
ìĿ¼ ì²´
ìľµ ìŀĲ
20 30
ë©Ķ ìĿ¸
íķ´ ë³¸ëĭ¤
ĠíĿĺëŁ¬ ëĤ´ë¦¬
ĠíĢĦ ë¦¬íĭ°
Ġæĸ ĩ
Ġê´ĳ ìķĪ
Ġë¶ĦìĪĺ ëł¹
ë³ĳ ê¸°
ĠíĦ° ëľ¨ë¦°
ĠìĨĮ ê¸ī
ë¦¬ ìĽĲ
ĠìķĦ ìĭľ
Ġëĭ¤ ë°ľ
ìłĦ ë²ķ
ĠìĦł ì²ľ
ëħ¸ ëĿ¼
ëıħ ìŀĲ
ë°ľ ê¸ī
Ġëĸ¨ ëł¸
êµŃë°© ë¶Ģ
Ġê·¼ ìĨį
ì²ľ íķĺ
Ġì¢ħ ë§Ĳ
ĠSS M
ì¹´ ìĻĢ
ĠëĴ¤ ì¡Į
ĠíŀĪ ë§ĲëĿ¼ìķ¼
ì½Ķ ì§Ģ
ĠíıĲ íĹĪ
Ġë¦¬ìĸ¼ ë¦¬íĭ°
ìłľ ë¹Ħ
ĠK DI
Ġë³µ ë©´
ë°ķìĽĲ ìĪľ
ĠìĦ¤ ê±°ì§Ģ
ì¿ ¤
Ġê¶Įëł¥ ìŀĲ
ê½ Ŀ
ĠìķĪ ê¸°
íĺ¸ íĺ¸
Ġìŀī íģ¬
ĠíĻ© íĿ¬
Ġë¶Ģê°Ģê°Ģì¹ĺ ìĦ¸
o ol
ì¶ľ ìĽĲ
ĠêµĲíĸ¥ ê³¡
ìĤ°íĻĶ ë¬¼
ĠìĥĿê°ģ ëĤ¬
ĠëłĪ ìĿ¼
íķ´ìļ´ ëĮĢ
Ġëĭ ³
Ġì§Ģ ìĿĢìĿ´
ë¯¼ ì¤ĳ
Ġë¹Ħ íĤ¤
ĠëĲĲ ìľ¼ë©°
ìĦ¤ê³Ħ ìĤ¬
ëĤĺ ìĿ¸
Ġëĸ³ ëĸ³
[...]
